{
  "num_merges": 500,
  "end_of_word": "</w>",
  "marker_mode": "suffix",
  "strategy": "clean",
  "merges": [
    [
      "e",
      "</w>"
    ],
    [
      "t",
      "h"
    ],
    [
      ",",
      "</w>"
    ],
    [
      "t",
      "</w>"
    ],
    [
      "s",
      "</w>"
    ],
    [
      "d",
      "</w>"
    ],
    [
      "o",
      "u"
    ],
    [
      "a",
      "n"
    ],
    [
      "e",
      "r"
    ],
    [
      "i",
      "n"
    ],
    [
      "y",
      "</w>"
    ],
    [
      ":",
      "</w>"
    ],
    [
      "o",
      "r"
    ],
    [
      "e",
      "n"
    ],
    [
      "o",
      "</w>"
    ],
    [
      "a",
      "r"
    ],
    [
      ".",
      "</w>"
    ],
    [
      "o",
      "n"
    ],
    [
      "l",
      "l"
    ],
    [
      "th",
      "e</w>"
    ],
    [
      "h",
      "a"
    ],
    [
      "an",
      "d</w>"
    ],
    [
      "e",
      "s"
    ],
    [
      "i",
      "s</w>"
    ],
    [
      "y",
      "ou"
    ],
    [
      "f",
      "</w>"
    ],
    [
      "t",
      "o</w>"
    ],
    [
      "i",
      "</w>"
    ],
    [
      "in",
      "g"
    ],
    [
      "ll",
      "</w>"
    ],
    [
      "n",
      "o"
    ],
    [
      "w",
      "i"
    ],
    [
      "o",
      "m"
    ],
    [
      "e",
      "a"
    ],
    [
      "e",
      ",</w>"
    ],
    [
      "o",
      "f</w>"
    ],
    [
      "s",
      "t"
    ],
    [
      ";",
      "</w>"
    ],
    [
      "c",
      "h"
    ],
    [
      "er",
      "</w>"
    ],
    [
      "r",
      "</w>"
    ],
    [
      "f",
      "or"
    ],
    [
      "th",
      "</w>"
    ],
    [
      "m",
      "y</w>"
    ],
    [
      "a",
      "</w>"
    ],
    [
      "a",
      "t</w>"
    ],
    [
      "l",
      "i"
    ],
    [
      "in",
      "</w>"
    ],
    [
      "v",
      "e</w>"
    ],
    [
      "w",
      "h"
    ],
    [
      "ing",
      "</w>"
    ],
    [
      "o",
      "w"
    ],
    [
      "s",
      "e"
    ],
    [
      "t",
      "i"
    ],
    [
      "r",
      "i"
    ],
    [
      "r",
      "e"
    ],
    [
      "you",
      "</w>"
    ],
    [
      "th",
      "at</w>"
    ],
    [
      "?",
      "</w>"
    ],
    [
      "u",
      "s"
    ],
    [
      "th",
      "e"
    ],
    [
      "l",
      "e"
    ],
    [
      "en",
      "</w>"
    ],
    [
      "s",
      "h"
    ],
    [
      "b",
      "e"
    ],
    [
      "m",
      "a"
    ],
    [
      "!",
      "</w>"
    ],
    [
      "o",
      "o"
    ],
    [
      "b",
      "u"
    ],
    [
      "g",
      "h"
    ],
    [
      "d",
      ",</w>"
    ],
    [
      "no",
      "t</w>"
    ],
    [
      "r",
      "a"
    ],
    [
      "l",
      "a"
    ],
    [
      "th",
      "ou"
    ],
    [
      "for",
      "</w>"
    ],
    [
      "e",
      "ar"
    ],
    [
      "m",
      "</w>"
    ],
    [
      "wi",
      "th</w>"
    ],
    [
      "on",
      "</w>"
    ],
    [
      "s",
      "i"
    ],
    [
      "a",
      "s</w>"
    ],
    [
      "'",
      "s</w>"
    ],
    [
      "s",
      "t</w>"
    ],
    [
      "s",
      ",</w>"
    ],
    [
      "k",
      "e</w>"
    ],
    [
      "e",
      "d</w>"
    ],
    [
      "t",
      ",</w>"
    ],
    [
      "d",
      "i"
    ],
    [
      "m",
      "e</w>"
    ],
    [
      "h",
      "i"
    ],
    [
      "you",
      "r</w>"
    ],
    [
      "r",
      "o"
    ],
    [
      "y",
      ",</w>"
    ],
    [
      "l",
      "d</w>"
    ],
    [
      "b",
      "e</w>"
    ],
    [
      "i",
      "t</w>"
    ],
    [
      "an",
      "</w>"
    ],
    [
      "c",
      "om"
    ],
    [
      "e",
      "s</w>"
    ],
    [
      "h",
      "is</w>"
    ],
    [
      "o",
      ":</w>"
    ],
    [
      "u",
      "r"
    ],
    [
      "k",
      "</w>"
    ],
    [
      "u",
      "n"
    ],
    [
      "er",
      "e</w>"
    ],
    [
      "s",
      "a"
    ],
    [
      "ch",
      "</w>"
    ],
    [
      "c",
      "a"
    ],
    [
      "h",
      "e</w>"
    ],
    [
      "bu",
      "t</w>"
    ],
    [
      "ha",
      "ve</w>"
    ],
    [
      "f",
      "a"
    ],
    [
      "th",
      "is</w>"
    ],
    [
      "w",
      "e"
    ],
    [
      "e",
      ".</w>"
    ],
    [
      "thou",
      "</w>"
    ],
    [
      "c",
      "e</w>"
    ],
    [
      "l",
      "</w>"
    ],
    [
      "w",
      "ha"
    ],
    [
      "no",
      "w"
    ],
    [
      "t",
      "a"
    ],
    [
      "m",
      "i"
    ],
    [
      "th",
      "er"
    ],
    [
      "s",
      "ha"
    ],
    [
      "th",
      "y</w>"
    ],
    [
      "'",
      "d</w>"
    ],
    [
      "o",
      "l"
    ],
    [
      "or",
      "</w>"
    ],
    [
      "r",
      "om"
    ],
    [
      "s",
      "e</w>"
    ],
    [
      "l",
      "o"
    ],
    [
      "s",
      "p"
    ],
    [
      "f",
      "i"
    ],
    [
      "r",
      "u"
    ],
    [
      "l",
      "e</w>"
    ],
    [
      "ou",
      "r</w>"
    ],
    [
      "a",
      "t"
    ],
    [
      "e",
      "d"
    ],
    [
      "i",
      "t"
    ],
    [
      "r",
      "ea"
    ],
    [
      "d",
      "e"
    ],
    [
      "ou",
      "ld</w>"
    ],
    [
      "s",
      "u"
    ],
    [
      "l",
      "or"
    ],
    [
      "wi",
      "ll</w>"
    ],
    [
      "n",
      "e"
    ],
    [
      "t",
      "er"
    ],
    [
      "e",
      "l"
    ],
    [
      "wha",
      "t</w>"
    ],
    [
      "w",
      "ar"
    ],
    [
      "ow",
      "</w>"
    ],
    [
      "us",
      ":</w>"
    ],
    [
      "c",
      "on"
    ],
    [
      "s",
      "o</w>"
    ],
    [
      "b",
      "y</w>"
    ],
    [
      "m",
      "e"
    ],
    [
      "en",
      "t"
    ],
    [
      "c",
      "k"
    ],
    [
      "n",
      "</w>"
    ],
    [
      "q",
      "u"
    ],
    [
      "ar",
      "e</w>"
    ],
    [
      "c",
      "i"
    ],
    [
      "c",
      "e"
    ],
    [
      "v",
      "i"
    ],
    [
      "w",
      "or"
    ],
    [
      "m",
      "or"
    ],
    [
      "sha",
      "ll</w>"
    ],
    [
      "wh",
      "i"
    ],
    [
      "d",
      "a"
    ],
    [
      "i",
      "f</w>"
    ],
    [
      "v",
      "er"
    ],
    [
      "k",
      "ing</w>"
    ],
    [
      "w",
      "a"
    ],
    [
      "l",
      "y</w>"
    ],
    [
      "oo",
      "d</w>"
    ],
    [
      "d",
      "u"
    ],
    [
      "e",
      "t"
    ],
    [
      "u",
      "p"
    ],
    [
      "o",
      ",</w>"
    ],
    [
      "th",
      "er</w>"
    ],
    [
      "i",
      "r</w>"
    ],
    [
      "e",
      "t</w>"
    ],
    [
      "m",
      "an"
    ],
    [
      "p",
      "a"
    ],
    [
      "hi",
      "m</w>"
    ],
    [
      "p",
      "o"
    ],
    [
      "r",
      "es"
    ],
    [
      "m",
      "o"
    ],
    [
      "d",
      "o</w>"
    ],
    [
      "now",
      "</w>"
    ],
    [
      "h",
      "ear"
    ],
    [
      "n",
      "o</w>"
    ],
    [
      "h",
      "er"
    ],
    [
      "ou",
      "n"
    ],
    [
      "h",
      "er</w>"
    ],
    [
      "m",
      "ar"
    ],
    [
      "g",
      "a"
    ],
    [
      "gh",
      "t</w>"
    ],
    [
      "s",
      ".</w>"
    ],
    [
      "se",
      "l"
    ],
    [
      "f",
      "rom"
    ],
    [
      "from",
      "</w>"
    ],
    [
      "t",
      "e"
    ],
    [
      "b",
      "o"
    ],
    [
      "b",
      "a"
    ],
    [
      "es",
      "s</w>"
    ],
    [
      "d",
      "s</w>"
    ],
    [
      "p",
      "ro"
    ],
    [
      "si",
      "r"
    ],
    [
      "g",
      "o"
    ],
    [
      "hi",
      "m"
    ],
    [
      "g",
      "ood</w>"
    ],
    [
      "on",
      "e</w>"
    ],
    [
      "'",
      "</w>"
    ],
    [
      "b",
      "l"
    ],
    [
      "t",
      "o"
    ],
    [
      "d",
      "o"
    ],
    [
      "m",
      "en"
    ],
    [
      "'",
      "ll</w>"
    ],
    [
      "ou",
      "r"
    ],
    [
      "'",
      "t"
    ],
    [
      "d",
      ":</w>"
    ],
    [
      "d",
      ".</w>"
    ],
    [
      "es",
      "t</w>"
    ],
    [
      "r",
      "an"
    ],
    [
      "whi",
      "ch</w>"
    ],
    [
      "y",
      ".</w>"
    ],
    [
      "w",
      "as</w>"
    ],
    [
      "g",
      "i"
    ],
    [
      "on",
      "g"
    ],
    [
      "p",
      "</w>"
    ],
    [
      "e",
      ":</w>"
    ],
    [
      "u",
      "s</w>"
    ],
    [
      "d",
      "ea"
    ],
    [
      "ch",
      "ar"
    ],
    [
      "p",
      "ar"
    ],
    [
      "n",
      "a"
    ],
    [
      "the",
      "y</w>"
    ],
    [
      "w",
      "ould</w>"
    ],
    [
      "es",
      ",</w>"
    ],
    [
      "h",
      "ea"
    ],
    [
      "a",
      "ll</w>"
    ],
    [
      "s",
      ":</w>"
    ],
    [
      "gh",
      "t"
    ],
    [
      "l",
      "ea"
    ],
    [
      "y",
      ":</w>"
    ],
    [
      "s",
      "om"
    ],
    [
      "b",
      "ro"
    ],
    [
      "h",
      "ow</w>"
    ],
    [
      "f",
      "e"
    ],
    [
      "o",
      "f"
    ],
    [
      "th",
      "an</w>"
    ],
    [
      "a",
      ":</w>"
    ],
    [
      "m",
      "in"
    ],
    [
      "t",
      "t"
    ],
    [
      "the",
      "ir</w>"
    ],
    [
      "mor",
      "e</w>"
    ],
    [
      "p",
      "er"
    ],
    [
      "an",
      "g"
    ],
    [
      "r",
      "y</w>"
    ],
    [
      "sh",
      "e</w>"
    ],
    [
      "h",
      "en"
    ],
    [
      "f",
      "u"
    ],
    [
      "b",
      "i"
    ],
    [
      "a",
      "l"
    ],
    [
      "le",
      "t</w>"
    ],
    [
      "us",
      "t</w>"
    ],
    [
      "ha",
      "th</w>"
    ],
    [
      "ou",
      "s</w>"
    ],
    [
      "th",
      "in"
    ],
    [
      "r",
      "ow"
    ],
    [
      "fi",
      "r"
    ],
    [
      "-",
      "-"
    ],
    [
      "w",
      "e</w>"
    ],
    [
      "c",
      "e,</w>"
    ],
    [
      "v",
      "er</w>"
    ],
    [
      "the",
      "e</w>"
    ],
    [
      "w",
      "ere</w>"
    ],
    [
      "i",
      "'ll</w>"
    ],
    [
      "n",
      "i"
    ],
    [
      "s",
      "on"
    ],
    [
      "du",
      "ke</w>"
    ],
    [
      "ch",
      "i"
    ],
    [
      "u",
      "m"
    ],
    [
      "wh",
      "en</w>"
    ],
    [
      "p",
      "e"
    ],
    [
      "c",
      "en"
    ],
    [
      "d",
      "e</w>"
    ],
    [
      "th",
      "en</w>"
    ],
    [
      "d",
      "er"
    ],
    [
      "t",
      ":</w>"
    ],
    [
      "li",
      "ke</w>"
    ],
    [
      "o",
      "p"
    ],
    [
      "f",
      "ri"
    ],
    [
      "b",
      "le</w>"
    ],
    [
      "com",
      "e</w>"
    ],
    [
      "g",
      "ra"
    ],
    [
      "c",
      "es"
    ],
    [
      "c",
      "k</w>"
    ],
    [
      "ri",
      "char"
    ],
    [
      "qu",
      "e"
    ],
    [
      "i",
      "r"
    ],
    [
      "ma",
      "ke</w>"
    ],
    [
      "we",
      "ll"
    ],
    [
      "ear",
      "</w>"
    ],
    [
      "l",
      "u"
    ],
    [
      "i",
      "i"
    ],
    [
      "ar",
      "</w>"
    ],
    [
      "c",
      "or"
    ],
    [
      "en",
      "t</w>"
    ],
    [
      "ma",
      "y</w>"
    ],
    [
      "up",
      "on</w>"
    ],
    [
      "i",
      "us:</w>"
    ],
    [
      "l",
      "an"
    ],
    [
      "d",
      "y</w>"
    ],
    [
      "g",
      "e</w>"
    ],
    [
      "you",
      ",</w>"
    ],
    [
      "m",
      "ust</w>"
    ],
    [
      "gh",
      "</w>"
    ],
    [
      "h",
      "e"
    ],
    [
      "t",
      ".</w>"
    ],
    [
      "l",
      "ou"
    ],
    [
      "j",
      "u"
    ],
    [
      "t",
      "ru"
    ],
    [
      "sh",
      "ould</w>"
    ],
    [
      "k",
      "ing"
    ],
    [
      "m",
      "e,</w>"
    ],
    [
      "th",
      ",</w>"
    ],
    [
      "t",
      "s</w>"
    ],
    [
      "lo",
      "v"
    ],
    [
      "p",
      "u"
    ],
    [
      "a",
      "ga"
    ],
    [
      "ed",
      "war"
    ],
    [
      "p",
      "r"
    ],
    [
      "ti",
      "o:</w>"
    ],
    [
      "s",
      "er"
    ],
    [
      "d",
      ";</w>"
    ],
    [
      "s",
      "o"
    ],
    [
      "w",
      "</w>"
    ],
    [
      "h",
      "ere</w>"
    ],
    [
      "'t",
      "is</w>"
    ],
    [
      "li",
      "f"
    ],
    [
      "sp",
      "ea"
    ],
    [
      "e",
      ";</w>"
    ],
    [
      "ha",
      "d</w>"
    ],
    [
      "s",
      ";</w>"
    ],
    [
      "sir",
      ",</w>"
    ],
    [
      "t",
      "en"
    ],
    [
      "st",
      "a"
    ],
    [
      "y",
      "et</w>"
    ],
    [
      "g",
      "ent"
    ],
    [
      "the",
      "m</w>"
    ],
    [
      "l",
      "oo"
    ],
    [
      "som",
      "e</w>"
    ],
    [
      "y",
      "or"
    ],
    [
      "d",
      "es"
    ],
    [
      "e",
      "x"
    ],
    [
      "m",
      "u"
    ],
    [
      "ou",
      "t</w>"
    ],
    [
      "ther",
      "e"
    ],
    [
      "wh",
      "ere</w>"
    ],
    [
      "c",
      "an"
    ],
    [
      "fir",
      "st</w>"
    ],
    [
      "c",
      "l"
    ],
    [
      "ta",
      "ke</w>"
    ],
    [
      "di",
      "d</w>"
    ],
    [
      "ti",
      "on"
    ],
    [
      "c",
      "u"
    ],
    [
      "for",
      "e</w>"
    ],
    [
      "i",
      "s"
    ],
    [
      "p",
      "la"
    ],
    [
      "th",
      "es"
    ],
    [
      "e",
      "p"
    ],
    [
      "gi",
      "ve</w>"
    ],
    [
      "v",
      "o"
    ],
    [
      "s",
      "en"
    ],
    [
      "richar",
      "d</w>"
    ],
    [
      "g",
      "u"
    ],
    [
      "h",
      "on"
    ],
    [
      "k",
      "now</w>"
    ],
    [
      "sa",
      "y</w>"
    ],
    [
      "aga",
      "in"
    ],
    [
      "ter",
      ":</w>"
    ],
    [
      "p",
      "ra"
    ],
    [
      "thes",
      "e</w>"
    ],
    [
      "v",
      "en"
    ],
    [
      "cen",
      "tio:</w>"
    ],
    [
      "g",
      "o</w>"
    ],
    [
      "su",
      "ch</w>"
    ],
    [
      "p",
      "ri"
    ],
    [
      "a",
      "m</w>"
    ],
    [
      "ver",
      "y</w>"
    ],
    [
      "es",
      ":</w>"
    ],
    [
      "v",
      "in"
    ],
    [
      "mo",
      "st</w>"
    ],
    [
      "st",
      "i"
    ],
    [
      "g",
      "lou"
    ],
    [
      "glou",
      "ces"
    ],
    [
      "th",
      "ere</w>"
    ],
    [
      "a",
      "c"
    ],
    [
      "j",
      "o"
    ],
    [
      "e",
      "y"
    ],
    [
      "o",
      "ld</w>"
    ],
    [
      "g",
      "re"
    ],
    [
      "t",
      "y</w>"
    ],
    [
      "m",
      "p"
    ],
    [
      "ur",
      "e</w>"
    ],
    [
      "m",
      "er"
    ],
    [
      "com",
      "e,</w>"
    ],
    [
      "m",
      "an</w>"
    ],
    [
      "m",
      "on"
    ],
    [
      "ther",
      ",</w>"
    ],
    [
      "we",
      "ll</w>"
    ],
    [
      "fu",
      "l</w>"
    ],
    [
      "s",
      "in"
    ],
    [
      "ti",
      "on</w>"
    ],
    [
      "p",
      "p"
    ],
    [
      "yor",
      "k"
    ],
    [
      "c",
      "an</w>"
    ],
    [
      "wh",
      "o</w>"
    ],
    [
      "now",
      ",</w>"
    ],
    [
      "ow",
      "n</w>"
    ],
    [
      "se",
      "e</w>"
    ],
    [
      "sel",
      "f"
    ],
    [
      "en",
      ",</w>"
    ],
    [
      "k",
      "e"
    ],
    [
      "que",
      "en</w>"
    ],
    [
      "st",
      "er"
    ],
    [
      "hen",
      "ry</w>"
    ],
    [
      "lo",
      "ve</w>"
    ],
    [
      "te",
      "ll</w>"
    ],
    [
      "c",
      "oun"
    ],
    [
      "sel",
      "f</w>"
    ],
    [
      "t",
      "ed</w>"
    ],
    [
      "a",
      "l</w>"
    ],
    [
      "d",
      "er</w>"
    ],
    [
      "a",
      "ll"
    ],
    [
      "ce",
      ":</w>"
    ],
    [
      "d",
      "s,</w>"
    ],
    [
      "lor",
      "d</w>"
    ],
    [
      "ow",
      "n"
    ],
    [
      "--",
      "</w>"
    ],
    [
      "rom",
      "e"
    ],
    [
      "fri",
      "en"
    ],
    [
      "n",
      "or</w>"
    ],
    [
      "m",
      ",</w>"
    ],
    [
      "war",
      "wi"
    ],
    [
      "b",
      "er"
    ],
    [
      "glouces",
      "ter:</w>"
    ],
    [
      "a",
      "f"
    ],
    [
      "et",
      ":</w>"
    ],
    [
      "l",
      "t</w>"
    ],
    [
      "pr",
      "in"
    ],
    [
      "th",
      "ing</w>"
    ],
    [
      "y",
      ";</w>"
    ],
    [
      "v",
      "es</w>"
    ],
    [
      "h",
      "an"
    ],
    [
      "k",
      ",</w>"
    ],
    [
      "p",
      "et"
    ],
    [
      "se",
      "d</w>"
    ],
    [
      "a",
      "u"
    ],
    [
      "en",
      "ce</w>"
    ],
    [
      "g",
      "ar"
    ],
    [
      "t",
      "'s</w>"
    ],
    [
      "us",
      "e</w>"
    ],
    [
      "h",
      "or"
    ],
    [
      "lor",
      "d,</w>"
    ],
    [
      "vin",
      "centio:</w>"
    ],
    [
      "a",
      "wa"
    ],
    [
      "sh",
      "</w>"
    ],
    [
      "wh",
      "y,</w>"
    ],
    [
      "b",
      "rea"
    ],
    [
      "e",
      "?</w>"
    ],
    [
      "g",
      "rea"
    ],
    [
      "ou",
      "l"
    ],
    [
      "min",
      "e</w>"
    ],
    [
      "ma",
      "de</w>"
    ],
    [
      "st",
      ",</w>"
    ],
    [
      "to",
      "o</w>"
    ],
    [
      "up",
      "</w>"
    ],
    [
      "s",
      "we"
    ],
    [
      "t",
      "e</w>"
    ],
    [
      "the",
      "e,</w>"
    ],
    [
      "a",
      "b"
    ],
    [
      "p",
      "re"
    ],
    [
      "i",
      "l"
    ],
    [
      "om",
      "</w>"
    ],
    [
      "b",
      "an"
    ],
    [
      "d",
      "'s</w>"
    ],
    [
      "e",
      "!</w>"
    ],
    [
      "s",
      "w"
    ],
    [
      "ti",
      "me</w>"
    ],
    [
      "st",
      "an"
    ],
    [
      "ne",
      "ver</w>"
    ],
    [
      "a",
      "d"
    ],
    [
      "an",
      "y</w>"
    ],
    [
      "cor",
      "i"
    ],
    [
      "e",
      "v"
    ],
    [
      "p",
      "res"
    ]
  ],
  "vocab": {
    "<unk>": 0,
    "!": 1,
    "$": 2,
    "&": 3,
    "'": 4,
    ",": 5,
    "-": 6,
    ".": 7,
    "0": 8,
    ":": 9,
    ";": 10,
    "</w>": 11,
    "?": 12,
    "a": 13,
    "b": 14,
    "c": 15,
    "d": 16,
    "e": 17,
    "f": 18,
    "g": 19,
    "h": 20,
    "i": 21,
    "j": 22,
    "k": 23,
    "l": 24,
    "m": 25,
    "n": 26,
    "o": 27,
    "p": 28,
    "q": 29,
    "r": 30,
    "s": 31,
    "t": 32,
    "u": 33,
    "v": 34,
    "w": 35,
    "x": 36,
    "y": 37,
    "z": 38,
    "e</w>": 39,
    "th": 40,
    ",</w>": 41,
    "t</w>": 42,
    "s</w>": 43,
    "d</w>": 44,
    "ou": 45,
    "an": 46,
    "er": 47,
    "in": 48,
    "y</w>": 49,
    ":</w>": 50,
    "or": 51,
    "en": 52,
    "o</w>": 53,
    "ar": 54,
    ".</w>": 55,
    "on": 56,
    "ll": 57,
    "the</w>": 58,
    "ha": 59,
    "and</w>": 60,
    "es": 61,
    "is</w>": 62,
    "you": 63,
    "f</w>": 64,
    "to</w>": 65,
    "i</w>": 66,
    "ing": 67,
    "ll</w>": 68,
    "no": 69,
    "wi": 70,
    "om": 71,
    "ea": 72,
    "e,</w>": 73,
    "of</w>": 74,
    "st": 75,
    ";</w>": 76,
    "ch": 77,
    "er</w>": 78,
    "r</w>": 79,
    "for": 80,
    "th</w>": 81,
    "my</w>": 82,
    "a</w>": 83,
    "at</w>": 84,
    "li": 85,
    "in</w>": 86,
    "ve</w>": 87,
    "wh": 88,
    "ing</w>": 89,
    "ow": 90,
    "se": 91,
    "ti": 92,
    "ri": 93,
    "re": 94,
    "you</w>": 95,
    "that</w>": 96,
    "?</w>": 97,
    "us": 98,
    "the": 99,
    "le": 100,
    "en</w>": 101,
    "sh": 102,
    "be": 103,
    "ma": 104,
    "!</w>": 105,
    "oo": 106,
    "bu": 107,
    "gh": 108,
    "d,</w>": 109,
    "not</w>": 110,
    "ra": 111,
    "la": 112,
    "thou": 113,
    "for</w>": 114,
    "ear": 115,
    "m</w>": 116,
    "with</w>": 117,
    "on</w>": 118,
    "si": 119,
    "as</w>": 120,
    "'s</w>": 121,
    "st</w>": 122,
    "s,</w>": 123,
    "ke</w>": 124,
    "ed</w>": 125,
    "t,</w>": 126,
    "di": 127,
    "me</w>": 128,
    "hi": 129,
    "your</w>": 130,
    "ro": 131,
    "y,</w>": 132,
    "ld</w>": 133,
    "be</w>": 134,
    "it</w>": 135,
    "an</w>": 136,
    "com": 137,
    "es</w>": 138,
    "his</w>": 139,
    "o:</w>": 140,
    "ur": 141,
    "k</w>": 142,
    "un": 143,
    "ere</w>": 144,
    "sa": 145,
    "ch</w>": 146,
    "ca": 147,
    "he</w>": 148,
    "but</w>": 149,
    "have</w>": 150,
    "fa": 151,
    "this</w>": 152,
    "we": 153,
    "e.</w>": 154,
    "thou</w>": 155,
    "ce</w>": 156,
    "l</w>": 157,
    "wha": 158,
    "now": 159,
    "ta": 160,
    "mi": 161,
    "ther": 162,
    "sha": 163,
    "thy</w>": 164,
    "'d</w>": 165,
    "ol": 166,
    "or</w>": 167,
    "rom": 168,
    "se</w>": 169,
    "lo": 170,
    "sp": 171,
    "fi": 172,
    "ru": 173,
    "le</w>": 174,
    "our</w>": 175,
    "at": 176,
    "ed": 177,
    "it": 178,
    "rea": 179,
    "de": 180,
    "ould</w>": 181,
    "su": 182,
    "lor": 183,
    "will</w>": 184,
    "ne": 185,
    "ter": 186,
    "el": 187,
    "what</w>": 188,
    "war": 189,
    "ow</w>": 190,
    "us:</w>": 191,
    "con": 192,
    "so</w>": 193,
    "by</w>": 194,
    "me": 195,
    "ent": 196,
    "ck": 197,
    "n</w>": 198,
    "qu": 199,
    "are</w>": 200,
    "ci": 201,
    "ce": 202,
    "vi": 203,
    "wor": 204,
    "mor": 205,
    "shall</w>": 206,
    "whi": 207,
    "da": 208,
    "if</w>": 209,
    "ver": 210,
    "king</w>": 211,
    "wa": 212,
    "ly</w>": 213,
    "ood</w>": 214,
    "du": 215,
    "et": 216,
    "up": 217,
    "o,</w>": 218,
    "ther</w>": 219,
    "ir</w>": 220,
    "et</w>": 221,
    "man": 222,
    "pa": 223,
    "him</w>": 224,
    "po": 225,
    "res": 226,
    "mo": 227,
    "do</w>": 228,
    "now</w>": 229,
    "hear": 230,
    "no</w>": 231,
    "her": 232,
    "oun": 233,
    "her</w>": 234,
    "mar": 235,
    "ga": 236,
    "ght</w>": 237,
    "s.</w>": 238,
    "sel": 239,
    "from": 240,
    "from</w>": 241,
    "te": 242,
    "bo": 243,
    "ba": 244,
    "ess</w>": 245,
    "ds</w>": 246,
    "pro": 247,
    "sir": 248,
    "go": 249,
    "him": 250,
    "good</w>": 251,
    "one</w>": 252,
    "'</w>": 253,
    "bl": 254,
    "to": 255,
    "do": 256,
    "men": 257,
    "'ll</w>": 258,
    "our": 259,
    "'t": 260,
    "d:</w>": 261,
    "d.</w>": 262,
    "est</w>": 263,
    "ran": 264,
    "which</w>": 265,
    "y.</w>": 266,
    "was</w>": 267,
    "gi": 268,
    "ong": 269,
    "p</w>": 270,
    "e:</w>": 271,
    "us</w>": 272,
    "dea": 273,
    "char": 274,
    "par": 275,
    "na": 276,
    "they</w>": 277,
    "would</w>": 278,
    "es,</w>": 279,
    "hea": 280,
    "all</w>": 281,
    "s:</w>": 282,
    "ght": 283,
    "lea": 284,
    "y:</w>": 285,
    "som": 286,
    "bro": 287,
    "how</w>": 288,
    "fe": 289,
    "of": 290,
    "than</w>": 291,
    "a:</w>": 292,
    "min": 293,
    "tt": 294,
    "their</w>": 295,
    "more</w>": 296,
    "per": 297,
    "ang": 298,
    "ry</w>": 299,
    "she</w>": 300,
    "hen": 301,
    "fu": 302,
    "bi": 303,
    "al": 304,
    "let</w>": 305,
    "ust</w>": 306,
    "hath</w>": 307,
    "ous</w>": 308,
    "thin": 309,
    "row": 310,
    "fir": 311,
    "--": 312,
    "we</w>": 313,
    "ce,</w>": 314,
    "ver</w>": 315,
    "thee</w>": 316,
    "were</w>": 317,
    "i'll</w>": 318,
    "ni": 319,
    "son": 320,
    "duke</w>": 321,
    "chi": 322,
    "um": 323,
    "when</w>": 324,
    "pe": 325,
    "cen": 326,
    "de</w>": 327,
    "then</w>": 328,
    "der": 329,
    "t:</w>": 330,
    "like</w>": 331,
    "op": 332,
    "fri": 333,
    "ble</w>": 334,
    "come</w>": 335,
    "gra": 336,
    "ces": 337,
    "ck</w>": 338,
    "richar": 339,
    "que": 340,
    "ir": 341,
    "make</w>": 342,
    "well": 343,
    "ear</w>": 344,
    "lu": 345,
    "ii": 346,
    "ar</w>": 347,
    "cor": 348,
    "ent</w>": 349,
    "may</w>": 350,
    "upon</w>": 351,
    "ius:</w>": 352,
    "lan": 353,
    "dy</w>": 354,
    "ge</w>": 355,
    "you,</w>": 356,
    "must</w>": 357,
    "gh</w>": 358,
    "he": 359,
    "t.</w>": 360,
    "lou": 361,
    "ju": 362,
    "tru": 363,
    "should</w>": 364,
    "king": 365,
    "me,</w>": 366,
    "th,</w>": 367,
    "ts</w>": 368,
    "lov": 369,
    "pu": 370,
    "aga": 371,
    "edwar": 372,
    "pr": 373,
    "tio:</w>": 374,
    "ser": 375,
    "d;</w>": 376,
    "so": 377,
    "w</w>": 378,
    "here</w>": 379,
    "'tis</w>": 380,
    "lif": 381,
    "spea": 382,
    "e;</w>": 383,
    "had</w>": 384,
    "s;</w>": 385,
    "sir,</w>": 386,
    "ten": 387,
    "sta": 388,
    "yet</w>": 389,
    "gent": 390,
    "them</w>": 391,
    "loo": 392,
    "some</w>": 393,
    "yor": 394,
    "des": 395,
    "ex": 396,
    "mu": 397,
    "out</w>": 398,
    "there": 399,
    "where</w>": 400,
    "can": 401,
    "first</w>": 402,
    "cl": 403,
    "take</w>": 404,
    "did</w>": 405,
    "tion": 406,
    "cu": 407,
    "fore</w>": 408,
    "is": 409,
    "pla": 410,
    "thes": 411,
    "ep": 412,
    "give</w>": 413,
    "vo": 414,
    "sen": 415,
    "richard</w>": 416,
    "gu": 417,
    "hon": 418,
    "know</w>": 419,
    "say</w>": 420,
    "again": 421,
    "ter:</w>": 422,
    "pra": 423,
    "these</w>": 424,
    "ven": 425,
    "centio:</w>": 426,
    "go</w>": 427,
    "such</w>": 428,
    "pri": 429,
    "am</w>": 430,
    "very</w>": 431,
    "es:</w>": 432,
    "vin": 433,
    "most</w>": 434,
    "sti": 435,
    "glou": 436,
    "glouces": 437,
    "there</w>": 438,
    "ac": 439,
    "jo": 440,
    "ey": 441,
    "old</w>": 442,
    "gre": 443,
    "ty</w>": 444,
    "mp": 445,
    "ure</w>": 446,
    "mer": 447,
    "come,</w>": 448,
    "man</w>": 449,
    "mon": 450,
    "ther,</w>": 451,
    "well</w>": 452,
    "ful</w>": 453,
    "sin": 454,
    "tion</w>": 455,
    "pp": 456,
    "york": 457,
    "can</w>": 458,
    "who</w>": 459,
    "now,</w>": 460,
    "own</w>": 461,
    "see</w>": 462,
    "self": 463,
    "en,</w>": 464,
    "ke": 465,
    "queen</w>": 466,
    "ster": 467,
    "henry</w>": 468,
    "love</w>": 469,
    "tell</w>": 470,
    "coun": 471,
    "self</w>": 472,
    "ted</w>": 473,
    "al</w>": 474,
    "der</w>": 475,
    "all": 476,
    "ce:</w>": 477,
    "ds,</w>": 478,
    "lord</w>": 479,
    "own": 480,
    "--</w>": 481,
    "rome": 482,
    "frien": 483,
    "nor</w>": 484,
    "m,</w>": 485,
    "warwi": 486,
    "ber": 487,
    "gloucester:</w>": 488,
    "af": 489,
    "et:</w>": 490,
    "lt</w>": 491,
    "prin": 492,
    "thing</w>": 493,
    "y;</w>": 494,
    "ves</w>": 495,
    "han": 496,
    "k,</w>": 497,
    "pet": 498,
    "sed</w>": 499,
    "au": 500,
    "ence</w>": 501,
    "gar": 502,
    "t's</w>": 503,
    "use</w>": 504,
    "hor": 505,
    "lord,</w>": 506,
    "vincentio:</w>": 507,
    "awa": 508,
    "sh</w>": 509,
    "why,</w>": 510,
    "brea": 511,
    "e?</w>": 512,
    "grea": 513,
    "oul": 514,
    "mine</w>": 515,
    "made</w>": 516,
    "st,</w>": 517,
    "too</w>": 518,
    "up</w>": 519,
    "swe": 520,
    "te</w>": 521,
    "thee,</w>": 522,
    "ab": 523,
    "pre": 524,
    "il": 525,
    "om</w>": 526,
    "ban": 527,
    "d's</w>": 528,
    "e!</w>": 529,
    "sw": 530,
    "time</w>": 531,
    "stan": 532,
    "never</w>": 533,
    "ad": 534,
    "any</w>": 535,
    "cori": 536,
    "ev": 537,
    "pres": 538
  },
  "base_chars": [
    "!",
    "$",
    "&",
    "'",
    ",",
    "-",
    ".",
    "0",
    ":",
    ";",
    "</w>",
    "?",
    "a",
    "b",
    "c",
    "d",
    "e",
    "f",
    "g",
    "h",
    "i",
    "j",
    "k",
    "l",
    "m",
    "n",
    "o",
    "p",
    "q",
    "r",
    "s",
    "t",
    "u",
    "v",
    "w",
    "x",
    "y",
    "z"
  ],
  "train_time_seconds": 2.3140063285827637
}