{
  "num_merges": 1000,
  "end_of_word": "</w>",
  "marker_mode": "suffix",
  "strategy": "clean",
  "merges": [
    [
      "e",
      "</w>"
    ],
    [
      "t",
      "h"
    ],
    [
      ",",
      "</w>"
    ],
    [
      "t",
      "</w>"
    ],
    [
      "s",
      "</w>"
    ],
    [
      "d",
      "</w>"
    ],
    [
      "o",
      "u"
    ],
    [
      "a",
      "n"
    ],
    [
      "e",
      "r"
    ],
    [
      "i",
      "n"
    ],
    [
      "y",
      "</w>"
    ],
    [
      ":",
      "</w>"
    ],
    [
      "o",
      "r"
    ],
    [
      "e",
      "n"
    ],
    [
      "o",
      "</w>"
    ],
    [
      "a",
      "r"
    ],
    [
      ".",
      "</w>"
    ],
    [
      "o",
      "n"
    ],
    [
      "l",
      "l"
    ],
    [
      "th",
      "e</w>"
    ],
    [
      "h",
      "a"
    ],
    [
      "an",
      "d</w>"
    ],
    [
      "e",
      "s"
    ],
    [
      "i",
      "s</w>"
    ],
    [
      "y",
      "ou"
    ],
    [
      "f",
      "</w>"
    ],
    [
      "t",
      "o</w>"
    ],
    [
      "i",
      "</w>"
    ],
    [
      "in",
      "g"
    ],
    [
      "ll",
      "</w>"
    ],
    [
      "n",
      "o"
    ],
    [
      "w",
      "i"
    ],
    [
      "o",
      "m"
    ],
    [
      "e",
      "a"
    ],
    [
      "e",
      ",</w>"
    ],
    [
      "o",
      "f</w>"
    ],
    [
      "s",
      "t"
    ],
    [
      ";",
      "</w>"
    ],
    [
      "c",
      "h"
    ],
    [
      "er",
      "</w>"
    ],
    [
      "r",
      "</w>"
    ],
    [
      "f",
      "or"
    ],
    [
      "th",
      "</w>"
    ],
    [
      "m",
      "y</w>"
    ],
    [
      "a",
      "</w>"
    ],
    [
      "a",
      "t</w>"
    ],
    [
      "l",
      "i"
    ],
    [
      "in",
      "</w>"
    ],
    [
      "v",
      "e</w>"
    ],
    [
      "w",
      "h"
    ],
    [
      "ing",
      "</w>"
    ],
    [
      "o",
      "w"
    ],
    [
      "s",
      "e"
    ],
    [
      "t",
      "i"
    ],
    [
      "r",
      "i"
    ],
    [
      "r",
      "e"
    ],
    [
      "you",
      "</w>"
    ],
    [
      "th",
      "at</w>"
    ],
    [
      "?",
      "</w>"
    ],
    [
      "u",
      "s"
    ],
    [
      "th",
      "e"
    ],
    [
      "l",
      "e"
    ],
    [
      "en",
      "</w>"
    ],
    [
      "s",
      "h"
    ],
    [
      "b",
      "e"
    ],
    [
      "m",
      "a"
    ],
    [
      "!",
      "</w>"
    ],
    [
      "o",
      "o"
    ],
    [
      "b",
      "u"
    ],
    [
      "g",
      "h"
    ],
    [
      "d",
      ",</w>"
    ],
    [
      "no",
      "t</w>"
    ],
    [
      "r",
      "a"
    ],
    [
      "l",
      "a"
    ],
    [
      "th",
      "ou"
    ],
    [
      "for",
      "</w>"
    ],
    [
      "e",
      "ar"
    ],
    [
      "m",
      "</w>"
    ],
    [
      "wi",
      "th</w>"
    ],
    [
      "on",
      "</w>"
    ],
    [
      "s",
      "i"
    ],
    [
      "a",
      "s</w>"
    ],
    [
      "'",
      "s</w>"
    ],
    [
      "s",
      "t</w>"
    ],
    [
      "s",
      ",</w>"
    ],
    [
      "k",
      "e</w>"
    ],
    [
      "e",
      "d</w>"
    ],
    [
      "t",
      ",</w>"
    ],
    [
      "d",
      "i"
    ],
    [
      "m",
      "e</w>"
    ],
    [
      "h",
      "i"
    ],
    [
      "you",
      "r</w>"
    ],
    [
      "r",
      "o"
    ],
    [
      "y",
      ",</w>"
    ],
    [
      "l",
      "d</w>"
    ],
    [
      "b",
      "e</w>"
    ],
    [
      "i",
      "t</w>"
    ],
    [
      "an",
      "</w>"
    ],
    [
      "c",
      "om"
    ],
    [
      "e",
      "s</w>"
    ],
    [
      "h",
      "is</w>"
    ],
    [
      "o",
      ":</w>"
    ],
    [
      "u",
      "r"
    ],
    [
      "k",
      "</w>"
    ],
    [
      "u",
      "n"
    ],
    [
      "er",
      "e</w>"
    ],
    [
      "s",
      "a"
    ],
    [
      "ch",
      "</w>"
    ],
    [
      "c",
      "a"
    ],
    [
      "h",
      "e</w>"
    ],
    [
      "bu",
      "t</w>"
    ],
    [
      "ha",
      "ve</w>"
    ],
    [
      "f",
      "a"
    ],
    [
      "th",
      "is</w>"
    ],
    [
      "w",
      "e"
    ],
    [
      "e",
      ".</w>"
    ],
    [
      "thou",
      "</w>"
    ],
    [
      "c",
      "e</w>"
    ],
    [
      "l",
      "</w>"
    ],
    [
      "w",
      "ha"
    ],
    [
      "no",
      "w"
    ],
    [
      "t",
      "a"
    ],
    [
      "m",
      "i"
    ],
    [
      "th",
      "er"
    ],
    [
      "s",
      "ha"
    ],
    [
      "th",
      "y</w>"
    ],
    [
      "'",
      "d</w>"
    ],
    [
      "o",
      "l"
    ],
    [
      "or",
      "</w>"
    ],
    [
      "r",
      "om"
    ],
    [
      "s",
      "e</w>"
    ],
    [
      "l",
      "o"
    ],
    [
      "s",
      "p"
    ],
    [
      "f",
      "i"
    ],
    [
      "r",
      "u"
    ],
    [
      "l",
      "e</w>"
    ],
    [
      "ou",
      "r</w>"
    ],
    [
      "a",
      "t"
    ],
    [
      "e",
      "d"
    ],
    [
      "i",
      "t"
    ],
    [
      "r",
      "ea"
    ],
    [
      "d",
      "e"
    ],
    [
      "ou",
      "ld</w>"
    ],
    [
      "s",
      "u"
    ],
    [
      "l",
      "or"
    ],
    [
      "wi",
      "ll</w>"
    ],
    [
      "n",
      "e"
    ],
    [
      "t",
      "er"
    ],
    [
      "e",
      "l"
    ],
    [
      "wha",
      "t</w>"
    ],
    [
      "w",
      "ar"
    ],
    [
      "ow",
      "</w>"
    ],
    [
      "us",
      ":</w>"
    ],
    [
      "c",
      "on"
    ],
    [
      "s",
      "o</w>"
    ],
    [
      "b",
      "y</w>"
    ],
    [
      "m",
      "e"
    ],
    [
      "en",
      "t"
    ],
    [
      "c",
      "k"
    ],
    [
      "n",
      "</w>"
    ],
    [
      "q",
      "u"
    ],
    [
      "ar",
      "e</w>"
    ],
    [
      "c",
      "i"
    ],
    [
      "c",
      "e"
    ],
    [
      "v",
      "i"
    ],
    [
      "w",
      "or"
    ],
    [
      "m",
      "or"
    ],
    [
      "sha",
      "ll</w>"
    ],
    [
      "wh",
      "i"
    ],
    [
      "d",
      "a"
    ],
    [
      "i",
      "f</w>"
    ],
    [
      "v",
      "er"
    ],
    [
      "k",
      "ing</w>"
    ],
    [
      "w",
      "a"
    ],
    [
      "l",
      "y</w>"
    ],
    [
      "oo",
      "d</w>"
    ],
    [
      "d",
      "u"
    ],
    [
      "e",
      "t"
    ],
    [
      "u",
      "p"
    ],
    [
      "o",
      ",</w>"
    ],
    [
      "th",
      "er</w>"
    ],
    [
      "i",
      "r</w>"
    ],
    [
      "e",
      "t</w>"
    ],
    [
      "m",
      "an"
    ],
    [
      "p",
      "a"
    ],
    [
      "hi",
      "m</w>"
    ],
    [
      "p",
      "o"
    ],
    [
      "r",
      "es"
    ],
    [
      "m",
      "o"
    ],
    [
      "d",
      "o</w>"
    ],
    [
      "now",
      "</w>"
    ],
    [
      "h",
      "ear"
    ],
    [
      "n",
      "o</w>"
    ],
    [
      "h",
      "er"
    ],
    [
      "ou",
      "n"
    ],
    [
      "h",
      "er</w>"
    ],
    [
      "m",
      "ar"
    ],
    [
      "g",
      "a"
    ],
    [
      "gh",
      "t</w>"
    ],
    [
      "s",
      ".</w>"
    ],
    [
      "se",
      "l"
    ],
    [
      "f",
      "rom"
    ],
    [
      "from",
      "</w>"
    ],
    [
      "t",
      "e"
    ],
    [
      "b",
      "o"
    ],
    [
      "b",
      "a"
    ],
    [
      "es",
      "s</w>"
    ],
    [
      "d",
      "s</w>"
    ],
    [
      "p",
      "ro"
    ],
    [
      "si",
      "r"
    ],
    [
      "g",
      "o"
    ],
    [
      "hi",
      "m"
    ],
    [
      "g",
      "ood</w>"
    ],
    [
      "on",
      "e</w>"
    ],
    [
      "'",
      "</w>"
    ],
    [
      "b",
      "l"
    ],
    [
      "t",
      "o"
    ],
    [
      "d",
      "o"
    ],
    [
      "m",
      "en"
    ],
    [
      "'",
      "ll</w>"
    ],
    [
      "ou",
      "r"
    ],
    [
      "'",
      "t"
    ],
    [
      "d",
      ":</w>"
    ],
    [
      "d",
      ".</w>"
    ],
    [
      "es",
      "t</w>"
    ],
    [
      "r",
      "an"
    ],
    [
      "whi",
      "ch</w>"
    ],
    [
      "y",
      ".</w>"
    ],
    [
      "w",
      "as</w>"
    ],
    [
      "g",
      "i"
    ],
    [
      "on",
      "g"
    ],
    [
      "p",
      "</w>"
    ],
    [
      "e",
      ":</w>"
    ],
    [
      "u",
      "s</w>"
    ],
    [
      "d",
      "ea"
    ],
    [
      "ch",
      "ar"
    ],
    [
      "p",
      "ar"
    ],
    [
      "n",
      "a"
    ],
    [
      "the",
      "y</w>"
    ],
    [
      "w",
      "ould</w>"
    ],
    [
      "es",
      ",</w>"
    ],
    [
      "h",
      "ea"
    ],
    [
      "a",
      "ll</w>"
    ],
    [
      "s",
      ":</w>"
    ],
    [
      "gh",
      "t"
    ],
    [
      "l",
      "ea"
    ],
    [
      "y",
      ":</w>"
    ],
    [
      "s",
      "om"
    ],
    [
      "b",
      "ro"
    ],
    [
      "h",
      "ow</w>"
    ],
    [
      "f",
      "e"
    ],
    [
      "o",
      "f"
    ],
    [
      "th",
      "an</w>"
    ],
    [
      "a",
      ":</w>"
    ],
    [
      "m",
      "in"
    ],
    [
      "t",
      "t"
    ],
    [
      "the",
      "ir</w>"
    ],
    [
      "mor",
      "e</w>"
    ],
    [
      "p",
      "er"
    ],
    [
      "an",
      "g"
    ],
    [
      "r",
      "y</w>"
    ],
    [
      "sh",
      "e</w>"
    ],
    [
      "h",
      "en"
    ],
    [
      "f",
      "u"
    ],
    [
      "b",
      "i"
    ],
    [
      "a",
      "l"
    ],
    [
      "le",
      "t</w>"
    ],
    [
      "us",
      "t</w>"
    ],
    [
      "ha",
      "th</w>"
    ],
    [
      "ou",
      "s</w>"
    ],
    [
      "th",
      "in"
    ],
    [
      "r",
      "ow"
    ],
    [
      "fi",
      "r"
    ],
    [
      "-",
      "-"
    ],
    [
      "w",
      "e</w>"
    ],
    [
      "c",
      "e,</w>"
    ],
    [
      "v",
      "er</w>"
    ],
    [
      "the",
      "e</w>"
    ],
    [
      "w",
      "ere</w>"
    ],
    [
      "i",
      "'ll</w>"
    ],
    [
      "n",
      "i"
    ],
    [
      "s",
      "on"
    ],
    [
      "du",
      "ke</w>"
    ],
    [
      "ch",
      "i"
    ],
    [
      "u",
      "m"
    ],
    [
      "wh",
      "en</w>"
    ],
    [
      "p",
      "e"
    ],
    [
      "c",
      "en"
    ],
    [
      "d",
      "e</w>"
    ],
    [
      "th",
      "en</w>"
    ],
    [
      "d",
      "er"
    ],
    [
      "t",
      ":</w>"
    ],
    [
      "li",
      "ke</w>"
    ],
    [
      "o",
      "p"
    ],
    [
      "f",
      "ri"
    ],
    [
      "b",
      "le</w>"
    ],
    [
      "com",
      "e</w>"
    ],
    [
      "g",
      "ra"
    ],
    [
      "c",
      "es"
    ],
    [
      "c",
      "k</w>"
    ],
    [
      "ri",
      "char"
    ],
    [
      "qu",
      "e"
    ],
    [
      "i",
      "r"
    ],
    [
      "ma",
      "ke</w>"
    ],
    [
      "we",
      "ll"
    ],
    [
      "ear",
      "</w>"
    ],
    [
      "l",
      "u"
    ],
    [
      "i",
      "i"
    ],
    [
      "ar",
      "</w>"
    ],
    [
      "c",
      "or"
    ],
    [
      "en",
      "t</w>"
    ],
    [
      "ma",
      "y</w>"
    ],
    [
      "up",
      "on</w>"
    ],
    [
      "i",
      "us:</w>"
    ],
    [
      "l",
      "an"
    ],
    [
      "d",
      "y</w>"
    ],
    [
      "g",
      "e</w>"
    ],
    [
      "you",
      ",</w>"
    ],
    [
      "m",
      "ust</w>"
    ],
    [
      "gh",
      "</w>"
    ],
    [
      "h",
      "e"
    ],
    [
      "t",
      ".</w>"
    ],
    [
      "l",
      "ou"
    ],
    [
      "j",
      "u"
    ],
    [
      "t",
      "ru"
    ],
    [
      "sh",
      "ould</w>"
    ],
    [
      "k",
      "ing"
    ],
    [
      "m",
      "e,</w>"
    ],
    [
      "th",
      ",</w>"
    ],
    [
      "t",
      "s</w>"
    ],
    [
      "lo",
      "v"
    ],
    [
      "p",
      "u"
    ],
    [
      "a",
      "ga"
    ],
    [
      "ed",
      "war"
    ],
    [
      "p",
      "r"
    ],
    [
      "ti",
      "o:</w>"
    ],
    [
      "s",
      "er"
    ],
    [
      "d",
      ";</w>"
    ],
    [
      "s",
      "o"
    ],
    [
      "w",
      "</w>"
    ],
    [
      "h",
      "ere</w>"
    ],
    [
      "'t",
      "is</w>"
    ],
    [
      "li",
      "f"
    ],
    [
      "sp",
      "ea"
    ],
    [
      "e",
      ";</w>"
    ],
    [
      "ha",
      "d</w>"
    ],
    [
      "s",
      ";</w>"
    ],
    [
      "sir",
      ",</w>"
    ],
    [
      "t",
      "en"
    ],
    [
      "st",
      "a"
    ],
    [
      "y",
      "et</w>"
    ],
    [
      "g",
      "ent"
    ],
    [
      "the",
      "m</w>"
    ],
    [
      "l",
      "oo"
    ],
    [
      "som",
      "e</w>"
    ],
    [
      "y",
      "or"
    ],
    [
      "d",
      "es"
    ],
    [
      "e",
      "x"
    ],
    [
      "m",
      "u"
    ],
    [
      "ou",
      "t</w>"
    ],
    [
      "ther",
      "e"
    ],
    [
      "wh",
      "ere</w>"
    ],
    [
      "c",
      "an"
    ],
    [
      "fir",
      "st</w>"
    ],
    [
      "c",
      "l"
    ],
    [
      "ta",
      "ke</w>"
    ],
    [
      "di",
      "d</w>"
    ],
    [
      "ti",
      "on"
    ],
    [
      "c",
      "u"
    ],
    [
      "for",
      "e</w>"
    ],
    [
      "i",
      "s"
    ],
    [
      "p",
      "la"
    ],
    [
      "th",
      "es"
    ],
    [
      "e",
      "p"
    ],
    [
      "gi",
      "ve</w>"
    ],
    [
      "v",
      "o"
    ],
    [
      "s",
      "en"
    ],
    [
      "richar",
      "d</w>"
    ],
    [
      "g",
      "u"
    ],
    [
      "h",
      "on"
    ],
    [
      "k",
      "now</w>"
    ],
    [
      "sa",
      "y</w>"
    ],
    [
      "aga",
      "in"
    ],
    [
      "ter",
      ":</w>"
    ],
    [
      "p",
      "ra"
    ],
    [
      "thes",
      "e</w>"
    ],
    [
      "v",
      "en"
    ],
    [
      "cen",
      "tio:</w>"
    ],
    [
      "g",
      "o</w>"
    ],
    [
      "su",
      "ch</w>"
    ],
    [
      "p",
      "ri"
    ],
    [
      "a",
      "m</w>"
    ],
    [
      "ver",
      "y</w>"
    ],
    [
      "es",
      ":</w>"
    ],
    [
      "v",
      "in"
    ],
    [
      "mo",
      "st</w>"
    ],
    [
      "st",
      "i"
    ],
    [
      "g",
      "lou"
    ],
    [
      "glou",
      "ces"
    ],
    [
      "th",
      "ere</w>"
    ],
    [
      "a",
      "c"
    ],
    [
      "j",
      "o"
    ],
    [
      "e",
      "y"
    ],
    [
      "o",
      "ld</w>"
    ],
    [
      "g",
      "re"
    ],
    [
      "t",
      "y</w>"
    ],
    [
      "m",
      "p"
    ],
    [
      "ur",
      "e</w>"
    ],
    [
      "m",
      "er"
    ],
    [
      "com",
      "e,</w>"
    ],
    [
      "m",
      "an</w>"
    ],
    [
      "m",
      "on"
    ],
    [
      "ther",
      ",</w>"
    ],
    [
      "we",
      "ll</w>"
    ],
    [
      "fu",
      "l</w>"
    ],
    [
      "s",
      "in"
    ],
    [
      "ti",
      "on</w>"
    ],
    [
      "p",
      "p"
    ],
    [
      "yor",
      "k"
    ],
    [
      "c",
      "an</w>"
    ],
    [
      "wh",
      "o</w>"
    ],
    [
      "now",
      ",</w>"
    ],
    [
      "ow",
      "n</w>"
    ],
    [
      "se",
      "e</w>"
    ],
    [
      "sel",
      "f"
    ],
    [
      "en",
      ",</w>"
    ],
    [
      "k",
      "e"
    ],
    [
      "que",
      "en</w>"
    ],
    [
      "st",
      "er"
    ],
    [
      "hen",
      "ry</w>"
    ],
    [
      "lo",
      "ve</w>"
    ],
    [
      "te",
      "ll</w>"
    ],
    [
      "c",
      "oun"
    ],
    [
      "sel",
      "f</w>"
    ],
    [
      "t",
      "ed</w>"
    ],
    [
      "a",
      "l</w>"
    ],
    [
      "d",
      "er</w>"
    ],
    [
      "a",
      "ll"
    ],
    [
      "ce",
      ":</w>"
    ],
    [
      "d",
      "s,</w>"
    ],
    [
      "lor",
      "d</w>"
    ],
    [
      "ow",
      "n"
    ],
    [
      "--",
      "</w>"
    ],
    [
      "rom",
      "e"
    ],
    [
      "fri",
      "en"
    ],
    [
      "n",
      "or</w>"
    ],
    [
      "m",
      ",</w>"
    ],
    [
      "war",
      "wi"
    ],
    [
      "b",
      "er"
    ],
    [
      "glouces",
      "ter:</w>"
    ],
    [
      "a",
      "f"
    ],
    [
      "et",
      ":</w>"
    ],
    [
      "l",
      "t</w>"
    ],
    [
      "pr",
      "in"
    ],
    [
      "th",
      "ing</w>"
    ],
    [
      "y",
      ";</w>"
    ],
    [
      "v",
      "es</w>"
    ],
    [
      "h",
      "an"
    ],
    [
      "k",
      ",</w>"
    ],
    [
      "p",
      "et"
    ],
    [
      "se",
      "d</w>"
    ],
    [
      "a",
      "u"
    ],
    [
      "en",
      "ce</w>"
    ],
    [
      "g",
      "ar"
    ],
    [
      "t",
      "'s</w>"
    ],
    [
      "us",
      "e</w>"
    ],
    [
      "h",
      "or"
    ],
    [
      "lor",
      "d,</w>"
    ],
    [
      "vin",
      "centio:</w>"
    ],
    [
      "a",
      "wa"
    ],
    [
      "sh",
      "</w>"
    ],
    [
      "wh",
      "y,</w>"
    ],
    [
      "b",
      "rea"
    ],
    [
      "e",
      "?</w>"
    ],
    [
      "g",
      "rea"
    ],
    [
      "ou",
      "l"
    ],
    [
      "min",
      "e</w>"
    ],
    [
      "ma",
      "de</w>"
    ],
    [
      "st",
      ",</w>"
    ],
    [
      "to",
      "o</w>"
    ],
    [
      "up",
      "</w>"
    ],
    [
      "s",
      "we"
    ],
    [
      "t",
      "e</w>"
    ],
    [
      "the",
      "e,</w>"
    ],
    [
      "a",
      "b"
    ],
    [
      "p",
      "re"
    ],
    [
      "i",
      "l"
    ],
    [
      "om",
      "</w>"
    ],
    [
      "b",
      "an"
    ],
    [
      "d",
      "'s</w>"
    ],
    [
      "e",
      "!</w>"
    ],
    [
      "s",
      "w"
    ],
    [
      "ti",
      "me</w>"
    ],
    [
      "st",
      "an"
    ],
    [
      "ne",
      "ver</w>"
    ],
    [
      "a",
      "d"
    ],
    [
      "an",
      "y</w>"
    ],
    [
      "cor",
      "i"
    ],
    [
      "e",
      "v"
    ],
    [
      "p",
      "res"
    ],
    [
      "s",
      "e,</w>"
    ],
    [
      "b",
      "r"
    ],
    [
      "t",
      "u"
    ],
    [
      "e",
      "p</w>"
    ],
    [
      "b",
      "ra"
    ],
    [
      "ing",
      ",</w>"
    ],
    [
      "er",
      ":</w>"
    ],
    [
      "di",
      "s"
    ],
    [
      "f",
      "o"
    ],
    [
      "gent",
      "le"
    ],
    [
      "i",
      "g"
    ],
    [
      "pet",
      "ru"
    ],
    [
      "t",
      "r"
    ],
    [
      "cori",
      "ol"
    ],
    [
      "h",
      "ar"
    ],
    [
      "petru",
      "chi"
    ],
    [
      "c",
      "e.</w>"
    ],
    [
      "hear",
      "</w>"
    ],
    [
      "york",
      ":</w>"
    ],
    [
      "do",
      "th</w>"
    ],
    [
      "p",
      "lea"
    ],
    [
      "s",
      "!</w>"
    ],
    [
      "thin",
      "k</w>"
    ],
    [
      "in",
      "ius:</w>"
    ],
    [
      "m",
      "y"
    ],
    [
      "p",
      "i"
    ],
    [
      "e",
      "'s</w>"
    ],
    [
      "d",
      "on"
    ],
    [
      "e",
      "d,</w>"
    ],
    [
      "th",
      "i"
    ],
    [
      "well",
      ",</w>"
    ],
    [
      "t",
      "er</w>"
    ],
    [
      "coriol",
      "an"
    ],
    [
      "warwi",
      "ck"
    ],
    [
      "be",
      "ing</w>"
    ],
    [
      "c",
      "ar"
    ],
    [
      "edwar",
      "d</w>"
    ],
    [
      "mu",
      "ch</w>"
    ],
    [
      "ser",
      "v"
    ],
    [
      "t",
      "w"
    ],
    [
      "g",
      "</w>"
    ],
    [
      "ju",
      "li"
    ],
    [
      "k",
      "now"
    ],
    [
      "ong",
      "</w>"
    ],
    [
      "se",
      "e"
    ],
    [
      "spea",
      "k</w>"
    ],
    [
      "c",
      "o"
    ],
    [
      "can",
      "not</w>"
    ],
    [
      "s",
      "on</w>"
    ],
    [
      "ha",
      "st"
    ],
    [
      "k",
      "s</w>"
    ],
    [
      "men",
      "en"
    ],
    [
      "n",
      "or"
    ],
    [
      "t",
      "ra"
    ],
    [
      "t",
      "ur"
    ],
    [
      "b",
      "es"
    ],
    [
      "no",
      "ble</w>"
    ],
    [
      "d",
      "?</w>"
    ],
    [
      "tt",
      "er</w>"
    ],
    [
      "'",
      "st</w>"
    ],
    [
      "k",
      "in"
    ],
    [
      "la",
      "dy</w>"
    ],
    [
      "b",
      "ol"
    ],
    [
      "i",
      "v"
    ],
    [
      "thou",
      "gh</w>"
    ],
    [
      "a",
      "s"
    ],
    [
      "s",
      "?</w>"
    ],
    [
      "se",
      "con"
    ],
    [
      "c",
      "ur"
    ],
    [
      "l",
      "ess</w>"
    ],
    [
      "a",
      "y,</w>"
    ],
    [
      "be",
      "ll"
    ],
    [
      "d",
      "!</w>"
    ],
    [
      "him",
      ",</w>"
    ],
    [
      "t",
      "y"
    ],
    [
      "m",
      "e.</w>"
    ],
    [
      "secon",
      "d</w>"
    ],
    [
      "t",
      "ter"
    ],
    [
      "go",
      "d</w>"
    ],
    [
      "rome",
      "o:</w>"
    ],
    [
      "t",
      ";</w>"
    ],
    [
      "th",
      ":</w>"
    ],
    [
      "be",
      "en</w>"
    ],
    [
      "e",
      "e"
    ],
    [
      "en",
      ":</w>"
    ],
    [
      "h",
      "ou"
    ],
    [
      "t",
      "or"
    ],
    [
      "w",
      "om"
    ],
    [
      "wh",
      "o"
    ],
    [
      "c",
      "la"
    ],
    [
      "f",
      "in"
    ],
    [
      "menen",
      "ius:</w>"
    ],
    [
      "b",
      "ea"
    ],
    [
      "g",
      "e"
    ],
    [
      "be",
      "fore</w>"
    ],
    [
      "h",
      "ol"
    ],
    [
      "wi",
      "ll"
    ],
    [
      "again",
      "st</w>"
    ],
    [
      "c",
      "t</w>"
    ],
    [
      "it",
      ".</w>"
    ],
    [
      "i",
      "sa"
    ],
    [
      "n",
      "ess</w>"
    ],
    [
      "petruchi",
      "o:</w>"
    ],
    [
      "li",
      "v"
    ],
    [
      "oun",
      "d</w>"
    ],
    [
      "f",
      "ar"
    ],
    [
      "h",
      "o"
    ],
    [
      "ll",
      "ow"
    ],
    [
      "no",
      ",</w>"
    ],
    [
      "t",
      "ri"
    ],
    [
      "u",
      "l"
    ],
    [
      "'",
      "d,</w>"
    ],
    [
      "er",
      "s</w>"
    ],
    [
      "him",
      ".</w>"
    ],
    [
      "p",
      "ea"
    ],
    [
      "es",
      ".</w>"
    ],
    [
      "fa",
      "ther"
    ],
    [
      "ne",
      "w"
    ],
    [
      "swe",
      "et</w>"
    ],
    [
      "n",
      "ur"
    ],
    [
      "s",
      "or"
    ],
    [
      "coriolan",
      "us:</w>"
    ],
    [
      "ed",
      ".</w>"
    ],
    [
      "er",
      ",</w>"
    ],
    [
      "fa",
      "ir</w>"
    ],
    [
      "on",
      ",</w>"
    ],
    [
      "at",
      "e</w>"
    ],
    [
      "cl",
      "ar"
    ],
    [
      "grea",
      "t</w>"
    ],
    [
      "i",
      "t,</w>"
    ],
    [
      "po",
      "or</w>"
    ],
    [
      "wi",
      "f"
    ],
    [
      "c",
      "row"
    ],
    [
      "f",
      "oo"
    ],
    [
      "ha",
      "st</w>"
    ],
    [
      "man",
      ":</w>"
    ],
    [
      "us",
      ",</w>"
    ],
    [
      "d",
      "r"
    ],
    [
      "you",
      ".</w>"
    ],
    [
      "en",
      "g"
    ],
    [
      "th",
      ".</w>"
    ],
    [
      "bl",
      "oo"
    ],
    [
      "loo",
      "k</w>"
    ],
    [
      "m",
      "en</w>"
    ],
    [
      "s",
      "ea"
    ],
    [
      "th",
      "us</w>"
    ],
    [
      "ci",
      "ti"
    ],
    [
      "ha",
      "m"
    ],
    [
      "r",
      "ow</w>"
    ],
    [
      "re",
      "d</w>"
    ],
    [
      "th",
      "at"
    ],
    [
      "ti",
      "ll</w>"
    ],
    [
      "wh",
      "er"
    ],
    [
      "bu",
      "ck"
    ],
    [
      "ca",
      "ll</w>"
    ],
    [
      "citi",
      "z"
    ],
    [
      "g",
      "ri"
    ],
    [
      "b",
      "le"
    ],
    [
      "i",
      "d</w>"
    ],
    [
      "in",
      "a:</w>"
    ],
    [
      "sh",
      "i"
    ],
    [
      "t",
      "oo"
    ],
    [
      "t",
      "ran"
    ],
    [
      "bo",
      "th</w>"
    ],
    [
      "da",
      "u"
    ],
    [
      "g",
      "on"
    ],
    [
      "mi",
      "ll"
    ],
    [
      "no",
      "t,</w>"
    ],
    [
      "y",
      "s</w>"
    ],
    [
      "you",
      "r"
    ],
    [
      "bol",
      "ing"
    ],
    [
      "boling",
      "bro"
    ],
    [
      "na",
      "y,</w>"
    ],
    [
      "ev",
      "en</w>"
    ],
    [
      "ii",
      "i"
    ],
    [
      "iii",
      ":</w>"
    ],
    [
      "ing",
      "s</w>"
    ],
    [
      "wha",
      "t,</w>"
    ],
    [
      "y",
      "!</w>"
    ],
    [
      "'",
      "er</w>"
    ],
    [
      "c",
      "ou"
    ],
    [
      "c",
      "our"
    ],
    [
      "el",
      "y</w>"
    ],
    [
      "t",
      "un"
    ],
    [
      "'",
      "t</w>"
    ],
    [
      "com",
      "es</w>"
    ],
    [
      "e",
      "f"
    ],
    [
      "of",
      "f"
    ],
    [
      "se",
      ".</w>"
    ],
    [
      "wh",
      "y</w>"
    ],
    [
      "who",
      "se</w>"
    ],
    [
      "wi",
      "th"
    ],
    [
      "an",
      "t</w>"
    ],
    [
      "en",
      "ce:</w>"
    ],
    [
      "man",
      "y</w>"
    ],
    [
      "st",
      "er</w>"
    ],
    [
      "th",
      "an"
    ],
    [
      "y",
      "?</w>"
    ],
    [
      "e",
      "ver</w>"
    ],
    [
      "isa",
      "bell"
    ],
    [
      "se",
      ":</w>"
    ],
    [
      "s",
      "la"
    ],
    [
      "the",
      "m"
    ],
    [
      "a",
      "th"
    ],
    [
      "d",
      "ed</w>"
    ],
    [
      "g",
      "e,</w>"
    ],
    [
      "le",
      "on"
    ],
    [
      "lea",
      "ve</w>"
    ],
    [
      "leon",
      "t"
    ],
    [
      "m",
      "ur"
    ],
    [
      "buck",
      "ing"
    ],
    [
      "f",
      "l"
    ],
    [
      "th",
      "o"
    ],
    [
      "to",
      "-"
    ],
    [
      "en",
      "d</w>"
    ],
    [
      "f",
      "ear"
    ],
    [
      "ong",
      "u"
    ],
    [
      "p",
      "it"
    ],
    [
      "t",
      "ongu"
    ],
    [
      "d",
      "st</w>"
    ],
    [
      "i",
      "m"
    ],
    [
      "isabell",
      "a:</w>"
    ],
    [
      "p",
      "ow"
    ],
    [
      "p",
      "ur"
    ],
    [
      "s",
      "wor"
    ],
    [
      "we",
      "l"
    ],
    [
      "be",
      "ar</w>"
    ],
    [
      "h",
      "el"
    ],
    [
      "i",
      "sh"
    ],
    [
      "st",
      "and</w>"
    ],
    [
      "leont",
      "es:</w>"
    ],
    [
      "li",
      "e"
    ],
    [
      "m",
      "ent"
    ],
    [
      "s",
      "o,</w>"
    ],
    [
      "si",
      "c"
    ],
    [
      "t",
      "ch"
    ],
    [
      "d",
      "ly</w>"
    ],
    [
      "juli",
      "et:</w>"
    ],
    [
      "l",
      ",</w>"
    ],
    [
      "s",
      "le"
    ],
    [
      "tho",
      "se</w>"
    ],
    [
      "un",
      "to</w>"
    ],
    [
      "fa",
      "ther</w>"
    ],
    [
      "g",
      "oo"
    ],
    [
      "mi",
      "o:</w>"
    ],
    [
      "you",
      "n"
    ],
    [
      "n",
      ",</w>"
    ],
    [
      "tran",
      "i"
    ],
    [
      "b",
      "ri"
    ],
    [
      "chi",
      "l"
    ],
    [
      "da",
      "y</w>"
    ],
    [
      "mar",
      "ci"
    ],
    [
      "ang",
      "el"
    ],
    [
      "bu",
      "r"
    ],
    [
      "ca",
      "l"
    ],
    [
      "gh",
      "t,</w>"
    ],
    [
      "lu",
      "ci"
    ],
    [
      "th",
      "en,</w>"
    ],
    [
      "w",
      "r"
    ],
    [
      "pra",
      "y</w>"
    ],
    [
      "v",
      "ol"
    ],
    [
      "an",
      "ce</w>"
    ],
    [
      "hear",
      "t</w>"
    ],
    [
      "k",
      "es</w>"
    ],
    [
      "l",
      "e,</w>"
    ],
    [
      "li",
      "tt"
    ],
    [
      "pa",
      "s"
    ],
    [
      "w",
      "at"
    ],
    [
      "d",
      "ing</w>"
    ],
    [
      "in",
      ",</w>"
    ],
    [
      "be",
      "g"
    ],
    [
      "t",
      "?</w>"
    ],
    [
      "ing",
      ".</w>"
    ],
    [
      "me",
      "an"
    ],
    [
      "w",
      "in"
    ],
    [
      "h",
      "op"
    ],
    [
      "mar",
      "gar"
    ],
    [
      "sic",
      "inius:</w>"
    ],
    [
      "ca",
      "pu"
    ],
    [
      "men",
      "t</w>"
    ],
    [
      "n",
      "es"
    ],
    [
      "se",
      "t</w>"
    ],
    [
      "vi",
      "r"
    ],
    [
      "capu",
      "le"
    ],
    [
      "st",
      "r"
    ],
    [
      "c",
      "ould</w>"
    ],
    [
      "ci",
      "ous</w>"
    ],
    [
      "e",
      "li"
    ],
    [
      "ha",
      "pp"
    ],
    [
      "ou",
      "l</w>"
    ],
    [
      "c",
      "lif"
    ],
    [
      "ca",
      "mill"
    ],
    [
      "pu",
      "t</w>"
    ],
    [
      "t",
      "ing</w>"
    ],
    [
      "th",
      "r"
    ],
    [
      "a",
      "be"
    ],
    [
      "me",
      ";</w>"
    ],
    [
      "v",
      "e,</w>"
    ],
    [
      "b",
      "en"
    ],
    [
      "bolingbro",
      "k"
    ],
    [
      "d",
      "en"
    ],
    [
      "er",
      ".</w>"
    ],
    [
      "es",
      ";</w>"
    ],
    [
      "hea",
      "ven"
    ],
    [
      "hon",
      "our"
    ],
    [
      "luci",
      "o:</w>"
    ],
    [
      "mur",
      "der"
    ],
    [
      "w",
      "o"
    ],
    [
      "a",
      "p"
    ],
    [
      "bl",
      "ood</w>"
    ],
    [
      "c",
      "es</w>"
    ],
    [
      "ca",
      "use</w>"
    ],
    [
      "iv",
      ":</w>"
    ],
    [
      "b",
      "us"
    ],
    [
      "eli",
      "z"
    ],
    [
      "eliz",
      "abe"
    ],
    [
      "h",
      ",</w>"
    ],
    [
      "h",
      "om"
    ],
    [
      "su",
      "b"
    ],
    [
      "con",
      "t"
    ],
    [
      "e",
      "t,</w>"
    ],
    [
      "h",
      "us"
    ],
    [
      "k",
      "ne"
    ],
    [
      "ni",
      "ght"
    ],
    [
      "qu",
      "i"
    ],
    [
      "ath",
      "ar"
    ],
    [
      "ch",
      ",</w>"
    ],
    [
      "dea",
      "th</w>"
    ],
    [
      "k",
      "athar"
    ],
    [
      "o",
      "'</w>"
    ],
    [
      "p",
      "ti"
    ],
    [
      "sa",
      "y,</w>"
    ],
    [
      "there",
      "fore</w>"
    ],
    [
      "bi",
      "d</w>"
    ],
    [
      "bro",
      "ther"
    ],
    [
      "ll",
      "ow</w>"
    ],
    [
      "s",
      "oul"
    ],
    [
      "tru",
      "e</w>"
    ],
    [
      "tw",
      "o</w>"
    ],
    [
      "ar",
      "m"
    ],
    [
      "elizabe",
      "th:</w>"
    ],
    [
      "ou",
      "gh</w>"
    ],
    [
      "r",
      "y,</w>"
    ],
    [
      "re",
      "e</w>"
    ],
    [
      "s",
      "ol"
    ],
    [
      "sin",
      "ce</w>"
    ],
    [
      "wh",
      "om</w>"
    ],
    [
      "be",
      "tter</w>"
    ],
    [
      "bro",
      "ther</w>"
    ],
    [
      "litt",
      "le</w>"
    ],
    [
      "ma",
      "da"
    ],
    [
      "na",
      "me</w>"
    ],
    [
      "p",
      "om"
    ],
    [
      "ro",
      "y"
    ],
    [
      "t",
      "!</w>"
    ],
    [
      "v",
      "ed</w>"
    ],
    [
      "a",
      "t,</w>"
    ],
    [
      "b",
      "ru"
    ],
    [
      "bucking",
      "ham"
    ],
    [
      "com",
      "p"
    ],
    [
      "h",
      "old</w>"
    ],
    [
      "sp",
      "i"
    ],
    [
      "st",
      ":</w>"
    ],
    [
      "d",
      "ou"
    ],
    [
      "d",
      "ra"
    ],
    [
      "k",
      "i"
    ],
    [
      "pe",
      "op"
    ],
    [
      "pro",
      "vo"
    ],
    [
      "son",
      ",</w>"
    ],
    [
      "bu",
      "t,</w>"
    ],
    [
      "far",
      "e"
    ],
    [
      "for",
      "tun"
    ],
    [
      "ma",
      "ster"
    ],
    [
      "mi",
      "ght</w>"
    ],
    [
      "ta",
      "l"
    ],
    [
      "b",
      "or"
    ],
    [
      "ck",
      ",</w>"
    ],
    [
      "d",
      "rea"
    ],
    [
      "e",
      "l</w>"
    ],
    [
      "lif",
      "e</w>"
    ],
    [
      "st",
      "res"
    ],
    [
      "warwick",
      ":</w>"
    ],
    [
      "ba",
      "pti"
    ],
    [
      "i",
      ",</w>"
    ],
    [
      "mi",
      "s"
    ],
    [
      "no",
      "thing</w>"
    ],
    [
      "t",
      "ear"
    ],
    [
      "t",
      "s,</w>"
    ],
    [
      "capule",
      "t:</w>"
    ],
    [
      "ce",
      ";</w>"
    ],
    [
      "citiz",
      "en:</w>"
    ],
    [
      "fa",
      "i"
    ],
    [
      "g",
      "ru"
    ],
    [
      "ii",
      ":</w>"
    ],
    [
      "ll",
      ",</w>"
    ],
    [
      "n",
      "at"
    ],
    [
      "s",
      "un"
    ],
    [
      "wa",
      "y</w>"
    ],
    [
      "e",
      "m"
    ],
    [
      "f",
      "ear</w>"
    ],
    [
      "hor",
      "ten"
    ],
    [
      "horten",
      "si"
    ],
    [
      "k",
      "e,</w>"
    ],
    [
      "ke",
      "ep</w>"
    ],
    [
      "ou",
      "ght</w>"
    ],
    [
      "wher",
      "e"
    ],
    [
      "e",
      "very</w>"
    ],
    [
      "gh",
      "ter"
    ],
    [
      "king",
      ",</w>"
    ],
    [
      "sti",
      "ll</w>"
    ],
    [
      ",",
      "--</w>"
    ],
    [
      "t",
      "es"
    ],
    [
      "br",
      "ing</w>"
    ],
    [
      "re",
      "p"
    ],
    [
      "gent",
      "le</w>"
    ],
    [
      "l",
      "y,</w>"
    ],
    [
      "la",
      "d"
    ],
    [
      "y",
      "'s</w>"
    ],
    [
      "sp",
      "er"
    ],
    [
      "t",
      "us:</w>"
    ],
    [
      "um",
      "ber"
    ],
    [
      "an",
      "t:</w>"
    ],
    [
      "bolingbrok",
      "e:</w>"
    ],
    [
      "fri",
      "ar</w>"
    ],
    [
      "g",
      "en"
    ],
    [
      "v",
      "a"
    ],
    [
      "le",
      "d</w>"
    ],
    [
      "man",
      ",</w>"
    ],
    [
      "sp",
      "o"
    ],
    [
      "st",
      "ri"
    ],
    [
      "ti",
      "m"
    ],
    [
      "an",
      "sw"
    ],
    [
      "c",
      "ra"
    ],
    [
      "f",
      "f"
    ],
    [
      "in",
      "t</w>"
    ],
    [
      "l",
      "ong</w>"
    ],
    [
      "s",
      "ur"
    ],
    [
      "t",
      "ow"
    ],
    [
      "bru",
      "tus:</w>"
    ],
    [
      "buckingham",
      ":</w>"
    ],
    [
      "g",
      "o,</w>"
    ],
    [
      "gra",
      "ce</w>"
    ],
    [
      "in",
      "to</w>"
    ],
    [
      "mi",
      "stres"
    ],
    [
      "nur",
      "se:</w>"
    ],
    [
      "si",
      "g"
    ],
    [
      "th",
      "ir"
    ],
    [
      "youn",
      "g</w>"
    ],
    [
      "an",
      "o"
    ],
    [
      "be",
      "ar"
    ],
    [
      "c",
      "ha"
    ],
    [
      "s",
      "ure</w>"
    ],
    [
      "that",
      "'s</w>"
    ],
    [
      "trani",
      "o:</w>"
    ],
    [
      "wor",
      "l"
    ],
    [
      "b",
      "ar"
    ],
    [
      "c",
      "lo"
    ],
    [
      "i",
      "'</w>"
    ],
    [
      "j",
      "e"
    ],
    [
      "self",
      ",</w>"
    ],
    [
      "spea",
      "k"
    ],
    [
      "angel",
      "o:</w>"
    ],
    [
      "d",
      "ar"
    ],
    [
      "fa",
      "l"
    ],
    [
      "fin",
      "d</w>"
    ],
    [
      "margar",
      "et:</w>"
    ],
    [
      "on",
      "ce</w>"
    ],
    [
      "st",
      "ra"
    ],
    [
      "c",
      "ed</w>"
    ],
    [
      "ca",
      "me</w>"
    ],
    [
      "com",
      "for"
    ],
    [
      "d",
      "ear</w>"
    ],
    [
      "d",
      "s.</w>"
    ],
    [
      "do",
      "st</w>"
    ],
    [
      "in",
      "de"
    ],
    [
      "le",
      ":</w>"
    ],
    [
      "my",
      "self</w>"
    ],
    [
      "se",
      "s</w>"
    ],
    [
      "t",
      "en</w>"
    ],
    [
      "con",
      "f"
    ],
    [
      "en",
      "ce,</w>"
    ],
    [
      "ba",
      "l"
    ],
    [
      "c",
      "re"
    ],
    [
      "clif",
      "for"
    ],
    [
      "d",
      "own</w>"
    ],
    [
      "es",
      "cal"
    ],
    [
      "h",
      "</w>"
    ],
    [
      "le",
      "t's</w>"
    ],
    [
      "ll",
      "a"
    ],
    [
      "mar",
      "ri"
    ],
    [
      "st",
      "ru"
    ],
    [
      "th",
      "at,</w>"
    ],
    [
      "u",
      "di"
    ],
    [
      "d",
      "one</w>"
    ],
    [
      "el",
      "se</w>"
    ],
    [
      "hon",
      "our</w>"
    ],
    [
      "le",
      "s</w>"
    ],
    [
      "of",
      "fi"
    ],
    [
      "po",
      "li"
    ],
    [
      "pom",
      "pe"
    ]
  ],
  "vocab": {
    "<unk>": 0,
    "!": 1,
    "$": 2,
    "&": 3,
    "'": 4,
    ",": 5,
    "-": 6,
    ".": 7,
    "0": 8,
    ":": 9,
    ";": 10,
    "</w>": 11,
    "?": 12,
    "a": 13,
    "b": 14,
    "c": 15,
    "d": 16,
    "e": 17,
    "f": 18,
    "g": 19,
    "h": 20,
    "i": 21,
    "j": 22,
    "k": 23,
    "l": 24,
    "m": 25,
    "n": 26,
    "o": 27,
    "p": 28,
    "q": 29,
    "r": 30,
    "s": 31,
    "t": 32,
    "u": 33,
    "v": 34,
    "w": 35,
    "x": 36,
    "y": 37,
    "z": 38,
    "e</w>": 39,
    "th": 40,
    ",</w>": 41,
    "t</w>": 42,
    "s</w>": 43,
    "d</w>": 44,
    "ou": 45,
    "an": 46,
    "er": 47,
    "in": 48,
    "y</w>": 49,
    ":</w>": 50,
    "or": 51,
    "en": 52,
    "o</w>": 53,
    "ar": 54,
    ".</w>": 55,
    "on": 56,
    "ll": 57,
    "the</w>": 58,
    "ha": 59,
    "and</w>": 60,
    "es": 61,
    "is</w>": 62,
    "you": 63,
    "f</w>": 64,
    "to</w>": 65,
    "i</w>": 66,
    "ing": 67,
    "ll</w>": 68,
    "no": 69,
    "wi": 70,
    "om": 71,
    "ea": 72,
    "e,</w>": 73,
    "of</w>": 74,
    "st": 75,
    ";</w>": 76,
    "ch": 77,
    "er</w>": 78,
    "r</w>": 79,
    "for": 80,
    "th</w>": 81,
    "my</w>": 82,
    "a</w>": 83,
    "at</w>": 84,
    "li": 85,
    "in</w>": 86,
    "ve</w>": 87,
    "wh": 88,
    "ing</w>": 89,
    "ow": 90,
    "se": 91,
    "ti": 92,
    "ri": 93,
    "re": 94,
    "you</w>": 95,
    "that</w>": 96,
    "?</w>": 97,
    "us": 98,
    "the": 99,
    "le": 100,
    "en</w>": 101,
    "sh": 102,
    "be": 103,
    "ma": 104,
    "!</w>": 105,
    "oo": 106,
    "bu": 107,
    "gh": 108,
    "d,</w>": 109,
    "not</w>": 110,
    "ra": 111,
    "la": 112,
    "thou": 113,
    "for</w>": 114,
    "ear": 115,
    "m</w>": 116,
    "with</w>": 117,
    "on</w>": 118,
    "si": 119,
    "as</w>": 120,
    "'s</w>": 121,
    "st</w>": 122,
    "s,</w>": 123,
    "ke</w>": 124,
    "ed</w>": 125,
    "t,</w>": 126,
    "di": 127,
    "me</w>": 128,
    "hi": 129,
    "your</w>": 130,
    "ro": 131,
    "y,</w>": 132,
    "ld</w>": 133,
    "be</w>": 134,
    "it</w>": 135,
    "an</w>": 136,
    "com": 137,
    "es</w>": 138,
    "his</w>": 139,
    "o:</w>": 140,
    "ur": 141,
    "k</w>": 142,
    "un": 143,
    "ere</w>": 144,
    "sa": 145,
    "ch</w>": 146,
    "ca": 147,
    "he</w>": 148,
    "but</w>": 149,
    "have</w>": 150,
    "fa": 151,
    "this</w>": 152,
    "we": 153,
    "e.</w>": 154,
    "thou</w>": 155,
    "ce</w>": 156,
    "l</w>": 157,
    "wha": 158,
    "now": 159,
    "ta": 160,
    "mi": 161,
    "ther": 162,
    "sha": 163,
    "thy</w>": 164,
    "'d</w>": 165,
    "ol": 166,
    "or</w>": 167,
    "rom": 168,
    "se</w>": 169,
    "lo": 170,
    "sp": 171,
    "fi": 172,
    "ru": 173,
    "le</w>": 174,
    "our</w>": 175,
    "at": 176,
    "ed": 177,
    "it": 178,
    "rea": 179,
    "de": 180,
    "ould</w>": 181,
    "su": 182,
    "lor": 183,
    "will</w>": 184,
    "ne": 185,
    "ter": 186,
    "el": 187,
    "what</w>": 188,
    "war": 189,
    "ow</w>": 190,
    "us:</w>": 191,
    "con": 192,
    "so</w>": 193,
    "by</w>": 194,
    "me": 195,
    "ent": 196,
    "ck": 197,
    "n</w>": 198,
    "qu": 199,
    "are</w>": 200,
    "ci": 201,
    "ce": 202,
    "vi": 203,
    "wor": 204,
    "mor": 205,
    "shall</w>": 206,
    "whi": 207,
    "da": 208,
    "if</w>": 209,
    "ver": 210,
    "king</w>": 211,
    "wa": 212,
    "ly</w>": 213,
    "ood</w>": 214,
    "du": 215,
    "et": 216,
    "up": 217,
    "o,</w>": 218,
    "ther</w>": 219,
    "ir</w>": 220,
    "et</w>": 221,
    "man": 222,
    "pa": 223,
    "him</w>": 224,
    "po": 225,
    "res": 226,
    "mo": 227,
    "do</w>": 228,
    "now</w>": 229,
    "hear": 230,
    "no</w>": 231,
    "her": 232,
    "oun": 233,
    "her</w>": 234,
    "mar": 235,
    "ga": 236,
    "ght</w>": 237,
    "s.</w>": 238,
    "sel": 239,
    "from": 240,
    "from</w>": 241,
    "te": 242,
    "bo": 243,
    "ba": 244,
    "ess</w>": 245,
    "ds</w>": 246,
    "pro": 247,
    "sir": 248,
    "go": 249,
    "him": 250,
    "good</w>": 251,
    "one</w>": 252,
    "'</w>": 253,
    "bl": 254,
    "to": 255,
    "do": 256,
    "men": 257,
    "'ll</w>": 258,
    "our": 259,
    "'t": 260,
    "d:</w>": 261,
    "d.</w>": 262,
    "est</w>": 263,
    "ran": 264,
    "which</w>": 265,
    "y.</w>": 266,
    "was</w>": 267,
    "gi": 268,
    "ong": 269,
    "p</w>": 270,
    "e:</w>": 271,
    "us</w>": 272,
    "dea": 273,
    "char": 274,
    "par": 275,
    "na": 276,
    "they</w>": 277,
    "would</w>": 278,
    "es,</w>": 279,
    "hea": 280,
    "all</w>": 281,
    "s:</w>": 282,
    "ght": 283,
    "lea": 284,
    "y:</w>": 285,
    "som": 286,
    "bro": 287,
    "how</w>": 288,
    "fe": 289,
    "of": 290,
    "than</w>": 291,
    "a:</w>": 292,
    "min": 293,
    "tt": 294,
    "their</w>": 295,
    "more</w>": 296,
    "per": 297,
    "ang": 298,
    "ry</w>": 299,
    "she</w>": 300,
    "hen": 301,
    "fu": 302,
    "bi": 303,
    "al": 304,
    "let</w>": 305,
    "ust</w>": 306,
    "hath</w>": 307,
    "ous</w>": 308,
    "thin": 309,
    "row": 310,
    "fir": 311,
    "--": 312,
    "we</w>": 313,
    "ce,</w>": 314,
    "ver</w>": 315,
    "thee</w>": 316,
    "were</w>": 317,
    "i'll</w>": 318,
    "ni": 319,
    "son": 320,
    "duke</w>": 321,
    "chi": 322,
    "um": 323,
    "when</w>": 324,
    "pe": 325,
    "cen": 326,
    "de</w>": 327,
    "then</w>": 328,
    "der": 329,
    "t:</w>": 330,
    "like</w>": 331,
    "op": 332,
    "fri": 333,
    "ble</w>": 334,
    "come</w>": 335,
    "gra": 336,
    "ces": 337,
    "ck</w>": 338,
    "richar": 339,
    "que": 340,
    "ir": 341,
    "make</w>": 342,
    "well": 343,
    "ear</w>": 344,
    "lu": 345,
    "ii": 346,
    "ar</w>": 347,
    "cor": 348,
    "ent</w>": 349,
    "may</w>": 350,
    "upon</w>": 351,
    "ius:</w>": 352,
    "lan": 353,
    "dy</w>": 354,
    "ge</w>": 355,
    "you,</w>": 356,
    "must</w>": 357,
    "gh</w>": 358,
    "he": 359,
    "t.</w>": 360,
    "lou": 361,
    "ju": 362,
    "tru": 363,
    "should</w>": 364,
    "king": 365,
    "me,</w>": 366,
    "th,</w>": 367,
    "ts</w>": 368,
    "lov": 369,
    "pu": 370,
    "aga": 371,
    "edwar": 372,
    "pr": 373,
    "tio:</w>": 374,
    "ser": 375,
    "d;</w>": 376,
    "so": 377,
    "w</w>": 378,
    "here</w>": 379,
    "'tis</w>": 380,
    "lif": 381,
    "spea": 382,
    "e;</w>": 383,
    "had</w>": 384,
    "s;</w>": 385,
    "sir,</w>": 386,
    "ten": 387,
    "sta": 388,
    "yet</w>": 389,
    "gent": 390,
    "them</w>": 391,
    "loo": 392,
    "some</w>": 393,
    "yor": 394,
    "des": 395,
    "ex": 396,
    "mu": 397,
    "out</w>": 398,
    "there": 399,
    "where</w>": 400,
    "can": 401,
    "first</w>": 402,
    "cl": 403,
    "take</w>": 404,
    "did</w>": 405,
    "tion": 406,
    "cu": 407,
    "fore</w>": 408,
    "is": 409,
    "pla": 410,
    "thes": 411,
    "ep": 412,
    "give</w>": 413,
    "vo": 414,
    "sen": 415,
    "richard</w>": 416,
    "gu": 417,
    "hon": 418,
    "know</w>": 419,
    "say</w>": 420,
    "again": 421,
    "ter:</w>": 422,
    "pra": 423,
    "these</w>": 424,
    "ven": 425,
    "centio:</w>": 426,
    "go</w>": 427,
    "such</w>": 428,
    "pri": 429,
    "am</w>": 430,
    "very</w>": 431,
    "es:</w>": 432,
    "vin": 433,
    "most</w>": 434,
    "sti": 435,
    "glou": 436,
    "glouces": 437,
    "there</w>": 438,
    "ac": 439,
    "jo": 440,
    "ey": 441,
    "old</w>": 442,
    "gre": 443,
    "ty</w>": 444,
    "mp": 445,
    "ure</w>": 446,
    "mer": 447,
    "come,</w>": 448,
    "man</w>": 449,
    "mon": 450,
    "ther,</w>": 451,
    "well</w>": 452,
    "ful</w>": 453,
    "sin": 454,
    "tion</w>": 455,
    "pp": 456,
    "york": 457,
    "can</w>": 458,
    "who</w>": 459,
    "now,</w>": 460,
    "own</w>": 461,
    "see</w>": 462,
    "self": 463,
    "en,</w>": 464,
    "ke": 465,
    "queen</w>": 466,
    "ster": 467,
    "henry</w>": 468,
    "love</w>": 469,
    "tell</w>": 470,
    "coun": 471,
    "self</w>": 472,
    "ted</w>": 473,
    "al</w>": 474,
    "der</w>": 475,
    "all": 476,
    "ce:</w>": 477,
    "ds,</w>": 478,
    "lord</w>": 479,
    "own": 480,
    "--</w>": 481,
    "rome": 482,
    "frien": 483,
    "nor</w>": 484,
    "m,</w>": 485,
    "warwi": 486,
    "ber": 487,
    "gloucester:</w>": 488,
    "af": 489,
    "et:</w>": 490,
    "lt</w>": 491,
    "prin": 492,
    "thing</w>": 493,
    "y;</w>": 494,
    "ves</w>": 495,
    "han": 496,
    "k,</w>": 497,
    "pet": 498,
    "sed</w>": 499,
    "au": 500,
    "ence</w>": 501,
    "gar": 502,
    "t's</w>": 503,
    "use</w>": 504,
    "hor": 505,
    "lord,</w>": 506,
    "vincentio:</w>": 507,
    "awa": 508,
    "sh</w>": 509,
    "why,</w>": 510,
    "brea": 511,
    "e?</w>": 512,
    "grea": 513,
    "oul": 514,
    "mine</w>": 515,
    "made</w>": 516,
    "st,</w>": 517,
    "too</w>": 518,
    "up</w>": 519,
    "swe": 520,
    "te</w>": 521,
    "thee,</w>": 522,
    "ab": 523,
    "pre": 524,
    "il": 525,
    "om</w>": 526,
    "ban": 527,
    "d's</w>": 528,
    "e!</w>": 529,
    "sw": 530,
    "time</w>": 531,
    "stan": 532,
    "never</w>": 533,
    "ad": 534,
    "any</w>": 535,
    "cori": 536,
    "ev": 537,
    "pres": 538,
    "se,</w>": 539,
    "br": 540,
    "tu": 541,
    "ep</w>": 542,
    "bra": 543,
    "ing,</w>": 544,
    "er:</w>": 545,
    "dis": 546,
    "fo": 547,
    "gentle": 548,
    "ig": 549,
    "petru": 550,
    "tr": 551,
    "coriol": 552,
    "har": 553,
    "petruchi": 554,
    "ce.</w>": 555,
    "hear</w>": 556,
    "york:</w>": 557,
    "doth</w>": 558,
    "plea": 559,
    "s!</w>": 560,
    "think</w>": 561,
    "inius:</w>": 562,
    "my": 563,
    "pi": 564,
    "e's</w>": 565,
    "don": 566,
    "ed,</w>": 567,
    "thi": 568,
    "well,</w>": 569,
    "ter</w>": 570,
    "coriolan": 571,
    "warwick": 572,
    "being</w>": 573,
    "car": 574,
    "edward</w>": 575,
    "much</w>": 576,
    "serv": 577,
    "tw": 578,
    "g</w>": 579,
    "juli": 580,
    "know": 581,
    "ong</w>": 582,
    "see": 583,
    "speak</w>": 584,
    "co": 585,
    "cannot</w>": 586,
    "son</w>": 587,
    "hast": 588,
    "ks</w>": 589,
    "menen": 590,
    "nor": 591,
    "tra": 592,
    "tur": 593,
    "bes": 594,
    "noble</w>": 595,
    "d?</w>": 596,
    "tter</w>": 597,
    "'st</w>": 598,
    "kin": 599,
    "lady</w>": 600,
    "bol": 601,
    "iv": 602,
    "though</w>": 603,
    "as": 604,
    "s?</w>": 605,
    "secon": 606,
    "cur": 607,
    "less</w>": 608,
    "ay,</w>": 609,
    "bell": 610,
    "d!</w>": 611,
    "him,</w>": 612,
    "ty": 613,
    "me.</w>": 614,
    "second</w>": 615,
    "tter": 616,
    "god</w>": 617,
    "romeo:</w>": 618,
    "t;</w>": 619,
    "th:</w>": 620,
    "been</w>": 621,
    "ee": 622,
    "en:</w>": 623,
    "hou": 624,
    "tor": 625,
    "wom": 626,
    "who": 627,
    "cla": 628,
    "fin": 629,
    "menenius:</w>": 630,
    "bea": 631,
    "ge": 632,
    "before</w>": 633,
    "hol": 634,
    "will": 635,
    "against</w>": 636,
    "ct</w>": 637,
    "it.</w>": 638,
    "isa": 639,
    "ness</w>": 640,
    "petruchio:</w>": 641,
    "liv": 642,
    "ound</w>": 643,
    "far": 644,
    "ho": 645,
    "llow": 646,
    "no,</w>": 647,
    "tri": 648,
    "ul": 649,
    "'d,</w>": 650,
    "ers</w>": 651,
    "him.</w>": 652,
    "pea": 653,
    "es.</w>": 654,
    "father": 655,
    "new": 656,
    "sweet</w>": 657,
    "nur": 658,
    "sor": 659,
    "coriolanus:</w>": 660,
    "ed.</w>": 661,
    "er,</w>": 662,
    "fair</w>": 663,
    "on,</w>": 664,
    "ate</w>": 665,
    "clar": 666,
    "great</w>": 667,
    "it,</w>": 668,
    "poor</w>": 669,
    "wif": 670,
    "crow": 671,
    "foo": 672,
    "hast</w>": 673,
    "man:</w>": 674,
    "us,</w>": 675,
    "dr": 676,
    "you.</w>": 677,
    "eng": 678,
    "th.</w>": 679,
    "bloo": 680,
    "look</w>": 681,
    "men</w>": 682,
    "sea": 683,
    "thus</w>": 684,
    "citi": 685,
    "ham": 686,
    "row</w>": 687,
    "red</w>": 688,
    "that": 689,
    "till</w>": 690,
    "wher": 691,
    "buck": 692,
    "call</w>": 693,
    "citiz": 694,
    "gri": 695,
    "ble": 696,
    "id</w>": 697,
    "ina:</w>": 698,
    "shi": 699,
    "too": 700,
    "tran": 701,
    "both</w>": 702,
    "dau": 703,
    "gon": 704,
    "mill": 705,
    "not,</w>": 706,
    "ys</w>": 707,
    "your": 708,
    "boling": 709,
    "bolingbro": 710,
    "nay,</w>": 711,
    "even</w>": 712,
    "iii": 713,
    "iii:</w>": 714,
    "ings</w>": 715,
    "what,</w>": 716,
    "y!</w>": 717,
    "'er</w>": 718,
    "cou": 719,
    "cour": 720,
    "ely</w>": 721,
    "tun": 722,
    "'t</w>": 723,
    "comes</w>": 724,
    "ef": 725,
    "off": 726,
    "se.</w>": 727,
    "why</w>": 728,
    "whose</w>": 729,
    "with": 730,
    "ant</w>": 731,
    "ence:</w>": 732,
    "many</w>": 733,
    "ster</w>": 734,
    "than": 735,
    "y?</w>": 736,
    "ever</w>": 737,
    "isabell": 738,
    "se:</w>": 739,
    "sla": 740,
    "them": 741,
    "ath": 742,
    "ded</w>": 743,
    "ge,</w>": 744,
    "leon": 745,
    "leave</w>": 746,
    "leont": 747,
    "mur": 748,
    "bucking": 749,
    "fl": 750,
    "tho": 751,
    "to-": 752,
    "end</w>": 753,
    "fear": 754,
    "ongu": 755,
    "pit": 756,
    "tongu": 757,
    "dst</w>": 758,
    "im": 759,
    "isabella:</w>": 760,
    "pow": 761,
    "pur": 762,
    "swor": 763,
    "wel": 764,
    "bear</w>": 765,
    "hel": 766,
    "ish": 767,
    "stand</w>": 768,
    "leontes:</w>": 769,
    "lie": 770,
    "ment": 771,
    "so,</w>": 772,
    "sic": 773,
    "tch": 774,
    "dly</w>": 775,
    "juliet:</w>": 776,
    "l,</w>": 777,
    "sle": 778,
    "those</w>": 779,
    "unto</w>": 780,
    "father</w>": 781,
    "goo": 782,
    "mio:</w>": 783,
    "youn": 784,
    "n,</w>": 785,
    "trani": 786,
    "bri": 787,
    "chil": 788,
    "day</w>": 789,
    "marci": 790,
    "angel": 791,
    "bur": 792,
    "cal": 793,
    "ght,</w>": 794,
    "luci": 795,
    "then,</w>": 796,
    "wr": 797,
    "pray</w>": 798,
    "vol": 799,
    "ance</w>": 800,
    "heart</w>": 801,
    "kes</w>": 802,
    "le,</w>": 803,
    "litt": 804,
    "pas": 805,
    "wat": 806,
    "ding</w>": 807,
    "in,</w>": 808,
    "beg": 809,
    "t?</w>": 810,
    "ing.</w>": 811,
    "mean": 812,
    "win": 813,
    "hop": 814,
    "margar": 815,
    "sicinius:</w>": 816,
    "capu": 817,
    "ment</w>": 818,
    "nes": 819,
    "set</w>": 820,
    "vir": 821,
    "capule": 822,
    "str": 823,
    "could</w>": 824,
    "cious</w>": 825,
    "eli": 826,
    "happ": 827,
    "oul</w>": 828,
    "clif": 829,
    "camill": 830,
    "put</w>": 831,
    "ting</w>": 832,
    "thr": 833,
    "abe": 834,
    "me;</w>": 835,
    "ve,</w>": 836,
    "ben": 837,
    "bolingbrok": 838,
    "den": 839,
    "er.</w>": 840,
    "es;</w>": 841,
    "heaven": 842,
    "honour": 843,
    "lucio:</w>": 844,
    "murder": 845,
    "wo": 846,
    "ap": 847,
    "blood</w>": 848,
    "ces</w>": 849,
    "cause</w>": 850,
    "iv:</w>": 851,
    "bus": 852,
    "eliz": 853,
    "elizabe": 854,
    "h,</w>": 855,
    "hom": 856,
    "sub": 857,
    "cont": 858,
    "et,</w>": 859,
    "hus": 860,
    "kne": 861,
    "night": 862,
    "qui": 863,
    "athar": 864,
    "ch,</w>": 865,
    "death</w>": 866,
    "kathar": 867,
    "o'</w>": 868,
    "pti": 869,
    "say,</w>": 870,
    "therefore</w>": 871,
    "bid</w>": 872,
    "brother": 873,
    "llow</w>": 874,
    "soul": 875,
    "true</w>": 876,
    "two</w>": 877,
    "arm": 878,
    "elizabeth:</w>": 879,
    "ough</w>": 880,
    "ry,</w>": 881,
    "ree</w>": 882,
    "sol": 883,
    "since</w>": 884,
    "whom</w>": 885,
    "better</w>": 886,
    "brother</w>": 887,
    "little</w>": 888,
    "mada": 889,
    "name</w>": 890,
    "pom": 891,
    "roy": 892,
    "t!</w>": 893,
    "ved</w>": 894,
    "at,</w>": 895,
    "bru": 896,
    "buckingham": 897,
    "comp": 898,
    "hold</w>": 899,
    "spi": 900,
    "st:</w>": 901,
    "dou": 902,
    "dra": 903,
    "ki": 904,
    "peop": 905,
    "provo": 906,
    "son,</w>": 907,
    "but,</w>": 908,
    "fare": 909,
    "fortun": 910,
    "master": 911,
    "might</w>": 912,
    "tal": 913,
    "bor": 914,
    "ck,</w>": 915,
    "drea": 916,
    "el</w>": 917,
    "life</w>": 918,
    "stres": 919,
    "warwick:</w>": 920,
    "bapti": 921,
    "i,</w>": 922,
    "mis": 923,
    "nothing</w>": 924,
    "tear": 925,
    "ts,</w>": 926,
    "capulet:</w>": 927,
    "ce;</w>": 928,
    "citizen:</w>": 929,
    "fai": 930,
    "gru": 931,
    "ii:</w>": 932,
    "ll,</w>": 933,
    "nat": 934,
    "sun": 935,
    "way</w>": 936,
    "em": 937,
    "fear</w>": 938,
    "horten": 939,
    "hortensi": 940,
    "ke,</w>": 941,
    "keep</w>": 942,
    "ought</w>": 943,
    "where": 944,
    "every</w>": 945,
    "ghter": 946,
    "king,</w>": 947,
    "still</w>": 948,
    ",--</w>": 949,
    "tes": 950,
    "bring</w>": 951,
    "rep": 952,
    "gentle</w>": 953,
    "ly,</w>": 954,
    "lad": 955,
    "y's</w>": 956,
    "sper": 957,
    "tus:</w>": 958,
    "umber": 959,
    "ant:</w>": 960,
    "bolingbroke:</w>": 961,
    "friar</w>": 962,
    "gen": 963,
    "va": 964,
    "led</w>": 965,
    "man,</w>": 966,
    "spo": 967,
    "stri": 968,
    "tim": 969,
    "answ": 970,
    "cra": 971,
    "ff": 972,
    "int</w>": 973,
    "long</w>": 974,
    "sur": 975,
    "tow": 976,
    "brutus:</w>": 977,
    "buckingham:</w>": 978,
    "go,</w>": 979,
    "grace</w>": 980,
    "into</w>": 981,
    "mistres": 982,
    "nurse:</w>": 983,
    "sig": 984,
    "thir": 985,
    "young</w>": 986,
    "ano": 987,
    "bear": 988,
    "cha": 989,
    "sure</w>": 990,
    "that's</w>": 991,
    "tranio:</w>": 992,
    "worl": 993,
    "bar": 994,
    "clo": 995,
    "i'</w>": 996,
    "je": 997,
    "self,</w>": 998,
    "speak": 999,
    "angelo:</w>": 1000,
    "dar": 1001,
    "fal": 1002,
    "find</w>": 1003,
    "margaret:</w>": 1004,
    "once</w>": 1005,
    "stra": 1006,
    "ced</w>": 1007,
    "came</w>": 1008,
    "comfor": 1009,
    "dear</w>": 1010,
    "ds.</w>": 1011,
    "dost</w>": 1012,
    "inde": 1013,
    "le:</w>": 1014,
    "myself</w>": 1015,
    "ses</w>": 1016,
    "ten</w>": 1017,
    "conf": 1018,
    "ence,</w>": 1019,
    "bal": 1020,
    "cre": 1021,
    "cliffor": 1022,
    "down</w>": 1023,
    "escal": 1024,
    "h</w>": 1025,
    "let's</w>": 1026,
    "lla": 1027,
    "marri": 1028,
    "stru": 1029,
    "that,</w>": 1030,
    "udi": 1031,
    "done</w>": 1032,
    "else</w>": 1033,
    "honour</w>": 1034,
    "les</w>": 1035,
    "offi": 1036,
    "poli": 1037,
    "pompe": 1038
  },
  "base_chars": [
    "!",
    "$",
    "&",
    "'",
    ",",
    "-",
    ".",
    "0",
    ":",
    ";",
    "</w>",
    "?",
    "a",
    "b",
    "c",
    "d",
    "e",
    "f",
    "g",
    "h",
    "i",
    "j",
    "k",
    "l",
    "m",
    "n",
    "o",
    "p",
    "q",
    "r",
    "s",
    "t",
    "u",
    "v",
    "w",
    "x",
    "y",
    "z"
  ],
  "train_time_seconds": 2.885032892227173
}