{
  "num_merges": 2000,
  "end_of_word": "</w>",
  "marker_mode": "suffix",
  "strategy": "raw",
  "merges": [
    [
      "e",
      "</w>"
    ],
    [
      "t",
      "h"
    ],
    [
      ",",
      "</w>"
    ],
    [
      "t",
      "</w>"
    ],
    [
      "s",
      "</w>"
    ],
    [
      "d",
      "</w>"
    ],
    [
      "o",
      "u"
    ],
    [
      "e",
      "r"
    ],
    [
      "y",
      "</w>"
    ],
    [
      "i",
      "n"
    ],
    [
      ":",
      "</w>"
    ],
    [
      "a",
      "n"
    ],
    [
      "o",
      "r"
    ],
    [
      "o",
      "</w>"
    ],
    [
      ".",
      "</w>"
    ],
    [
      "e",
      "n"
    ],
    [
      "a",
      "r"
    ],
    [
      "o",
      "n"
    ],
    [
      "l",
      "l"
    ],
    [
      "h",
      "a"
    ],
    [
      "th",
      "e</w>"
    ],
    [
      "i",
      "s</w>"
    ],
    [
      "f",
      "</w>"
    ],
    [
      "e",
      "s"
    ],
    [
      "y",
      "ou"
    ],
    [
      "I",
      "</w>"
    ],
    [
      "ll",
      "</w>"
    ],
    [
      "t",
      "o</w>"
    ],
    [
      "an",
      "d</w>"
    ],
    [
      "o",
      "w"
    ],
    [
      "e",
      "a"
    ],
    [
      "e",
      ",</w>"
    ],
    [
      "r",
      "</w>"
    ],
    [
      "in",
      "g"
    ],
    [
      "o",
      "m"
    ],
    [
      "w",
      "i"
    ],
    [
      ";",
      "</w>"
    ],
    [
      "er",
      "</w>"
    ],
    [
      "s",
      "t"
    ],
    [
      "o",
      "f</w>"
    ],
    [
      "th",
      "</w>"
    ],
    [
      "h",
      "i"
    ],
    [
      "or",
      "</w>"
    ],
    [
      "v",
      "e</w>"
    ],
    [
      "a",
      "</w>"
    ],
    [
      "n",
      "o"
    ],
    [
      "c",
      "h"
    ],
    [
      "m",
      "y</w>"
    ],
    [
      "in",
      "</w>"
    ],
    [
      "s",
      "e"
    ],
    [
      "h",
      "e</w>"
    ],
    [
      "?",
      "</w>"
    ],
    [
      "l",
      "i"
    ],
    [
      "a",
      "t</w>"
    ],
    [
      "ing",
      "</w>"
    ],
    [
      "th",
      "e"
    ],
    [
      "r",
      "e"
    ],
    [
      "s",
      "t</w>"
    ],
    [
      "you",
      "</w>"
    ],
    [
      "!",
      "</w>"
    ],
    [
      "A",
      "n"
    ],
    [
      "e",
      "ar"
    ],
    [
      "t",
      "i"
    ],
    [
      "o",
      "o"
    ],
    [
      "en",
      "</w>"
    ],
    [
      "d",
      ",</w>"
    ],
    [
      "g",
      "h"
    ],
    [
      "r",
      "i"
    ],
    [
      "m",
      "a"
    ],
    [
      "s",
      ",</w>"
    ],
    [
      "e",
      "d</w>"
    ],
    [
      "r",
      "a"
    ],
    [
      "th",
      "at</w>"
    ],
    [
      "m",
      "</w>"
    ],
    [
      "no",
      "t</w>"
    ],
    [
      "An",
      "d</w>"
    ],
    [
      "'",
      "s</w>"
    ],
    [
      "on",
      "</w>"
    ],
    [
      "t",
      ",</w>"
    ],
    [
      "m",
      "e</w>"
    ],
    [
      "e",
      "s</w>"
    ],
    [
      "y",
      ",</w>"
    ],
    [
      "ow",
      "</w>"
    ],
    [
      "l",
      "d</w>"
    ],
    [
      "h",
      "is</w>"
    ],
    [
      "th",
      "ou"
    ],
    [
      "l",
      "a"
    ],
    [
      "a",
      "s</w>"
    ],
    [
      "i",
      "r"
    ],
    [
      "u",
      "t</w>"
    ],
    [
      "wi",
      "th</w>"
    ],
    [
      "ha",
      "t</w>"
    ],
    [
      "l",
      "e"
    ],
    [
      "u",
      "r"
    ],
    [
      "s",
      "h"
    ],
    [
      "b",
      "e</w>"
    ],
    [
      "an",
      "</w>"
    ],
    [
      "you",
      "r</w>"
    ],
    [
      "b",
      "e"
    ],
    [
      "k",
      "</w>"
    ],
    [
      "r",
      "o"
    ],
    [
      "d",
      "i"
    ],
    [
      "O",
      ":</w>"
    ],
    [
      "er",
      "e</w>"
    ],
    [
      "ch",
      "</w>"
    ],
    [
      "k",
      "e</w>"
    ],
    [
      "f",
      "or</w>"
    ],
    [
      "E",
      "N"
    ],
    [
      "u",
      "n"
    ],
    [
      "i",
      "t</w>"
    ],
    [
      "I",
      "N"
    ],
    [
      "s",
      "e</w>"
    ],
    [
      "e",
      ".</w>"
    ],
    [
      "f",
      "or"
    ],
    [
      "f",
      "a"
    ],
    [
      "ha",
      "ve</w>"
    ],
    [
      "l",
      "</w>"
    ],
    [
      "c",
      "e</w>"
    ],
    [
      "e",
      "e"
    ],
    [
      "S",
      ":</w>"
    ],
    [
      "T",
      "h"
    ],
    [
      "i",
      "t"
    ],
    [
      "c",
      "om"
    ],
    [
      "s",
      "a"
    ],
    [
      "ou",
      "r</w>"
    ],
    [
      "A",
      "R"
    ],
    [
      "a",
      "t"
    ],
    [
      "'",
      "d</w>"
    ],
    [
      "th",
      "is</w>"
    ],
    [
      "n",
      "</w>"
    ],
    [
      "l",
      "e</w>"
    ],
    [
      "thou",
      "</w>"
    ],
    [
      "l",
      "o"
    ],
    [
      "th",
      "er"
    ],
    [
      "w",
      "h"
    ],
    [
      "s",
      "ha"
    ],
    [
      "t",
      "a"
    ],
    [
      "th",
      "y</w>"
    ],
    [
      "s",
      "p"
    ],
    [
      "I",
      "O:</w>"
    ],
    [
      "l",
      "y</w>"
    ],
    [
      "ou",
      "ld</w>"
    ],
    [
      "r",
      "ea"
    ],
    [
      "s",
      "u"
    ],
    [
      "en",
      "t"
    ],
    [
      "U",
      "S:</w>"
    ],
    [
      "W",
      "h"
    ],
    [
      "wi",
      "ll</w>"
    ],
    [
      "b",
      "ut</w>"
    ],
    [
      "m",
      "e"
    ],
    [
      "om",
      "</w>"
    ],
    [
      "T",
      "he</w>"
    ],
    [
      "c",
      "on"
    ],
    [
      "c",
      "a"
    ],
    [
      "ar",
      "e</w>"
    ],
    [
      "r",
      "u"
    ],
    [
      "s",
      "i"
    ],
    [
      "T",
      "o</w>"
    ],
    [
      "w",
      "e"
    ],
    [
      "w",
      "or"
    ],
    [
      "n",
      "e"
    ],
    [
      "oo",
      "d</w>"
    ],
    [
      "d",
      "e"
    ],
    [
      "w",
      "a"
    ],
    [
      "th",
      "er</w>"
    ],
    [
      "d",
      "a"
    ],
    [
      "m",
      "or"
    ],
    [
      "b",
      "y</w>"
    ],
    [
      "o",
      "l"
    ],
    [
      "U",
      "C"
    ],
    [
      "m",
      "i"
    ],
    [
      "c",
      "e"
    ],
    [
      "p",
      "</w>"
    ],
    [
      "sha",
      "ll</w>"
    ],
    [
      "d",
      ".</w>"
    ],
    [
      "s",
      ".</w>"
    ],
    [
      "hi",
      "m</w>"
    ],
    [
      "v",
      "er"
    ],
    [
      "ear",
      "</w>"
    ],
    [
      "IN",
      "G"
    ],
    [
      "s",
      "o</w>"
    ],
    [
      "m",
      "an"
    ],
    [
      "m",
      "u"
    ],
    [
      "ou",
      "n"
    ],
    [
      "d",
      "s</w>"
    ],
    [
      "E",
      "R"
    ],
    [
      "c",
      "k"
    ],
    [
      "l",
      "or"
    ],
    [
      "O",
      "R"
    ],
    [
      "r",
      "es"
    ],
    [
      "m",
      "o"
    ],
    [
      "t",
      "er"
    ],
    [
      "gh",
      "t</w>"
    ],
    [
      "e",
      "t</w>"
    ],
    [
      "se",
      "l"
    ],
    [
      "E",
      "T"
    ],
    [
      "r",
      "om</w>"
    ],
    [
      "d",
      "o</w>"
    ],
    [
      "T",
      "hat</w>"
    ],
    [
      "o",
      ",</w>"
    ],
    [
      "h",
      "er</w>"
    ],
    [
      "A",
      "N"
    ],
    [
      "q",
      "u"
    ],
    [
      "p",
      "o"
    ],
    [
      "hi",
      "m"
    ],
    [
      "v",
      "i"
    ],
    [
      "k",
      "n"
    ],
    [
      "b",
      "l"
    ],
    [
      "t",
      "e"
    ],
    [
      "'",
      "</w>"
    ],
    [
      "p",
      "a"
    ],
    [
      "i",
      "r</w>"
    ],
    [
      "n",
      "o</w>"
    ],
    [
      "'",
      "ll</w>"
    ],
    [
      "ou",
      "r"
    ],
    [
      "A",
      ":</w>"
    ],
    [
      "es",
      "t</w>"
    ],
    [
      "g",
      "a"
    ],
    [
      "w",
      "hat</w>"
    ],
    [
      "K",
      "ING"
    ],
    [
      "on",
      "e</w>"
    ],
    [
      "t",
      "o"
    ],
    [
      "hi",
      "ch</w>"
    ],
    [
      "y",
      ".</w>"
    ],
    [
      "c",
      "i"
    ],
    [
      "e",
      "l"
    ],
    [
      "B",
      "ut</w>"
    ],
    [
      "es",
      "s</w>"
    ],
    [
      "b",
      "o"
    ],
    [
      "f",
      "rom</w>"
    ],
    [
      "on",
      "g"
    ],
    [
      "d",
      "o"
    ],
    [
      "t",
      ".</w>"
    ],
    [
      "h",
      "er"
    ],
    [
      "en",
      "t</w>"
    ],
    [
      "ou",
      "</w>"
    ],
    [
      "u",
      "s</w>"
    ],
    [
      "f",
      "i"
    ],
    [
      "I",
      "C"
    ],
    [
      "w",
      "ar"
    ],
    [
      "a",
      "l"
    ],
    [
      "s",
      "ir"
    ],
    [
      "es",
      ",</w>"
    ],
    [
      "g",
      "ood</w>"
    ],
    [
      "d",
      "ea"
    ],
    [
      "O",
      "L"
    ],
    [
      "i",
      "f</w>"
    ],
    [
      "u",
      "p"
    ],
    [
      "w",
      "as</w>"
    ],
    [
      "E",
      "L"
    ],
    [
      "f",
      "u"
    ],
    [
      "h",
      "ea"
    ],
    [
      "a",
      "ll</w>"
    ],
    [
      "h",
      "ear"
    ],
    [
      "l",
      "ea"
    ],
    [
      "f",
      "e"
    ],
    [
      "I",
      "US:</w>"
    ],
    [
      "AR",
      "D"
    ],
    [
      "KING",
      "</w>"
    ],
    [
      "om",
      "e</w>"
    ],
    [
      "F",
      "or</w>"
    ],
    [
      "t",
      "t"
    ],
    [
      "w",
      "ould</w>"
    ],
    [
      "m",
      "in"
    ],
    [
      "ou",
      "s</w>"
    ],
    [
      "the",
      "ir</w>"
    ],
    [
      "p",
      "ar"
    ],
    [
      "M",
      "y</w>"
    ],
    [
      "r",
      "ow"
    ],
    [
      "o",
      "f"
    ],
    [
      "-",
      "-"
    ],
    [
      "w",
      "e</w>"
    ],
    [
      "E",
      "S"
    ],
    [
      "c",
      "e,</w>"
    ],
    [
      "v",
      "er</w>"
    ],
    [
      "the",
      "e</w>"
    ],
    [
      "a",
      "m</w>"
    ],
    [
      "the",
      "y</w>"
    ],
    [
      "I",
      "'ll</w>"
    ],
    [
      "v",
      "e"
    ],
    [
      "W",
      "i"
    ],
    [
      "p",
      "ro"
    ],
    [
      "r",
      "an"
    ],
    [
      "E",
      ":</w>"
    ],
    [
      "h",
      "o"
    ],
    [
      "g",
      "i"
    ],
    [
      "d",
      "e</w>"
    ],
    [
      "th",
      "in"
    ],
    [
      "g",
      "e</w>"
    ],
    [
      "gh",
      "t"
    ],
    [
      "m",
      "e,</w>"
    ],
    [
      "mor",
      "e</w>"
    ],
    [
      "d",
      ";</w>"
    ],
    [
      "b",
      "le</w>"
    ],
    [
      "i",
      "s"
    ],
    [
      "t",
      "ru"
    ],
    [
      "p",
      "er"
    ],
    [
      "u",
      "s"
    ],
    [
      "d",
      "er"
    ],
    [
      "c",
      "k</w>"
    ],
    [
      "d",
      ":</w>"
    ],
    [
      "b",
      "ro"
    ],
    [
      "en",
      ",</w>"
    ],
    [
      "g",
      "ra"
    ],
    [
      "ll",
      ",</w>"
    ],
    [
      "A",
      "s</w>"
    ],
    [
      "W",
      "hat</w>"
    ],
    [
      "s",
      "w"
    ],
    [
      "I",
      "I"
    ],
    [
      "s",
      "he</w>"
    ],
    [
      "ha",
      "th</w>"
    ],
    [
      "w",
      "ere</w>"
    ],
    [
      "A",
      "</w>"
    ],
    [
      "b",
      "a"
    ],
    [
      "s",
      "o"
    ],
    [
      "h",
      "e"
    ],
    [
      "gh",
      "</w>"
    ],
    [
      "on",
      ",</w>"
    ],
    [
      "li",
      "ke</w>"
    ],
    [
      "H",
      "a"
    ],
    [
      "ma",
      "ke</w>"
    ],
    [
      "p",
      "e"
    ],
    [
      "'",
      "t"
    ],
    [
      "O",
      "N"
    ],
    [
      "ARD",
      "</w>"
    ],
    [
      "th",
      ",</w>"
    ],
    [
      "you",
      ",</w>"
    ],
    [
      "g",
      "e"
    ],
    [
      "k",
      "ing"
    ],
    [
      "R",
      "O"
    ],
    [
      "T",
      "IO:</w>"
    ],
    [
      "g",
      "o"
    ],
    [
      "t",
      "s</w>"
    ],
    [
      "th",
      "an</w>"
    ],
    [
      "d",
      "u"
    ],
    [
      "w",
      "</w>"
    ],
    [
      "n",
      "i"
    ],
    [
      "p",
      "r"
    ],
    [
      "n",
      "a"
    ],
    [
      "ET",
      ":</w>"
    ],
    [
      "A",
      "U"
    ],
    [
      "ma",
      "y</w>"
    ],
    [
      "mu",
      "st</w>"
    ],
    [
      "le",
      "t</w>"
    ],
    [
      "com",
      "e</w>"
    ],
    [
      "E",
      "</w>"
    ],
    [
      "Y",
      "</w>"
    ],
    [
      "ow",
      ",</w>"
    ],
    [
      "Y",
      "ou</w>"
    ],
    [
      "en",
      "d</w>"
    ],
    [
      "ga",
      "in"
    ],
    [
      "the",
      "m</w>"
    ],
    [
      "ir",
      "st</w>"
    ],
    [
      "er",
      "e"
    ],
    [
      "s",
      ";</w>"
    ],
    [
      "f",
      "ri"
    ],
    [
      "s",
      ":</w>"
    ],
    [
      "sh",
      "ould</w>"
    ],
    [
      "up",
      "on</w>"
    ],
    [
      "K",
      ":</w>"
    ],
    [
      "m",
      "b"
    ],
    [
      "for",
      "e</w>"
    ],
    [
      "ou",
      "t</w>"
    ],
    [
      "w",
      "hich</w>"
    ],
    [
      "sp",
      "ea"
    ],
    [
      "I",
      "f</w>"
    ],
    [
      "C",
      "A"
    ],
    [
      "IC",
      "H"
    ],
    [
      "i",
      "d</w>"
    ],
    [
      "R",
      "ICH"
    ],
    [
      "m",
      "p"
    ],
    [
      "v",
      "en</w>"
    ],
    [
      "p",
      "p"
    ],
    [
      "D",
      "U"
    ],
    [
      "DU",
      "K"
    ],
    [
      "c",
      "an"
    ],
    [
      "d",
      "es"
    ],
    [
      "en",
      "ce</w>"
    ],
    [
      "h",
      "an"
    ],
    [
      "DUK",
      "E</w>"
    ],
    [
      "h",
      "ow</w>"
    ],
    [
      "th",
      "en</w>"
    ],
    [
      "l",
      "an"
    ],
    [
      "ha",
      "d</w>"
    ],
    [
      "st",
      "a"
    ],
    [
      "h",
      "on"
    ],
    [
      "es",
      "e</w>"
    ],
    [
      "kn",
      "ow</w>"
    ],
    [
      "m",
      "ar"
    ],
    [
      "EN",
      "TIO:</w>"
    ],
    [
      "ER",
      ":</w>"
    ],
    [
      "G",
      "o"
    ],
    [
      "g",
      "u"
    ],
    [
      "O",
      "</w>"
    ],
    [
      "r",
      "y</w>"
    ],
    [
      "p",
      "la"
    ],
    [
      "Y",
      ":</w>"
    ],
    [
      "fu",
      "l</w>"
    ],
    [
      "e",
      "y"
    ],
    [
      "IN",
      "C"
    ],
    [
      "m",
      "an</w>"
    ],
    [
      "s",
      "ome</w>"
    ],
    [
      "O",
      ",</w>"
    ],
    [
      "om",
      "e"
    ],
    [
      "t",
      "'s</w>"
    ],
    [
      "li",
      "f"
    ],
    [
      "ver",
      "y</w>"
    ],
    [
      "H",
      "e</w>"
    ],
    [
      "I",
      "S"
    ],
    [
      "wh",
      "en</w>"
    ],
    [
      "s",
      "on"
    ],
    [
      "t",
      "ed</w>"
    ],
    [
      "a",
      "c"
    ],
    [
      "ur",
      "e</w>"
    ],
    [
      "d",
      "s,</w>"
    ],
    [
      "l",
      "oo"
    ],
    [
      "t",
      "y</w>"
    ],
    [
      "i",
      "g"
    ],
    [
      "di",
      "d</w>"
    ],
    [
      "ther",
      ",</w>"
    ],
    [
      "c",
      "u"
    ],
    [
      "ti",
      "on</w>"
    ],
    [
      "h",
      "ere</w>"
    ],
    [
      "sa",
      "y</w>"
    ],
    [
      "A",
      "B"
    ],
    [
      "e",
      "x"
    ],
    [
      "sel",
      "f"
    ],
    [
      "sir",
      ",</w>"
    ],
    [
      "d",
      "y</w>"
    ],
    [
      "g",
      "ent"
    ],
    [
      "ow",
      "n"
    ],
    [
      "st",
      "er"
    ],
    [
      "W",
      "hich</w>"
    ],
    [
      "a",
      "l</w>"
    ],
    [
      "k",
      ",</w>"
    ],
    [
      "i",
      "l"
    ],
    [
      "su",
      "ch</w>"
    ],
    [
      "v",
      "es</w>"
    ],
    [
      "a",
      "gain"
    ],
    [
      "d",
      "er</w>"
    ],
    [
      "st",
      "i"
    ],
    [
      "ta",
      "ke</w>"
    ],
    [
      "o",
      "p"
    ],
    [
      "v",
      "e,</w>"
    ],
    [
      "sel",
      "f</w>"
    ],
    [
      "t",
      ":</w>"
    ],
    [
      "sh",
      "</w>"
    ],
    [
      "m",
      ",</w>"
    ],
    [
      "I",
      "n</w>"
    ],
    [
      "lo",
      "ve</w>"
    ],
    [
      "ther",
      "e"
    ],
    [
      "L",
      "O"
    ],
    [
      "I",
      ":</w>"
    ],
    [
      "gi",
      "ve</w>"
    ],
    [
      "th",
      "ese</w>"
    ],
    [
      "RICH",
      "ARD</w>"
    ],
    [
      "ch",
      "ar"
    ],
    [
      "mo",
      "st</w>"
    ],
    [
      "p",
      "ri"
    ],
    [
      "--",
      "</w>"
    ],
    [
      "ES",
      "T"
    ],
    [
      "F",
      "irst</w>"
    ],
    [
      "c",
      "oun"
    ],
    [
      "y",
      "et</w>"
    ],
    [
      "Wi",
      "th</w>"
    ],
    [
      "k",
      "ing</w>"
    ],
    [
      "s",
      "c"
    ],
    [
      "UC",
      "H"
    ],
    [
      "p",
      "ra"
    ],
    [
      "se",
      "e</w>"
    ],
    [
      "EST",
      "ER:</w>"
    ],
    [
      "G",
      "LO"
    ],
    [
      "GLO",
      "UC"
    ],
    [
      "GLOUC",
      "ESTER:</w>"
    ],
    [
      "O",
      "f</w>"
    ],
    [
      "v",
      "o"
    ],
    [
      "we",
      "ll</w>"
    ],
    [
      "E",
      "EN"
    ],
    [
      "T",
      "his</w>"
    ],
    [
      "ee",
      "t</w>"
    ],
    [
      "th",
      "ing</w>"
    ],
    [
      "ti",
      "on"
    ],
    [
      "L",
      "or"
    ],
    [
      "M",
      "a"
    ],
    [
      "v",
      "en"
    ],
    [
      "y",
      ";</w>"
    ],
    [
      "c",
      "hi"
    ],
    [
      "se",
      "d</w>"
    ],
    [
      "b",
      "u"
    ],
    [
      "e",
      ";</w>"
    ],
    [
      "y",
      ":</w>"
    ],
    [
      "U",
      "L"
    ],
    [
      "om",
      "e,</w>"
    ],
    [
      "s",
      "er"
    ],
    [
      "s",
      "in"
    ],
    [
      "INC",
      "ENTIO:</w>"
    ],
    [
      "Q",
      "U"
    ],
    [
      "QU",
      "EEN"
    ],
    [
      "V",
      "INCENTIO:</w>"
    ],
    [
      "c",
      "an</w>"
    ],
    [
      "d",
      "?</w>"
    ],
    [
      "F",
      "</w>"
    ],
    [
      "M",
      "ar"
    ],
    [
      "O",
      "F</w>"
    ],
    [
      "ou",
      "l"
    ],
    [
      "st",
      ",</w>"
    ],
    [
      "the",
      "e,</w>"
    ],
    [
      "H",
      "EN"
    ],
    [
      "H",
      "ow</w>"
    ],
    [
      "Th",
      "ou</w>"
    ],
    [
      "b",
      "rea"
    ],
    [
      "d",
      "'s</w>"
    ],
    [
      "w",
      "hi"
    ],
    [
      "g",
      "o</w>"
    ],
    [
      "lor",
      "d,</w>"
    ],
    [
      "an",
      "y</w>"
    ],
    [
      "t",
      "e</w>"
    ],
    [
      "t",
      "u"
    ],
    [
      "e",
      ":</w>"
    ],
    [
      "S",
      "e"
    ],
    [
      "a",
      "f"
    ],
    [
      "l",
      "t</w>"
    ],
    [
      "s",
      "e,</w>"
    ],
    [
      "ti",
      "me</w>"
    ],
    [
      "'t",
      "is</w>"
    ],
    [
      "HEN",
      "R"
    ],
    [
      "HENR",
      "Y</w>"
    ],
    [
      "fri",
      "en"
    ],
    [
      "te",
      "ll</w>"
    ],
    [
      "S",
      "o</w>"
    ],
    [
      "g",
      "rea"
    ],
    [
      "t",
      "en"
    ],
    [
      "t",
      "er</w>"
    ],
    [
      "f",
      "o"
    ],
    [
      "d",
      "!</w>"
    ],
    [
      "r",
      "ou"
    ],
    [
      "b",
      "an"
    ],
    [
      "ing",
      ",</w>"
    ],
    [
      "u",
      "p</w>"
    ],
    [
      "I",
      "s</w>"
    ],
    [
      "OR",
      "I"
    ],
    [
      "we",
      "ll"
    ],
    [
      "min",
      "e</w>"
    ],
    [
      "n",
      "g"
    ],
    [
      "v",
      "ed</w>"
    ],
    [
      "a",
      "d"
    ],
    [
      "er",
      ":</w>"
    ],
    [
      "QUEEN",
      "</w>"
    ],
    [
      "c",
      "e.</w>"
    ],
    [
      "ma",
      "de</w>"
    ],
    [
      "th",
      "ere</w>"
    ],
    [
      "E",
      "S:</w>"
    ],
    [
      "j",
      "o"
    ],
    [
      "p",
      "re"
    ],
    [
      "s",
      "!</w>"
    ],
    [
      "OR",
      "K:</w>"
    ],
    [
      "Y",
      "ORK:</w>"
    ],
    [
      "Y",
      "our</w>"
    ],
    [
      "a",
      "p"
    ],
    [
      "ne",
      "ver</w>"
    ],
    [
      "to",
      "o</w>"
    ],
    [
      "a",
      "b"
    ],
    [
      "p",
      "res"
    ],
    [
      "IN",
      "IUS:</w>"
    ],
    [
      "o",
      "ld</w>"
    ],
    [
      "ri",
      "e"
    ],
    [
      "W",
      "e</w>"
    ],
    [
      "W",
      "ha"
    ],
    [
      "m",
      "er"
    ],
    [
      "P",
      "ET"
    ],
    [
      "j",
      "u"
    ],
    [
      "l",
      "ess</w>"
    ],
    [
      "li",
      "e"
    ],
    [
      "ong",
      "</w>"
    ],
    [
      "se",
      "e"
    ],
    [
      "d",
      "ee"
    ],
    [
      "D",
      "W"
    ],
    [
      "E",
      "DW"
    ],
    [
      "k",
      "s</w>"
    ],
    [
      "m",
      "en"
    ],
    [
      "G",
      "R"
    ],
    [
      "R",
      "i"
    ],
    [
      "e",
      "?</w>"
    ],
    [
      "f",
      "ar"
    ],
    [
      "l",
      "u"
    ],
    [
      "s",
      "on</w>"
    ],
    [
      "t",
      ";</w>"
    ],
    [
      "wa",
      "y</w>"
    ],
    [
      "T",
      "H"
    ],
    [
      "Wh",
      "y,</w>"
    ],
    [
      "mu",
      "ch</w>"
    ],
    [
      "s",
      "en"
    ],
    [
      "t",
      "ra"
    ],
    [
      "'",
      "st</w>"
    ],
    [
      "h",
      "ear</w>"
    ],
    [
      "I",
      "t</w>"
    ],
    [
      "U",
      "M"
    ],
    [
      "s",
      "?</w>"
    ],
    [
      "L",
      "E"
    ],
    [
      "L",
      "UC"
    ],
    [
      "M",
      "EN"
    ],
    [
      "es",
      ".</w>"
    ],
    [
      "p",
      "lea"
    ],
    [
      "tt",
      "er</w>"
    ],
    [
      "thin",
      "k</w>"
    ],
    [
      "EL",
      "L"
    ],
    [
      "can",
      "not</w>"
    ],
    [
      "k",
      "in"
    ],
    [
      "m",
      "e.</w>"
    ],
    [
      "no",
      "ble</w>"
    ],
    [
      "er",
      ",</w>"
    ],
    [
      "con",
      "d</w>"
    ],
    [
      "him",
      ",</w>"
    ],
    [
      "B",
      "e"
    ],
    [
      "u",
      "se</w>"
    ],
    [
      "at",
      "e</w>"
    ],
    [
      "er",
      "s</w>"
    ],
    [
      "E",
      "d"
    ],
    [
      "M",
      "E"
    ],
    [
      "a",
      "ll"
    ],
    [
      "do",
      "th</w>"
    ],
    [
      "i",
      "ti"
    ],
    [
      "t",
      "ter"
    ],
    [
      "qu",
      "e"
    ],
    [
      "t",
      "w"
    ],
    [
      "Ed",
      "war"
    ],
    [
      "ME",
      "O:</w>"
    ],
    [
      "RO",
      "MEO:</w>"
    ],
    [
      "h",
      "ou"
    ],
    [
      "m",
      "on"
    ],
    [
      "EN",
      "IUS:</w>"
    ],
    [
      "MEN",
      "ENIUS:</w>"
    ],
    [
      "be",
      "en</w>"
    ],
    [
      "it",
      ".</w>"
    ],
    [
      "O",
      "r</w>"
    ],
    [
      "W",
      "e"
    ],
    [
      "v",
      "an"
    ],
    [
      "B",
      "y</w>"
    ],
    [
      "p",
      "ea"
    ],
    [
      "wh",
      "ere</w>"
    ],
    [
      "N",
      "o"
    ],
    [
      "c",
      "t</w>"
    ],
    [
      "kn",
      "ow"
    ],
    [
      "st",
      "an"
    ],
    [
      "PET",
      "R"
    ],
    [
      "PETR",
      "UCH"
    ],
    [
      "PETRUCH",
      "IO:</w>"
    ],
    [
      "a",
      "y,</w>"
    ],
    [
      "w",
      "om"
    ],
    [
      "f",
      "l"
    ],
    [
      "ow",
      "n</w>"
    ],
    [
      "i",
      "t,</w>"
    ],
    [
      "t",
      "or"
    ],
    [
      "t",
      "ur"
    ],
    [
      "Go",
      "d</w>"
    ],
    [
      "b",
      "ea"
    ],
    [
      "n",
      "or</w>"
    ],
    [
      "oun",
      "d</w>"
    ],
    [
      "pr",
      "in"
    ],
    [
      "an",
      "g"
    ],
    [
      "t",
      "ri"
    ],
    [
      "'",
      "d,</w>"
    ],
    [
      "e",
      "!</w>"
    ],
    [
      "him",
      ".</w>"
    ],
    [
      "l",
      "e,</w>"
    ],
    [
      "spea",
      "k</w>"
    ],
    [
      "C",
      "ome,</w>"
    ],
    [
      "d",
      "on"
    ],
    [
      "f",
      "in"
    ],
    [
      "r",
      "e</w>"
    ],
    [
      "r",
      "ow</w>"
    ],
    [
      "s",
      "hi"
    ],
    [
      "M",
      "AR"
    ],
    [
      "ON",
      "T"
    ],
    [
      "Wh",
      "en</w>"
    ],
    [
      "a",
      "s"
    ],
    [
      "ne",
      "w"
    ],
    [
      "A",
      "y,</w>"
    ],
    [
      "s",
      "ea"
    ],
    [
      "C",
      "ORI"
    ],
    [
      "CORI",
      "OL"
    ],
    [
      "CORIOL",
      "AN"
    ],
    [
      "s",
      "or"
    ],
    [
      "CORIOLAN",
      "US:</w>"
    ],
    [
      "Se",
      "cond</w>"
    ],
    [
      "Wh",
      "ere</w>"
    ],
    [
      "fa",
      "ther"
    ],
    [
      "y",
      "!</w>"
    ],
    [
      "man",
      ":</w>"
    ],
    [
      "n",
      "ess</w>"
    ],
    [
      "v",
      "ing</w>"
    ],
    [
      "be",
      "ing</w>"
    ],
    [
      "ck",
      ",</w>"
    ],
    [
      "th",
      "i"
    ],
    [
      "you",
      ".</w>"
    ],
    [
      "th",
      ".</w>"
    ],
    [
      "R",
      "ome"
    ],
    [
      "c",
      "row"
    ],
    [
      "e",
      "ver</w>"
    ],
    [
      "h",
      "ar"
    ],
    [
      "l",
      ",</w>"
    ],
    [
      "y",
      "?</w>"
    ],
    [
      "z",
      "en"
    ],
    [
      "d",
      "r"
    ],
    [
      "f",
      "oo"
    ],
    [
      "fa",
      "ir</w>"
    ],
    [
      "ear",
      "s</w>"
    ],
    [
      "l",
      "ar"
    ],
    [
      "re",
      "d</w>"
    ],
    [
      "bl",
      "oo"
    ],
    [
      "c",
      "o"
    ],
    [
      "e",
      "'s</w>"
    ],
    [
      "IN",
      "A:</w>"
    ],
    [
      "c",
      "es"
    ],
    [
      "i",
      "sh"
    ],
    [
      "it",
      "y</w>"
    ],
    [
      "t",
      "oo"
    ],
    [
      "Lor",
      "d</w>"
    ],
    [
      "ing",
      "s</w>"
    ],
    [
      "no",
      "t,</w>"
    ],
    [
      "y",
      "s</w>"
    ],
    [
      "D",
      ":</w>"
    ],
    [
      "C",
      "L"
    ],
    [
      "I",
      "V"
    ],
    [
      "gent",
      "le"
    ],
    [
      "m",
      "en</w>"
    ],
    [
      "II",
      "I:</w>"
    ],
    [
      "b",
      "es"
    ],
    [
      "da",
      "u"
    ],
    [
      "g",
      "ar"
    ],
    [
      "ll",
      "ow"
    ],
    [
      "'",
      "er</w>"
    ],
    [
      "d",
      "ed</w>"
    ],
    [
      "grea",
      "t</w>"
    ],
    [
      "t",
      "un"
    ],
    [
      "wi",
      "f"
    ],
    [
      "'",
      "t</w>"
    ],
    [
      "A",
      "M"
    ],
    [
      "Th",
      "an</w>"
    ],
    [
      "ha",
      "st</w>"
    ],
    [
      "m",
      "ent"
    ],
    [
      "se",
      ".</w>"
    ],
    [
      "you",
      "r"
    ],
    [
      "W",
      "ar"
    ],
    [
      "en",
      "ce"
    ],
    [
      "st",
      "er</w>"
    ],
    [
      "b",
      "ra"
    ],
    [
      "c",
      "ur"
    ],
    [
      "of",
      "f"
    ],
    [
      "t",
      "?</w>"
    ],
    [
      "War",
      "wi"
    ],
    [
      "se",
      ":</w>"
    ],
    [
      "the",
      "m"
    ],
    [
      "b",
      "r"
    ],
    [
      "be",
      "g"
    ],
    [
      "d",
      "ing</w>"
    ],
    [
      "en",
      "e"
    ],
    [
      "m",
      "y"
    ],
    [
      "sw",
      "eet</w>"
    ],
    [
      "wh",
      "o</w>"
    ],
    [
      "U",
      "n"
    ],
    [
      "com",
      "es</w>"
    ],
    [
      "d",
      "st</w>"
    ],
    [
      "ong",
      "u"
    ],
    [
      "po",
      "or</w>"
    ],
    [
      "s",
      "la"
    ],
    [
      "AB",
      "ELL"
    ],
    [
      "ABELL",
      "A:</w>"
    ],
    [
      "H",
      "is</w>"
    ],
    [
      "IS",
      "ABELLA:</w>"
    ],
    [
      "T",
      "is</w>"
    ],
    [
      "'",
      "Tis</w>"
    ],
    [
      "be",
      "fore</w>"
    ],
    [
      "d",
      "ly</w>"
    ],
    [
      "s",
      "wor"
    ],
    [
      "c",
      "ar"
    ],
    [
      "en",
      "ce,</w>"
    ],
    [
      "man",
      "y</w>"
    ],
    [
      "p",
      "i"
    ],
    [
      "p",
      "ow"
    ],
    [
      "t",
      "ongu"
    ],
    [
      "R",
      "AN"
    ],
    [
      "M",
      "I"
    ],
    [
      "c",
      "ha"
    ],
    [
      "g",
      "e,</w>"
    ],
    [
      "I",
      "ET:</w>"
    ],
    [
      "J",
      "UL"
    ],
    [
      "JUL",
      "IET:</w>"
    ],
    [
      "L",
      "et</w>"
    ],
    [
      "LE",
      "ONT"
    ],
    [
      "LEONT",
      "ES:</w>"
    ],
    [
      "c",
      "or"
    ],
    [
      "k",
      "ee"
    ],
    [
      "An",
      "d,</w>"
    ],
    [
      "Wh",
      "o</w>"
    ],
    [
      "ch",
      ",</w>"
    ],
    [
      "di",
      "s"
    ],
    [
      "e",
      "p"
    ],
    [
      "p",
      "ur"
    ],
    [
      "a",
      "in"
    ],
    [
      "da",
      "y</w>"
    ],
    [
      "fa",
      "ther</w>"
    ],
    [
      "A",
      "D"
    ],
    [
      "AD",
      "Y</w>"
    ],
    [
      "L",
      "ADY</w>"
    ],
    [
      "gh",
      "t,</w>"
    ],
    [
      "me",
      "an"
    ],
    [
      "thou",
      "gh</w>"
    ],
    [
      "B",
      "u"
    ],
    [
      "C",
      "E:</w>"
    ],
    [
      "EN",
      "CE:</w>"
    ],
    [
      "P",
      "ro"
    ],
    [
      "V",
      "OL"
    ],
    [
      "c",
      "our"
    ],
    [
      "ir",
      ",</w>"
    ],
    [
      "n",
      ",</w>"
    ],
    [
      "Th",
      "en</w>"
    ],
    [
      "chi",
      "l"
    ],
    [
      "g",
      "oo"
    ],
    [
      "hear",
      "t</w>"
    ],
    [
      "k",
      "es</w>"
    ],
    [
      "t",
      "ing</w>"
    ],
    [
      "t",
      "r"
    ],
    [
      "th",
      "o"
    ],
    [
      "C",
      "iti"
    ],
    [
      "Citi",
      "zen"
    ],
    [
      "S",
      "er"
    ],
    [
      "b",
      "ear</w>"
    ],
    [
      "er",
      ".</w>"
    ],
    [
      "lea",
      "ve</w>"
    ],
    [
      "y",
      "'s</w>"
    ],
    [
      "es",
      ";</w>"
    ],
    [
      "h",
      "or"
    ],
    [
      "ing",
      ".</w>"
    ],
    [
      "pa",
      "s"
    ],
    [
      "IC",
      "INIUS:</w>"
    ],
    [
      "S",
      "ICINIUS:</w>"
    ],
    [
      "again",
      "st</w>"
    ],
    [
      "bo",
      "th</w>"
    ],
    [
      "li",
      "tt"
    ],
    [
      "n",
      "ow,</w>"
    ],
    [
      "N",
      "ay,</w>"
    ],
    [
      "m",
      "ent</w>"
    ],
    [
      "w",
      "o"
    ],
    [
      "wh",
      "o"
    ],
    [
      "S",
      "ha"
    ],
    [
      "Wha",
      "t,</w>"
    ],
    [
      "loo",
      "k</w>"
    ],
    [
      "re",
      "e</w>"
    ],
    [
      "s",
      "le"
    ],
    [
      "th",
      "an"
    ],
    [
      "tho",
      "se</w>"
    ],
    [
      "ti",
      "ll</w>"
    ],
    [
      "B",
      "A"
    ],
    [
      "an",
      "ce</w>"
    ],
    [
      "ci",
      "ous</w>"
    ],
    [
      "ou",
      "l</w>"
    ],
    [
      "sp",
      "i"
    ],
    [
      "t",
      "!</w>"
    ],
    [
      "w",
      "in"
    ],
    [
      "c",
      "l"
    ],
    [
      "you",
      "ng"
    ],
    [
      "B",
      "e</w>"
    ],
    [
      "c",
      "ou"
    ],
    [
      "ca",
      "ll</w>"
    ],
    [
      "g",
      "rie"
    ],
    [
      "h",
      "el"
    ],
    [
      "me",
      ";</w>"
    ],
    [
      "p",
      "u"
    ],
    [
      "an",
      "t</w>"
    ],
    [
      "th",
      "at"
    ],
    [
      "LUC",
      "IO:</w>"
    ],
    [
      "N",
      "o,</w>"
    ],
    [
      "f",
      "ir"
    ],
    [
      "hon",
      "our"
    ],
    [
      "ur",
      "der"
    ],
    [
      "w",
      "ee"
    ],
    [
      "EDW",
      "ARD</w>"
    ],
    [
      "IV",
      ":</w>"
    ],
    [
      "Ri",
      "char"
    ],
    [
      "bl",
      "ood</w>"
    ],
    [
      "ca",
      "use</w>"
    ],
    [
      "re",
      "e"
    ],
    [
      "st",
      "and</w>"
    ],
    [
      "to",
      "-"
    ],
    [
      "ARD",
      ":</w>"
    ],
    [
      "No",
      "t</w>"
    ],
    [
      "d",
      "en"
    ],
    [
      "k",
      "e,</w>"
    ],
    [
      "ll",
      "ow</w>"
    ],
    [
      "se",
      "t</w>"
    ],
    [
      "Ha",
      "ve</w>"
    ],
    [
      "p",
      "e</w>"
    ],
    [
      "th",
      "us</w>"
    ],
    [
      "w",
      "r"
    ],
    [
      "Y",
      "or"
    ],
    [
      "b",
      "ur"
    ],
    [
      "le",
      ".</w>"
    ],
    [
      "m",
      "s</w>"
    ],
    [
      "st",
      "r"
    ],
    [
      "C",
      "a"
    ],
    [
      "u",
      "s,</w>"
    ],
    [
      "N",
      "ow</w>"
    ],
    [
      "Th",
      "y</w>"
    ],
    [
      "a",
      "wa"
    ],
    [
      "g",
      "on"
    ],
    [
      "n",
      "ow"
    ],
    [
      "wi",
      "th"
    ],
    [
      "AB",
      "ET"
    ],
    [
      "H",
      ":</w>"
    ],
    [
      "ABET",
      "H:</w>"
    ],
    [
      "EL",
      "I"
    ],
    [
      "ELI",
      "Z"
    ],
    [
      "ELIZ",
      "ABETH:</w>"
    ],
    [
      "bro",
      "ther"
    ],
    [
      "com",
      "e,</w>"
    ],
    [
      "k",
      ".</w>"
    ],
    [
      "s",
      "o,</w>"
    ],
    [
      "t",
      "ch"
    ],
    [
      "un",
      "to</w>"
    ],
    [
      "gh",
      "ter"
    ],
    [
      "n",
      "es"
    ],
    [
      "st",
      ":</w>"
    ],
    [
      "su",
      "b"
    ],
    [
      "v",
      "e.</w>"
    ],
    [
      "GR",
      "E"
    ],
    [
      "con",
      "t"
    ],
    [
      "h",
      "us"
    ],
    [
      "s",
      "oul"
    ],
    [
      "t",
      "s,</w>"
    ],
    [
      "tru",
      "e</w>"
    ],
    [
      "H",
      "en"
    ],
    [
      "r",
      "y,</w>"
    ],
    [
      "a",
      "u"
    ],
    [
      "l",
      "y,</w>"
    ],
    [
      "litt",
      "le</w>"
    ],
    [
      "o",
      "'</w>"
    ],
    [
      "w",
      "ha"
    ],
    [
      "I",
      "A:</w>"
    ],
    [
      "S",
      "</w>"
    ],
    [
      "O",
      "M"
    ],
    [
      "bro",
      "ther</w>"
    ],
    [
      "p",
      "s</w>"
    ],
    [
      "pe",
      "op"
    ],
    [
      "ro",
      "y"
    ],
    [
      "P",
      "ER"
    ],
    [
      "e",
      "y</w>"
    ],
    [
      "ha",
      "pp"
    ],
    [
      "na",
      "me</w>"
    ],
    [
      "AR",
      "W"
    ],
    [
      "ARW",
      "IC"
    ],
    [
      "ARWIC",
      "K:</w>"
    ],
    [
      "I",
      ",</w>"
    ],
    [
      "N",
      "ow,</w>"
    ],
    [
      "W",
      "ARWICK:</w>"
    ],
    [
      "ce",
      "i"
    ],
    [
      "d",
      "ou"
    ],
    [
      "lif",
      "e</w>"
    ],
    [
      "qu",
      "i"
    ],
    [
      "Citizen",
      ":</w>"
    ],
    [
      "G",
      "ood</w>"
    ],
    [
      "II",
      ":</w>"
    ],
    [
      "R",
      "U"
    ],
    [
      "RU",
      "T"
    ],
    [
      "N",
      "ur"
    ],
    [
      "be",
      "tter</w>"
    ],
    [
      "d",
      "rea"
    ],
    [
      "dea",
      "th</w>"
    ],
    [
      "h",
      ",</w>"
    ],
    [
      "k",
      "i"
    ],
    [
      "AM",
      ":</w>"
    ],
    [
      "H",
      "AM:</w>"
    ],
    [
      "c",
      "es</w>"
    ],
    [
      "king",
      ",</w>"
    ],
    [
      ",",
      "--</w>"
    ],
    [
      "f",
      "ear"
    ],
    [
      "CA",
      "P"
    ],
    [
      "CAP",
      "UL"
    ],
    [
      "CAPUL",
      "ET:</w>"
    ],
    [
      "b",
      "or"
    ],
    [
      "in",
      "e</w>"
    ],
    [
      "p",
      "ut</w>"
    ],
    [
      "re",
      "p"
    ],
    [
      "tw",
      "o</w>"
    ],
    [
      "f",
      "f"
    ],
    [
      "lo",
      "ve"
    ],
    [
      "Sha",
      "ll</w>"
    ],
    [
      "T",
      "A:</w>"
    ],
    [
      "We",
      "ll,</w>"
    ],
    [
      "c",
      "ould</w>"
    ],
    [
      "for",
      "tun"
    ],
    [
      "man",
      ",</w>"
    ],
    [
      "e",
      "very</w>"
    ],
    [
      "in",
      ",</w>"
    ],
    [
      "n",
      "at"
    ],
    [
      "B",
      "RUT"
    ],
    [
      "B",
      "UC"
    ],
    [
      "BRUT",
      "US:</w>"
    ],
    [
      "BUC",
      "KING"
    ],
    [
      "BUCKING",
      "HAM:</w>"
    ],
    [
      "ER",
      "L"
    ],
    [
      "O",
      "u"
    ],
    [
      "d",
      "ra"
    ],
    [
      "f",
      "t</w>"
    ],
    [
      "gh",
      "t.</w>"
    ],
    [
      "ho",
      "ld</w>"
    ],
    [
      "s",
      "un"
    ],
    [
      "we",
      "l"
    ],
    [
      "we",
      "ll,</w>"
    ],
    [
      "B",
      "OL"
    ],
    [
      "B",
      "RO"
    ],
    [
      "BOL",
      "ING"
    ],
    [
      "BOLING",
      "BRO"
    ],
    [
      "BOLINGBRO",
      "K"
    ],
    [
      "BOLINGBROK",
      "E:</w>"
    ],
    [
      "F",
      "rom</w>"
    ],
    [
      "N",
      "o</w>"
    ],
    [
      "RAN",
      "IO:</w>"
    ],
    [
      "S",
      "T"
    ],
    [
      "T",
      "RANIO:</w>"
    ],
    [
      "W",
      "hi"
    ],
    [
      "b",
      "id</w>"
    ],
    [
      "c",
      "en"
    ],
    [
      "d",
      "s.</w>"
    ],
    [
      "dea",
      "th"
    ],
    [
      "kee",
      "p</w>"
    ],
    [
      "sp",
      "o"
    ],
    [
      "wor",
      "l"
    ],
    [
      "L",
      "i"
    ],
    [
      "Nur",
      "se:</w>"
    ],
    [
      "c",
      "lo"
    ],
    [
      "h",
      "u"
    ],
    [
      "k",
      "e"
    ],
    [
      "mi",
      "ght</w>"
    ],
    [
      "ou",
      "gh</w>"
    ],
    [
      "s",
      "ol"
    ],
    [
      "s",
      "on,</w>"
    ],
    [
      "self",
      ",</w>"
    ],
    [
      "w",
      "at"
    ],
    [
      "who",
      "se</w>"
    ],
    [
      "Wi",
      "ll</w>"
    ],
    [
      "s",
      "ure</w>"
    ],
    [
      "L",
      "L"
    ],
    [
      "T",
      "a"
    ],
    [
      "an",
      "sw"
    ],
    [
      "c",
      "ed</w>"
    ],
    [
      "com",
      "m"
    ],
    [
      "j",
      "e"
    ],
    [
      "no",
      "thing</w>"
    ],
    [
      "pra",
      "y</w>"
    ],
    [
      "se",
      "s</w>"
    ],
    [
      "st",
      "ru"
    ],
    [
      "wi",
      "ll"
    ],
    [
      "AR",
      "ET:</w>"
    ],
    [
      "ES",
      "S</w>"
    ],
    [
      "G",
      "ARET:</w>"
    ],
    [
      "MAR",
      "GARET:</w>"
    ],
    [
      "P",
      "e"
    ],
    [
      "Th",
      "ere"
    ],
    [
      "b",
      "i"
    ],
    [
      "i",
      "m"
    ],
    [
      "ta",
      "l"
    ],
    [
      "st",
      "ra"
    ],
    [
      "A",
      "TH"
    ],
    [
      "br",
      "ing</w>"
    ],
    [
      "es",
      ":</w>"
    ],
    [
      "com",
      "p"
    ],
    [
      "g",
      "</w>"
    ],
    [
      "gent",
      "le</w>"
    ],
    [
      "gra",
      "ce</w>"
    ],
    [
      "l",
      "ong</w>"
    ],
    [
      "sa",
      "y,</w>"
    ],
    [
      "st",
      "res"
    ],
    [
      "sti",
      "ll</w>"
    ],
    [
      "CA",
      "L"
    ],
    [
      "K",
      "ing</w>"
    ],
    [
      "Ou",
      "r</w>"
    ],
    [
      "v",
      "ir"
    ],
    [
      "AN",
      "G"
    ],
    [
      "ANG",
      "EL"
    ],
    [
      "ANGEL",
      "O:</w>"
    ],
    [
      "C",
      "lar"
    ],
    [
      "H",
      "OR"
    ],
    [
      "S",
      "he</w>"
    ],
    [
      "Th",
      "ey</w>"
    ],
    [
      "Wh",
      "y</w>"
    ],
    [
      "d",
      "on</w>"
    ],
    [
      "d",
      "one</w>"
    ],
    [
      "fin",
      "d</w>"
    ],
    [
      "hon",
      "our</w>"
    ],
    [
      "i",
      "l</w>"
    ],
    [
      "v",
      "a"
    ],
    [
      "ig",
      "n"
    ],
    [
      "ma",
      "ster"
    ],
    [
      "re",
      "me"
    ],
    [
      "s",
      "s</w>"
    ],
    [
      "st",
      "ar"
    ],
    [
      "st",
      "ri"
    ],
    [
      "t",
      "en</w>"
    ],
    [
      "th",
      "en,</w>"
    ],
    [
      "thou",
      "s"
    ],
    [
      "an",
      "d,</w>"
    ],
    [
      "vo",
      "i"
    ],
    [
      "young",
      "</w>"
    ],
    [
      "AR",
      "INA:</w>"
    ],
    [
      "B",
      "o"
    ],
    [
      "C",
      "U"
    ],
    [
      "D",
      "u"
    ],
    [
      "EL",
      ":</w>"
    ],
    [
      "Y",
      "et</w>"
    ],
    [
      "d",
      "ar"
    ],
    [
      "dou",
      "b"
    ],
    [
      "ey",
      "es</w>"
    ],
    [
      "ll",
      "'d</w>"
    ],
    [
      "me",
      ":</w>"
    ],
    [
      "s",
      "ur"
    ],
    [
      "ATH",
      "ARINA:</w>"
    ],
    [
      "K",
      "ATHARINA:</w>"
    ],
    [
      "Mar",
      "ci"
    ],
    [
      "c",
      "la"
    ],
    [
      "c",
      "ra"
    ],
    [
      "com",
      "for"
    ],
    [
      "fa",
      "l"
    ],
    [
      "ne",
      "w</w>"
    ],
    [
      "ow",
      "ar"
    ],
    [
      "t",
      "y,</w>"
    ],
    [
      "thou",
      "ght</w>"
    ],
    [
      "E",
      "ng"
    ],
    [
      "Th",
      "ere</w>"
    ],
    [
      "an",
      "o"
    ],
    [
      "ce",
      ":</w>"
    ],
    [
      "d",
      "own</w>"
    ],
    [
      "dau",
      "ghter"
    ],
    [
      "ee",
      "ch</w>"
    ],
    [
      "h",
      "and</w>"
    ],
    [
      "me",
      "?</w>"
    ],
    [
      "s",
      "'</w>"
    ],
    [
      "w",
      "ea"
    ],
    [
      "H",
      "ere</w>"
    ],
    [
      "N",
      "or</w>"
    ],
    [
      "O",
      "n"
    ],
    [
      "T",
      "hi"
    ],
    [
      "a",
      "t,</w>"
    ],
    [
      "ch",
      "an"
    ],
    [
      "d",
      "d"
    ],
    [
      "el",
      "se</w>"
    ],
    [
      "h",
      "ol"
    ],
    [
      "la",
      "d"
    ],
    [
      "la",
      "w"
    ],
    [
      "li",
      "ve</w>"
    ],
    [
      "CAL",
      "US:</w>"
    ],
    [
      "ES",
      "CALUS:</w>"
    ],
    [
      "b",
      "est</w>"
    ],
    [
      "ban",
      "ish"
    ],
    [
      "d",
      "own"
    ],
    [
      "gra",
      "cious</w>"
    ],
    [
      "hear",
      "d</w>"
    ],
    [
      "lo",
      "ve,</w>"
    ],
    [
      "a",
      "pp"
    ],
    [
      "b",
      "ri"
    ],
    [
      "ca",
      "me</w>"
    ],
    [
      "d",
      "-"
    ],
    [
      "d",
      "ear</w>"
    ],
    [
      "f",
      "ear</w>"
    ],
    [
      "fu",
      "ll</w>"
    ],
    [
      "in",
      "to</w>"
    ],
    [
      "po",
      "s"
    ],
    [
      "ri",
      "ed</w>"
    ],
    [
      "t",
      "re"
    ],
    [
      "AN",
      "D:</w>"
    ],
    [
      "D",
      "o</w>"
    ],
    [
      "J",
      "u"
    ],
    [
      "dea",
      "th,</w>"
    ],
    [
      "l",
      "ong"
    ],
    [
      "lor",
      "d.</w>"
    ],
    [
      "of",
      "f</w>"
    ],
    [
      "p",
      ",</w>"
    ],
    [
      "par",
      "t</w>"
    ],
    [
      "s",
      "ome"
    ],
    [
      "th",
      "is"
    ],
    [
      "D",
      "UCH"
    ],
    [
      "Du",
      "ke</w>"
    ],
    [
      "Ha",
      "th</w>"
    ],
    [
      "b",
      "la"
    ],
    [
      "b",
      "us"
    ],
    [
      "c",
      "</w>"
    ],
    [
      "fe",
      "c"
    ],
    [
      "hea",
      "ven</w>"
    ],
    [
      "m",
      "en,</w>"
    ],
    [
      "n",
      "'d</w>"
    ],
    [
      "there",
      "fore</w>"
    ],
    [
      "ti",
      "m"
    ],
    [
      "ti",
      "on,</w>"
    ],
    [
      "vi",
      "ll"
    ],
    [
      "wh",
      "om</w>"
    ],
    [
      "G",
      "o</w>"
    ],
    [
      "Pro",
      "vo"
    ],
    [
      "RO",
      "S"
    ],
    [
      "at",
      "e,</w>"
    ],
    [
      "ma",
      "kes</w>"
    ],
    [
      "my",
      "self</w>"
    ],
    [
      "ni",
      "ght</w>"
    ],
    [
      "roy",
      "al</w>"
    ],
    [
      "sta",
      "y</w>"
    ],
    [
      "t",
      "rea"
    ],
    [
      "S",
      "ir,</w>"
    ],
    [
      "b",
      "al"
    ],
    [
      "d",
      "ow"
    ],
    [
      "da",
      "m"
    ],
    [
      "fa",
      "ther,</w>"
    ],
    [
      "h",
      "our"
    ],
    [
      "o",
      "a"
    ],
    [
      "sin",
      "ce</w>"
    ],
    [
      "th",
      "en"
    ],
    [
      "u",
      "s.</w>"
    ],
    [
      "w",
      "on"
    ],
    [
      "well",
      ".</w>"
    ],
    [
      ",",
      "--"
    ],
    [
      "i",
      "d"
    ],
    [
      "CA",
      "MI"
    ],
    [
      "CAMI",
      "LL"
    ],
    [
      "CAMILL",
      "O:</w>"
    ],
    [
      "V",
      "I:</w>"
    ],
    [
      "f",
      "irst</w>"
    ],
    [
      "fa",
      "u"
    ],
    [
      "for",
      "th</w>"
    ],
    [
      "g",
      "ed</w>"
    ],
    [
      "g",
      "en"
    ],
    [
      "j",
      "es"
    ],
    [
      "k",
      "'d</w>"
    ],
    [
      "on",
      "ce</w>"
    ],
    [
      "st",
      ".</w>"
    ],
    [
      "te",
      "mp"
    ],
    [
      "tra",
      "it"
    ],
    [
      "ver",
      "e"
    ],
    [
      "wor",
      "ld</w>"
    ],
    [
      "DUCH",
      "ESS</w>"
    ],
    [
      "E",
      "ven</w>"
    ],
    [
      "Edwar",
      "d</w>"
    ],
    [
      "at",
      "or"
    ],
    [
      "b",
      "ear"
    ],
    [
      "da",
      "m,</w>"
    ],
    [
      "do",
      "st</w>"
    ],
    [
      "f",
      "ur"
    ],
    [
      "oo",
      "k</w>"
    ],
    [
      "p",
      "on</w>"
    ],
    [
      "pa",
      "ti"
    ],
    [
      "ran",
      "t</w>"
    ],
    [
      "si",
      "on</w>"
    ],
    [
      "thin",
      "e</w>"
    ],
    [
      "thous",
      "and</w>"
    ],
    [
      "C",
      "ome</w>"
    ],
    [
      "EN",
      "S"
    ],
    [
      "HOR",
      "T"
    ],
    [
      "HORT",
      "ENS"
    ],
    [
      "M",
      "or"
    ],
    [
      "T",
      "y"
    ],
    [
      "de",
      "li"
    ],
    [
      "l",
      "ou"
    ],
    [
      "or",
      "t</w>"
    ],
    [
      "s",
      "ing</w>"
    ],
    [
      "AR",
      "</w>"
    ],
    [
      "B",
      "I"
    ],
    [
      "Bu",
      "t,</w>"
    ],
    [
      "F",
      "R"
    ],
    [
      "F",
      "or"
    ],
    [
      "g",
      "et</w>"
    ],
    [
      "FR",
      "I"
    ],
    [
      "FRI",
      "AR</w>"
    ],
    [
      "HORTENS",
      "IO:</w>"
    ],
    [
      "L",
      "e"
    ],
    [
      "N",
      "or"
    ],
    [
      "S",
      "a"
    ],
    [
      "c",
      "re"
    ],
    [
      "far",
      "</w>"
    ],
    [
      "i",
      "s,</w>"
    ],
    [
      "n",
      "ing</w>"
    ],
    [
      "of",
      "fi"
    ],
    [
      "t",
      "e,</w>"
    ],
    [
      "ther",
      ".</w>"
    ],
    [
      "tur",
      "n</w>"
    ],
    [
      "un",
      "c"
    ],
    [
      "wh",
      "ere"
    ],
    [
      "A",
      "ll</w>"
    ],
    [
      "A",
      "re</w>"
    ],
    [
      "BA",
      "P"
    ],
    [
      "BAP",
      "T"
    ],
    [
      "BAPT",
      "IS"
    ],
    [
      "BAPTIS",
      "TA:</w>"
    ],
    [
      "G",
      "i"
    ],
    [
      "U",
      "pon</w>"
    ],
    [
      "con",
      "f"
    ],
    [
      "de",
      "vi"
    ],
    [
      "ha",
      "s</w>"
    ],
    [
      "hea",
      "ven"
    ],
    [
      "i",
      "'</w>"
    ],
    [
      "s",
      "ent</w>"
    ],
    [
      "so",
      "vere"
    ],
    [
      "sp",
      "e"
    ],
    [
      "thou",
      ",</w>"
    ],
    [
      "tion",
      ".</w>"
    ],
    [
      "v",
      "y</w>"
    ],
    [
      "vir",
      "tu"
    ],
    [
      "wi",
      "lt</w>"
    ],
    [
      "AU",
      "T"
    ],
    [
      "AUT",
      "OL"
    ],
    [
      "AUTOL",
      "Y"
    ],
    [
      "AUTOLY",
      "C"
    ],
    [
      "AUTOLYC",
      "US:</w>"
    ],
    [
      "C",
      "OM"
    ],
    [
      "COM",
      "INIUS:</w>"
    ],
    [
      "EDW",
      "ARD:</w>"
    ],
    [
      "I",
      "n"
    ],
    [
      "b",
      "it"
    ],
    [
      "i",
      "se</w>"
    ],
    [
      "lif",
      "e,</w>"
    ],
    [
      "mi",
      "s"
    ],
    [
      "on",
      ".</w>"
    ],
    [
      "re",
      "ven"
    ],
    [
      "rou",
      "gh</w>"
    ],
    [
      "ta",
      "in"
    ],
    [
      "v",
      "ing"
    ],
    [
      "wr",
      "ong"
    ],
    [
      ".",
      "'</w>"
    ],
    [
      "AR",
      "ENCE:</w>"
    ],
    [
      "CL",
      "ARENCE:</w>"
    ],
    [
      "E",
      "Y:</w>"
    ],
    [
      "Thi",
      "r"
    ],
    [
      "ab",
      "out</w>"
    ],
    [
      "bus",
      "in"
    ],
    [
      "des",
      "er"
    ],
    [
      "es",
      "s,</w>"
    ],
    [
      "ght",
      "er</w>"
    ],
    [
      "hou",
      "se</w>"
    ],
    [
      "l",
      "es</w>"
    ],
    [
      "que",
      "en"
    ],
    [
      "sir",
      ".</w>"
    ],
    [
      "x",
      "t</w>"
    ],
    [
      "'",
      "d.</w>"
    ],
    [
      "C",
      "on"
    ],
    [
      "G",
      "ent"
    ],
    [
      "M",
      "urder"
    ],
    [
      "Provo",
      "st:</w>"
    ],
    [
      "Thir",
      "d</w>"
    ],
    [
      "father",
      "'s</w>"
    ],
    [
      "ir",
      "e</w>"
    ],
    [
      "la",
      "u"
    ],
    [
      "lor",
      "d</w>"
    ],
    [
      "po",
      "in"
    ],
    [
      "pr",
      "om"
    ],
    [
      "sh",
      "ow</w>"
    ],
    [
      "sha",
      "lt</w>"
    ],
    [
      "t",
      "-"
    ],
    [
      "fa",
      "ir"
    ],
    [
      "wom",
      "an"
    ],
    [
      "B",
      "EN"
    ],
    [
      "BEN",
      "VOL"
    ],
    [
      "BENVOL",
      "IO:</w>"
    ],
    [
      "Mor",
      "e</w>"
    ],
    [
      "N",
      "OR"
    ],
    [
      "W",
      "ould</w>"
    ],
    [
      "ch",
      "e"
    ],
    [
      "happ",
      "y</w>"
    ],
    [
      "hea",
      "d</w>"
    ],
    [
      "ho",
      "pe</w>"
    ],
    [
      "hus",
      "ban"
    ],
    [
      "ni",
      "ght"
    ],
    [
      "pr",
      "ou"
    ],
    [
      "self",
      ".</w>"
    ],
    [
      "the",
      "e.</w>"
    ],
    [
      "van",
      "t:</w>"
    ],
    [
      "GR",
      "UM"
    ],
    [
      "GRUM",
      "IO:</w>"
    ],
    [
      "P",
      "ROS"
    ],
    [
      "PER",
      "O:</w>"
    ],
    [
      "PROS",
      "PERO:</w>"
    ],
    [
      "R",
      "e"
    ],
    [
      "at",
      "t"
    ],
    [
      "e",
      "ld</w>"
    ],
    [
      "ea",
      "ch</w>"
    ],
    [
      "en",
      "g"
    ],
    [
      "f",
      "ee"
    ],
    [
      "ho",
      "ly</w>"
    ],
    [
      "k",
      "s,</w>"
    ],
    [
      "m",
      "eet</w>"
    ],
    [
      "reme",
      "mb"
    ],
    [
      "st",
      "ran"
    ],
    [
      "tongu",
      "e</w>"
    ],
    [
      "wor",
      "d</w>"
    ],
    [
      "y",
      "e"
    ],
    [
      "CU",
      "TIO:</w>"
    ],
    [
      "ER",
      "CUTIO:</w>"
    ],
    [
      "M",
      "ERCUTIO:</w>"
    ],
    [
      "Murder",
      "er:</w>"
    ],
    [
      "ce",
      ";</w>"
    ],
    [
      "di",
      "e</w>"
    ],
    [
      "for",
      "e,</w>"
    ],
    [
      "g",
      "re"
    ],
    [
      "her",
      ",</w>"
    ],
    [
      "hi",
      "gh"
    ],
    [
      "n",
      "one</w>"
    ],
    [
      "plea",
      "se</w>"
    ],
    [
      "pro",
      "ve</w>"
    ],
    [
      "un",
      "der"
    ],
    [
      "w",
      "an"
    ],
    [
      "C",
      "om"
    ],
    [
      "LUC",
      "ENTIO:</w>"
    ],
    [
      "T",
      "e"
    ],
    [
      "b",
      "ar"
    ],
    [
      "g",
      "e.</w>"
    ],
    [
      "her",
      "e,</w>"
    ],
    [
      "k",
      "is"
    ],
    [
      "l",
      "and</w>"
    ],
    [
      "l",
      "y.</w>"
    ],
    [
      "lie",
      "ve</w>"
    ],
    [
      "n",
      "ee"
    ],
    [
      "or",
      "i"
    ],
    [
      "pow",
      "er</w>"
    ],
    [
      "spi",
      "ri"
    ],
    [
      "th",
      "at,</w>"
    ],
    [
      "than",
      "k</w>"
    ],
    [
      "thou",
      "t</w>"
    ],
    [
      "H",
      "ere"
    ],
    [
      "OM",
      "P"
    ],
    [
      "P",
      "OMP"
    ],
    [
      "Ser",
      "vant:</w>"
    ],
    [
      "Ta",
      "ke</w>"
    ],
    [
      "W",
      "ere</w>"
    ],
    [
      "bea",
      "u"
    ],
    [
      "e",
      "d,</w>"
    ],
    [
      "ga",
      "in</w>"
    ],
    [
      "he",
      "'s</w>"
    ],
    [
      "i",
      "an"
    ],
    [
      "l",
      "ed</w>"
    ],
    [
      "l",
      "ing</w>"
    ],
    [
      "mi",
      "stres"
    ],
    [
      "res",
      "t</w>"
    ],
    [
      "s",
      "in</w>"
    ],
    [
      "sa",
      "id</w>"
    ],
    [
      "t",
      "ly</w>"
    ],
    [
      "f",
      "la"
    ],
    [
      "u",
      "mb"
    ],
    [
      "y",
      "ing</w>"
    ],
    [
      "A",
      "u"
    ],
    [
      "AU",
      "L"
    ],
    [
      "AUL",
      "INA:</w>"
    ],
    [
      "Gi",
      "ve</w>"
    ],
    [
      "L",
      "u"
    ],
    [
      "P",
      "AULINA:</w>"
    ],
    [
      "b",
      "er"
    ],
    [
      "d",
      "ang"
    ],
    [
      "ju",
      "sti"
    ],
    [
      "l",
      "in"
    ],
    [
      "n",
      "s</w>"
    ],
    [
      "on",
      "ly</w>"
    ],
    [
      "s",
      "oul</w>"
    ],
    [
      "se",
      ";</w>"
    ],
    [
      "ser",
      "vi"
    ],
    [
      "sh",
      "ow"
    ],
    [
      "sir",
      ";</w>"
    ],
    [
      "t",
      "ch</w>"
    ],
    [
      "ta",
      "in</w>"
    ],
    [
      "ter",
      ",</w>"
    ],
    [
      "y",
      "i"
    ],
    [
      "A",
      "t</w>"
    ],
    [
      "D",
      "o"
    ],
    [
      "GRE",
      "M"
    ],
    [
      "GREM",
      "IO:</w>"
    ],
    [
      "M",
      "u"
    ],
    [
      "m",
      ".</w>"
    ],
    [
      "POMP",
      "EY:</w>"
    ],
    [
      "a",
      ",</w>"
    ],
    [
      "a",
      "ge</w>"
    ],
    [
      "b",
      "le"
    ],
    [
      "es",
      "sen"
    ],
    [
      "h",
      "</w>"
    ],
    [
      "ll",
      ".</w>"
    ],
    [
      "me",
      "an</w>"
    ],
    [
      "o",
      ".</w>"
    ],
    [
      "sub",
      "je"
    ],
    [
      "that",
      "'s</w>"
    ],
    [
      "war",
      "d</w>"
    ],
    [
      ",",
      "'</w>"
    ],
    [
      "EN",
      "ES:</w>"
    ],
    [
      "G",
      "o,</w>"
    ],
    [
      "I",
      "X"
    ],
    [
      "IX",
      "ENES:</w>"
    ],
    [
      "N",
      "IA:</w>"
    ],
    [
      "OL",
      "IXENES:</w>"
    ],
    [
      "P",
      "OLIXENES:</w>"
    ],
    [
      "T",
      "i"
    ],
    [
      "Ty",
      "bal"
    ],
    [
      "UM",
      "NIA:</w>"
    ],
    [
      "VOL",
      "UMNIA:</w>"
    ],
    [
      "bes",
      "eech</w>"
    ],
    [
      "cou",
      "sin"
    ],
    [
      "g",
      "ro"
    ],
    [
      "gen",
      "er"
    ],
    [
      "ha",
      "l"
    ],
    [
      "f",
      ",</w>"
    ],
    [
      "him",
      "self</w>"
    ],
    [
      "i",
      "ght</w>"
    ],
    [
      "i",
      "mp"
    ],
    [
      "ig",
      "n</w>"
    ],
    [
      "p",
      "t</w>"
    ],
    [
      "sol",
      "di"
    ],
    [
      "wor",
      "ds</w>"
    ],
    [
      "A",
      "ST"
    ],
    [
      "AST",
      "ING"
    ],
    [
      "ASTING",
      "S:</w>"
    ],
    [
      "H",
      "ASTINGS:</w>"
    ],
    [
      "Ser",
      "ving"
    ],
    [
      "Serving",
      "man:</w>"
    ],
    [
      "T",
      "ha"
    ],
    [
      "W",
      "as</w>"
    ],
    [
      "cen",
      "ti"
    ],
    [
      "dau",
      "ghter</w>"
    ],
    [
      "g",
      "r"
    ],
    [
      "h",
      "un"
    ],
    [
      "li",
      "es</w>"
    ],
    [
      "mer",
      "c"
    ],
    [
      "mo",
      "ther"
    ],
    [
      "ra",
      "ther</w>"
    ],
    [
      "rou",
      "ght</w>"
    ],
    [
      "the",
      "m,</w>"
    ],
    [
      "AU",
      "R"
    ],
    [
      "AUR",
      "ENCE:</w>"
    ],
    [
      "Gent",
      "le"
    ],
    [
      "L",
      "AURENCE:</w>"
    ],
    [
      "P",
      "ar"
    ],
    [
      "T",
      ":</w>"
    ],
    [
      "Wh",
      "ere"
    ],
    [
      "af",
      "ter</w>"
    ],
    [
      "chil",
      "dr"
    ],
    [
      "coun",
      "tr"
    ],
    [
      "er",
      "s,</w>"
    ],
    [
      "essen",
      "g"
    ],
    [
      "f",
      "ol"
    ],
    [
      "him",
      ";</w>"
    ],
    [
      "k",
      "en</w>"
    ],
    [
      "kin",
      "d"
    ],
    [
      "le",
      "t's</w>"
    ],
    [
      "n",
      ".</w>"
    ],
    [
      "no",
      "t.</w>"
    ],
    [
      "o",
      "'"
    ],
    [
      "so",
      ".</w>"
    ],
    [
      "B",
      "Y:</w>"
    ],
    [
      "a",
      "way</w>"
    ],
    [
      "ck",
      "'d</w>"
    ],
    [
      "d",
      "om</w>"
    ],
    [
      "d",
      "s:</w>"
    ],
    [
      "ma",
      "i"
    ],
    [
      "di",
      "sp"
    ],
    [
      "fe",
      "llow"
    ],
    [
      "fo",
      "llow"
    ],
    [
      "g",
      "row"
    ],
    [
      "hel",
      "p</w>"
    ],
    [
      "it",
      "y,</w>"
    ],
    [
      "ma",
      "jes"
    ],
    [
      "mi",
      "ll"
    ],
    [
      "mor",
      "row"
    ],
    [
      "n",
      "ur"
    ],
    [
      "o",
      "ver"
    ],
    [
      "p",
      "lu"
    ],
    [
      "par",
      "don</w>"
    ],
    [
      "que",
      "en</w>"
    ],
    [
      "t",
      "ou"
    ],
    [
      "thi",
      "s,</w>"
    ],
    [
      "to",
      "ge"
    ],
    [
      "v",
      "es,</w>"
    ],
    [
      "wif",
      "e</w>"
    ],
    [
      "'",
      "t.</w>"
    ],
    [
      "A",
      "la"
    ],
    [
      "B",
      "ERL"
    ],
    [
      "B",
      "ol"
    ],
    [
      "BERL",
      "AND:</w>"
    ],
    [
      "CL",
      "I"
    ],
    [
      "CLI",
      "F"
    ],
    [
      "CLIF",
      "F"
    ],
    [
      "H",
      "ar"
    ],
    [
      "es",
      "t,</w>"
    ],
    [
      "M",
      "on"
    ],
    [
      "NOR",
      "TH"
    ],
    [
      "NORTH",
      "UM"
    ],
    [
      "NORTHUM",
      "BERLAND:</w>"
    ],
    [
      "Richar",
      "d</w>"
    ],
    [
      "b",
      "e,</w>"
    ],
    [
      "ba",
      "ck</w>"
    ],
    [
      "da",
      "y,</w>"
    ],
    [
      "fa",
      "ll</w>"
    ],
    [
      "far",
      "e"
    ],
    [
      "kin",
      "d</w>"
    ],
    [
      "l",
      ".</w>"
    ],
    [
      "ll",
      "s</w>"
    ],
    [
      "lor",
      "ds,</w>"
    ],
    [
      "m",
      "bl"
    ],
    [
      "m",
      "ea"
    ],
    [
      "mo",
      "ther</w>"
    ],
    [
      "r",
      "un"
    ],
    [
      "st",
      "or"
    ],
    [
      "th",
      "ing"
    ],
    [
      "w",
      "re"
    ],
    [
      "wh",
      "y</w>"
    ],
    [
      "An",
      "ge"
    ],
    [
      "I",
      "D"
    ],
    [
      "R",
      "A"
    ],
    [
      "S",
      "u"
    ],
    [
      "answ",
      "er</w>"
    ],
    [
      "d",
      "an"
    ],
    [
      "du",
      "ke</w>"
    ],
    [
      "f",
      "oul</w>"
    ],
    [
      "for",
      "d,</w>"
    ],
    [
      "frien",
      "ds</w>"
    ],
    [
      "him",
      ":</w>"
    ],
    [
      "k",
      "e.</w>"
    ],
    [
      "le",
      "ft</w>"
    ],
    [
      "ne",
      "'er</w>"
    ],
    [
      "ne",
      "i"
    ],
    [
      "pur",
      "po"
    ],
    [
      "s",
      "end</w>"
    ],
    [
      "sa",
      "w</w>"
    ],
    [
      "st",
      "u"
    ],
    [
      "thou",
      "ght"
    ],
    [
      "AN",
      "N"
    ],
    [
      "ANN",
      "E:</w>"
    ],
    [
      "Ange",
      "lo"
    ],
    [
      "F",
      "ar"
    ],
    [
      "Te",
      "ll</w>"
    ],
    [
      "Th",
      "ough</w>"
    ],
    [
      "bloo",
      "dy</w>"
    ],
    [
      "c",
      "er"
    ],
    [
      "ci",
      "an"
    ],
    [
      "ent",
      ".</w>"
    ],
    [
      "jo",
      "y</w>"
    ],
    [
      "you",
      "?</w>"
    ],
    [
      "z",
      "e</w>"
    ],
    [
      "C",
      "lif"
    ],
    [
      "F",
      "ran"
    ],
    [
      "H",
      "er</w>"
    ],
    [
      "Hen",
      "ry</w>"
    ],
    [
      "ON",
      "E:</w>"
    ],
    [
      "P",
      "R"
    ],
    [
      "PR",
      "INC"
    ],
    [
      "Warwi",
      "ck</w>"
    ],
    [
      "b",
      "on"
    ],
    [
      "c",
      "tor"
    ],
    [
      "f",
      "it</w>"
    ],
    [
      "ig",
      "ni"
    ],
    [
      "l",
      "s</w>"
    ],
    [
      "new",
      "s</w>"
    ],
    [
      "s",
      "es"
    ],
    [
      "sa",
      "ve</w>"
    ],
    [
      "si",
      "l"
    ],
    [
      "sw",
      "ear</w>"
    ],
    [
      "tim",
      "es</w>"
    ],
    [
      "wor",
      "thy</w>"
    ],
    [
      "A",
      "h,</w>"
    ],
    [
      "Bol",
      "ing"
    ],
    [
      "Boling",
      "bro"
    ],
    [
      "C",
      "ori"
    ],
    [
      "G",
      "re"
    ],
    [
      "O",
      "n</w>"
    ],
    [
      "OR",
      "D:</w>"
    ],
    [
      "P",
      "ra"
    ],
    [
      "S",
      "igni"
    ],
    [
      "Signi",
      "or</w>"
    ],
    [
      "c",
      "rea"
    ],
    [
      "ch",
      "o"
    ],
    [
      "com",
      "man"
    ],
    [
      "d",
      "in"
    ],
    [
      "dea",
      "th.</w>"
    ],
    [
      "fau",
      "l"
    ],
    [
      "it",
      "e</w>"
    ],
    [
      "l",
      "ear"
    ],
    [
      "o",
      "'s</w>"
    ],
    [
      "pra",
      "y"
    ],
    [
      "pri",
      "son"
    ],
    [
      "qu",
      "ar"
    ],
    [
      "s",
      "'d</w>"
    ],
    [
      "sh",
      "or"
    ],
    [
      "st",
      "o"
    ],
    [
      "su",
      "re"
    ],
    [
      "ta",
      "l</w>"
    ],
    [
      "th",
      "ree</w>"
    ],
    [
      "th",
      "y"
    ],
    [
      "to",
      "ld</w>"
    ],
    [
      "w",
      "oun"
    ],
    [
      "you",
      ";</w>"
    ],
    [
      "An",
      "</w>"
    ],
    [
      "Far",
      "e"
    ],
    [
      "P",
      "o"
    ],
    [
      "R",
      "om"
    ],
    [
      "a",
      "ble</w>"
    ],
    [
      "ano",
      "ther</w>"
    ],
    [
      "c",
      "ol"
    ],
    [
      "f",
      "ea"
    ],
    [
      "g",
      "la"
    ],
    [
      "go",
      "t</w>"
    ],
    [
      "min",
      "d</w>"
    ],
    [
      "pres",
      "ent</w>"
    ],
    [
      "re",
      "qu"
    ],
    [
      "spea",
      "k"
    ],
    [
      "v",
      "en,</w>"
    ],
    [
      "wa",
      "y,</w>"
    ],
    [
      "Mon",
      "ta"
    ],
    [
      "Monta",
      "gu"
    ],
    [
      "S",
      "en"
    ],
    [
      "S",
      "ome</w>"
    ],
    [
      "Warwi",
      "ck,</w>"
    ],
    [
      "at",
      "ch"
    ],
    [
      "D",
      "i"
    ],
    [
      "be",
      "t"
    ],
    [
      "bo",
      "dy</w>"
    ],
    [
      "de",
      "ed</w>"
    ],
    [
      "ent",
      "rea"
    ],
    [
      "fa",
      "ce</w>"
    ],
    [
      "fri",
      "ar"
    ],
    [
      "h",
      "ence</w>"
    ],
    [
      "hi",
      "gh</w>"
    ],
    [
      "in",
      "stru"
    ],
    [
      "ki",
      "ll</w>"
    ],
    [
      "la",
      "st</w>"
    ],
    [
      "ll",
      "y</w>"
    ],
    [
      "mor",
      "e,</w>"
    ],
    [
      "shi",
      "p</w>"
    ],
    [
      "sp",
      "ee"
    ],
    [
      "es",
      "?</w>"
    ],
    [
      "sw",
      "ee"
    ],
    [
      "t",
      "owar"
    ],
    [
      "t",
      "y.</w>"
    ],
    [
      "th",
      "ings</w>"
    ],
    [
      "trait",
      "or"
    ],
    [
      "wee",
      "p"
    ],
    [
      "wi",
      "thout</w>"
    ],
    [
      "D",
      "id</w>"
    ],
    [
      "Eng",
      "lan"
    ],
    [
      "H",
      "er"
    ],
    [
      "on",
      "e,</w>"
    ],
    [
      "on",
      "e.</w>"
    ],
    [
      "J",
      "o"
    ],
    [
      "Rome",
      "o</w>"
    ],
    [
      "Sen",
      "ator"
    ],
    [
      "T",
      "o"
    ],
    [
      "a",
      "gain</w>"
    ],
    [
      "again",
      ".</w>"
    ],
    [
      "be",
      "lieve</w>"
    ],
    [
      "dee",
      "d,</w>"
    ],
    [
      "do",
      "es</w>"
    ],
    [
      "fal",
      "se</w>"
    ],
    [
      "for",
      "m"
    ],
    [
      "h",
      "ould</w>"
    ],
    [
      "S",
      "hould</w>"
    ],
    [
      "han",
      "ds</w>"
    ],
    [
      "in",
      "i"
    ],
    [
      "king",
      ".</w>"
    ],
    [
      "li",
      "e</w>"
    ],
    [
      "li",
      "ght</w>"
    ],
    [
      "li",
      "sh</w>"
    ],
    [
      "m",
      "urder"
    ],
    [
      "me",
      "!</w>"
    ],
    [
      "pa",
      "in"
    ],
    [
      "s",
      "ca"
    ],
    [
      "s",
      "oun"
    ],
    [
      "st",
      "ate</w>"
    ],
    [
      "up",
      ",</w>"
    ],
    [
      "we",
      "'ll</w>"
    ],
    [
      "you",
      ":</w>"
    ],
    [
      "AU",
      "F"
    ],
    [
      "AUF",
      "ID"
    ],
    [
      "AUFID",
      "IUS:</w>"
    ],
    [
      "Edwar",
      "d's</w>"
    ],
    [
      "F",
      "L"
    ],
    [
      "FL",
      "ORI"
    ],
    [
      "FLORI",
      "Z"
    ],
    [
      "FLORIZ",
      "EL:</w>"
    ],
    [
      "Go",
      "d,</w>"
    ],
    [
      "Li",
      "ke</w>"
    ],
    [
      "Lor",
      "d:</w>"
    ],
    [
      "M",
      "esseng"
    ],
    [
      "Messeng",
      "er:</w>"
    ],
    [
      "On",
      "e</w>"
    ],
    [
      "P",
      "a"
    ],
    [
      "S",
      "he"
    ],
    [
      "b",
      "oo"
    ],
    [
      "bro",
      "ther,</w>"
    ],
    [
      "ch",
      "oo"
    ],
    [
      "d",
      "ge</w>"
    ],
    [
      "di",
      "sc"
    ],
    [
      "e",
      "cu"
    ],
    [
      "fl",
      "ow"
    ],
    [
      "er",
      "y</w>"
    ],
    [
      "fortun",
      "e</w>"
    ],
    [
      "k",
      "ed</w>"
    ],
    [
      "lor",
      "d"
    ],
    [
      "m",
      "ou"
    ],
    [
      "o",
      "b"
    ],
    [
      "pea",
      "ce</w>"
    ],
    [
      "sle",
      "ep"
    ],
    [
      "st",
      "e</w>"
    ],
    [
      "ster",
      ",</w>"
    ],
    [
      "wi",
      "ll,</w>"
    ],
    [
      "AR",
      "I"
    ],
    [
      "C",
      "ap"
    ],
    [
      "C",
      "lau"
    ],
    [
      "Clau",
      "di"
    ],
    [
      "Th",
      "ese</w>"
    ],
    [
      "b",
      "ir"
    ],
    [
      "ri",
      "ght</w>"
    ],
    [
      "ce",
      "!</w>"
    ],
    [
      "d",
      "ear"
    ],
    [
      "de",
      "f"
    ],
    [
      "di",
      "sh"
    ],
    [
      "en",
      "t,</w>"
    ],
    [
      "ex",
      "ecu"
    ],
    [
      "gu",
      "il"
    ],
    [
      "h",
      "our</w>"
    ],
    [
      "han",
      "d,</w>"
    ],
    [
      "men",
      "t,</w>"
    ],
    [
      "ne",
      "ed</w>"
    ],
    [
      "no",
      ",</w>"
    ],
    [
      "tw",
      "ent"
    ],
    [
      "vill",
      "ain"
    ],
    [
      "w",
      "ri"
    ],
    [
      "!",
      "'</w>"
    ],
    [
      "Gentle",
      "man:</w>"
    ],
    [
      "ON",
      ":</w>"
    ],
    [
      "Senator",
      ":</w>"
    ],
    [
      "b",
      "rought</w>"
    ],
    [
      "ca",
      "u"
    ],
    [
      "ck",
      ".</w>"
    ],
    [
      "com",
      "e.</w>"
    ],
    [
      "comfor",
      "t</w>"
    ],
    [
      "con",
      "su"
    ],
    [
      "dea",
      "d</w>"
    ],
    [
      "e",
      "d.</w>"
    ],
    [
      "v",
      "ent"
    ],
    [
      "fo",
      "llow</w>"
    ],
    [
      "g",
      "g"
    ],
    [
      "hea",
      "vy</w>"
    ],
    [
      "is",
      "su"
    ],
    [
      "k",
      "ne"
    ],
    [
      "l",
      ":</w>"
    ],
    [
      "li",
      "fe"
    ],
    [
      "li",
      "ves</w>"
    ],
    [
      "mean",
      "s</w>"
    ],
    [
      "o",
      "be"
    ],
    [
      "p",
      "en"
    ],
    [
      "sor",
      "row</w>"
    ],
    [
      "t",
      "ears</w>"
    ],
    [
      "t",
      "y"
    ],
    [
      "whi",
      "le</w>"
    ],
    [
      "A",
      "gain"
    ],
    [
      "Again",
      "st</w>"
    ],
    [
      "G",
      "lou"
    ],
    [
      "Glou",
      "ces"
    ],
    [
      "Go",
      "d's</w>"
    ],
    [
      "Ha",
      "d</w>"
    ],
    [
      "MAR",
      "C"
    ],
    [
      "Ma",
      "y</w>"
    ],
    [
      "RICH",
      "ARD:</w>"
    ],
    [
      "She",
      "p"
    ],
    [
      "Shep",
      "her"
    ],
    [
      "T",
      "I"
    ],
    [
      "bo",
      "s"
    ],
    [
      "brea",
      "k</w>"
    ],
    [
      "c",
      "ri"
    ],
    [
      "ck",
      "ing"
    ],
    [
      "der",
      ",</w>"
    ],
    [
      "f",
      "an"
    ],
    [
      "i",
      "th,</w>"
    ],
    [
      "F",
      "a"
    ],
    [
      "li",
      "ght"
    ],
    [
      "ma",
      "ster</w>"
    ],
    [
      "man",
      ".</w>"
    ],
    [
      "om",
      ",</w>"
    ],
    [
      "oul",
      "dst</w>"
    ],
    [
      "pro",
      "p"
    ],
    [
      "res",
      "ol"
    ],
    [
      "se",
      "en</w>"
    ],
    [
      "sor",
      "row"
    ],
    [
      "str",
      "eng"
    ],
    [
      "t",
      "es"
    ],
    [
      "tal",
      "k</w>"
    ],
    [
      "th",
      "rough</w>"
    ],
    [
      "them",
      ".</w>"
    ],
    [
      "thin",
      "ks</w>"
    ],
    [
      "ti",
      "t"
    ],
    [
      "le",
      ":</w>"
    ],
    [
      "w",
      "oo"
    ],
    [
      "wha",
      "t's</w>"
    ],
    [
      "wi",
      "sh</w>"
    ],
    [
      "with",
      "in</w>"
    ],
    [
      "'",
      "T"
    ],
    [
      "Ca",
      "mill"
    ],
    [
      "MARC",
      "IUS:</w>"
    ],
    [
      "O",
      "W"
    ],
    [
      "Shepher",
      "d:</w>"
    ],
    [
      "Wha",
      "t's</w>"
    ],
    [
      "b",
      "un"
    ],
    [
      "bloo",
      "d,</w>"
    ],
    [
      "ch",
      ".</w>"
    ],
    [
      "comp",
      "an"
    ],
    [
      "d",
      "g"
    ],
    [
      "don",
      "e,</w>"
    ],
    [
      "er",
      "'d</w>"
    ],
    [
      "es",
      "s.</w>"
    ],
    [
      "f",
      "row"
    ],
    [
      "ar",
      "d</w>"
    ],
    [
      "frien",
      "ds,</w>"
    ],
    [
      "her",
      ".</w>"
    ],
    [
      "ing",
      ":</w>"
    ],
    [
      "it",
      ";</w>"
    ],
    [
      "lor",
      "d;</w>"
    ],
    [
      "ma",
      "tter"
    ],
    [
      "pla",
      "y</w>"
    ],
    [
      "rea",
      "d"
    ],
    [
      "si",
      "g"
    ],
    [
      "st",
      "ee"
    ],
    [
      "wif",
      "e,</w>"
    ],
    [
      "y",
      "ears</w>"
    ],
    [
      "BI",
      "ON"
    ],
    [
      "BION",
      "D"
    ],
    [
      "BIOND",
      "ELL"
    ],
    [
      "BIONDELL",
      "O:</w>"
    ],
    [
      "Bu",
      "cking"
    ],
    [
      "Bucking",
      "ha"
    ],
    [
      "M",
      "o"
    ],
    [
      "S",
      "i"
    ],
    [
      "Ti",
      "ll</w>"
    ],
    [
      "V",
      "ol"
    ],
    [
      "ain",
      "t</w>"
    ],
    [
      "all",
      ".</w>"
    ],
    [
      "bl",
      "es"
    ],
    [
      "chan",
      "ge</w>"
    ],
    [
      "ck",
      "s</w>"
    ],
    [
      "crow",
      "n</w>"
    ],
    [
      "dra",
      "w</w>"
    ],
    [
      "for",
      "d</w>"
    ],
    [
      "S",
      "t"
    ],
    [
      "ar",
      "t</w>"
    ],
    [
      "g",
      "ran"
    ],
    [
      "go",
      "ds</w>"
    ],
    [
      "it",
      ":</w>"
    ],
    [
      "m",
      "ed</w>"
    ],
    [
      "m",
      "s,</w>"
    ],
    [
      "n",
      "ed</w>"
    ],
    [
      "nat",
      "u"
    ],
    [
      "o",
      "ver</w>"
    ],
    [
      "peop",
      "le</w>"
    ],
    [
      "re",
      "cei"
    ],
    [
      "re",
      "s</w>"
    ],
    [
      "sa",
      "me</w>"
    ],
    [
      "see",
      "m</w>"
    ],
    [
      "st",
      "ing"
    ],
    [
      "sun",
      "</w>"
    ],
    [
      "this",
      "?</w>"
    ],
    [
      "ti",
      "me,</w>"
    ],
    [
      "u",
      "t"
    ],
    [
      "wh",
      "y,</w>"
    ],
    [
      "y",
      "'d</w>"
    ],
    [
      "s",
      "wa"
    ],
    [
      "y",
      "ear"
    ],
    [
      "e",
      "i"
    ],
    [
      "Nor",
      "fol"
    ],
    [
      "Th",
      "en,</w>"
    ],
    [
      "Yor",
      "k</w>"
    ],
    [
      "b",
      "and</w>"
    ],
    [
      "bl",
      "e,</w>"
    ],
    [
      "c",
      "t"
    ],
    [
      "ce",
      "?</w>"
    ],
    [
      "comm",
      "on</w>"
    ],
    [
      "e",
      "'er</w>"
    ],
    [
      "es",
      "!</w>"
    ],
    [
      "fa",
      "i"
    ],
    [
      "ha",
      "te</w>"
    ],
    [
      "han",
      "g"
    ],
    [
      "i",
      "m</w>"
    ],
    [
      "i",
      "sh</w>"
    ],
    [
      "k",
      "en"
    ],
    [
      "ment",
      "s</w>"
    ],
    [
      "mo",
      "ther,</w>"
    ],
    [
      "mu",
      "si"
    ],
    [
      "o",
      "!</w>"
    ],
    [
      "p",
      "ity</w>"
    ],
    [
      "prin",
      "ce</w>"
    ],
    [
      "que",
      "en,</w>"
    ],
    [
      "rea",
      "d</w>"
    ],
    [
      "sa",
      "ys</w>"
    ],
    [
      "sc",
      "or"
    ],
    [
      "ch",
      "'d</w>"
    ],
    [
      "p",
      "it"
    ],
    [
      "su",
      "c"
    ],
    [
      "th",
      ";</w>"
    ],
    [
      "w",
      "ear"
    ],
    [
      "'",
      "t,</w>"
    ],
    [
      "AU",
      "M"
    ],
    [
      "AUM",
      "ERL"
    ],
    [
      "AUMERL",
      "E:</w>"
    ],
    [
      "B",
      "es"
    ],
    [
      "C",
      "an</w>"
    ]
  ],
  "vocab": {
    "<unk>": 0,
    "!": 1,
    "$": 2,
    "&": 3,
    "'": 4,
    ",": 5,
    "-": 6,
    ".": 7,
    "3": 8,
    ":": 9,
    ";": 10,
    "</w>": 11,
    "?": 12,
    "A": 13,
    "B": 14,
    "C": 15,
    "D": 16,
    "E": 17,
    "F": 18,
    "G": 19,
    "H": 20,
    "I": 21,
    "J": 22,
    "K": 23,
    "L": 24,
    "M": 25,
    "N": 26,
    "O": 27,
    "P": 28,
    "Q": 29,
    "R": 30,
    "S": 31,
    "T": 32,
    "U": 33,
    "V": 34,
    "W": 35,
    "X": 36,
    "Y": 37,
    "Z": 38,
    "a": 39,
    "b": 40,
    "c": 41,
    "d": 42,
    "e": 43,
    "f": 44,
    "g": 45,
    "h": 46,
    "i": 47,
    "j": 48,
    "k": 49,
    "l": 50,
    "m": 51,
    "n": 52,
    "o": 53,
    "p": 54,
    "q": 55,
    "r": 56,
    "s": 57,
    "t": 58,
    "u": 59,
    "v": 60,
    "w": 61,
    "x": 62,
    "y": 63,
    "z": 64,
    "e</w>": 65,
    "th": 66,
    ",</w>": 67,
    "t</w>": 68,
    "s</w>": 69,
    "d</w>": 70,
    "ou": 71,
    "er": 72,
    "y</w>": 73,
    "in": 74,
    ":</w>": 75,
    "an": 76,
    "or": 77,
    "o</w>": 78,
    ".</w>": 79,
    "en": 80,
    "ar": 81,
    "on": 82,
    "ll": 83,
    "ha": 84,
    "the</w>": 85,
    "is</w>": 86,
    "f</w>": 87,
    "es": 88,
    "you": 89,
    "I</w>": 90,
    "ll</w>": 91,
    "to</w>": 92,
    "and</w>": 93,
    "ow": 94,
    "ea": 95,
    "e,</w>": 96,
    "r</w>": 97,
    "ing": 98,
    "om": 99,
    "wi": 100,
    ";</w>": 101,
    "er</w>": 102,
    "st": 103,
    "of</w>": 104,
    "th</w>": 105,
    "hi": 106,
    "or</w>": 107,
    "ve</w>": 108,
    "a</w>": 109,
    "no": 110,
    "ch": 111,
    "my</w>": 112,
    "in</w>": 113,
    "se": 114,
    "he</w>": 115,
    "?</w>": 116,
    "li": 117,
    "at</w>": 118,
    "ing</w>": 119,
    "the": 120,
    "re": 121,
    "st</w>": 122,
    "you</w>": 123,
    "!</w>": 124,
    "An": 125,
    "ear": 126,
    "ti": 127,
    "oo": 128,
    "en</w>": 129,
    "d,</w>": 130,
    "gh": 131,
    "ri": 132,
    "ma": 133,
    "s,</w>": 134,
    "ed</w>": 135,
    "ra": 136,
    "that</w>": 137,
    "m</w>": 138,
    "not</w>": 139,
    "And</w>": 140,
    "'s</w>": 141,
    "on</w>": 142,
    "t,</w>": 143,
    "me</w>": 144,
    "es</w>": 145,
    "y,</w>": 146,
    "ow</w>": 147,
    "ld</w>": 148,
    "his</w>": 149,
    "thou": 150,
    "la": 151,
    "as</w>": 152,
    "ir": 153,
    "ut</w>": 154,
    "with</w>": 155,
    "hat</w>": 156,
    "le": 157,
    "ur": 158,
    "sh": 159,
    "be</w>": 160,
    "an</w>": 161,
    "your</w>": 162,
    "be": 163,
    "k</w>": 164,
    "ro": 165,
    "di": 166,
    "O:</w>": 167,
    "ere</w>": 168,
    "ch</w>": 169,
    "ke</w>": 170,
    "for</w>": 171,
    "EN": 172,
    "un": 173,
    "it</w>": 174,
    "IN": 175,
    "se</w>": 176,
    "e.</w>": 177,
    "for": 178,
    "fa": 179,
    "have</w>": 180,
    "l</w>": 181,
    "ce</w>": 182,
    "ee": 183,
    "S:</w>": 184,
    "Th": 185,
    "it": 186,
    "com": 187,
    "sa": 188,
    "our</w>": 189,
    "AR": 190,
    "at": 191,
    "'d</w>": 192,
    "this</w>": 193,
    "n</w>": 194,
    "le</w>": 195,
    "thou</w>": 196,
    "lo": 197,
    "ther": 198,
    "wh": 199,
    "sha": 200,
    "ta": 201,
    "thy</w>": 202,
    "sp": 203,
    "IO:</w>": 204,
    "ly</w>": 205,
    "ould</w>": 206,
    "rea": 207,
    "su": 208,
    "ent": 209,
    "US:</w>": 210,
    "Wh": 211,
    "will</w>": 212,
    "but</w>": 213,
    "me": 214,
    "om</w>": 215,
    "The</w>": 216,
    "con": 217,
    "ca": 218,
    "are</w>": 219,
    "ru": 220,
    "si": 221,
    "To</w>": 222,
    "we": 223,
    "wor": 224,
    "ne": 225,
    "ood</w>": 226,
    "de": 227,
    "wa": 228,
    "ther</w>": 229,
    "da": 230,
    "mor": 231,
    "by</w>": 232,
    "ol": 233,
    "UC": 234,
    "mi": 235,
    "ce": 236,
    "p</w>": 237,
    "shall</w>": 238,
    "d.</w>": 239,
    "s.</w>": 240,
    "him</w>": 241,
    "ver": 242,
    "ear</w>": 243,
    "ING": 244,
    "so</w>": 245,
    "man": 246,
    "mu": 247,
    "oun": 248,
    "ds</w>": 249,
    "ER": 250,
    "ck": 251,
    "lor": 252,
    "OR": 253,
    "res": 254,
    "mo": 255,
    "ter": 256,
    "ght</w>": 257,
    "et</w>": 258,
    "sel": 259,
    "ET": 260,
    "rom</w>": 261,
    "do</w>": 262,
    "That</w>": 263,
    "o,</w>": 264,
    "her</w>": 265,
    "AN": 266,
    "qu": 267,
    "po": 268,
    "him": 269,
    "vi": 270,
    "kn": 271,
    "bl": 272,
    "te": 273,
    "'</w>": 274,
    "pa": 275,
    "ir</w>": 276,
    "no</w>": 277,
    "'ll</w>": 278,
    "our": 279,
    "A:</w>": 280,
    "est</w>": 281,
    "ga": 282,
    "what</w>": 283,
    "KING": 284,
    "one</w>": 285,
    "to": 286,
    "hich</w>": 287,
    "y.</w>": 288,
    "ci": 289,
    "el": 290,
    "But</w>": 291,
    "ess</w>": 292,
    "bo": 293,
    "from</w>": 294,
    "ong": 295,
    "do": 296,
    "t.</w>": 297,
    "her": 298,
    "ent</w>": 299,
    "ou</w>": 300,
    "us</w>": 301,
    "fi": 302,
    "IC": 303,
    "war": 304,
    "al": 305,
    "sir": 306,
    "es,</w>": 307,
    "good</w>": 308,
    "dea": 309,
    "OL": 310,
    "if</w>": 311,
    "up": 312,
    "was</w>": 313,
    "EL": 314,
    "fu": 315,
    "hea": 316,
    "all</w>": 317,
    "hear": 318,
    "lea": 319,
    "fe": 320,
    "IUS:</w>": 321,
    "ARD": 322,
    "KING</w>": 323,
    "ome</w>": 324,
    "For</w>": 325,
    "tt": 326,
    "would</w>": 327,
    "min": 328,
    "ous</w>": 329,
    "their</w>": 330,
    "par": 331,
    "My</w>": 332,
    "row": 333,
    "of": 334,
    "--": 335,
    "we</w>": 336,
    "ES": 337,
    "ce,</w>": 338,
    "ver</w>": 339,
    "thee</w>": 340,
    "am</w>": 341,
    "they</w>": 342,
    "I'll</w>": 343,
    "ve": 344,
    "Wi": 345,
    "pro": 346,
    "ran": 347,
    "E:</w>": 348,
    "ho": 349,
    "gi": 350,
    "de</w>": 351,
    "thin": 352,
    "ge</w>": 353,
    "ght": 354,
    "me,</w>": 355,
    "more</w>": 356,
    "d;</w>": 357,
    "ble</w>": 358,
    "is": 359,
    "tru": 360,
    "per": 361,
    "us": 362,
    "der": 363,
    "ck</w>": 364,
    "d:</w>": 365,
    "bro": 366,
    "en,</w>": 367,
    "gra": 368,
    "ll,</w>": 369,
    "As</w>": 370,
    "What</w>": 371,
    "sw": 372,
    "II": 373,
    "she</w>": 374,
    "hath</w>": 375,
    "were</w>": 376,
    "A</w>": 377,
    "ba": 378,
    "so": 379,
    "he": 380,
    "gh</w>": 381,
    "on,</w>": 382,
    "like</w>": 383,
    "Ha": 384,
    "make</w>": 385,
    "pe": 386,
    "'t": 387,
    "ON": 388,
    "ARD</w>": 389,
    "th,</w>": 390,
    "you,</w>": 391,
    "ge": 392,
    "king": 393,
    "RO": 394,
    "TIO:</w>": 395,
    "go": 396,
    "ts</w>": 397,
    "than</w>": 398,
    "du": 399,
    "w</w>": 400,
    "ni": 401,
    "pr": 402,
    "na": 403,
    "ET:</w>": 404,
    "AU": 405,
    "may</w>": 406,
    "must</w>": 407,
    "let</w>": 408,
    "come</w>": 409,
    "E</w>": 410,
    "Y</w>": 411,
    "ow,</w>": 412,
    "You</w>": 413,
    "end</w>": 414,
    "gain": 415,
    "them</w>": 416,
    "irst</w>": 417,
    "ere": 418,
    "s;</w>": 419,
    "fri": 420,
    "s:</w>": 421,
    "should</w>": 422,
    "upon</w>": 423,
    "K:</w>": 424,
    "mb": 425,
    "fore</w>": 426,
    "out</w>": 427,
    "which</w>": 428,
    "spea": 429,
    "If</w>": 430,
    "CA": 431,
    "ICH": 432,
    "id</w>": 433,
    "RICH": 434,
    "mp": 435,
    "ven</w>": 436,
    "pp": 437,
    "DU": 438,
    "DUK": 439,
    "can": 440,
    "des": 441,
    "ence</w>": 442,
    "han": 443,
    "DUKE</w>": 444,
    "how</w>": 445,
    "then</w>": 446,
    "lan": 447,
    "had</w>": 448,
    "sta": 449,
    "hon": 450,
    "ese</w>": 451,
    "know</w>": 452,
    "mar": 453,
    "ENTIO:</w>": 454,
    "ER:</w>": 455,
    "Go": 456,
    "gu": 457,
    "O</w>": 458,
    "ry</w>": 459,
    "pla": 460,
    "Y:</w>": 461,
    "ful</w>": 462,
    "ey": 463,
    "INC": 464,
    "man</w>": 465,
    "some</w>": 466,
    "O,</w>": 467,
    "ome": 468,
    "t's</w>": 469,
    "lif": 470,
    "very</w>": 471,
    "He</w>": 472,
    "IS": 473,
    "when</w>": 474,
    "son": 475,
    "ted</w>": 476,
    "ac": 477,
    "ure</w>": 478,
    "ds,</w>": 479,
    "loo": 480,
    "ty</w>": 481,
    "ig": 482,
    "did</w>": 483,
    "ther,</w>": 484,
    "cu": 485,
    "tion</w>": 486,
    "here</w>": 487,
    "say</w>": 488,
    "AB": 489,
    "ex": 490,
    "self": 491,
    "sir,</w>": 492,
    "dy</w>": 493,
    "gent": 494,
    "own": 495,
    "ster": 496,
    "Which</w>": 497,
    "al</w>": 498,
    "k,</w>": 499,
    "il": 500,
    "such</w>": 501,
    "ves</w>": 502,
    "again": 503,
    "der</w>": 504,
    "sti": 505,
    "take</w>": 506,
    "op": 507,
    "ve,</w>": 508,
    "self</w>": 509,
    "t:</w>": 510,
    "sh</w>": 511,
    "m,</w>": 512,
    "In</w>": 513,
    "love</w>": 514,
    "there": 515,
    "LO": 516,
    "I:</w>": 517,
    "give</w>": 518,
    "these</w>": 519,
    "RICHARD</w>": 520,
    "char": 521,
    "most</w>": 522,
    "pri": 523,
    "--</w>": 524,
    "EST": 525,
    "First</w>": 526,
    "coun": 527,
    "yet</w>": 528,
    "With</w>": 529,
    "king</w>": 530,
    "sc": 531,
    "UCH": 532,
    "pra": 533,
    "see</w>": 534,
    "ESTER:</w>": 535,
    "GLO": 536,
    "GLOUC": 537,
    "GLOUCESTER:</w>": 538,
    "Of</w>": 539,
    "vo": 540,
    "well</w>": 541,
    "EEN": 542,
    "This</w>": 543,
    "eet</w>": 544,
    "thing</w>": 545,
    "tion": 546,
    "Lor": 547,
    "Ma": 548,
    "ven": 549,
    "y;</w>": 550,
    "chi": 551,
    "sed</w>": 552,
    "bu": 553,
    "e;</w>": 554,
    "y:</w>": 555,
    "UL": 556,
    "ome,</w>": 557,
    "ser": 558,
    "sin": 559,
    "INCENTIO:</w>": 560,
    "QU": 561,
    "QUEEN": 562,
    "VINCENTIO:</w>": 563,
    "can</w>": 564,
    "d?</w>": 565,
    "F</w>": 566,
    "Mar": 567,
    "OF</w>": 568,
    "oul": 569,
    "st,</w>": 570,
    "thee,</w>": 571,
    "HEN": 572,
    "How</w>": 573,
    "Thou</w>": 574,
    "brea": 575,
    "d's</w>": 576,
    "whi": 577,
    "go</w>": 578,
    "lord,</w>": 579,
    "any</w>": 580,
    "te</w>": 581,
    "tu": 582,
    "e:</w>": 583,
    "Se": 584,
    "af": 585,
    "lt</w>": 586,
    "se,</w>": 587,
    "time</w>": 588,
    "'tis</w>": 589,
    "HENR": 590,
    "HENRY</w>": 591,
    "frien": 592,
    "tell</w>": 593,
    "So</w>": 594,
    "grea": 595,
    "ten": 596,
    "ter</w>": 597,
    "fo": 598,
    "d!</w>": 599,
    "rou": 600,
    "ban": 601,
    "ing,</w>": 602,
    "up</w>": 603,
    "Is</w>": 604,
    "ORI": 605,
    "well": 606,
    "mine</w>": 607,
    "ng": 608,
    "ved</w>": 609,
    "ad": 610,
    "er:</w>": 611,
    "QUEEN</w>": 612,
    "ce.</w>": 613,
    "made</w>": 614,
    "there</w>": 615,
    "ES:</w>": 616,
    "jo": 617,
    "pre": 618,
    "s!</w>": 619,
    "ORK:</w>": 620,
    "YORK:</w>": 621,
    "Your</w>": 622,
    "ap": 623,
    "never</w>": 624,
    "too</w>": 625,
    "ab": 626,
    "pres": 627,
    "INIUS:</w>": 628,
    "old</w>": 629,
    "rie": 630,
    "We</w>": 631,
    "Wha": 632,
    "mer": 633,
    "PET": 634,
    "ju": 635,
    "less</w>": 636,
    "lie": 637,
    "ong</w>": 638,
    "see": 639,
    "dee": 640,
    "DW": 641,
    "EDW": 642,
    "ks</w>": 643,
    "men": 644,
    "GR": 645,
    "Ri": 646,
    "e?</w>": 647,
    "far": 648,
    "lu": 649,
    "son</w>": 650,
    "t;</w>": 651,
    "way</w>": 652,
    "TH": 653,
    "Why,</w>": 654,
    "much</w>": 655,
    "sen": 656,
    "tra": 657,
    "'st</w>": 658,
    "hear</w>": 659,
    "It</w>": 660,
    "UM": 661,
    "s?</w>": 662,
    "LE": 663,
    "LUC": 664,
    "MEN": 665,
    "es.</w>": 666,
    "plea": 667,
    "tter</w>": 668,
    "think</w>": 669,
    "ELL": 670,
    "cannot</w>": 671,
    "kin": 672,
    "me.</w>": 673,
    "noble</w>": 674,
    "er,</w>": 675,
    "cond</w>": 676,
    "him,</w>": 677,
    "Be": 678,
    "use</w>": 679,
    "ate</w>": 680,
    "ers</w>": 681,
    "Ed": 682,
    "ME": 683,
    "all": 684,
    "doth</w>": 685,
    "iti": 686,
    "tter": 687,
    "que": 688,
    "tw": 689,
    "Edwar": 690,
    "MEO:</w>": 691,
    "ROMEO:</w>": 692,
    "hou": 693,
    "mon": 694,
    "ENIUS:</w>": 695,
    "MENENIUS:</w>": 696,
    "been</w>": 697,
    "it.</w>": 698,
    "Or</w>": 699,
    "We": 700,
    "van": 701,
    "By</w>": 702,
    "pea": 703,
    "where</w>": 704,
    "No": 705,
    "ct</w>": 706,
    "know": 707,
    "stan": 708,
    "PETR": 709,
    "PETRUCH": 710,
    "PETRUCHIO:</w>": 711,
    "ay,</w>": 712,
    "wom": 713,
    "fl": 714,
    "own</w>": 715,
    "it,</w>": 716,
    "tor": 717,
    "tur": 718,
    "God</w>": 719,
    "bea": 720,
    "nor</w>": 721,
    "ound</w>": 722,
    "prin": 723,
    "ang": 724,
    "tri": 725,
    "'d,</w>": 726,
    "e!</w>": 727,
    "him.</w>": 728,
    "le,</w>": 729,
    "speak</w>": 730,
    "Come,</w>": 731,
    "don": 732,
    "fin": 733,
    "re</w>": 734,
    "row</w>": 735,
    "shi": 736,
    "MAR": 737,
    "ONT": 738,
    "When</w>": 739,
    "as": 740,
    "new": 741,
    "Ay,</w>": 742,
    "sea": 743,
    "CORI": 744,
    "CORIOL": 745,
    "CORIOLAN": 746,
    "sor": 747,
    "CORIOLANUS:</w>": 748,
    "Second</w>": 749,
    "Where</w>": 750,
    "father": 751,
    "y!</w>": 752,
    "man:</w>": 753,
    "ness</w>": 754,
    "ving</w>": 755,
    "being</w>": 756,
    "ck,</w>": 757,
    "thi": 758,
    "you.</w>": 759,
    "th.</w>": 760,
    "Rome": 761,
    "crow": 762,
    "ever</w>": 763,
    "har": 764,
    "l,</w>": 765,
    "y?</w>": 766,
    "zen": 767,
    "dr": 768,
    "foo": 769,
    "fair</w>": 770,
    "ears</w>": 771,
    "lar": 772,
    "red</w>": 773,
    "bloo": 774,
    "co": 775,
    "e's</w>": 776,
    "INA:</w>": 777,
    "ces": 778,
    "ish": 779,
    "ity</w>": 780,
    "too": 781,
    "Lord</w>": 782,
    "ings</w>": 783,
    "not,</w>": 784,
    "ys</w>": 785,
    "D:</w>": 786,
    "CL": 787,
    "IV": 788,
    "gentle": 789,
    "men</w>": 790,
    "III:</w>": 791,
    "bes": 792,
    "dau": 793,
    "gar": 794,
    "llow": 795,
    "'er</w>": 796,
    "ded</w>": 797,
    "great</w>": 798,
    "tun": 799,
    "wif": 800,
    "'t</w>": 801,
    "AM": 802,
    "Than</w>": 803,
    "hast</w>": 804,
    "ment": 805,
    "se.</w>": 806,
    "your": 807,
    "War": 808,
    "ence": 809,
    "ster</w>": 810,
    "bra": 811,
    "cur": 812,
    "off": 813,
    "t?</w>": 814,
    "Warwi": 815,
    "se:</w>": 816,
    "them": 817,
    "br": 818,
    "beg": 819,
    "ding</w>": 820,
    "ene": 821,
    "my": 822,
    "sweet</w>": 823,
    "who</w>": 824,
    "Un": 825,
    "comes</w>": 826,
    "dst</w>": 827,
    "ongu": 828,
    "poor</w>": 829,
    "sla": 830,
    "ABELL": 831,
    "ABELLA:</w>": 832,
    "His</w>": 833,
    "ISABELLA:</w>": 834,
    "Tis</w>": 835,
    "'Tis</w>": 836,
    "before</w>": 837,
    "dly</w>": 838,
    "swor": 839,
    "car": 840,
    "ence,</w>": 841,
    "many</w>": 842,
    "pi": 843,
    "pow": 844,
    "tongu": 845,
    "RAN": 846,
    "MI": 847,
    "cha": 848,
    "ge,</w>": 849,
    "IET:</w>": 850,
    "JUL": 851,
    "JULIET:</w>": 852,
    "Let</w>": 853,
    "LEONT": 854,
    "LEONTES:</w>": 855,
    "cor": 856,
    "kee": 857,
    "And,</w>": 858,
    "Who</w>": 859,
    "ch,</w>": 860,
    "dis": 861,
    "ep": 862,
    "pur": 863,
    "ain": 864,
    "day</w>": 865,
    "father</w>": 866,
    "AD": 867,
    "ADY</w>": 868,
    "LADY</w>": 869,
    "ght,</w>": 870,
    "mean": 871,
    "though</w>": 872,
    "Bu": 873,
    "CE:</w>": 874,
    "ENCE:</w>": 875,
    "Pro": 876,
    "VOL": 877,
    "cour": 878,
    "ir,</w>": 879,
    "n,</w>": 880,
    "Then</w>": 881,
    "chil": 882,
    "goo": 883,
    "heart</w>": 884,
    "kes</w>": 885,
    "ting</w>": 886,
    "tr": 887,
    "tho": 888,
    "Citi": 889,
    "Citizen": 890,
    "Ser": 891,
    "bear</w>": 892,
    "er.</w>": 893,
    "leave</w>": 894,
    "y's</w>": 895,
    "es;</w>": 896,
    "hor": 897,
    "ing.</w>": 898,
    "pas": 899,
    "ICINIUS:</w>": 900,
    "SICINIUS:</w>": 901,
    "against</w>": 902,
    "both</w>": 903,
    "litt": 904,
    "now,</w>": 905,
    "Nay,</w>": 906,
    "ment</w>": 907,
    "wo": 908,
    "who": 909,
    "Sha": 910,
    "What,</w>": 911,
    "look</w>": 912,
    "ree</w>": 913,
    "sle": 914,
    "than": 915,
    "those</w>": 916,
    "till</w>": 917,
    "BA": 918,
    "ance</w>": 919,
    "cious</w>": 920,
    "oul</w>": 921,
    "spi": 922,
    "t!</w>": 923,
    "win": 924,
    "cl": 925,
    "young": 926,
    "Be</w>": 927,
    "cou": 928,
    "call</w>": 929,
    "grie": 930,
    "hel": 931,
    "me;</w>": 932,
    "pu": 933,
    "ant</w>": 934,
    "that": 935,
    "LUCIO:</w>": 936,
    "No,</w>": 937,
    "fir": 938,
    "honour": 939,
    "urder": 940,
    "wee": 941,
    "EDWARD</w>": 942,
    "IV:</w>": 943,
    "Richar": 944,
    "blood</w>": 945,
    "cause</w>": 946,
    "ree": 947,
    "stand</w>": 948,
    "to-": 949,
    "ARD:</w>": 950,
    "Not</w>": 951,
    "den": 952,
    "ke,</w>": 953,
    "llow</w>": 954,
    "set</w>": 955,
    "Have</w>": 956,
    "pe</w>": 957,
    "thus</w>": 958,
    "wr": 959,
    "Yor": 960,
    "bur": 961,
    "le.</w>": 962,
    "ms</w>": 963,
    "str": 964,
    "Ca": 965,
    "us,</w>": 966,
    "Now</w>": 967,
    "Thy</w>": 968,
    "awa": 969,
    "gon": 970,
    "now": 971,
    "with": 972,
    "ABET": 973,
    "H:</w>": 974,
    "ABETH:</w>": 975,
    "ELI": 976,
    "ELIZ": 977,
    "ELIZABETH:</w>": 978,
    "brother": 979,
    "come,</w>": 980,
    "k.</w>": 981,
    "so,</w>": 982,
    "tch": 983,
    "unto</w>": 984,
    "ghter": 985,
    "nes": 986,
    "st:</w>": 987,
    "sub": 988,
    "ve.</w>": 989,
    "GRE": 990,
    "cont": 991,
    "hus": 992,
    "soul": 993,
    "ts,</w>": 994,
    "true</w>": 995,
    "Hen": 996,
    "ry,</w>": 997,
    "au": 998,
    "ly,</w>": 999,
    "little</w>": 1000,
    "o'</w>": 1001,
    "wha": 1002,
    "IA:</w>": 1003,
    "S</w>": 1004,
    "OM": 1005,
    "brother</w>": 1006,
    "ps</w>": 1007,
    "peop": 1008,
    "roy": 1009,
    "PER": 1010,
    "ey</w>": 1011,
    "happ": 1012,
    "name</w>": 1013,
    "ARW": 1014,
    "ARWIC": 1015,
    "ARWICK:</w>": 1016,
    "I,</w>": 1017,
    "Now,</w>": 1018,
    "WARWICK:</w>": 1019,
    "cei": 1020,
    "dou": 1021,
    "life</w>": 1022,
    "qui": 1023,
    "Citizen:</w>": 1024,
    "Good</w>": 1025,
    "II:</w>": 1026,
    "RU": 1027,
    "RUT": 1028,
    "Nur": 1029,
    "better</w>": 1030,
    "drea": 1031,
    "death</w>": 1032,
    "h,</w>": 1033,
    "ki": 1034,
    "AM:</w>": 1035,
    "HAM:</w>": 1036,
    "ces</w>": 1037,
    "king,</w>": 1038,
    ",--</w>": 1039,
    "fear": 1040,
    "CAP": 1041,
    "CAPUL": 1042,
    "CAPULET:</w>": 1043,
    "bor": 1044,
    "ine</w>": 1045,
    "put</w>": 1046,
    "rep": 1047,
    "two</w>": 1048,
    "ff": 1049,
    "love": 1050,
    "Shall</w>": 1051,
    "TA:</w>": 1052,
    "Well,</w>": 1053,
    "could</w>": 1054,
    "fortun": 1055,
    "man,</w>": 1056,
    "every</w>": 1057,
    "in,</w>": 1058,
    "nat": 1059,
    "BRUT": 1060,
    "BUC": 1061,
    "BRUTUS:</w>": 1062,
    "BUCKING": 1063,
    "BUCKINGHAM:</w>": 1064,
    "ERL": 1065,
    "Ou": 1066,
    "dra": 1067,
    "ft</w>": 1068,
    "ght.</w>": 1069,
    "hold</w>": 1070,
    "sun": 1071,
    "wel": 1072,
    "well,</w>": 1073,
    "BOL": 1074,
    "BRO": 1075,
    "BOLING": 1076,
    "BOLINGBRO": 1077,
    "BOLINGBROK": 1078,
    "BOLINGBROKE:</w>": 1079,
    "From</w>": 1080,
    "No</w>": 1081,
    "RANIO:</w>": 1082,
    "ST": 1083,
    "TRANIO:</w>": 1084,
    "Whi": 1085,
    "bid</w>": 1086,
    "cen": 1087,
    "ds.</w>": 1088,
    "death": 1089,
    "keep</w>": 1090,
    "spo": 1091,
    "worl": 1092,
    "Li": 1093,
    "Nurse:</w>": 1094,
    "clo": 1095,
    "hu": 1096,
    "ke": 1097,
    "might</w>": 1098,
    "ough</w>": 1099,
    "sol": 1100,
    "son,</w>": 1101,
    "self,</w>": 1102,
    "wat": 1103,
    "whose</w>": 1104,
    "Will</w>": 1105,
    "sure</w>": 1106,
    "LL": 1107,
    "Ta": 1108,
    "answ": 1109,
    "ced</w>": 1110,
    "comm": 1111,
    "je": 1112,
    "nothing</w>": 1113,
    "pray</w>": 1114,
    "ses</w>": 1115,
    "stru": 1116,
    "will": 1117,
    "ARET:</w>": 1118,
    "ESS</w>": 1119,
    "GARET:</w>": 1120,
    "MARGARET:</w>": 1121,
    "Pe": 1122,
    "There": 1123,
    "bi": 1124,
    "im": 1125,
    "tal": 1126,
    "stra": 1127,
    "ATH": 1128,
    "bring</w>": 1129,
    "es:</w>": 1130,
    "comp": 1131,
    "g</w>": 1132,
    "gentle</w>": 1133,
    "grace</w>": 1134,
    "long</w>": 1135,
    "say,</w>": 1136,
    "stres": 1137,
    "still</w>": 1138,
    "CAL": 1139,
    "King</w>": 1140,
    "Our</w>": 1141,
    "vir": 1142,
    "ANG": 1143,
    "ANGEL": 1144,
    "ANGELO:</w>": 1145,
    "Clar": 1146,
    "HOR": 1147,
    "She</w>": 1148,
    "They</w>": 1149,
    "Why</w>": 1150,
    "don</w>": 1151,
    "done</w>": 1152,
    "find</w>": 1153,
    "honour</w>": 1154,
    "il</w>": 1155,
    "va": 1156,
    "ign": 1157,
    "master": 1158,
    "reme": 1159,
    "ss</w>": 1160,
    "star": 1161,
    "stri": 1162,
    "ten</w>": 1163,
    "then,</w>": 1164,
    "thous": 1165,
    "and,</w>": 1166,
    "voi": 1167,
    "young</w>": 1168,
    "ARINA:</w>": 1169,
    "Bo": 1170,
    "CU": 1171,
    "Du": 1172,
    "EL:</w>": 1173,
    "Yet</w>": 1174,
    "dar": 1175,
    "doub": 1176,
    "eyes</w>": 1177,
    "ll'd</w>": 1178,
    "me:</w>": 1179,
    "sur": 1180,
    "ATHARINA:</w>": 1181,
    "KATHARINA:</w>": 1182,
    "Marci": 1183,
    "cla": 1184,
    "cra": 1185,
    "comfor": 1186,
    "fal": 1187,
    "new</w>": 1188,
    "owar": 1189,
    "ty,</w>": 1190,
    "thought</w>": 1191,
    "Eng": 1192,
    "There</w>": 1193,
    "ano": 1194,
    "ce:</w>": 1195,
    "down</w>": 1196,
    "daughter": 1197,
    "eech</w>": 1198,
    "hand</w>": 1199,
    "me?</w>": 1200,
    "s'</w>": 1201,
    "wea": 1202,
    "Here</w>": 1203,
    "Nor</w>": 1204,
    "On": 1205,
    "Thi": 1206,
    "at,</w>": 1207,
    "chan": 1208,
    "dd": 1209,
    "else</w>": 1210,
    "hol": 1211,
    "lad": 1212,
    "law": 1213,
    "live</w>": 1214,
    "CALUS:</w>": 1215,
    "ESCALUS:</w>": 1216,
    "best</w>": 1217,
    "banish": 1218,
    "down": 1219,
    "gracious</w>": 1220,
    "heard</w>": 1221,
    "love,</w>": 1222,
    "app": 1223,
    "bri": 1224,
    "came</w>": 1225,
    "d-": 1226,
    "dear</w>": 1227,
    "fear</w>": 1228,
    "full</w>": 1229,
    "into</w>": 1230,
    "pos": 1231,
    "ried</w>": 1232,
    "tre": 1233,
    "AND:</w>": 1234,
    "Do</w>": 1235,
    "Ju": 1236,
    "death,</w>": 1237,
    "long": 1238,
    "lord.</w>": 1239,
    "off</w>": 1240,
    "p,</w>": 1241,
    "part</w>": 1242,
    "some": 1243,
    "this": 1244,
    "DUCH": 1245,
    "Duke</w>": 1246,
    "Hath</w>": 1247,
    "bla": 1248,
    "bus": 1249,
    "c</w>": 1250,
    "fec": 1251,
    "heaven</w>": 1252,
    "men,</w>": 1253,
    "n'd</w>": 1254,
    "therefore</w>": 1255,
    "tim": 1256,
    "tion,</w>": 1257,
    "vill": 1258,
    "whom</w>": 1259,
    "Go</w>": 1260,
    "Provo": 1261,
    "ROS": 1262,
    "ate,</w>": 1263,
    "makes</w>": 1264,
    "myself</w>": 1265,
    "night</w>": 1266,
    "royal</w>": 1267,
    "stay</w>": 1268,
    "trea": 1269,
    "Sir,</w>": 1270,
    "bal": 1271,
    "dow": 1272,
    "dam": 1273,
    "father,</w>": 1274,
    "hour": 1275,
    "oa": 1276,
    "since</w>": 1277,
    "then": 1278,
    "us.</w>": 1279,
    "won": 1280,
    "well.</w>": 1281,
    ",--": 1282,
    "id": 1283,
    "CAMI": 1284,
    "CAMILL": 1285,
    "CAMILLO:</w>": 1286,
    "VI:</w>": 1287,
    "first</w>": 1288,
    "fau": 1289,
    "forth</w>": 1290,
    "ged</w>": 1291,
    "gen": 1292,
    "jes": 1293,
    "k'd</w>": 1294,
    "once</w>": 1295,
    "st.</w>": 1296,
    "temp": 1297,
    "trait": 1298,
    "vere": 1299,
    "world</w>": 1300,
    "DUCHESS</w>": 1301,
    "Even</w>": 1302,
    "Edward</w>": 1303,
    "ator": 1304,
    "bear": 1305,
    "dam,</w>": 1306,
    "dost</w>": 1307,
    "fur": 1308,
    "ook</w>": 1309,
    "pon</w>": 1310,
    "pati": 1311,
    "rant</w>": 1312,
    "sion</w>": 1313,
    "thine</w>": 1314,
    "thousand</w>": 1315,
    "Come</w>": 1316,
    "ENS": 1317,
    "HORT": 1318,
    "HORTENS": 1319,
    "Mor": 1320,
    "Ty": 1321,
    "deli": 1322,
    "lou": 1323,
    "ort</w>": 1324,
    "sing</w>": 1325,
    "AR</w>": 1326,
    "BI": 1327,
    "But,</w>": 1328,
    "FR": 1329,
    "For": 1330,
    "get</w>": 1331,
    "FRI": 1332,
    "FRIAR</w>": 1333,
    "HORTENSIO:</w>": 1334,
    "Le": 1335,
    "Nor": 1336,
    "Sa": 1337,
    "cre": 1338,
    "far</w>": 1339,
    "is,</w>": 1340,
    "ning</w>": 1341,
    "offi": 1342,
    "te,</w>": 1343,
    "ther.</w>": 1344,
    "turn</w>": 1345,
    "unc": 1346,
    "where": 1347,
    "All</w>": 1348,
    "Are</w>": 1349,
    "BAP": 1350,
    "BAPT": 1351,
    "BAPTIS": 1352,
    "BAPTISTA:</w>": 1353,
    "Gi": 1354,
    "Upon</w>": 1355,
    "conf": 1356,
    "devi": 1357,
    "has</w>": 1358,
    "heaven": 1359,
    "i'</w>": 1360,
    "sent</w>": 1361,
    "sovere": 1362,
    "spe": 1363,
    "thou,</w>": 1364,
    "tion.</w>": 1365,
    "vy</w>": 1366,
    "virtu": 1367,
    "wilt</w>": 1368,
    "AUT": 1369,
    "AUTOL": 1370,
    "AUTOLY": 1371,
    "AUTOLYC": 1372,
    "AUTOLYCUS:</w>": 1373,
    "COM": 1374,
    "COMINIUS:</w>": 1375,
    "EDWARD:</w>": 1376,
    "In": 1377,
    "bit": 1378,
    "ise</w>": 1379,
    "life,</w>": 1380,
    "mis": 1381,
    "on.</w>": 1382,
    "reven": 1383,
    "rough</w>": 1384,
    "tain": 1385,
    "ving": 1386,
    "wrong": 1387,
    ".'</w>": 1388,
    "ARENCE:</w>": 1389,
    "CLARENCE:</w>": 1390,
    "EY:</w>": 1391,
    "Thir": 1392,
    "about</w>": 1393,
    "busin": 1394,
    "deser": 1395,
    "ess,</w>": 1396,
    "ghter</w>": 1397,
    "house</w>": 1398,
    "les</w>": 1399,
    "queen": 1400,
    "sir.</w>": 1401,
    "xt</w>": 1402,
    "'d.</w>": 1403,
    "Con": 1404,
    "Gent": 1405,
    "Murder": 1406,
    "Provost:</w>": 1407,
    "Third</w>": 1408,
    "father's</w>": 1409,
    "ire</w>": 1410,
    "lau": 1411,
    "lord</w>": 1412,
    "poin": 1413,
    "prom": 1414,
    "show</w>": 1415,
    "shalt</w>": 1416,
    "t-": 1417,
    "fair": 1418,
    "woman": 1419,
    "BEN": 1420,
    "BENVOL": 1421,
    "BENVOLIO:</w>": 1422,
    "More</w>": 1423,
    "NOR": 1424,
    "Would</w>": 1425,
    "che": 1426,
    "happy</w>": 1427,
    "head</w>": 1428,
    "hope</w>": 1429,
    "husban": 1430,
    "night": 1431,
    "prou": 1432,
    "self.</w>": 1433,
    "thee.</w>": 1434,
    "vant:</w>": 1435,
    "GRUM": 1436,
    "GRUMIO:</w>": 1437,
    "PROS": 1438,
    "PERO:</w>": 1439,
    "PROSPERO:</w>": 1440,
    "Re": 1441,
    "att": 1442,
    "eld</w>": 1443,
    "each</w>": 1444,
    "eng": 1445,
    "fee": 1446,
    "holy</w>": 1447,
    "ks,</w>": 1448,
    "meet</w>": 1449,
    "rememb": 1450,
    "stran": 1451,
    "tongue</w>": 1452,
    "word</w>": 1453,
    "ye": 1454,
    "CUTIO:</w>": 1455,
    "ERCUTIO:</w>": 1456,
    "MERCUTIO:</w>": 1457,
    "Murderer:</w>": 1458,
    "ce;</w>": 1459,
    "die</w>": 1460,
    "fore,</w>": 1461,
    "gre": 1462,
    "her,</w>": 1463,
    "high": 1464,
    "none</w>": 1465,
    "please</w>": 1466,
    "prove</w>": 1467,
    "under": 1468,
    "wan": 1469,
    "Com": 1470,
    "LUCENTIO:</w>": 1471,
    "Te": 1472,
    "bar": 1473,
    "ge.</w>": 1474,
    "here,</w>": 1475,
    "kis": 1476,
    "land</w>": 1477,
    "ly.</w>": 1478,
    "lieve</w>": 1479,
    "nee": 1480,
    "ori": 1481,
    "power</w>": 1482,
    "spiri": 1483,
    "that,</w>": 1484,
    "thank</w>": 1485,
    "thout</w>": 1486,
    "Here": 1487,
    "OMP": 1488,
    "POMP": 1489,
    "Servant:</w>": 1490,
    "Take</w>": 1491,
    "Were</w>": 1492,
    "beau": 1493,
    "ed,</w>": 1494,
    "gain</w>": 1495,
    "he's</w>": 1496,
    "ian": 1497,
    "led</w>": 1498,
    "ling</w>": 1499,
    "mistres": 1500,
    "rest</w>": 1501,
    "sin</w>": 1502,
    "said</w>": 1503,
    "tly</w>": 1504,
    "fla": 1505,
    "umb": 1506,
    "ying</w>": 1507,
    "Au": 1508,
    "AUL": 1509,
    "AULINA:</w>": 1510,
    "Give</w>": 1511,
    "Lu": 1512,
    "PAULINA:</w>": 1513,
    "ber": 1514,
    "dang": 1515,
    "justi": 1516,
    "lin": 1517,
    "ns</w>": 1518,
    "only</w>": 1519,
    "soul</w>": 1520,
    "se;</w>": 1521,
    "servi": 1522,
    "show": 1523,
    "sir;</w>": 1524,
    "tch</w>": 1525,
    "tain</w>": 1526,
    "ter,</w>": 1527,
    "yi": 1528,
    "At</w>": 1529,
    "Do": 1530,
    "GREM": 1531,
    "GREMIO:</w>": 1532,
    "Mu": 1533,
    "m.</w>": 1534,
    "POMPEY:</w>": 1535,
    "a,</w>": 1536,
    "age</w>": 1537,
    "ble": 1538,
    "essen": 1539,
    "h</w>": 1540,
    "ll.</w>": 1541,
    "mean</w>": 1542,
    "o.</w>": 1543,
    "subje": 1544,
    "that's</w>": 1545,
    "ward</w>": 1546,
    ",'</w>": 1547,
    "ENES:</w>": 1548,
    "Go,</w>": 1549,
    "IX": 1550,
    "IXENES:</w>": 1551,
    "NIA:</w>": 1552,
    "OLIXENES:</w>": 1553,
    "POLIXENES:</w>": 1554,
    "Ti": 1555,
    "Tybal": 1556,
    "UMNIA:</w>": 1557,
    "VOLUMNIA:</w>": 1558,
    "beseech</w>": 1559,
    "cousin": 1560,
    "gro": 1561,
    "gener": 1562,
    "hal": 1563,
    "f,</w>": 1564,
    "himself</w>": 1565,
    "ight</w>": 1566,
    "imp": 1567,
    "ign</w>": 1568,
    "pt</w>": 1569,
    "soldi": 1570,
    "words</w>": 1571,
    "AST": 1572,
    "ASTING": 1573,
    "ASTINGS:</w>": 1574,
    "HASTINGS:</w>": 1575,
    "Serving": 1576,
    "Servingman:</w>": 1577,
    "Tha": 1578,
    "Was</w>": 1579,
    "centi": 1580,
    "daughter</w>": 1581,
    "gr": 1582,
    "hun": 1583,
    "lies</w>": 1584,
    "merc": 1585,
    "mother": 1586,
    "rather</w>": 1587,
    "rought</w>": 1588,
    "them,</w>": 1589,
    "AUR": 1590,
    "AURENCE:</w>": 1591,
    "Gentle": 1592,
    "LAURENCE:</w>": 1593,
    "Par": 1594,
    "T:</w>": 1595,
    "Where": 1596,
    "after</w>": 1597,
    "childr": 1598,
    "countr": 1599,
    "ers,</w>": 1600,
    "esseng": 1601,
    "fol": 1602,
    "him;</w>": 1603,
    "ken</w>": 1604,
    "kind": 1605,
    "let's</w>": 1606,
    "n.</w>": 1607,
    "not.</w>": 1608,
    "o'": 1609,
    "so.</w>": 1610,
    "BY:</w>": 1611,
    "away</w>": 1612,
    "ck'd</w>": 1613,
    "dom</w>": 1614,
    "ds:</w>": 1615,
    "mai": 1616,
    "disp": 1617,
    "fellow": 1618,
    "follow": 1619,
    "grow": 1620,
    "help</w>": 1621,
    "ity,</w>": 1622,
    "majes": 1623,
    "mill": 1624,
    "morrow": 1625,
    "nur": 1626,
    "over": 1627,
    "plu": 1628,
    "pardon</w>": 1629,
    "queen</w>": 1630,
    "tou": 1631,
    "this,</w>": 1632,
    "toge": 1633,
    "ves,</w>": 1634,
    "wife</w>": 1635,
    "'t.</w>": 1636,
    "Ala": 1637,
    "BERL": 1638,
    "Bol": 1639,
    "BERLAND:</w>": 1640,
    "CLI": 1641,
    "CLIF": 1642,
    "CLIFF": 1643,
    "Har": 1644,
    "est,</w>": 1645,
    "Mon": 1646,
    "NORTH": 1647,
    "NORTHUM": 1648,
    "NORTHUMBERLAND:</w>": 1649,
    "Richard</w>": 1650,
    "be,</w>": 1651,
    "back</w>": 1652,
    "day,</w>": 1653,
    "fall</w>": 1654,
    "fare": 1655,
    "kind</w>": 1656,
    "l.</w>": 1657,
    "lls</w>": 1658,
    "lords,</w>": 1659,
    "mbl": 1660,
    "mea": 1661,
    "mother</w>": 1662,
    "run": 1663,
    "stor": 1664,
    "thing": 1665,
    "wre": 1666,
    "why</w>": 1667,
    "Ange": 1668,
    "ID": 1669,
    "RA": 1670,
    "Su": 1671,
    "answer</w>": 1672,
    "dan": 1673,
    "duke</w>": 1674,
    "foul</w>": 1675,
    "ford,</w>": 1676,
    "friends</w>": 1677,
    "him:</w>": 1678,
    "ke.</w>": 1679,
    "left</w>": 1680,
    "ne'er</w>": 1681,
    "nei": 1682,
    "purpo": 1683,
    "send</w>": 1684,
    "saw</w>": 1685,
    "stu": 1686,
    "thought": 1687,
    "ANN": 1688,
    "ANNE:</w>": 1689,
    "Angelo": 1690,
    "Far": 1691,
    "Tell</w>": 1692,
    "Though</w>": 1693,
    "bloody</w>": 1694,
    "cer": 1695,
    "cian": 1696,
    "ent.</w>": 1697,
    "joy</w>": 1698,
    "you?</w>": 1699,
    "ze</w>": 1700,
    "Clif": 1701,
    "Fran": 1702,
    "Her</w>": 1703,
    "Henry</w>": 1704,
    "ONE:</w>": 1705,
    "PR": 1706,
    "PRINC": 1707,
    "Warwick</w>": 1708,
    "bon": 1709,
    "ctor": 1710,
    "fit</w>": 1711,
    "igni": 1712,
    "ls</w>": 1713,
    "news</w>": 1714,
    "ses": 1715,
    "save</w>": 1716,
    "sil": 1717,
    "swear</w>": 1718,
    "times</w>": 1719,
    "worthy</w>": 1720,
    "Ah,</w>": 1721,
    "Boling": 1722,
    "Bolingbro": 1723,
    "Cori": 1724,
    "Gre": 1725,
    "On</w>": 1726,
    "ORD:</w>": 1727,
    "Pra": 1728,
    "Signi": 1729,
    "Signior</w>": 1730,
    "crea": 1731,
    "cho": 1732,
    "comman": 1733,
    "din": 1734,
    "death.</w>": 1735,
    "faul": 1736,
    "ite</w>": 1737,
    "lear": 1738,
    "o's</w>": 1739,
    "pray": 1740,
    "prison": 1741,
    "quar": 1742,
    "s'd</w>": 1743,
    "shor": 1744,
    "sto": 1745,
    "sure": 1746,
    "tal</w>": 1747,
    "three</w>": 1748,
    "thy": 1749,
    "told</w>": 1750,
    "woun": 1751,
    "you;</w>": 1752,
    "An</w>": 1753,
    "Fare": 1754,
    "Po": 1755,
    "Rom": 1756,
    "able</w>": 1757,
    "another</w>": 1758,
    "col": 1759,
    "fea": 1760,
    "gla": 1761,
    "got</w>": 1762,
    "mind</w>": 1763,
    "present</w>": 1764,
    "requ": 1765,
    "speak": 1766,
    "ven,</w>": 1767,
    "way,</w>": 1768,
    "Monta": 1769,
    "Montagu": 1770,
    "Sen": 1771,
    "Some</w>": 1772,
    "Warwick,</w>": 1773,
    "atch": 1774,
    "Di": 1775,
    "bet": 1776,
    "body</w>": 1777,
    "deed</w>": 1778,
    "entrea": 1779,
    "face</w>": 1780,
    "friar": 1781,
    "hence</w>": 1782,
    "high</w>": 1783,
    "instru": 1784,
    "kill</w>": 1785,
    "last</w>": 1786,
    "lly</w>": 1787,
    "more,</w>": 1788,
    "ship</w>": 1789,
    "spee": 1790,
    "es?</w>": 1791,
    "swee": 1792,
    "towar": 1793,
    "ty.</w>": 1794,
    "things</w>": 1795,
    "traitor": 1796,
    "weep": 1797,
    "without</w>": 1798,
    "Did</w>": 1799,
    "Englan": 1800,
    "Her": 1801,
    "one,</w>": 1802,
    "one.</w>": 1803,
    "Jo": 1804,
    "Romeo</w>": 1805,
    "Senator": 1806,
    "To": 1807,
    "again</w>": 1808,
    "again.</w>": 1809,
    "believe</w>": 1810,
    "deed,</w>": 1811,
    "does</w>": 1812,
    "false</w>": 1813,
    "form": 1814,
    "hould</w>": 1815,
    "Should</w>": 1816,
    "hands</w>": 1817,
    "ini": 1818,
    "king.</w>": 1819,
    "lie</w>": 1820,
    "light</w>": 1821,
    "lish</w>": 1822,
    "murder": 1823,
    "me!</w>": 1824,
    "pain": 1825,
    "sca": 1826,
    "soun": 1827,
    "state</w>": 1828,
    "up,</w>": 1829,
    "we'll</w>": 1830,
    "you:</w>": 1831,
    "AUF": 1832,
    "AUFID": 1833,
    "AUFIDIUS:</w>": 1834,
    "Edward's</w>": 1835,
    "FL": 1836,
    "FLORI": 1837,
    "FLORIZ": 1838,
    "FLORIZEL:</w>": 1839,
    "God,</w>": 1840,
    "Like</w>": 1841,
    "Lord:</w>": 1842,
    "Messeng": 1843,
    "Messenger:</w>": 1844,
    "One</w>": 1845,
    "Pa": 1846,
    "She": 1847,
    "boo": 1848,
    "brother,</w>": 1849,
    "choo": 1850,
    "dge</w>": 1851,
    "disc": 1852,
    "ecu": 1853,
    "flow": 1854,
    "ery</w>": 1855,
    "fortune</w>": 1856,
    "ked</w>": 1857,
    "lord": 1858,
    "mou": 1859,
    "ob": 1860,
    "peace</w>": 1861,
    "sleep": 1862,
    "ste</w>": 1863,
    "ster,</w>": 1864,
    "will,</w>": 1865,
    "ARI": 1866,
    "Cap": 1867,
    "Clau": 1868,
    "Claudi": 1869,
    "These</w>": 1870,
    "bir": 1871,
    "right</w>": 1872,
    "ce!</w>": 1873,
    "dear": 1874,
    "def": 1875,
    "dish": 1876,
    "ent,</w>": 1877,
    "execu": 1878,
    "guil": 1879,
    "hour</w>": 1880,
    "hand,</w>": 1881,
    "ment,</w>": 1882,
    "need</w>": 1883,
    "no,</w>": 1884,
    "twent": 1885,
    "villain": 1886,
    "wri": 1887,
    "!'</w>": 1888,
    "Gentleman:</w>": 1889,
    "ON:</w>": 1890,
    "Senator:</w>": 1891,
    "brought</w>": 1892,
    "cau": 1893,
    "ck.</w>": 1894,
    "come.</w>": 1895,
    "comfort</w>": 1896,
    "consu": 1897,
    "dead</w>": 1898,
    "ed.</w>": 1899,
    "vent": 1900,
    "follow</w>": 1901,
    "gg": 1902,
    "heavy</w>": 1903,
    "issu": 1904,
    "kne": 1905,
    "l:</w>": 1906,
    "life": 1907,
    "lives</w>": 1908,
    "means</w>": 1909,
    "obe": 1910,
    "pen": 1911,
    "sorrow</w>": 1912,
    "tears</w>": 1913,
    "ty": 1914,
    "while</w>": 1915,
    "Again": 1916,
    "Against</w>": 1917,
    "Glou": 1918,
    "Glouces": 1919,
    "God's</w>": 1920,
    "Had</w>": 1921,
    "MARC": 1922,
    "May</w>": 1923,
    "RICHARD:</w>": 1924,
    "Shep": 1925,
    "Shepher": 1926,
    "TI": 1927,
    "bos": 1928,
    "break</w>": 1929,
    "cri": 1930,
    "cking": 1931,
    "der,</w>": 1932,
    "fan": 1933,
    "ith,</w>": 1934,
    "Fa": 1935,
    "light": 1936,
    "master</w>": 1937,
    "man.</w>": 1938,
    "om,</w>": 1939,
    "ouldst</w>": 1940,
    "prop": 1941,
    "resol": 1942,
    "seen</w>": 1943,
    "sorrow": 1944,
    "streng": 1945,
    "tes": 1946,
    "talk</w>": 1947,
    "through</w>": 1948,
    "them.</w>": 1949,
    "thinks</w>": 1950,
    "tit": 1951,
    "le:</w>": 1952,
    "woo": 1953,
    "what's</w>": 1954,
    "wish</w>": 1955,
    "within</w>": 1956,
    "'T": 1957,
    "Camill": 1958,
    "MARCIUS:</w>": 1959,
    "OW": 1960,
    "Shepherd:</w>": 1961,
    "What's</w>": 1962,
    "bun": 1963,
    "blood,</w>": 1964,
    "ch.</w>": 1965,
    "compan": 1966,
    "dg": 1967,
    "done,</w>": 1968,
    "er'd</w>": 1969,
    "ess.</w>": 1970,
    "frow": 1971,
    "ard</w>": 1972,
    "friends,</w>": 1973,
    "her.</w>": 1974,
    "ing:</w>": 1975,
    "it;</w>": 1976,
    "lord;</w>": 1977,
    "matter": 1978,
    "play</w>": 1979,
    "read": 1980,
    "sig": 1981,
    "stee": 1982,
    "wife,</w>": 1983,
    "years</w>": 1984,
    "BION": 1985,
    "BIOND": 1986,
    "BIONDELL": 1987,
    "BIONDELLO:</w>": 1988,
    "Bucking": 1989,
    "Buckingha": 1990,
    "Mo": 1991,
    "Si": 1992,
    "Till</w>": 1993,
    "Vol": 1994,
    "aint</w>": 1995,
    "all.</w>": 1996,
    "bles": 1997,
    "change</w>": 1998,
    "cks</w>": 1999,
    "crown</w>": 2000,
    "draw</w>": 2001,
    "ford</w>": 2002,
    "St": 2003,
    "art</w>": 2004,
    "gran": 2005,
    "gods</w>": 2006,
    "it:</w>": 2007,
    "med</w>": 2008,
    "ms,</w>": 2009,
    "ned</w>": 2010,
    "natu": 2011,
    "over</w>": 2012,
    "people</w>": 2013,
    "recei": 2014,
    "res</w>": 2015,
    "same</w>": 2016,
    "seem</w>": 2017,
    "sting": 2018,
    "sun</w>": 2019,
    "this?</w>": 2020,
    "time,</w>": 2021,
    "ut": 2022,
    "why,</w>": 2023,
    "y'd</w>": 2024,
    "swa": 2025,
    "year": 2026,
    "ei": 2027,
    "Norfol": 2028,
    "Then,</w>": 2029,
    "York</w>": 2030,
    "band</w>": 2031,
    "ble,</w>": 2032,
    "ct": 2033,
    "ce?</w>": 2034,
    "common</w>": 2035,
    "e'er</w>": 2036,
    "es!</w>": 2037,
    "fai": 2038,
    "hate</w>": 2039,
    "hang": 2040,
    "im</w>": 2041,
    "ish</w>": 2042,
    "ken": 2043,
    "ments</w>": 2044,
    "mother,</w>": 2045,
    "musi": 2046,
    "o!</w>": 2047,
    "pity</w>": 2048,
    "prince</w>": 2049,
    "queen,</w>": 2050,
    "read</w>": 2051,
    "says</w>": 2052,
    "scor": 2053,
    "ch'd</w>": 2054,
    "pit": 2055,
    "suc": 2056,
    "th;</w>": 2057,
    "wear": 2058,
    "'t,</w>": 2059,
    "AUM": 2060,
    "AUMERL": 2061,
    "AUMERLE:</w>": 2062,
    "Bes": 2063,
    "Can</w>": 2064
  },
  "base_chars": [
    "!",
    "$",
    "&",
    "'",
    ",",
    "-",
    ".",
    "3",
    ":",
    ";",
    "</w>",
    "?",
    "A",
    "B",
    "C",
    "D",
    "E",
    "F",
    "G",
    "H",
    "I",
    "J",
    "K",
    "L",
    "M",
    "N",
    "O",
    "P",
    "Q",
    "R",
    "S",
    "T",
    "U",
    "V",
    "W",
    "X",
    "Y",
    "Z",
    "a",
    "b",
    "c",
    "d",
    "e",
    "f",
    "g",
    "h",
    "i",
    "j",
    "k",
    "l",
    "m",
    "n",
    "o",
    "p",
    "q",
    "r",
    "s",
    "t",
    "u",
    "v",
    "w",
    "x",
    "y",
    "z"
  ],
  "train_time_seconds": 3.550957202911377
}