{
  "num_merges": 2000,
  "end_of_word": "▁",
  "marker_mode": "prefix",
  "strategy": "clean",
  "merges": [
    [
      "▁",
      "t"
    ],
    [
      "▁t",
      "h"
    ],
    [
      "▁",
      "a"
    ],
    [
      "▁",
      "s"
    ],
    [
      "▁",
      "h"
    ],
    [
      "▁",
      "w"
    ],
    [
      "▁",
      "i"
    ],
    [
      "o",
      "u"
    ],
    [
      "▁",
      "m"
    ],
    [
      "e",
      "r"
    ],
    [
      "▁",
      "b"
    ],
    [
      "n",
      "d"
    ],
    [
      "o",
      "r"
    ],
    [
      "i",
      "n"
    ],
    [
      "▁th",
      "e"
    ],
    [
      "▁",
      "f"
    ],
    [
      "a",
      "t"
    ],
    [
      "e",
      "n"
    ],
    [
      "▁",
      "c"
    ],
    [
      "▁",
      "o"
    ],
    [
      "a",
      "r"
    ],
    [
      "e",
      "s"
    ],
    [
      "▁",
      "l"
    ],
    [
      "l",
      "l"
    ],
    [
      "▁",
      "d"
    ],
    [
      "▁",
      "n"
    ],
    [
      "▁",
      "y"
    ],
    [
      "▁",
      "p"
    ],
    [
      "▁t",
      "o"
    ],
    [
      "i",
      "s"
    ],
    [
      "▁a",
      "nd"
    ],
    [
      "▁y",
      "ou"
    ],
    [
      "t",
      "h"
    ],
    [
      "▁",
      "g"
    ],
    [
      "o",
      "n"
    ],
    [
      "a",
      "n"
    ],
    [
      "r",
      "e"
    ],
    [
      "in",
      "g"
    ],
    [
      "▁o",
      "f"
    ],
    [
      "▁n",
      "o"
    ],
    [
      "▁w",
      "h"
    ],
    [
      "o",
      "m"
    ],
    [
      "v",
      "e"
    ],
    [
      "s",
      "t"
    ],
    [
      "▁w",
      "i"
    ],
    [
      "▁b",
      "e"
    ],
    [
      "e",
      ","
    ],
    [
      "e",
      "d"
    ],
    [
      "▁m",
      "y"
    ],
    [
      "▁i",
      "n"
    ],
    [
      "o",
      "w"
    ],
    [
      "▁h",
      "e"
    ],
    [
      "c",
      "h"
    ],
    [
      "▁h",
      "a"
    ],
    [
      "e",
      "t"
    ],
    [
      "▁th",
      "at"
    ],
    [
      "▁s",
      "h"
    ],
    [
      "u",
      "s"
    ],
    [
      "i",
      "r"
    ],
    [
      "▁f",
      "or"
    ],
    [
      "u",
      "t"
    ],
    [
      "▁",
      "k"
    ],
    [
      "▁",
      "r"
    ],
    [
      "a",
      "y"
    ],
    [
      "l",
      "d"
    ],
    [
      "c",
      "e"
    ],
    [
      "▁i",
      "s"
    ],
    [
      "s",
      "e"
    ],
    [
      "er",
      "e"
    ],
    [
      "l",
      "e"
    ],
    [
      "▁no",
      "t"
    ],
    [
      "▁",
      "e"
    ],
    [
      "▁wi",
      "th"
    ],
    [
      "i",
      "t"
    ],
    [
      "k",
      "e"
    ],
    [
      "i",
      "m"
    ],
    [
      "g",
      "h"
    ],
    [
      "en",
      "t"
    ],
    [
      "▁m",
      "e"
    ],
    [
      "o",
      "o"
    ],
    [
      "'",
      "s"
    ],
    [
      "▁w",
      "e"
    ],
    [
      "▁i",
      "t"
    ],
    [
      "▁you",
      "r"
    ],
    [
      "▁th",
      "ou"
    ],
    [
      "ou",
      "r"
    ],
    [
      "a",
      "d"
    ],
    [
      "▁p",
      "r"
    ],
    [
      "▁s",
      "t"
    ],
    [
      "▁a",
      "s"
    ],
    [
      "at",
      "h"
    ],
    [
      "i",
      "o"
    ],
    [
      "a",
      "l"
    ],
    [
      "▁",
      "u"
    ],
    [
      "▁h",
      "is"
    ],
    [
      "s",
      ","
    ],
    [
      "▁b",
      "ut"
    ],
    [
      "▁th",
      "is"
    ],
    [
      "es",
      "t"
    ],
    [
      "▁s",
      "o"
    ],
    [
      "'",
      "d"
    ],
    [
      "▁ha",
      "ve"
    ],
    [
      "or",
      "d"
    ],
    [
      "▁",
      "v"
    ],
    [
      "ar",
      "d"
    ],
    [
      "i",
      "d"
    ],
    [
      "a",
      "m"
    ],
    [
      "l",
      "y"
    ],
    [
      "u",
      "r"
    ],
    [
      "▁l",
      "i"
    ],
    [
      "a",
      "ll"
    ],
    [
      "gh",
      "t"
    ],
    [
      "a",
      "s"
    ],
    [
      "▁c",
      "om"
    ],
    [
      "▁o",
      "n"
    ],
    [
      "▁h",
      "im"
    ],
    [
      "▁d",
      "o"
    ],
    [
      "▁d",
      "e"
    ],
    [
      "▁f",
      "r"
    ],
    [
      "c",
      "k"
    ],
    [
      "▁wh",
      "at"
    ],
    [
      "▁s",
      "e"
    ],
    [
      "▁",
      "re"
    ],
    [
      "▁a",
      "n"
    ],
    [
      "es",
      "s"
    ],
    [
      "a",
      "in"
    ],
    [
      "▁th",
      "y"
    ],
    [
      "▁wi",
      "ll"
    ],
    [
      "oo",
      "d"
    ],
    [
      "ou",
      "ld"
    ],
    [
      "i",
      "ch"
    ],
    [
      "y",
      ","
    ],
    [
      "th",
      "er"
    ],
    [
      "▁h",
      "er"
    ],
    [
      "io",
      ":"
    ],
    [
      "l",
      "i"
    ],
    [
      "a",
      "nd"
    ],
    [
      "▁k",
      "ing"
    ],
    [
      "or",
      "e"
    ],
    [
      "▁a",
      "ll"
    ],
    [
      "▁g",
      "o"
    ],
    [
      "r",
      "u"
    ],
    [
      "v",
      "er"
    ],
    [
      "r",
      "a"
    ],
    [
      "us",
      ":"
    ],
    [
      "▁s",
      "u"
    ],
    [
      "p",
      "e"
    ],
    [
      "g",
      "e"
    ],
    [
      "i",
      "on"
    ],
    [
      "▁l",
      "o"
    ],
    [
      "om",
      "e"
    ],
    [
      "i",
      "e"
    ],
    [
      "▁sh",
      "all"
    ],
    [
      "▁l",
      "ord"
    ],
    [
      "▁m",
      "a"
    ],
    [
      "q",
      "u"
    ],
    [
      "▁",
      "our"
    ],
    [
      "▁",
      "'"
    ],
    [
      "e",
      "ll"
    ],
    [
      "t",
      "er"
    ],
    [
      "▁b",
      "r"
    ],
    [
      "▁i",
      "f"
    ],
    [
      "▁a",
      "re"
    ],
    [
      "▁c",
      "h"
    ],
    [
      "u",
      "l"
    ],
    [
      "▁n",
      "e"
    ],
    [
      "i",
      "ght"
    ],
    [
      "▁b",
      "o"
    ],
    [
      "▁k",
      "n"
    ],
    [
      "▁g",
      "ood"
    ],
    [
      "i",
      "ll"
    ],
    [
      "▁",
      "j"
    ],
    [
      "▁no",
      "w"
    ],
    [
      "▁u",
      "p"
    ],
    [
      "i",
      "l"
    ],
    [
      "▁u",
      "n"
    ],
    [
      "▁l",
      "e"
    ],
    [
      "ou",
      "s"
    ],
    [
      "c",
      "t"
    ],
    [
      "an",
      "t"
    ],
    [
      "▁a",
      "t"
    ],
    [
      "▁m",
      "ar"
    ],
    [
      "▁s",
      "ir"
    ],
    [
      "▁",
      "or"
    ],
    [
      "▁sh",
      "e"
    ],
    [
      "▁m",
      "u"
    ],
    [
      "▁",
      "qu"
    ],
    [
      "▁fr",
      "om"
    ],
    [
      "▁f",
      "a"
    ],
    [
      "a",
      "k"
    ],
    [
      "▁c",
      "on"
    ],
    [
      "▁m",
      "o"
    ],
    [
      "r",
      "y"
    ],
    [
      "se",
      "l"
    ],
    [
      "▁th",
      "ere"
    ],
    [
      "ar",
      "t"
    ],
    [
      "▁th",
      "an"
    ],
    [
      "▁the",
      "n"
    ],
    [
      "e",
      "."
    ],
    [
      "i",
      "c"
    ],
    [
      "▁a",
      "m"
    ],
    [
      "a",
      ":"
    ],
    [
      "▁l",
      "et"
    ],
    [
      "'",
      "ll"
    ],
    [
      "▁wh",
      "ich"
    ],
    [
      "ow",
      "n"
    ],
    [
      "en",
      "ce"
    ],
    [
      "▁pr",
      "o"
    ],
    [
      "a",
      "b"
    ],
    [
      "▁w",
      "ould"
    ],
    [
      "▁w",
      "as"
    ],
    [
      "▁b",
      "l"
    ],
    [
      "e",
      "m"
    ],
    [
      "▁c",
      "an"
    ],
    [
      "i",
      "ve"
    ],
    [
      "▁h",
      "ere"
    ],
    [
      "▁the",
      "y"
    ],
    [
      "▁m",
      "ore"
    ],
    [
      "er",
      ":"
    ],
    [
      "e",
      "ar"
    ],
    [
      "▁h",
      "ow"
    ],
    [
      "a",
      "st"
    ],
    [
      "ou",
      "t"
    ],
    [
      "v",
      "en"
    ],
    [
      "▁s",
      "ay"
    ],
    [
      "es",
      ","
    ],
    [
      "▁d",
      "u"
    ],
    [
      "▁m",
      "an"
    ],
    [
      "▁",
      "us"
    ],
    [
      "▁the",
      "m"
    ],
    [
      "▁we",
      "ll"
    ],
    [
      "a",
      "p"
    ],
    [
      "▁a",
      "r"
    ],
    [
      "o",
      "l"
    ],
    [
      "w",
      "ard"
    ],
    [
      "▁s",
      "w"
    ],
    [
      "u",
      "n"
    ],
    [
      "▁'",
      "t"
    ],
    [
      "▁the",
      "ir"
    ],
    [
      "f",
      "e"
    ],
    [
      "r",
      "i"
    ],
    [
      "▁lo",
      "ve"
    ],
    [
      "▁r",
      "ich"
    ],
    [
      "i",
      "us:"
    ],
    [
      "s",
      "."
    ],
    [
      "u",
      "m"
    ],
    [
      "is",
      "h"
    ],
    [
      "in",
      "e"
    ],
    [
      "▁c",
      "l"
    ],
    [
      "o",
      ":"
    ],
    [
      "sel",
      "f"
    ],
    [
      "r",
      "o"
    ],
    [
      "e",
      "p"
    ],
    [
      "▁the",
      "e"
    ],
    [
      "▁kn",
      "ow"
    ],
    [
      "▁du",
      "ke"
    ],
    [
      "or",
      "t"
    ],
    [
      "▁h",
      "ath"
    ],
    [
      "▁m",
      "ay"
    ],
    [
      "▁w",
      "ar"
    ],
    [
      "e",
      "en"
    ],
    [
      "o",
      "t"
    ],
    [
      "ath",
      "er"
    ],
    [
      "▁s",
      "pe"
    ],
    [
      "▁g",
      "re"
    ],
    [
      "-",
      "-"
    ],
    [
      "▁b",
      "y"
    ],
    [
      "▁w",
      "or"
    ],
    [
      "▁wh",
      "ere"
    ],
    [
      "▁i",
      "'ll"
    ],
    [
      "o",
      "nd"
    ],
    [
      "a",
      "ke"
    ],
    [
      "er",
      "s"
    ],
    [
      "▁",
      "en"
    ],
    [
      "▁a",
      "g"
    ],
    [
      "▁h",
      "o"
    ],
    [
      "am",
      "e"
    ],
    [
      "on",
      "g"
    ],
    [
      "▁m",
      "ad"
    ],
    [
      "in",
      "k"
    ],
    [
      "▁up",
      "on"
    ],
    [
      "u",
      "re"
    ],
    [
      "▁p",
      "o"
    ],
    [
      "▁w",
      "ere"
    ],
    [
      "is",
      "t"
    ],
    [
      "▁ma",
      "ke"
    ],
    [
      "▁sh",
      "ould"
    ],
    [
      "▁mu",
      "st"
    ],
    [
      "▁p",
      "l"
    ],
    [
      "i",
      "g"
    ],
    [
      "i",
      "nd"
    ],
    [
      "▁rich",
      "ard"
    ],
    [
      "▁f",
      "ir"
    ],
    [
      "▁li",
      "ke"
    ],
    [
      "oo",
      "k"
    ],
    [
      "▁d",
      "id"
    ],
    [
      "i",
      "ck"
    ],
    [
      "▁t",
      "ru"
    ],
    [
      "▁on",
      "e"
    ],
    [
      "▁qu",
      "een"
    ],
    [
      "▁y",
      "et"
    ],
    [
      "▁n",
      "or"
    ],
    [
      "at",
      "e"
    ],
    [
      "on",
      "e"
    ],
    [
      "▁g",
      "l"
    ],
    [
      "o",
      "se"
    ],
    [
      "▁ha",
      "d"
    ],
    [
      "c",
      "e,"
    ],
    [
      "▁wh",
      "en"
    ],
    [
      "▁m",
      "en"
    ],
    [
      "▁s",
      "p"
    ],
    [
      "▁com",
      "e"
    ],
    [
      "▁you",
      ","
    ],
    [
      "y",
      ":"
    ],
    [
      "c",
      "ent"
    ],
    [
      "▁fir",
      "st"
    ],
    [
      "▁s",
      "ome"
    ],
    [
      "p",
      "p"
    ],
    [
      "▁",
      "ed"
    ],
    [
      "ou",
      "nd"
    ],
    [
      "s",
      ":"
    ],
    [
      "o",
      "ther"
    ],
    [
      "e",
      "l"
    ],
    [
      "ay",
      ","
    ],
    [
      "▁r",
      "ome"
    ],
    [
      "er",
      ","
    ],
    [
      "▁g",
      "r"
    ],
    [
      "▁go",
      "d"
    ],
    [
      "▁ed",
      "ward"
    ],
    [
      "▁h",
      "en"
    ],
    [
      "a",
      "ve"
    ],
    [
      "▁se",
      "e"
    ],
    [
      "b",
      "le"
    ],
    [
      "▁ag",
      "ain"
    ],
    [
      "f",
      "ore"
    ],
    [
      "▁f",
      "ather"
    ],
    [
      "▁to",
      "o"
    ],
    [
      "▁g",
      "ra"
    ],
    [
      "▁j",
      "u"
    ],
    [
      "et",
      ":"
    ],
    [
      "f",
      "f"
    ],
    [
      "▁sir",
      ","
    ],
    [
      "▁'t",
      "is"
    ],
    [
      "▁de",
      "ath"
    ],
    [
      "▁spe",
      "ak"
    ],
    [
      "ed",
      ","
    ],
    [
      "a",
      "u"
    ],
    [
      "a",
      "g"
    ],
    [
      "v",
      "es"
    ],
    [
      "c",
      "i"
    ],
    [
      "▁t",
      "im"
    ],
    [
      "▁",
      "out"
    ],
    [
      "f",
      "ul"
    ],
    [
      "▁ha",
      "st"
    ],
    [
      "▁a",
      "l"
    ],
    [
      "ou",
      "n"
    ],
    [
      "▁g",
      "ent"
    ],
    [
      "▁l",
      "ad"
    ],
    [
      "▁g",
      "ive"
    ],
    [
      "or",
      "k"
    ],
    [
      "ar",
      "e"
    ],
    [
      "▁y",
      "ork"
    ],
    [
      "▁l",
      "ook"
    ],
    [
      "▁t",
      "ake"
    ],
    [
      "▁e",
      "x"
    ],
    [
      "y",
      "."
    ],
    [
      "m",
      "an"
    ],
    [
      "▁he",
      "art"
    ],
    [
      "▁the",
      "se"
    ],
    [
      "▁d",
      "is"
    ],
    [
      "▁m",
      "e,"
    ],
    [
      "▁s",
      "er"
    ],
    [
      "▁t",
      "ell"
    ],
    [
      "▁gent",
      "le"
    ],
    [
      "▁ha",
      "nd"
    ],
    [
      "▁su",
      "ch"
    ],
    [
      "▁s",
      "a"
    ],
    [
      "▁hen",
      "ry"
    ],
    [
      "c",
      "est"
    ],
    [
      "▁h",
      "on"
    ],
    [
      "cent",
      "io:"
    ],
    [
      "▁p",
      "e"
    ],
    [
      "es",
      ":"
    ],
    [
      "▁a",
      "b"
    ],
    [
      "▁c",
      "or"
    ],
    [
      "▁f",
      "l"
    ],
    [
      "ou",
      "cest"
    ],
    [
      "▁gl",
      "oucest"
    ],
    [
      "r",
      "ow"
    ],
    [
      "in",
      "ce"
    ],
    [
      "▁of",
      "f"
    ],
    [
      "a",
      "ck"
    ],
    [
      "▁br",
      "other"
    ],
    [
      "▁e",
      "ar"
    ],
    [
      "'",
      "t"
    ],
    [
      "▁he",
      "ar"
    ],
    [
      "▁he",
      "a"
    ],
    [
      "▁th",
      "ink"
    ],
    [
      "u",
      "e"
    ],
    [
      "▁l",
      "u"
    ],
    [
      "n",
      "g"
    ],
    [
      "▁o",
      ","
    ],
    [
      "i",
      "re"
    ],
    [
      "ig",
      "n"
    ],
    [
      "r",
      "an"
    ],
    [
      "▁p",
      "et"
    ],
    [
      "w",
      "n"
    ],
    [
      "on",
      "t"
    ],
    [
      "▁a",
      "w"
    ],
    [
      "i",
      "ce"
    ],
    [
      "▁bl",
      "ood"
    ],
    [
      "i",
      "z"
    ],
    [
      "ie",
      "nd"
    ],
    [
      "▁b",
      "re"
    ],
    [
      "▁d",
      "es"
    ],
    [
      "▁mo",
      "st"
    ],
    [
      "▁e",
      "ver"
    ],
    [
      "t",
      "o"
    ],
    [
      "▁p",
      "er"
    ],
    [
      "▁r",
      "o"
    ],
    [
      "b",
      "er"
    ],
    [
      "▁i",
      "i"
    ],
    [
      "▁v",
      "in"
    ],
    [
      "▁fr",
      "iend"
    ],
    [
      "w",
      "ick"
    ],
    [
      "▁w",
      "ord"
    ],
    [
      "▁e",
      "y"
    ],
    [
      "▁war",
      "wick"
    ],
    [
      "l",
      "and"
    ],
    [
      "▁ar",
      "t"
    ],
    [
      "er",
      "y"
    ],
    [
      "th",
      ","
    ],
    [
      "▁gloucest",
      "er:"
    ],
    [
      "▁t",
      "w"
    ],
    [
      "i",
      "ther"
    ],
    [
      "ou",
      "l"
    ],
    [
      "v",
      "ing"
    ],
    [
      "▁f",
      "ear"
    ],
    [
      "an",
      "ce"
    ],
    [
      "▁com",
      "e,"
    ],
    [
      "▁j",
      "o"
    ],
    [
      "f",
      "t"
    ],
    [
      "▁c",
      "all"
    ],
    [
      "▁lord",
      ","
    ],
    [
      "l",
      "ing"
    ],
    [
      "▁m",
      "ine"
    ],
    [
      "s",
      ";"
    ],
    [
      "▁fa",
      "ir"
    ],
    [
      "▁be",
      "t"
    ],
    [
      "▁m",
      "er"
    ],
    [
      "▁mu",
      "ch"
    ],
    [
      "io",
      "l"
    ],
    [
      "▁hon",
      "our"
    ],
    [
      "▁vin",
      "centio:"
    ],
    [
      "p",
      "t"
    ],
    [
      "ur",
      "n"
    ],
    [
      "▁wh",
      "y,"
    ],
    [
      "a",
      "ge"
    ],
    [
      "e",
      "et"
    ],
    [
      "▁se",
      "c"
    ],
    [
      "▁b",
      "u"
    ],
    [
      "▁gre",
      "at"
    ],
    [
      "▁ne",
      "ver"
    ],
    [
      "▁now",
      ","
    ],
    [
      "a",
      "ce"
    ],
    [
      "▁a",
      "d"
    ],
    [
      "or",
      "n"
    ],
    [
      "▁tim",
      "e"
    ],
    [
      "'",
      "st"
    ],
    [
      "n",
      "ess"
    ],
    [
      "▁mad",
      "e"
    ],
    [
      "▁st",
      "and"
    ],
    [
      "it",
      "y"
    ],
    [
      "▁d",
      "ay"
    ],
    [
      "a",
      "se"
    ],
    [
      "p",
      "er"
    ],
    [
      "e",
      "nd"
    ],
    [
      "i",
      "gh"
    ],
    [
      "▁com",
      "m"
    ],
    [
      "ou",
      "gh"
    ],
    [
      "▁hea",
      "ven"
    ],
    [
      "▁and",
      ","
    ],
    [
      "▁c",
      "oun"
    ],
    [
      "▁sw",
      "eet"
    ],
    [
      "au",
      "ght"
    ],
    [
      "i",
      "es"
    ],
    [
      "n",
      "ot"
    ],
    [
      "▁f",
      "o"
    ],
    [
      "▁o",
      "'"
    ],
    [
      "i",
      "ld"
    ],
    [
      "▁ne",
      "w"
    ],
    [
      "ing",
      ","
    ],
    [
      "▁p",
      "art"
    ],
    [
      "▁pet",
      "ru"
    ],
    [
      "▁can",
      "not"
    ],
    [
      "▁petru",
      "ch"
    ],
    [
      "i",
      "le"
    ],
    [
      "▁p",
      "le"
    ],
    [
      "i",
      "an"
    ],
    [
      "▁p",
      "re"
    ],
    [
      "▁york",
      ":"
    ],
    [
      "m",
      "ent"
    ],
    [
      "or",
      "row"
    ],
    [
      "▁s",
      "c"
    ],
    [
      "o",
      "p"
    ],
    [
      "an",
      "g"
    ],
    [
      "▁c",
      "ap"
    ],
    [
      "at",
      "ion"
    ],
    [
      "is",
      "e"
    ],
    [
      "on",
      ","
    ],
    [
      "▁pr",
      "ay"
    ],
    [
      "▁an",
      "y"
    ],
    [
      "in",
      "ius:"
    ],
    [
      "▁be",
      "fore"
    ],
    [
      "c",
      "c"
    ],
    [
      "it",
      "t"
    ],
    [
      "iol",
      "an"
    ],
    [
      "▁w",
      "r"
    ],
    [
      "al",
      "t"
    ],
    [
      "en",
      "s"
    ],
    [
      "f",
      "or"
    ],
    [
      "▁be",
      "en"
    ],
    [
      "▁c",
      "o"
    ],
    [
      "▁th",
      "us"
    ],
    [
      "▁cor",
      "iolan"
    ],
    [
      "▁no",
      "ble"
    ],
    [
      "▁the",
      "e,"
    ],
    [
      "▁c",
      "r"
    ],
    [
      "▁be",
      "ar"
    ],
    [
      "▁ju",
      "li"
    ],
    [
      "▁men",
      "en"
    ],
    [
      "th",
      "ing"
    ],
    [
      "us",
      "e"
    ],
    [
      "▁sec",
      "ond"
    ],
    [
      "▁v",
      "ery"
    ],
    [
      "id",
      "e"
    ],
    [
      "▁o",
      "wn"
    ],
    [
      "▁an",
      "ge"
    ],
    [
      "▁him",
      ","
    ],
    [
      "er",
      "."
    ],
    [
      "s",
      "h"
    ],
    [
      "▁lad",
      "y"
    ],
    [
      "ve",
      "d"
    ],
    [
      "▁me",
      "an"
    ],
    [
      "l",
      "e,"
    ],
    [
      "▁ange",
      "l"
    ],
    [
      "a",
      "w"
    ],
    [
      "▁s",
      "on"
    ],
    [
      "▁d",
      "own"
    ],
    [
      "▁he",
      "ad"
    ],
    [
      "▁my",
      "self"
    ],
    [
      "▁o",
      "ther"
    ],
    [
      "ain",
      "t"
    ],
    [
      "▁a",
      "y,"
    ],
    [
      "▁ma",
      "st"
    ],
    [
      "▁n",
      "ight"
    ],
    [
      "▁re",
      "m"
    ],
    [
      "▁rome",
      "o:"
    ],
    [
      "o",
      "s"
    ],
    [
      "▁le",
      "ave"
    ],
    [
      "▁a",
      "f"
    ],
    [
      "▁con",
      "t"
    ],
    [
      "▁menen",
      "ius:"
    ],
    [
      "▁s",
      "l"
    ],
    [
      "▁s",
      "oul"
    ],
    [
      "▁wor",
      "ld"
    ],
    [
      "▁c",
      "it"
    ],
    [
      "▁k",
      "e"
    ],
    [
      "▁po",
      "or"
    ],
    [
      "g",
      "ar"
    ],
    [
      "ur",
      "se"
    ],
    [
      "▁again",
      "st"
    ],
    [
      "ed",
      "."
    ],
    [
      "re",
      "e"
    ],
    [
      "▁de",
      "ad"
    ],
    [
      "a",
      ","
    ],
    [
      "▁wh",
      "o"
    ],
    [
      "▁p",
      "a"
    ],
    [
      "a",
      "ch"
    ],
    [
      "e",
      "e"
    ],
    [
      "▁be",
      "g"
    ],
    [
      "▁is",
      "ab"
    ],
    [
      "▁petruch",
      "io:"
    ],
    [
      "▁pr",
      "ince"
    ],
    [
      "▁aw",
      "ay"
    ],
    [
      "▁con",
      "s"
    ],
    [
      "▁e",
      "l"
    ],
    [
      "▁i",
      "m"
    ],
    [
      "o",
      "st"
    ],
    [
      "▁ar",
      "m"
    ],
    [
      "▁pr",
      "es"
    ],
    [
      "'d",
      ","
    ],
    [
      "▁him",
      "."
    ],
    [
      "▁no",
      ","
    ],
    [
      "▁ser",
      "v"
    ],
    [
      "▁o",
      "ld"
    ],
    [
      "▁re",
      "p"
    ],
    [
      "▁v",
      "i"
    ],
    [
      "▁coriolan",
      "us:"
    ],
    [
      "▁l",
      "ong"
    ],
    [
      "▁ke",
      "ep"
    ],
    [
      "▁you",
      "."
    ],
    [
      "▁well",
      ","
    ],
    [
      "at",
      "ch"
    ],
    [
      "b",
      "ro"
    ],
    [
      "h",
      "am"
    ],
    [
      "i",
      "p"
    ],
    [
      "▁c",
      "a"
    ],
    [
      "▁cl",
      "ar"
    ],
    [
      "ck",
      "ing"
    ],
    [
      "ct",
      "ion"
    ],
    [
      "▁it",
      "."
    ],
    [
      "▁mo",
      "ther"
    ],
    [
      "▁t",
      "ill"
    ],
    [
      "u",
      "ll"
    ],
    [
      "▁m",
      "ight"
    ],
    [
      "▁n",
      "ame"
    ],
    [
      "▁tru",
      "e"
    ],
    [
      "s",
      "?"
    ],
    [
      "p",
      "h"
    ],
    [
      "th",
      ":"
    ],
    [
      "▁mer",
      "c"
    ],
    [
      "▁w",
      "om"
    ],
    [
      "ie",
      "f"
    ],
    [
      "▁ch",
      "ild"
    ],
    [
      "r",
      "ess"
    ],
    [
      "s",
      "w"
    ],
    [
      "▁sh",
      "ow"
    ],
    [
      "as",
      "s"
    ],
    [
      "ence",
      ":"
    ],
    [
      "in",
      "a:"
    ],
    [
      "ing",
      "s"
    ],
    [
      "ur",
      "d"
    ],
    [
      "▁e",
      "ven"
    ],
    [
      "▁t",
      "ran"
    ],
    [
      "▁w",
      "ay"
    ],
    [
      "▁cit",
      "iz"
    ],
    [
      "▁li",
      "fe"
    ],
    [
      "ling",
      "bro"
    ],
    [
      "▁bo",
      "lingbro"
    ],
    [
      "▁n",
      "ay,"
    ],
    [
      "▁r",
      "es"
    ],
    [
      "▁c",
      "our"
    ],
    [
      "▁ii",
      "i"
    ],
    [
      "▁iii",
      ":"
    ],
    [
      "▁man",
      "y"
    ],
    [
      "man",
      ":"
    ],
    [
      "s",
      "!"
    ],
    [
      "▁f",
      "e"
    ],
    [
      "▁d",
      "aught"
    ],
    [
      "▁f",
      "oo"
    ],
    [
      "▁s",
      "et"
    ],
    [
      "▁what",
      ","
    ],
    [
      "en",
      ":"
    ],
    [
      "it",
      "e"
    ],
    [
      "l",
      "ess"
    ],
    [
      "▁r",
      "est"
    ],
    [
      "▁wh",
      "ose"
    ],
    [
      "at",
      "ter"
    ],
    [
      "▁u",
      "nd"
    ],
    [
      "▁com",
      "es"
    ],
    [
      "▁fr",
      "i"
    ],
    [
      "▁isab",
      "ell"
    ],
    [
      "▁it",
      ","
    ],
    [
      "ab",
      "le"
    ],
    [
      "ou",
      "d"
    ],
    [
      "▁bet",
      "ter"
    ],
    [
      "▁cr",
      "own"
    ],
    [
      "▁h",
      "ar"
    ],
    [
      "▁p",
      "ut"
    ],
    [
      "▁s",
      "ic"
    ],
    [
      "▁thou",
      "ght"
    ],
    [
      "es",
      "s,"
    ],
    [
      "ly",
      ","
    ],
    [
      "ou",
      "se"
    ],
    [
      "s",
      "s"
    ],
    [
      "un",
      "t"
    ],
    [
      "▁de",
      "ar"
    ],
    [
      "▁fri",
      "ar"
    ],
    [
      "▁le",
      "ont"
    ],
    [
      "▁m",
      "ist"
    ],
    [
      "cking",
      "ham"
    ],
    [
      "▁bu",
      "ckingham"
    ],
    [
      "▁gra",
      "ce"
    ],
    [
      "▁to",
      "-"
    ],
    [
      "c",
      "l"
    ],
    [
      "ll",
      "ow"
    ],
    [
      "▁a",
      "u"
    ],
    [
      "▁com",
      "p"
    ],
    [
      "▁t",
      "y"
    ],
    [
      "▁",
      "ent"
    ],
    [
      "▁isabell",
      "a:"
    ],
    [
      "▁m",
      "urd"
    ],
    [
      "▁no",
      "thing"
    ],
    [
      "▁th",
      "ose"
    ],
    [
      "am",
      "ill"
    ],
    [
      "er",
      "t"
    ],
    [
      "ur",
      "s"
    ],
    [
      "▁'t",
      "w"
    ],
    [
      "▁me",
      "."
    ],
    [
      "▁p",
      "ow"
    ],
    [
      "▁to",
      "ng"
    ],
    [
      "f",
      "e,"
    ],
    [
      "▁bolingbro",
      "ke"
    ],
    [
      "▁leont",
      "es:"
    ],
    [
      "▁not",
      ","
    ],
    [
      "▁un",
      "to"
    ],
    [
      "▁c",
      "ould"
    ],
    [
      "▁juli",
      "et:"
    ],
    [
      "▁li",
      "e"
    ],
    [
      "▁so",
      ","
    ],
    [
      "▁t",
      "ri"
    ],
    [
      "m",
      "io:"
    ],
    [
      "▁lu",
      "c"
    ],
    [
      "▁pro",
      "v"
    ],
    [
      "▁st",
      "ill"
    ],
    [
      "▁th",
      "r"
    ],
    [
      "▁b",
      "est"
    ],
    [
      "▁rome",
      "o"
    ],
    [
      "▁you",
      "ng"
    ],
    [
      "▁b",
      "id"
    ],
    [
      "ou",
      "ght"
    ],
    [
      "▁a",
      "cc"
    ],
    [
      "▁than",
      "k"
    ],
    [
      "▁then",
      ","
    ],
    [
      "on",
      "e,"
    ],
    [
      "w",
      "ell"
    ],
    [
      "ie",
      "ld"
    ],
    [
      "r",
      "y,"
    ],
    [
      "▁be",
      "c"
    ],
    [
      "at",
      "e,"
    ],
    [
      "i",
      "v"
    ],
    [
      "▁coun",
      "t"
    ],
    [
      "▁g",
      "u"
    ],
    [
      "▁h",
      "our"
    ],
    [
      "▁he",
      "l"
    ],
    [
      "▁l",
      "itt"
    ],
    [
      "▁murd",
      "er"
    ],
    [
      "in",
      "t"
    ],
    [
      "▁f",
      "are"
    ],
    [
      "▁s",
      "le"
    ],
    [
      "▁st",
      "r"
    ],
    [
      "i",
      "ous"
    ],
    [
      "▁f",
      "ar"
    ],
    [
      "▁ma",
      "k"
    ],
    [
      "▁n",
      "urse"
    ],
    [
      "▁sic",
      "inius:"
    ],
    [
      "▁t",
      "ear"
    ],
    [
      "en",
      "g"
    ],
    [
      "ing",
      "."
    ],
    [
      "l",
      "t"
    ],
    [
      "▁cap",
      "ul"
    ],
    [
      "▁con",
      "f"
    ],
    [
      "▁k",
      "ind"
    ],
    [
      "▁mar",
      "gar"
    ],
    [
      "▁s",
      "m"
    ],
    [
      "ab",
      "e"
    ],
    [
      "en",
      ","
    ],
    [
      "▁e",
      "nd"
    ],
    [
      "al",
      "k"
    ],
    [
      "es",
      "."
    ],
    [
      "li",
      "ff"
    ],
    [
      "or",
      "s"
    ],
    [
      "▁",
      "ere"
    ],
    [
      "o",
      "ld"
    ],
    [
      "▁tw",
      "o"
    ],
    [
      "▁a",
      "p"
    ],
    [
      "▁c",
      "amill"
    ],
    [
      "▁i",
      "v"
    ],
    [
      "▁litt",
      "le"
    ],
    [
      "▁mast",
      "er"
    ],
    [
      "▁r",
      "ight"
    ],
    [
      "▁wh",
      "om"
    ],
    [
      "a",
      "il"
    ],
    [
      "re",
      "d"
    ],
    [
      "▁ch",
      "ar"
    ],
    [
      "▁d",
      "ie"
    ],
    [
      "▁f",
      "ell"
    ],
    [
      "▁h",
      "igh"
    ],
    [
      "▁him",
      "self"
    ],
    [
      "▁be",
      "h"
    ],
    [
      "▁d",
      "one"
    ],
    [
      "▁luc",
      "io:"
    ],
    [
      "▁su",
      "b"
    ],
    [
      "▁there",
      "fore"
    ],
    [
      "▁v",
      "ir"
    ],
    [
      "ul",
      "t"
    ],
    [
      "▁f",
      "ind"
    ],
    [
      "▁iv",
      ":"
    ],
    [
      "i",
      "th"
    ],
    [
      "li",
      "z"
    ],
    [
      "liz",
      "abe"
    ],
    [
      "re",
      "t"
    ],
    [
      "▁b",
      "ack"
    ],
    [
      "▁e",
      "lizabe"
    ],
    [
      "▁i",
      "nd"
    ],
    [
      "▁s",
      "ince"
    ],
    [
      "▁t",
      "re"
    ],
    [
      "▁we",
      "l"
    ],
    [
      "ci",
      "ous"
    ],
    [
      "▁for",
      "t"
    ],
    [
      "▁ho",
      "ld"
    ],
    [
      "▁p",
      "ar"
    ],
    [
      "ath",
      "ar"
    ],
    [
      "e",
      ":"
    ],
    [
      "is",
      "on"
    ],
    [
      "▁d",
      "re"
    ],
    [
      "▁h",
      "ouse"
    ],
    [
      "▁i",
      "'"
    ],
    [
      "▁k",
      "athar"
    ],
    [
      "et",
      ","
    ],
    [
      "▁fo",
      "llow"
    ],
    [
      "▁p",
      "ard"
    ],
    [
      "▁say",
      ","
    ],
    [
      "ap",
      "t"
    ],
    [
      "is",
      "s"
    ],
    [
      "om",
      "e,"
    ],
    [
      "▁elizabe",
      "th:"
    ],
    [
      "▁s",
      "en"
    ],
    [
      "▁v",
      "ol"
    ],
    [
      "b",
      "and"
    ],
    [
      "▁h",
      "us"
    ],
    [
      "h",
      ","
    ],
    [
      "i",
      "ed"
    ],
    [
      "▁af",
      "ter"
    ],
    [
      "▁b",
      "en"
    ],
    [
      "▁c",
      "ar"
    ],
    [
      "▁t",
      "r"
    ],
    [
      "'",
      "er"
    ],
    [
      "c",
      "al"
    ],
    [
      "▁bre",
      "ath"
    ],
    [
      "▁hel",
      "p"
    ],
    [
      "▁hus",
      "band"
    ],
    [
      "▁p",
      "om"
    ],
    [
      "▁se",
      "em"
    ],
    [
      "an",
      "ish"
    ],
    [
      "io",
      ","
    ],
    [
      "o",
      "ck"
    ],
    [
      "▁",
      "es"
    ],
    [
      "▁a",
      "pp"
    ],
    [
      "▁b",
      "ra"
    ],
    [
      "▁b",
      "us"
    ],
    [
      "▁el",
      "se"
    ],
    [
      "▁mad",
      "am"
    ],
    [
      "as",
      "on"
    ],
    [
      "ou",
      "b"
    ],
    [
      "i",
      "us"
    ],
    [
      "▁but",
      ","
    ],
    [
      "▁i",
      ","
    ],
    [
      "▁warwick",
      ":"
    ],
    [
      "an",
      "c"
    ],
    [
      "▁b",
      "apt"
    ],
    [
      "▁fare",
      "well"
    ],
    [
      "▁ha",
      "pp"
    ],
    [
      "▁ju",
      "st"
    ],
    [
      "▁l",
      "a"
    ],
    [
      "▁m",
      "ind"
    ],
    [
      "▁on",
      "ce"
    ],
    [
      "▁pe",
      "op"
    ],
    [
      "▁t",
      "ra"
    ],
    [
      "▁wel",
      "c"
    ],
    [
      "ort",
      "ens"
    ],
    [
      "ous",
      "in"
    ],
    [
      "ur",
      "p"
    ],
    [
      "▁bapt",
      "ist"
    ],
    [
      "▁capul",
      "et:"
    ],
    [
      "▁citiz",
      "en:"
    ],
    [
      "▁g",
      "ru"
    ],
    [
      "▁ii",
      ":"
    ],
    [
      "▁ne",
      "ed"
    ],
    [
      "e",
      "ct"
    ],
    [
      "ir",
      "d"
    ],
    [
      "is",
      "ter"
    ],
    [
      "▁m",
      "in"
    ],
    [
      "y",
      ";"
    ],
    [
      "at",
      "es"
    ],
    [
      "▁c",
      "ousin"
    ],
    [
      "▁ever",
      "y"
    ],
    [
      "▁h",
      "ortens"
    ],
    [
      "▁wor",
      "th"
    ],
    [
      "▁g",
      "a"
    ],
    [
      "▁im",
      "p"
    ],
    [
      "▁l",
      "aw"
    ],
    [
      "▁re",
      "ad"
    ],
    [
      "▁w",
      "o"
    ],
    [
      "ant",
      ":"
    ],
    [
      "f",
      "ort"
    ],
    [
      "▁br",
      "ut"
    ],
    [
      "▁f",
      "ull"
    ],
    [
      "▁fell",
      "ow"
    ],
    [
      "▁for",
      "th"
    ],
    [
      "▁h",
      "ence"
    ],
    [
      "▁o",
      "ver"
    ],
    [
      "▁p",
      "at"
    ],
    [
      "▁ro",
      "y"
    ],
    [
      "▁sa",
      "id"
    ],
    [
      "k",
      ","
    ],
    [
      "um",
      "ber"
    ],
    [
      "▁bo",
      "d"
    ],
    [
      "▁bolingbroke",
      ":"
    ],
    [
      "▁m",
      "is"
    ],
    [
      "▁n",
      "at"
    ],
    [
      "▁pe",
      "ace"
    ],
    [
      "▁fort",
      "un"
    ],
    [
      "▁in",
      "to"
    ],
    [
      "▁kn",
      "e"
    ],
    [
      "▁li",
      "ght"
    ],
    [
      "▁y",
      "ear"
    ],
    [
      "▁ab",
      "out"
    ],
    [
      "▁an",
      "sw"
    ],
    [
      "▁brut",
      "us:"
    ],
    [
      "▁buckingham",
      ":"
    ],
    [
      "▁nurse",
      ":"
    ],
    [
      "▁pres",
      "ent"
    ],
    [
      "▁t",
      "urn"
    ],
    [
      "▁wi",
      "lt"
    ],
    [
      "es",
      ";"
    ],
    [
      "▁de",
      "v"
    ],
    [
      "▁do",
      "st"
    ],
    [
      "▁pro",
      "s"
    ],
    [
      "▁tran",
      "io:"
    ],
    [
      "▁wi",
      "t"
    ],
    [
      "er",
      "d"
    ],
    [
      "▁angel",
      "o:"
    ],
    [
      "▁en",
      "g"
    ],
    [
      "▁go",
      ","
    ],
    [
      "▁k",
      "ill"
    ],
    [
      "▁pard",
      "on"
    ],
    [
      "▁pros",
      "per"
    ],
    [
      "▁prov",
      "ost"
    ],
    [
      "▁that",
      "'s"
    ],
    [
      "▁wr",
      "ong"
    ],
    [
      "en",
      "ce,"
    ],
    [
      "m",
      "b"
    ],
    [
      "▁f",
      "al"
    ],
    [
      "▁he",
      "ard"
    ],
    [
      "▁ho",
      "pe"
    ],
    [
      "▁l",
      "ast"
    ],
    [
      "▁margar",
      "et:"
    ],
    [
      "▁o",
      "b"
    ],
    [
      "▁th",
      "ine"
    ],
    [
      "-",
      "b"
    ],
    [
      "i",
      "er"
    ],
    [
      "ly",
      "."
    ],
    [
      "v",
      "ol"
    ],
    [
      "▁c",
      "ame"
    ],
    [
      "▁ind",
      "e"
    ],
    [
      "or",
      ":"
    ],
    [
      "t",
      "y"
    ],
    [
      "x",
      "t"
    ],
    [
      "▁b",
      "anish"
    ],
    [
      "▁king",
      ","
    ],
    [
      "▁l",
      "and"
    ],
    [
      "▁ple",
      "ase"
    ],
    [
      "▁s",
      "ign"
    ],
    [
      "▁s",
      "orrow"
    ],
    [
      "▁that",
      ","
    ],
    [
      "▁we",
      "ep"
    ],
    [
      "▁wi",
      "fe"
    ],
    [
      "in",
      "ess"
    ],
    [
      "liff",
      "ord"
    ],
    [
      "v",
      "ere"
    ],
    [
      "ve",
      ","
    ],
    [
      "▁be",
      "li"
    ],
    [
      "▁c",
      "lifford"
    ],
    [
      "▁es",
      "cal"
    ],
    [
      "▁f",
      "all"
    ],
    [
      "▁let",
      "'s"
    ],
    [
      "er",
      "'d"
    ],
    [
      "s",
      "and"
    ],
    [
      "▁c",
      "ur"
    ],
    [
      "▁me",
      ";"
    ],
    [
      "▁nor",
      "th"
    ],
    [
      "▁pa",
      "ul"
    ],
    [
      "▁pom",
      "pe"
    ],
    [
      "c",
      "ed"
    ],
    [
      "f",
      "id"
    ],
    [
      "it",
      "ion"
    ],
    [
      "▁mar",
      "ri"
    ],
    [
      "▁p",
      "ass"
    ],
    [
      "▁thou",
      "sand"
    ],
    [
      "▁what",
      "'s"
    ],
    [
      "au",
      "d"
    ],
    [
      "on",
      "e."
    ],
    [
      "ou",
      "ch"
    ],
    [
      "▁fa",
      "ce"
    ],
    [
      "▁h",
      "ither"
    ],
    [
      "▁ha",
      "s"
    ],
    [
      "▁ma",
      "id"
    ],
    [
      "▁ple",
      "as"
    ],
    [
      "▁su",
      "n"
    ],
    [
      "ce",
      "ive"
    ],
    [
      "ent",
      ","
    ],
    [
      "l",
      "ed"
    ],
    [
      "▁com",
      "fort"
    ],
    [
      "▁daught",
      "er"
    ],
    [
      "▁death",
      ","
    ],
    [
      "▁en",
      "em"
    ],
    [
      "▁foo",
      "l"
    ],
    [
      "▁for",
      "g"
    ],
    [
      "▁kathar",
      "ina:"
    ],
    [
      "▁merc",
      "ut"
    ],
    [
      "▁re",
      "t"
    ],
    [
      "re",
      "at"
    ],
    [
      "▁s",
      "ound"
    ],
    [
      "▁st",
      "e"
    ],
    [
      "▁with",
      "in"
    ],
    [
      "ain",
      ","
    ],
    [
      "it",
      "or"
    ],
    [
      "u",
      "d"
    ],
    [
      "▁an",
      "other"
    ],
    [
      "▁at",
      "t"
    ],
    [
      "▁cour",
      "t"
    ],
    [
      "▁d",
      "i"
    ],
    [
      "▁dis",
      "p"
    ],
    [
      "▁pow",
      "er"
    ],
    [
      "▁s",
      "in"
    ],
    [
      "▁t",
      "alk"
    ],
    [
      "▁tong",
      "ue"
    ],
    [
      "▁un",
      "c"
    ],
    [
      "f",
      "ord"
    ],
    [
      "l",
      "f"
    ],
    [
      "umber",
      "land"
    ],
    [
      "▁au",
      "fid"
    ],
    [
      "▁cl",
      "aud"
    ],
    [
      "▁d",
      "oub"
    ],
    [
      "▁gr",
      "ief"
    ],
    [
      "▁jo",
      "y"
    ],
    [
      "▁north",
      "umberland"
    ],
    [
      "▁thou",
      ","
    ],
    [
      "ci",
      "us"
    ],
    [
      "est",
      ","
    ],
    [
      "sh",
      "ip"
    ],
    [
      "▁be",
      "d"
    ],
    [
      "▁escal",
      "us:"
    ],
    [
      "▁father",
      ","
    ],
    [
      "▁gra",
      "cious"
    ],
    [
      "▁h",
      "um"
    ],
    [
      "▁he",
      "'s"
    ],
    [
      "▁her",
      "e,"
    ],
    [
      "▁lord",
      "."
    ],
    [
      "▁po",
      "li"
    ],
    [
      "▁roy",
      "al"
    ],
    [
      "▁v",
      "ill"
    ],
    [
      "ch",
      "ess"
    ],
    [
      "▁b",
      "ar"
    ],
    [
      "▁d",
      "ra"
    ],
    [
      "▁de",
      "p"
    ],
    [
      "▁du",
      "chess"
    ],
    [
      "▁l",
      "ess"
    ],
    [
      "▁love",
      ","
    ],
    [
      "▁m",
      "ont"
    ],
    [
      "▁mar",
      "cius"
    ],
    [
      "▁n",
      "one"
    ],
    [
      "▁wh",
      "ile"
    ],
    [
      "-",
      "h"
    ],
    [
      "j",
      "ect"
    ],
    [
      "▁ad",
      "v"
    ],
    [
      "▁ear",
      "th"
    ],
    [
      "▁gentle",
      "man"
    ],
    [
      "▁se",
      "nd"
    ],
    [
      "▁th",
      "ird"
    ],
    [
      "▁v",
      "al"
    ],
    [
      "▁h",
      "ome"
    ],
    [
      "▁in",
      "st"
    ],
    [
      "▁mist",
      "ress"
    ],
    [
      "▁p",
      "ers"
    ],
    [
      "▁st",
      "ri"
    ],
    [
      "b",
      "alt"
    ],
    [
      "i",
      "a:"
    ],
    [
      "o",
      ","
    ],
    [
      "▁th",
      "ing"
    ],
    [
      "ut",
      "y"
    ],
    [
      "▁l",
      "ay"
    ],
    [
      "▁mont",
      "ag"
    ],
    [
      "▁r",
      "ather"
    ],
    [
      "▁sw",
      "ear"
    ],
    [
      "▁vir",
      "t"
    ],
    [
      "g",
      "e,"
    ],
    [
      "m",
      "orrow"
    ],
    [
      "▁fa",
      "ult"
    ],
    [
      "▁h",
      "ang"
    ],
    [
      "▁peop",
      "le"
    ],
    [
      "▁sle",
      "ep"
    ],
    [
      "▁so",
      "ld"
    ],
    [
      "▁th",
      "ree"
    ],
    [
      "▁v",
      "o"
    ],
    [
      "▁we",
      "ar"
    ],
    [
      "k",
      "en"
    ],
    [
      "x",
      "en"
    ],
    [
      "▁camill",
      "o:"
    ],
    [
      "▁d",
      "r"
    ],
    [
      "▁fal",
      "se"
    ],
    [
      "▁s",
      "ent"
    ],
    [
      "▁sh",
      "alt"
    ],
    [
      "▁vi",
      ":"
    ],
    [
      "▁w",
      "ish"
    ],
    [
      "am",
      "e,"
    ],
    [
      "ee",
      "ch"
    ],
    [
      "▁b",
      "es"
    ],
    [
      "r",
      "ant"
    ],
    [
      "ut",
      "o"
    ],
    [
      "▁d",
      "ar"
    ],
    [
      "▁f",
      "ight"
    ],
    [
      "▁m",
      "atter"
    ],
    [
      "▁o'",
      "er"
    ],
    [
      "▁sw",
      "ord"
    ],
    [
      "▁ty",
      "balt"
    ],
    [
      "▁we",
      "'ll"
    ],
    [
      "▁ben",
      "vol"
    ],
    [
      "▁bes",
      "eech"
    ],
    [
      "▁comm",
      "and"
    ],
    [
      "▁edward",
      ":"
    ],
    [
      "▁li",
      "fe,"
    ],
    [
      "▁poli",
      "xen"
    ],
    [
      "▁rem",
      "em"
    ],
    [
      "a",
      "ir"
    ],
    [
      "ly",
      "c"
    ],
    [
      "uto",
      "lyc"
    ],
    [
      "vere",
      "ign"
    ],
    [
      "▁a",
      "utolyc"
    ],
    [
      "▁baptist",
      "a:"
    ],
    [
      "▁de",
      "li"
    ],
    [
      "▁hortens",
      "io:"
    ],
    [
      "▁pat",
      "i"
    ],
    [
      "▁s",
      "on,"
    ],
    [
      "▁so",
      "vereign"
    ],
    [
      "a",
      "ce,"
    ],
    [
      "▁mar",
      "k"
    ],
    [
      "own",
      ":"
    ],
    [
      "ph",
      "erd"
    ],
    [
      "u",
      "ck"
    ],
    [
      "▁as",
      "s"
    ],
    [
      "▁beli",
      "e"
    ],
    [
      "▁ca",
      "use"
    ],
    [
      "▁clar",
      "ence:"
    ],
    [
      "▁com",
      "inius:"
    ],
    [
      "▁doub",
      "t"
    ],
    [
      "▁dre",
      "am"
    ],
    [
      "▁father",
      "'s"
    ],
    [
      "▁g",
      "et"
    ],
    [
      "▁re",
      "ven"
    ],
    [
      "▁she",
      "pherd"
    ],
    [
      "er",
      "e,"
    ],
    [
      "fe",
      "ct"
    ],
    [
      "i",
      "f"
    ],
    [
      "it",
      "s"
    ],
    [
      "pe",
      "ct"
    ],
    [
      "▁autolyc",
      "us:"
    ],
    [
      "▁en",
      "ough"
    ],
    [
      "▁ho",
      "ly"
    ],
    [
      "▁in",
      "t"
    ],
    [
      "▁s",
      "ave"
    ],
    [
      "▁su",
      "pp"
    ],
    [
      "al",
      ","
    ],
    [
      "i",
      "or"
    ],
    [
      "o",
      "ke"
    ],
    [
      "▁b",
      "ian"
    ],
    [
      "▁bian",
      "c"
    ],
    [
      "▁pr",
      "oud"
    ],
    [
      "▁provost",
      ":"
    ],
    [
      "▁sir",
      "."
    ],
    [
      "▁w",
      "ant"
    ],
    [
      "en",
      "ch"
    ],
    [
      "ic",
      "e,"
    ],
    [
      "oo",
      "t"
    ],
    [
      "▁und",
      "er"
    ],
    [
      "▁be",
      "a"
    ],
    [
      "▁bre",
      "ak"
    ],
    [
      "▁c",
      "ond"
    ],
    [
      "▁g",
      "one"
    ],
    [
      "▁lord",
      ":"
    ],
    [
      "▁nat",
      "ure"
    ],
    [
      "▁o",
      "p"
    ],
    [
      "▁pl",
      "ace"
    ],
    [
      "▁pr",
      "om"
    ],
    [
      "▁sa",
      "w"
    ],
    [
      "▁to-",
      "morrow"
    ],
    [
      "▁y",
      "ield"
    ],
    [
      "c",
      "es"
    ],
    [
      "k",
      "e,"
    ],
    [
      "sel",
      "ves"
    ],
    [
      "um",
      "n"
    ],
    [
      "▁an",
      "n"
    ],
    [
      "▁ap",
      "pe"
    ],
    [
      "▁benvol",
      "io:"
    ],
    [
      "▁ch",
      "e"
    ],
    [
      "▁cl",
      "own:"
    ],
    [
      "▁happ",
      "y"
    ],
    [
      "▁is",
      ","
    ],
    [
      "▁madam",
      ","
    ],
    [
      "▁re",
      "ason"
    ],
    [
      "▁sh",
      "ame"
    ],
    [
      "▁t",
      "end"
    ],
    [
      "▁us",
      "e"
    ],
    [
      "▁w",
      "in"
    ],
    [
      "▁wi",
      "nd"
    ],
    [
      "▁with",
      "out"
    ],
    [
      "-",
      "d"
    ],
    [
      "or",
      "se"
    ],
    [
      "oun",
      "t"
    ],
    [
      "▁f",
      "ur"
    ],
    [
      "▁gru",
      "mio:"
    ],
    [
      "▁hea",
      "v"
    ],
    [
      "▁la",
      "ur"
    ],
    [
      "▁m",
      "ess"
    ],
    [
      "▁murder",
      "er:"
    ],
    [
      "▁prosper",
      "o:"
    ],
    [
      "▁r",
      "i"
    ],
    [
      "▁sp",
      "ir"
    ],
    [
      "▁st",
      "ran"
    ],
    [
      "▁the",
      "e."
    ],
    [
      ",",
      "--"
    ],
    [
      "▁wom",
      "an"
    ],
    [
      "d",
      "d"
    ],
    [
      "for",
      "e,"
    ],
    [
      "s",
      "e,"
    ],
    [
      "▁b",
      "ur"
    ],
    [
      "▁comm",
      "on"
    ],
    [
      "▁f",
      "oul"
    ],
    [
      "▁gre",
      "mio:"
    ],
    [
      "▁lu",
      "centio:"
    ],
    [
      "▁me",
      ":"
    ],
    [
      "▁mercut",
      "io:"
    ],
    [
      "▁pr",
      "in"
    ],
    [
      "▁s",
      "ister"
    ],
    [
      "an",
      "ge"
    ],
    [
      "e",
      "c"
    ],
    [
      "ed",
      ":"
    ],
    [
      "▁cont",
      "ent"
    ],
    [
      "ing",
      "s:"
    ],
    [
      "l",
      "es"
    ],
    [
      "ow",
      "s"
    ],
    [
      "▁pl",
      "ay"
    ],
    [
      "▁l",
      "am"
    ],
    [
      "p",
      "s"
    ],
    [
      "in",
      "s"
    ],
    [
      "▁lord",
      "s,"
    ],
    [
      "▁serv",
      "ant:"
    ],
    [
      "▁there",
      "'s"
    ],
    [
      "▁w",
      "atch"
    ],
    [
      "'d",
      "."
    ],
    [
      "▁st",
      "ay"
    ],
    [
      "ed",
      ";"
    ],
    [
      "▁answ",
      "er"
    ],
    [
      "u",
      "nd"
    ],
    [
      "us",
      "h"
    ],
    [
      "▁d",
      "en"
    ],
    [
      "▁f",
      "i"
    ],
    [
      "▁h",
      "ate"
    ],
    [
      "▁her",
      ","
    ],
    [
      "▁p",
      "urp"
    ],
    [
      "▁sen",
      "at"
    ],
    [
      "▁ser",
      "ving"
    ],
    [
      "▁sub",
      "ject"
    ],
    [
      "▁this",
      ","
    ],
    [
      "a",
      "s,"
    ],
    [
      "ion",
      ","
    ],
    [
      "it",
      "y,"
    ],
    [
      "▁a",
      "ff"
    ],
    [
      "▁b",
      "orn"
    ],
    [
      "▁c",
      "ra"
    ],
    [
      "▁count",
      "ry"
    ],
    [
      "▁d",
      "ang"
    ],
    [
      "▁fortun",
      "e"
    ],
    [
      "▁man",
      ","
    ],
    [
      "▁paul",
      "ina:"
    ],
    [
      "▁polixen",
      "es:"
    ],
    [
      "▁pompe",
      "y:"
    ],
    [
      "▁ret",
      "urn"
    ],
    [
      "▁sir",
      ";"
    ],
    [
      "▁thr",
      "ough"
    ],
    [
      "▁tra",
      "itor"
    ],
    [
      "▁welc",
      "ome"
    ],
    [
      "▁your",
      "self"
    ],
    [
      "en",
      "er"
    ],
    [
      "es",
      "h"
    ],
    [
      "i",
      "li"
    ],
    [
      "re",
      "l"
    ],
    [
      "u",
      "e,"
    ],
    [
      "um",
      "er"
    ],
    [
      "le",
      ":"
    ],
    [
      "▁t",
      "a"
    ],
    [
      "ut",
      "e"
    ],
    [
      "▁a",
      "umer"
    ],
    [
      "▁belie",
      "ve"
    ],
    [
      "▁child",
      "r"
    ],
    [
      "▁d",
      "ru"
    ],
    [
      "▁des",
      "er"
    ],
    [
      "▁le",
      "ft"
    ],
    [
      "▁li",
      "ves"
    ],
    [
      "▁o",
      "ath"
    ],
    [
      "▁re",
      "qu"
    ],
    [
      "▁so",
      "."
    ],
    [
      "▁st",
      "ra"
    ],
    [
      "▁t",
      "em"
    ],
    [
      "▁vol",
      "umn"
    ],
    [
      "▁wi",
      "d"
    ],
    [
      "ge",
      "ther"
    ],
    [
      "it",
      ","
    ],
    [
      "u",
      "st"
    ],
    [
      "us",
      "ic"
    ],
    [
      "▁an",
      "t"
    ],
    [
      "▁dis",
      "c"
    ],
    [
      "▁eng",
      "land"
    ],
    [
      "▁f",
      "ire"
    ],
    [
      "▁f",
      "ree"
    ],
    [
      "▁hast",
      "ings:"
    ],
    [
      "▁ne",
      "'er"
    ],
    [
      "▁st",
      "ate"
    ],
    [
      "▁volumn",
      "ia:"
    ],
    [
      "▁w",
      "ound"
    ],
    [
      "▁word",
      "s"
    ],
    [
      "a",
      "c"
    ],
    [
      "y",
      "?"
    ],
    [
      "a",
      "use"
    ],
    [
      "ar",
      "n"
    ],
    [
      "b",
      "y:"
    ],
    [
      "fe",
      "nd"
    ],
    [
      "▁ne",
      "ar"
    ],
    [
      "▁pr",
      "ison"
    ],
    [
      "▁serving",
      "man:"
    ],
    [
      "▁t",
      "ouch"
    ],
    [
      "▁to",
      "ld"
    ],
    [
      "for",
      "m"
    ],
    [
      "g",
      "ed"
    ],
    [
      "is",
      "ed"
    ],
    [
      "om",
      "an"
    ],
    [
      "▁y",
      "e"
    ],
    [
      "re",
      "ad"
    ],
    [
      "▁a",
      "h,"
    ],
    [
      "▁be",
      "at"
    ],
    [
      "▁g",
      "ro"
    ],
    [
      "▁ga",
      "unt"
    ],
    [
      "▁him",
      ";"
    ],
    [
      "▁laur",
      "ence:"
    ],
    [
      "▁m",
      "on"
    ],
    [
      "▁ma",
      "j"
    ],
    [
      "▁mess",
      "eng"
    ],
    [
      "▁not",
      "."
    ],
    [
      "▁of",
      "t"
    ],
    [
      "▁s",
      "ad"
    ],
    [
      "▁un",
      "t"
    ],
    [
      "a",
      "im"
    ],
    [
      "i",
      "ly"
    ],
    [
      "m",
      "p"
    ],
    [
      "▁bl",
      "ess"
    ],
    [
      "▁blood",
      "y"
    ],
    [
      "▁bod",
      "y"
    ],
    [
      "▁c",
      "are"
    ],
    [
      "▁co",
      "ld"
    ],
    [
      "▁de",
      "ep"
    ],
    [
      "▁e",
      "ither"
    ],
    [
      "▁fl",
      "or"
    ],
    [
      "▁foo",
      "t"
    ],
    [
      "▁go",
      "ld"
    ],
    [
      "▁i",
      "ll"
    ],
    [
      "▁m",
      "usic"
    ],
    [
      "▁maj",
      "est"
    ],
    [
      "▁me",
      "?"
    ],
    [
      "▁northumberland",
      ":"
    ],
    [
      "▁s",
      "ight"
    ],
    [
      "▁su",
      "ff"
    ],
    [
      "▁thy",
      "self"
    ],
    [
      "▁us",
      ","
    ],
    [
      "er",
      "s,"
    ],
    [
      "io",
      "nd"
    ],
    [
      "iond",
      "ell"
    ],
    [
      "th",
      "."
    ],
    [
      "▁b",
      "iondell"
    ],
    [
      "▁bec",
      "ause"
    ],
    [
      "▁bet",
      "w"
    ],
    [
      "▁h",
      "orse"
    ],
    [
      "▁jo",
      "h"
    ],
    [
      "▁joh",
      "n"
    ],
    [
      "▁me",
      "th"
    ],
    [
      "▁rep",
      "ort"
    ],
    [
      "▁s",
      "aint"
    ],
    [
      "▁th",
      "ings"
    ],
    [
      "▁to",
      "gether"
    ],
    [
      "▁tru",
      "st"
    ],
    [
      "▁w",
      "ond"
    ],
    [
      "▁wh",
      "il"
    ],
    [
      "▁worth",
      "y"
    ],
    [
      "▁you",
      ";"
    ],
    [
      "an",
      "ce,"
    ],
    [
      "im",
      "e"
    ],
    [
      "▁s",
      "om"
    ],
    [
      "ret",
      "ch"
    ],
    [
      "▁bus",
      "iness"
    ],
    [
      "▁c",
      "ates"
    ],
    [
      "▁g",
      "ener"
    ],
    [
      "▁h",
      "e,"
    ],
    [
      "▁here",
      "'s"
    ],
    [
      "▁him",
      ":"
    ],
    [
      "▁k",
      "iss"
    ],
    [
      "▁m",
      "ir"
    ],
    [
      "▁mar",
      "ry,"
    ],
    [
      "▁par",
      "is"
    ],
    [
      "▁po",
      "st"
    ],
    [
      "▁re",
      "c"
    ],
    [
      "▁s",
      "il"
    ],
    [
      "▁t",
      "it"
    ],
    [
      "▁there",
      "fore,"
    ],
    [
      "▁to",
      "ward"
    ],
    [
      "▁war",
      "rant"
    ],
    [
      "▁you",
      "?"
    ],
    [
      "as",
      "h"
    ],
    [
      "d",
      "om"
    ],
    [
      "ert",
      "ain"
    ],
    [
      "f",
      "ol"
    ],
    [
      "ly",
      ":"
    ],
    [
      "▁hon",
      "est"
    ],
    [
      "v",
      "es,"
    ],
    [
      "▁all",
      ","
    ],
    [
      "▁ann",
      "e:"
    ],
    [
      "▁c",
      "ry"
    ],
    [
      "▁clar",
      "ence"
    ],
    [
      "▁h",
      "ard"
    ],
    [
      "▁off",
      "ic"
    ],
    [
      "▁r",
      "un"
    ],
    [
      "▁su",
      "re"
    ],
    [
      "▁tend",
      "er"
    ],
    [
      "n",
      "ight"
    ],
    [
      "on",
      ":"
    ],
    [
      "▁bo",
      "ld"
    ],
    [
      "▁comp",
      "an"
    ],
    [
      "▁her",
      "m"
    ],
    [
      "▁le",
      "arn"
    ],
    [
      "▁nor",
      "fol"
    ],
    [
      "▁pl",
      "uck"
    ],
    [
      "▁so",
      "on"
    ],
    [
      "el",
      ":"
    ],
    [
      "k",
      "s"
    ],
    [
      "s",
      "'"
    ],
    [
      "▁beh",
      "old"
    ],
    [
      "▁can",
      "st"
    ],
    [
      "▁death",
      "."
    ],
    [
      "▁edward",
      "'s"
    ],
    [
      "▁ey",
      "e"
    ],
    [
      "▁f",
      "ound"
    ],
    [
      "▁flor",
      "iz"
    ],
    [
      "▁hand",
      "s"
    ],
    [
      "▁he",
      "ir"
    ],
    [
      "▁herm",
      "ion"
    ],
    [
      "▁on",
      ","
    ],
    [
      "▁p",
      "ast"
    ],
    [
      "▁remem",
      "ber"
    ],
    [
      "▁sign",
      "ior"
    ],
    [
      "-",
      "f"
    ],
    [
      "-",
      "p"
    ],
    [
      "at",
      "t"
    ],
    [
      "r",
      "ay"
    ],
    [
      "v",
      "ent"
    ],
    [
      "or",
      "y"
    ],
    [
      "▁a",
      "ir"
    ],
    [
      "▁b",
      "on"
    ],
    [
      "▁des",
      "p"
    ],
    [
      "▁dra",
      "w"
    ],
    [
      "▁e",
      "ach"
    ],
    [
      "▁fa",
      "st"
    ],
    [
      "▁fl",
      "ow"
    ],
    [
      "▁gentle",
      "m"
    ],
    [
      "▁god",
      ","
    ],
    [
      "▁in",
      "f"
    ],
    [
      "▁lo",
      "st"
    ],
    [
      "▁po",
      "int"
    ],
    [
      "▁qu",
      "ick"
    ],
    [
      "▁ri",
      "ver"
    ],
    [
      "▁se",
      "e,"
    ],
    [
      "▁vill",
      "ain"
    ],
    [
      "▁w",
      "at"
    ],
    [
      "-",
      "s"
    ],
    [
      "▁se",
      "a"
    ],
    [
      "-",
      "t"
    ],
    [
      "-",
      "w"
    ],
    [
      "ent",
      "y"
    ],
    [
      "io",
      "."
    ],
    [
      "re",
      "w"
    ],
    [
      "▁",
      "ord"
    ],
    [
      "▁'tw",
      "as"
    ],
    [
      "▁b",
      "ad"
    ],
    [
      "▁br",
      "ought"
    ],
    [
      "▁dang",
      "er"
    ],
    [
      "▁des",
      "ire"
    ],
    [
      "▁dev",
      "il"
    ],
    [
      "▁ent",
      "reat"
    ],
    [
      "▁f",
      "it"
    ],
    [
      "▁gentle",
      "man:"
    ],
    [
      "▁inst",
      "ru"
    ],
    [
      "▁let",
      "ter"
    ],
    [
      "▁p",
      "ity"
    ],
    [
      "▁pro",
      "f"
    ],
    [
      "▁v",
      "is"
    ],
    [
      "▁w",
      "oo"
    ],
    [
      "▁well",
      "."
    ],
    [
      "-",
      "m"
    ],
    [
      "ag",
      "e,"
    ],
    [
      "d",
      "ay"
    ],
    [
      "m",
      "ond"
    ],
    [
      "u",
      "p"
    ],
    [
      "▁again",
      "."
    ],
    [
      "▁an",
      "g"
    ],
    [
      "▁d",
      "iv"
    ],
    [
      "▁deli",
      "ver"
    ],
    [
      "▁ex",
      "t"
    ],
    [
      "or",
      "e,"
    ],
    [
      "▁m",
      "ore,"
    ],
    [
      "▁f",
      "our"
    ],
    [
      "▁gr",
      "ound"
    ],
    [
      "▁ha",
      "ving"
    ],
    [
      "▁le",
      "w"
    ],
    [
      "▁montag",
      "ue"
    ],
    [
      "▁re",
      "d"
    ],
    [
      "▁rich",
      "mond"
    ],
    [
      "▁richard",
      ":"
    ],
    [
      "▁stra",
      "ight"
    ],
    [
      "▁t",
      "ak"
    ],
    [
      "▁t",
      "en"
    ],
    [
      "▁tri",
      "b"
    ],
    [
      "▁up",
      ","
    ],
    [
      "▁warwick",
      ","
    ],
    [
      "▁wid",
      "ow"
    ],
    [
      "▁you",
      ":"
    ],
    [
      "'t",
      "."
    ],
    [
      "c",
      "ius:"
    ],
    [
      "er",
      ";"
    ],
    [
      "i",
      "es,"
    ],
    [
      "i",
      "xt"
    ],
    [
      "ing",
      ":"
    ],
    [
      "▁me",
      "et"
    ],
    [
      "n",
      "o"
    ],
    [
      "o",
      "y"
    ],
    [
      "ure",
      "d"
    ],
    [
      "▁",
      "'s"
    ],
    [
      "▁as",
      "k"
    ],
    [
      "▁aufid",
      "ius:"
    ],
    [
      "▁c",
      "ut"
    ],
    [
      "▁did",
      "st"
    ],
    [
      "▁floriz",
      "el:"
    ],
    [
      "▁for",
      "m"
    ],
    [
      "▁friend",
      "s,"
    ],
    [
      "▁gr",
      "ant"
    ],
    [
      "▁heav",
      "y"
    ],
    [
      "▁ju",
      "d"
    ],
    [
      "▁le",
      "ad"
    ],
    [
      "▁mar",
      "cius:"
    ],
    [
      "▁messeng",
      "er:"
    ],
    [
      "▁no",
      "b"
    ],
    [
      "▁r",
      "a"
    ],
    [
      "▁r",
      "u"
    ],
    [
      "▁res",
      "ol"
    ],
    [
      "▁sold",
      "i"
    ],
    [
      "▁str",
      "ong"
    ],
    [
      "▁tear",
      "s"
    ],
    [
      "▁tw",
      "enty"
    ],
    [
      "▁wi",
      "fe,"
    ],
    [
      "al",
      "m"
    ],
    [
      "ent",
      "."
    ],
    [
      "er",
      "'s"
    ],
    [
      "er",
      "n"
    ],
    [
      "i",
      "th,"
    ],
    [
      "le",
      "."
    ],
    [
      "o",
      "d"
    ],
    [
      "v",
      "our"
    ],
    [
      "▁appe",
      "ar"
    ],
    [
      "▁att",
      "end"
    ],
    [
      "▁b",
      "ound"
    ],
    [
      "▁ex",
      "ec"
    ],
    [
      "▁ha",
      "lf"
    ],
    [
      "▁hand",
      ","
    ],
    [
      "▁pers",
      "on"
    ],
    [
      "▁qu",
      "ar"
    ],
    [
      "▁st",
      "ar"
    ],
    [
      "▁stran",
      "ge"
    ],
    [
      "ain",
      "s"
    ],
    [
      "as",
      "ure"
    ],
    [
      "ce",
      "pt"
    ],
    [
      "i",
      "ft"
    ],
    [
      "▁a",
      "c"
    ],
    [
      "▁c",
      "ity"
    ],
    [
      "▁c",
      "le"
    ],
    [
      "▁childr",
      "en"
    ],
    [
      "▁conf",
      "ess"
    ],
    [
      "▁coun",
      "sel"
    ],
    [
      "▁d",
      "ish"
    ],
    [
      "▁d",
      "ist"
    ],
    [
      "▁god",
      "'s"
    ],
    [
      "▁in",
      "c"
    ],
    [
      "▁is",
      "s"
    ],
    [
      "▁it",
      "self"
    ],
    [
      "▁o",
      "x"
    ],
    [
      "▁po",
      "ss"
    ],
    [
      "▁senat",
      "or:"
    ],
    [
      ".",
      "'"
    ],
    [
      "es",
      "!"
    ],
    [
      "o",
      "th"
    ],
    [
      "i",
      "ven"
    ],
    [
      "li",
      "ke"
    ],
    [
      "or",
      ","
    ],
    [
      "w",
      "h"
    ],
    [
      "oo",
      "p"
    ],
    [
      "at",
      ","
    ],
    [
      "▁be",
      ","
    ],
    [
      "▁fe",
      "el"
    ],
    [
      "▁fl",
      "atter"
    ],
    [
      "▁for",
      ","
    ],
    [
      "▁for",
      "b"
    ],
    [
      "▁gu",
      "il"
    ],
    [
      "▁har",
      "m"
    ],
    [
      "▁know",
      ","
    ],
    [
      "▁l",
      "ate"
    ],
    [
      "▁lord",
      ";"
    ],
    [
      "▁m",
      "orn"
    ],
    [
      "▁op",
      "en"
    ],
    [
      "▁pl",
      "ant"
    ],
    [
      "▁pre",
      "p"
    ],
    [
      "▁see",
      "k"
    ],
    [
      "▁shepherd",
      ":"
    ],
    [
      "▁str",
      "eng"
    ],
    [
      "▁them",
      "."
    ],
    [
      "▁v",
      "en"
    ],
    [
      "▁you",
      "'ll"
    ],
    [
      "al",
      "th"
    ],
    [
      "id",
      "e,"
    ],
    [
      "ur",
      "ch"
    ],
    [
      "▁",
      "ve"
    ],
    [
      "▁'tw",
      "ere"
    ],
    [
      "▁biondell",
      "o:"
    ],
    [
      "▁blood",
      ","
    ],
    [
      "▁c",
      "ast"
    ],
    [
      "▁f",
      "ield"
    ],
    [
      "▁fear",
      "ful"
    ],
    [
      "▁g",
      "e"
    ],
    [
      "▁gr",
      "ow"
    ],
    [
      "▁he",
      "ll"
    ],
    [
      "▁her",
      "."
    ],
    [
      "▁ho",
      "p"
    ],
    [
      "▁ox",
      "ford"
    ],
    [
      "▁pre",
      "t"
    ],
    [
      "▁purp",
      "ose"
    ],
    [
      "▁sh",
      "ort"
    ],
    [
      "▁she",
      "'s"
    ],
    [
      "▁so",
      "ft"
    ],
    [
      "▁spir",
      "it"
    ],
    [
      "▁stri",
      "ke"
    ],
    [
      "▁us",
      "."
    ],
    [
      "▁w",
      "retch"
    ],
    [
      "▁year",
      "s"
    ],
    [
      "al",
      "."
    ],
    [
      "ce",
      "ed"
    ],
    [
      "fe",
      "ction"
    ],
    [
      "h",
      "e"
    ],
    [
      "▁'",
      "g"
    ],
    [
      "▁all",
      "."
    ],
    [
      "▁b",
      "att"
    ],
    [
      "▁b",
      "it"
    ],
    [
      "▁b",
      "urn"
    ],
    [
      "▁bo",
      "s"
    ],
    [
      "▁bos",
      "om"
    ],
    [
      "▁d",
      "am"
    ],
    [
      "▁d",
      "one,"
    ],
    [
      "▁do",
      ","
    ],
    [
      "▁fa",
      "ith,"
    ],
    [
      "▁king",
      "."
    ],
    [
      "▁kn",
      "own"
    ],
    [
      "▁know",
      "s"
    ],
    [
      "▁l",
      "anc"
    ],
    [
      "▁lew",
      "is"
    ],
    [
      "▁lo",
      "se"
    ],
    [
      "▁look",
      "s"
    ],
    [
      "▁mother",
      ","
    ],
    [
      "▁pr",
      "ith"
    ],
    [
      "▁some",
      "thing"
    ],
    [
      "▁st",
      "ir"
    ],
    [
      "▁t",
      "er"
    ],
    [
      "▁th",
      "ere,"
    ],
    [
      "▁this",
      "?"
    ],
    [
      "!",
      "'"
    ],
    [
      "▁de",
      "ed"
    ],
    [
      "b",
      "ow"
    ],
    [
      "b",
      "ur"
    ],
    [
      "ed",
      "i"
    ],
    [
      "i",
      "est"
    ],
    [
      "ion",
      "."
    ],
    [
      "l",
      "ish"
    ],
    [
      "▁bra",
      "ve"
    ],
    [
      "▁ch",
      "ange"
    ],
    [
      "▁d",
      "are"
    ],
    [
      "▁en",
      "v"
    ],
    [
      "▁exec",
      "ut"
    ],
    [
      "▁heaven",
      ","
    ],
    [
      "▁inde",
      "ed,"
    ],
    [
      "▁just",
      "ice"
    ],
    [
      "▁pe",
      "ace,"
    ],
    [
      "▁queen",
      ","
    ],
    [
      "▁s",
      "at"
    ],
    [
      "▁t",
      "e"
    ],
    [
      "▁un",
      "less"
    ],
    [
      "▁vo",
      "ic"
    ],
    [
      "▁vol",
      "s"
    ],
    [
      "▁which",
      ","
    ],
    [
      "▁wo",
      "e"
    ],
    [
      "e",
      "ch"
    ],
    [
      "ow",
      "ard"
    ],
    [
      "ri",
      "ed"
    ],
    [
      "▁ab",
      "o"
    ],
    [
      "▁aumer",
      "le:"
    ],
    [
      "▁bec",
      "ome"
    ],
    [
      "▁bo",
      "y"
    ],
    [
      "▁c",
      "ro"
    ],
    [
      "▁char",
      "ge"
    ],
    [
      "▁h",
      "ous"
    ],
    [
      "▁is",
      "'t"
    ],
    [
      "▁kne",
      "w"
    ],
    [
      "▁lo",
      "ving"
    ],
    [
      "▁min",
      "e,"
    ],
    [
      "▁mo",
      "ck"
    ],
    [
      "▁ne",
      "ither"
    ],
    [
      "▁per",
      "d"
    ],
    [
      "▁pr",
      "a"
    ],
    [
      "▁pr",
      "ay,"
    ],
    [
      "▁r",
      "oman"
    ],
    [
      "▁sir",
      "ra"
    ],
    [
      "▁speak",
      ","
    ],
    [
      "▁speak",
      "."
    ],
    [
      "▁su",
      "it"
    ],
    [
      "▁virt",
      "u"
    ],
    [
      "▁w",
      "a"
    ],
    [
      "▁w",
      "ast"
    ],
    [
      "n",
      "'d"
    ],
    [
      "n",
      "ess,"
    ],
    [
      "▁a",
      "ct"
    ],
    [
      "▁be",
      "l"
    ],
    [
      "▁claud",
      "io:"
    ],
    [
      "▁com",
      "e."
    ],
    [
      "▁el",
      "bow"
    ],
    [
      "▁f",
      "et"
    ],
    [
      "▁first",
      ","
    ],
    [
      "▁lanc",
      "ast"
    ],
    [
      "▁lu",
      "cent"
    ],
    [
      "▁m",
      "et"
    ],
    [
      "▁mar",
      "ch"
    ],
    [
      "▁meth",
      "ink"
    ],
    [
      "▁ne",
      "xt"
    ],
    [
      "▁pleas",
      "ure"
    ],
    [
      "▁reven",
      "ge"
    ],
    [
      "▁s",
      "k"
    ],
    [
      "e",
      "y"
    ],
    [
      "▁serv",
      "ice"
    ],
    [
      "▁trib",
      "un"
    ],
    [
      "▁vir",
      "g"
    ],
    [
      "ack",
      ","
    ],
    [
      "ad",
      "e"
    ],
    [
      "c",
      "ess"
    ],
    [
      "ceive",
      "d"
    ],
    [
      "i",
      "b"
    ],
    [
      "ou",
      "s,"
    ],
    [
      "▁ab",
      "s"
    ],
    [
      "▁brother",
      "'s"
    ],
    [
      "▁cl",
      "oud"
    ],
    [
      "▁clifford",
      ":"
    ],
    [
      "▁d",
      "ire"
    ],
    [
      "▁ex",
      "p"
    ],
    [
      "▁fur",
      "ther"
    ],
    [
      "▁heart",
      ","
    ],
    [
      "▁honour",
      ","
    ],
    [
      "▁king",
      "'s"
    ],
    [
      "▁m",
      "ow"
    ],
    [
      "▁mir",
      "and"
    ],
    [
      "▁p",
      "h"
    ],
    [
      "▁pr",
      "iv"
    ],
    [
      "▁pro",
      "cl"
    ],
    [
      "▁stand",
      "s"
    ],
    [
      "▁to",
      "w"
    ],
    [
      "▁w",
      "ed"
    ],
    [
      "-",
      "c"
    ],
    [
      "ie",
      "l"
    ],
    [
      "ing",
      "s,"
    ],
    [
      "it",
      "y."
    ],
    [
      "iz",
      "e"
    ],
    [
      "m",
      "m"
    ],
    [
      "▁a",
      "ge"
    ],
    [
      "▁bea",
      "uty"
    ],
    [
      "▁betw",
      "een"
    ],
    [
      "▁ca",
      "us"
    ],
    [
      "▁ch",
      "ee"
    ],
    [
      "▁cons",
      "ul"
    ],
    [
      "▁cur",
      "t"
    ],
    [
      "▁fa",
      "ith"
    ],
    [
      "▁g",
      "ave"
    ],
    [
      "▁g",
      "iven"
    ],
    [
      "▁ge",
      "or"
    ],
    [
      "▁gener",
      "al"
    ],
    [
      "▁gr",
      "ie"
    ],
    [
      "▁hermion",
      "e:"
    ],
    [
      "▁in",
      "ter"
    ],
    [
      "▁love",
      "."
    ],
    [
      "▁m",
      "ort"
    ],
    [
      "▁mar",
      "ry"
    ],
    [
      "▁n",
      "ame,"
    ],
    [
      "▁p",
      "ie"
    ],
    [
      "▁r",
      "at"
    ],
    [
      "▁re",
      "g"
    ],
    [
      "▁s",
      "ick"
    ],
    [
      "▁s",
      "ur"
    ],
    [
      "▁sc",
      "ar"
    ],
    [
      "▁se",
      "lf"
    ],
    [
      "▁tim",
      "e,"
    ],
    [
      "▁tim",
      "es"
    ],
    [
      "▁w",
      "is"
    ],
    [
      "▁we",
      "ak"
    ],
    [
      "▁y",
      "es,"
    ],
    [
      "▁ye",
      "a,"
    ],
    [
      "'d",
      ";"
    ],
    [
      "'t",
      ","
    ],
    [
      "a",
      "."
    ],
    [
      "am",
      "p"
    ],
    [
      "ant",
      ","
    ],
    [
      "ar",
      "y"
    ],
    [
      "et",
      "s"
    ],
    [
      "is",
      "f"
    ],
    [
      "ius",
      ","
    ],
    [
      "m",
      "ost"
    ],
    [
      "o",
      "ver"
    ],
    [
      "oo",
      "f"
    ],
    [
      "our",
      "n"
    ],
    [
      "re",
      "m"
    ],
    [
      "▁al",
      "ong"
    ],
    [
      "▁al",
      "read"
    ],
    [
      "▁br",
      "o"
    ],
    [
      "▁c",
      "urs"
    ],
    [
      "▁d",
      "ay,"
    ],
    [
      "▁d",
      "et"
    ],
    [
      "▁e",
      "mb"
    ],
    [
      "▁farewell",
      ","
    ],
    [
      "▁hen",
      "ce,"
    ],
    [
      "▁it",
      "?"
    ],
    [
      "▁k",
      "ate"
    ],
    [
      "▁mirand",
      "a:"
    ],
    [
      "▁p",
      "ed"
    ],
    [
      "▁queen",
      ":"
    ],
    [
      "▁sir",
      "?"
    ],
    [
      "▁sl",
      "ain"
    ],
    [
      "▁spe",
      "ech"
    ],
    [
      "▁sw",
      "orn"
    ],
    [
      "▁th",
      "row"
    ],
    [
      "▁too",
      ","
    ],
    [
      "▁unc",
      "le"
    ],
    [
      "▁v",
      "er"
    ],
    [
      "▁wh",
      "e"
    ],
    [
      "▁world",
      ","
    ],
    [
      "an",
      "le"
    ],
    [
      "aw",
      "d"
    ],
    [
      "er",
      "?"
    ],
    [
      "es",
      "?"
    ],
    [
      "g",
      "n"
    ],
    [
      "g",
      "r"
    ],
    [
      "h",
      "ood"
    ],
    [
      "i",
      "al"
    ],
    [
      "os",
      "ed"
    ],
    [
      "ou",
      "th"
    ],
    [
      "u",
      "b"
    ],
    [
      "▁all",
      ":"
    ],
    [
      "▁b",
      "ook"
    ],
    [
      "▁b",
      "ow"
    ],
    [
      "▁br",
      "ief"
    ],
    [
      "▁bre",
      "ast"
    ],
    [
      "▁cates",
      "by:"
    ],
    [
      "▁cousin",
      ","
    ],
    [
      "▁en",
      "c"
    ],
    [
      "▁fe",
      "ast"
    ],
    [
      "▁fet",
      "ch"
    ],
    [
      "▁fr",
      "ance"
    ],
    [
      "▁g",
      "ar"
    ],
    [
      "▁g",
      "one,"
    ],
    [
      "▁good",
      ","
    ],
    [
      "▁here",
      "?"
    ],
    [
      "▁here",
      "ford"
    ],
    [
      "▁it",
      ":"
    ],
    [
      "▁it",
      ";"
    ],
    [
      "▁kn",
      "ock"
    ],
    [
      "▁li",
      "ber"
    ],
    [
      "▁li",
      "ve,"
    ],
    [
      "▁love",
      "d"
    ],
    [
      "▁mar",
      "ian"
    ],
    [
      "▁marri",
      "ed"
    ],
    [
      "▁more",
      "."
    ],
    [
      "▁mow",
      "b"
    ],
    [
      "▁n",
      "urs"
    ],
    [
      "▁p",
      "ay"
    ],
    [
      "▁perd",
      "it"
    ],
    [
      "▁quar",
      "rel"
    ],
    [
      "▁sat",
      "isf"
    ],
    [
      "▁spe",
      "ed"
    ],
    [
      "▁st",
      "anle"
    ],
    [
      "▁streng",
      "th"
    ],
    [
      "▁su",
      "cc"
    ],
    [
      "▁th",
      "om"
    ],
    [
      "▁tong",
      "u"
    ],
    [
      "▁w",
      "all"
    ],
    [
      "▁welc",
      "ome,"
    ],
    [
      "▁whil",
      "st"
    ],
    [
      "▁wor",
      "ship"
    ],
    [
      "at",
      "e."
    ],
    [
      "est",
      "."
    ],
    [
      "i",
      "ble"
    ],
    [
      "i",
      "et"
    ],
    [
      "ou",
      "ble"
    ],
    [
      "t",
      "ing"
    ],
    [
      "ver",
      "s"
    ],
    [
      "w",
      "e"
    ],
    [
      "▁ch",
      "r"
    ],
    [
      "▁d",
      "ro"
    ],
    [
      "▁do",
      "g"
    ],
    [
      "▁e",
      "m"
    ],
    [
      "▁ey",
      "es,"
    ],
    [
      "▁fa",
      "vour"
    ],
    [
      "▁forg",
      "et"
    ],
    [
      "▁gre",
      "y:"
    ],
    [
      "▁h",
      "ot"
    ],
    [
      "▁had",
      "st"
    ],
    [
      "▁m",
      "al"
    ],
    [
      "▁man",
      "n"
    ],
    [
      "▁night",
      ","
    ],
    [
      "▁p",
      "en"
    ],
    [
      "▁pa",
      "le"
    ],
    [
      "▁prin",
      "ce,"
    ],
    [
      "▁r",
      "ome,"
    ],
    [
      "▁res",
      "pect"
    ],
    [
      "▁s",
      "igh"
    ],
    [
      "▁s",
      "ing"
    ],
    [
      "▁so",
      "?"
    ],
    [
      "▁t",
      "ro"
    ],
    [
      "▁tru",
      "e,"
    ],
    [
      "▁vi",
      "ct"
    ],
    [
      "▁wor",
      "se"
    ],
    [
      "er",
      "s."
    ],
    [
      "i",
      "ves"
    ],
    [
      "i",
      "x"
    ],
    [
      "in",
      "e,"
    ],
    [
      "m",
      "s"
    ],
    [
      "oo",
      "se"
    ],
    [
      "▁",
      "est"
    ],
    [
      "▁away",
      "."
    ],
    [
      "▁b",
      "le"
    ],
    [
      "▁bianc",
      "a:"
    ],
    [
      "▁bit",
      "ter"
    ],
    [
      "▁c",
      "urse"
    ],
    [
      "▁comp",
      "l"
    ],
    [
      "▁d",
      "est"
    ],
    [
      "▁danger",
      "ous"
    ],
    [
      "▁dead",
      ","
    ],
    [
      "▁dr",
      "ink"
    ],
    [
      "▁dre",
      "ad"
    ],
    [
      "▁ear",
      "l"
    ],
    [
      "▁edward",
      ","
    ],
    [
      "▁gaunt",
      ":"
    ],
    [
      "▁go",
      "t"
    ],
    [
      "▁high",
      "ness"
    ],
    [
      "▁in",
      "s"
    ],
    [
      "▁lie",
      "ge,"
    ],
    [
      "▁lord",
      "?"
    ],
    [
      "▁men",
      ","
    ],
    [
      "▁mo",
      "ve"
    ],
    [
      "▁o",
      "pp"
    ],
    [
      "▁prith",
      "e"
    ],
    [
      "▁re",
      "b"
    ],
    [
      "el",
      ","
    ],
    [
      "▁s",
      "ame"
    ],
    [
      "▁som",
      "et"
    ],
    [
      "▁thom",
      "as"
    ],
    [
      "▁to-",
      "night"
    ],
    [
      "▁v",
      "iol"
    ],
    [
      "▁w",
      "ise"
    ],
    [
      "a",
      "z"
    ],
    [
      "an",
      "k"
    ],
    [
      "em",
      "pt"
    ],
    [
      "ian",
      ":"
    ],
    [
      "li",
      "ght"
    ],
    [
      "um",
      "b"
    ],
    [
      "▁a",
      "ction"
    ],
    [
      "▁ad",
      "d"
    ],
    [
      "▁an",
      "ci"
    ],
    [
      "▁beg",
      "gar"
    ],
    [
      "▁c",
      "al"
    ],
    [
      "▁de",
      "f"
    ],
    [
      "▁dish",
      "on"
    ],
    [
      "▁e",
      "v"
    ],
    [
      "▁ear",
      "th,"
    ],
    [
      "▁f",
      "ill"
    ],
    [
      "▁fr",
      "own"
    ],
    [
      "▁friend",
      ","
    ],
    [
      "▁g",
      "all"
    ],
    [
      "▁l",
      "im"
    ],
    [
      "▁lo",
      "nd"
    ],
    [
      "▁look",
      ","
    ],
    [
      "▁oft",
      "en"
    ],
    [
      "▁pro",
      "t"
    ],
    [
      "▁sc",
      "orn"
    ]
  ],
  "vocab": {
    "<unk>": 0,
    "!": 1,
    "$": 2,
    "&": 3,
    "'": 4,
    ",": 5,
    "-": 6,
    ".": 7,
    "0": 8,
    ":": 9,
    ";": 10,
    "?": 11,
    "a": 12,
    "b": 13,
    "c": 14,
    "d": 15,
    "e": 16,
    "f": 17,
    "g": 18,
    "h": 19,
    "i": 20,
    "j": 21,
    "k": 22,
    "l": 23,
    "m": 24,
    "n": 25,
    "o": 26,
    "p": 27,
    "q": 28,
    "r": 29,
    "s": 30,
    "t": 31,
    "u": 32,
    "v": 33,
    "w": 34,
    "x": 35,
    "y": 36,
    "z": 37,
    "▁": 38,
    "▁t": 39,
    "▁th": 40,
    "▁a": 41,
    "▁s": 42,
    "▁h": 43,
    "▁w": 44,
    "▁i": 45,
    "ou": 46,
    "▁m": 47,
    "er": 48,
    "▁b": 49,
    "nd": 50,
    "or": 51,
    "in": 52,
    "▁the": 53,
    "▁f": 54,
    "at": 55,
    "en": 56,
    "▁c": 57,
    "▁o": 58,
    "ar": 59,
    "es": 60,
    "▁l": 61,
    "ll": 62,
    "▁d": 63,
    "▁n": 64,
    "▁y": 65,
    "▁p": 66,
    "▁to": 67,
    "is": 68,
    "▁and": 69,
    "▁you": 70,
    "th": 71,
    "▁g": 72,
    "on": 73,
    "an": 74,
    "re": 75,
    "ing": 76,
    "▁of": 77,
    "▁no": 78,
    "▁wh": 79,
    "om": 80,
    "ve": 81,
    "st": 82,
    "▁wi": 83,
    "▁be": 84,
    "e,": 85,
    "ed": 86,
    "▁my": 87,
    "▁in": 88,
    "ow": 89,
    "▁he": 90,
    "ch": 91,
    "▁ha": 92,
    "et": 93,
    "▁that": 94,
    "▁sh": 95,
    "us": 96,
    "ir": 97,
    "▁for": 98,
    "ut": 99,
    "▁k": 100,
    "▁r": 101,
    "ay": 102,
    "ld": 103,
    "ce": 104,
    "▁is": 105,
    "se": 106,
    "ere": 107,
    "le": 108,
    "▁not": 109,
    "▁e": 110,
    "▁with": 111,
    "it": 112,
    "ke": 113,
    "im": 114,
    "gh": 115,
    "ent": 116,
    "▁me": 117,
    "oo": 118,
    "'s": 119,
    "▁we": 120,
    "▁it": 121,
    "▁your": 122,
    "▁thou": 123,
    "our": 124,
    "ad": 125,
    "▁pr": 126,
    "▁st": 127,
    "▁as": 128,
    "ath": 129,
    "io": 130,
    "al": 131,
    "▁u": 132,
    "▁his": 133,
    "s,": 134,
    "▁but": 135,
    "▁this": 136,
    "est": 137,
    "▁so": 138,
    "'d": 139,
    "▁have": 140,
    "ord": 141,
    "▁v": 142,
    "ard": 143,
    "id": 144,
    "am": 145,
    "ly": 146,
    "ur": 147,
    "▁li": 148,
    "all": 149,
    "ght": 150,
    "as": 151,
    "▁com": 152,
    "▁on": 153,
    "▁him": 154,
    "▁do": 155,
    "▁de": 156,
    "▁fr": 157,
    "ck": 158,
    "▁what": 159,
    "▁se": 160,
    "▁re": 161,
    "▁an": 162,
    "ess": 163,
    "ain": 164,
    "▁thy": 165,
    "▁will": 166,
    "ood": 167,
    "ould": 168,
    "ich": 169,
    "y,": 170,
    "ther": 171,
    "▁her": 172,
    "io:": 173,
    "li": 174,
    "and": 175,
    "▁king": 176,
    "ore": 177,
    "▁all": 178,
    "▁go": 179,
    "ru": 180,
    "ver": 181,
    "ra": 182,
    "us:": 183,
    "▁su": 184,
    "pe": 185,
    "ge": 186,
    "ion": 187,
    "▁lo": 188,
    "ome": 189,
    "ie": 190,
    "▁shall": 191,
    "▁lord": 192,
    "▁ma": 193,
    "qu": 194,
    "▁our": 195,
    "▁'": 196,
    "ell": 197,
    "ter": 198,
    "▁br": 199,
    "▁if": 200,
    "▁are": 201,
    "▁ch": 202,
    "ul": 203,
    "▁ne": 204,
    "ight": 205,
    "▁bo": 206,
    "▁kn": 207,
    "▁good": 208,
    "ill": 209,
    "▁j": 210,
    "▁now": 211,
    "▁up": 212,
    "il": 213,
    "▁un": 214,
    "▁le": 215,
    "ous": 216,
    "ct": 217,
    "ant": 218,
    "▁at": 219,
    "▁mar": 220,
    "▁sir": 221,
    "▁or": 222,
    "▁she": 223,
    "▁mu": 224,
    "▁qu": 225,
    "▁from": 226,
    "▁fa": 227,
    "ak": 228,
    "▁con": 229,
    "▁mo": 230,
    "ry": 231,
    "sel": 232,
    "▁there": 233,
    "art": 234,
    "▁than": 235,
    "▁then": 236,
    "e.": 237,
    "ic": 238,
    "▁am": 239,
    "a:": 240,
    "▁let": 241,
    "'ll": 242,
    "▁which": 243,
    "own": 244,
    "ence": 245,
    "▁pro": 246,
    "ab": 247,
    "▁would": 248,
    "▁was": 249,
    "▁bl": 250,
    "em": 251,
    "▁can": 252,
    "ive": 253,
    "▁here": 254,
    "▁they": 255,
    "▁more": 256,
    "er:": 257,
    "ear": 258,
    "▁how": 259,
    "ast": 260,
    "out": 261,
    "ven": 262,
    "▁say": 263,
    "es,": 264,
    "▁du": 265,
    "▁man": 266,
    "▁us": 267,
    "▁them": 268,
    "▁well": 269,
    "ap": 270,
    "▁ar": 271,
    "ol": 272,
    "ward": 273,
    "▁sw": 274,
    "un": 275,
    "▁'t": 276,
    "▁their": 277,
    "fe": 278,
    "ri": 279,
    "▁love": 280,
    "▁rich": 281,
    "ius:": 282,
    "s.": 283,
    "um": 284,
    "ish": 285,
    "ine": 286,
    "▁cl": 287,
    "o:": 288,
    "self": 289,
    "ro": 290,
    "ep": 291,
    "▁thee": 292,
    "▁know": 293,
    "▁duke": 294,
    "ort": 295,
    "▁hath": 296,
    "▁may": 297,
    "▁war": 298,
    "een": 299,
    "ot": 300,
    "ather": 301,
    "▁spe": 302,
    "▁gre": 303,
    "--": 304,
    "▁by": 305,
    "▁wor": 306,
    "▁where": 307,
    "▁i'll": 308,
    "ond": 309,
    "ake": 310,
    "ers": 311,
    "▁en": 312,
    "▁ag": 313,
    "▁ho": 314,
    "ame": 315,
    "ong": 316,
    "▁mad": 317,
    "ink": 318,
    "▁upon": 319,
    "ure": 320,
    "▁po": 321,
    "▁were": 322,
    "ist": 323,
    "▁make": 324,
    "▁should": 325,
    "▁must": 326,
    "▁pl": 327,
    "ig": 328,
    "ind": 329,
    "▁richard": 330,
    "▁fir": 331,
    "▁like": 332,
    "ook": 333,
    "▁did": 334,
    "ick": 335,
    "▁tru": 336,
    "▁one": 337,
    "▁queen": 338,
    "▁yet": 339,
    "▁nor": 340,
    "ate": 341,
    "one": 342,
    "▁gl": 343,
    "ose": 344,
    "▁had": 345,
    "ce,": 346,
    "▁when": 347,
    "▁men": 348,
    "▁sp": 349,
    "▁come": 350,
    "▁you,": 351,
    "y:": 352,
    "cent": 353,
    "▁first": 354,
    "▁some": 355,
    "pp": 356,
    "▁ed": 357,
    "ound": 358,
    "s:": 359,
    "other": 360,
    "el": 361,
    "ay,": 362,
    "▁rome": 363,
    "er,": 364,
    "▁gr": 365,
    "▁god": 366,
    "▁edward": 367,
    "▁hen": 368,
    "ave": 369,
    "▁see": 370,
    "ble": 371,
    "▁again": 372,
    "fore": 373,
    "▁father": 374,
    "▁too": 375,
    "▁gra": 376,
    "▁ju": 377,
    "et:": 378,
    "ff": 379,
    "▁sir,": 380,
    "▁'tis": 381,
    "▁death": 382,
    "▁speak": 383,
    "ed,": 384,
    "au": 385,
    "ag": 386,
    "ves": 387,
    "ci": 388,
    "▁tim": 389,
    "▁out": 390,
    "ful": 391,
    "▁hast": 392,
    "▁al": 393,
    "oun": 394,
    "▁gent": 395,
    "▁lad": 396,
    "▁give": 397,
    "ork": 398,
    "are": 399,
    "▁york": 400,
    "▁look": 401,
    "▁take": 402,
    "▁ex": 403,
    "y.": 404,
    "man": 405,
    "▁heart": 406,
    "▁these": 407,
    "▁dis": 408,
    "▁me,": 409,
    "▁ser": 410,
    "▁tell": 411,
    "▁gentle": 412,
    "▁hand": 413,
    "▁such": 414,
    "▁sa": 415,
    "▁henry": 416,
    "cest": 417,
    "▁hon": 418,
    "centio:": 419,
    "▁pe": 420,
    "es:": 421,
    "▁ab": 422,
    "▁cor": 423,
    "▁fl": 424,
    "oucest": 425,
    "▁gloucest": 426,
    "row": 427,
    "ince": 428,
    "▁off": 429,
    "ack": 430,
    "▁brother": 431,
    "▁ear": 432,
    "'t": 433,
    "▁hear": 434,
    "▁hea": 435,
    "▁think": 436,
    "ue": 437,
    "▁lu": 438,
    "ng": 439,
    "▁o,": 440,
    "ire": 441,
    "ign": 442,
    "ran": 443,
    "▁pet": 444,
    "wn": 445,
    "ont": 446,
    "▁aw": 447,
    "ice": 448,
    "▁blood": 449,
    "iz": 450,
    "iend": 451,
    "▁bre": 452,
    "▁des": 453,
    "▁most": 454,
    "▁ever": 455,
    "to": 456,
    "▁per": 457,
    "▁ro": 458,
    "ber": 459,
    "▁ii": 460,
    "▁vin": 461,
    "▁friend": 462,
    "wick": 463,
    "▁word": 464,
    "▁ey": 465,
    "▁warwick": 466,
    "land": 467,
    "▁art": 468,
    "ery": 469,
    "th,": 470,
    "▁gloucester:": 471,
    "▁tw": 472,
    "ither": 473,
    "oul": 474,
    "ving": 475,
    "▁fear": 476,
    "ance": 477,
    "▁come,": 478,
    "▁jo": 479,
    "ft": 480,
    "▁call": 481,
    "▁lord,": 482,
    "ling": 483,
    "▁mine": 484,
    "s;": 485,
    "▁fair": 486,
    "▁bet": 487,
    "▁mer": 488,
    "▁much": 489,
    "iol": 490,
    "▁honour": 491,
    "▁vincentio:": 492,
    "pt": 493,
    "urn": 494,
    "▁why,": 495,
    "age": 496,
    "eet": 497,
    "▁sec": 498,
    "▁bu": 499,
    "▁great": 500,
    "▁never": 501,
    "▁now,": 502,
    "ace": 503,
    "▁ad": 504,
    "orn": 505,
    "▁time": 506,
    "'st": 507,
    "ness": 508,
    "▁made": 509,
    "▁stand": 510,
    "ity": 511,
    "▁day": 512,
    "ase": 513,
    "per": 514,
    "end": 515,
    "igh": 516,
    "▁comm": 517,
    "ough": 518,
    "▁heaven": 519,
    "▁and,": 520,
    "▁coun": 521,
    "▁sweet": 522,
    "aught": 523,
    "ies": 524,
    "not": 525,
    "▁fo": 526,
    "▁o'": 527,
    "ild": 528,
    "▁new": 529,
    "ing,": 530,
    "▁part": 531,
    "▁petru": 532,
    "▁cannot": 533,
    "▁petruch": 534,
    "ile": 535,
    "▁ple": 536,
    "ian": 537,
    "▁pre": 538,
    "▁york:": 539,
    "ment": 540,
    "orrow": 541,
    "▁sc": 542,
    "op": 543,
    "ang": 544,
    "▁cap": 545,
    "ation": 546,
    "ise": 547,
    "on,": 548,
    "▁pray": 549,
    "▁any": 550,
    "inius:": 551,
    "▁before": 552,
    "cc": 553,
    "itt": 554,
    "iolan": 555,
    "▁wr": 556,
    "alt": 557,
    "ens": 558,
    "for": 559,
    "▁been": 560,
    "▁co": 561,
    "▁thus": 562,
    "▁coriolan": 563,
    "▁noble": 564,
    "▁thee,": 565,
    "▁cr": 566,
    "▁bear": 567,
    "▁juli": 568,
    "▁menen": 569,
    "thing": 570,
    "use": 571,
    "▁second": 572,
    "▁very": 573,
    "ide": 574,
    "▁own": 575,
    "▁ange": 576,
    "▁him,": 577,
    "er.": 578,
    "sh": 579,
    "▁lady": 580,
    "ved": 581,
    "▁mean": 582,
    "le,": 583,
    "▁angel": 584,
    "aw": 585,
    "▁son": 586,
    "▁down": 587,
    "▁head": 588,
    "▁myself": 589,
    "▁other": 590,
    "aint": 591,
    "▁ay,": 592,
    "▁mast": 593,
    "▁night": 594,
    "▁rem": 595,
    "▁romeo:": 596,
    "os": 597,
    "▁leave": 598,
    "▁af": 599,
    "▁cont": 600,
    "▁menenius:": 601,
    "▁sl": 602,
    "▁soul": 603,
    "▁world": 604,
    "▁cit": 605,
    "▁ke": 606,
    "▁poor": 607,
    "gar": 608,
    "urse": 609,
    "▁against": 610,
    "ed.": 611,
    "ree": 612,
    "▁dead": 613,
    "a,": 614,
    "▁who": 615,
    "▁pa": 616,
    "ach": 617,
    "ee": 618,
    "▁beg": 619,
    "▁isab": 620,
    "▁petruchio:": 621,
    "▁prince": 622,
    "▁away": 623,
    "▁cons": 624,
    "▁el": 625,
    "▁im": 626,
    "ost": 627,
    "▁arm": 628,
    "▁pres": 629,
    "'d,": 630,
    "▁him.": 631,
    "▁no,": 632,
    "▁serv": 633,
    "▁old": 634,
    "▁rep": 635,
    "▁vi": 636,
    "▁coriolanus:": 637,
    "▁long": 638,
    "▁keep": 639,
    "▁you.": 640,
    "▁well,": 641,
    "atch": 642,
    "bro": 643,
    "ham": 644,
    "ip": 645,
    "▁ca": 646,
    "▁clar": 647,
    "cking": 648,
    "ction": 649,
    "▁it.": 650,
    "▁mother": 651,
    "▁till": 652,
    "ull": 653,
    "▁might": 654,
    "▁name": 655,
    "▁true": 656,
    "s?": 657,
    "ph": 658,
    "th:": 659,
    "▁merc": 660,
    "▁wom": 661,
    "ief": 662,
    "▁child": 663,
    "ress": 664,
    "sw": 665,
    "▁show": 666,
    "ass": 667,
    "ence:": 668,
    "ina:": 669,
    "ings": 670,
    "urd": 671,
    "▁even": 672,
    "▁tran": 673,
    "▁way": 674,
    "▁citiz": 675,
    "▁life": 676,
    "lingbro": 677,
    "▁bolingbro": 678,
    "▁nay,": 679,
    "▁res": 680,
    "▁cour": 681,
    "▁iii": 682,
    "▁iii:": 683,
    "▁many": 684,
    "man:": 685,
    "s!": 686,
    "▁fe": 687,
    "▁daught": 688,
    "▁foo": 689,
    "▁set": 690,
    "▁what,": 691,
    "en:": 692,
    "ite": 693,
    "less": 694,
    "▁rest": 695,
    "▁whose": 696,
    "atter": 697,
    "▁und": 698,
    "▁comes": 699,
    "▁fri": 700,
    "▁isabell": 701,
    "▁it,": 702,
    "able": 703,
    "oud": 704,
    "▁better": 705,
    "▁crown": 706,
    "▁har": 707,
    "▁put": 708,
    "▁sic": 709,
    "▁thought": 710,
    "ess,": 711,
    "ly,": 712,
    "ouse": 713,
    "ss": 714,
    "unt": 715,
    "▁dear": 716,
    "▁friar": 717,
    "▁leont": 718,
    "▁mist": 719,
    "ckingham": 720,
    "▁buckingham": 721,
    "▁grace": 722,
    "▁to-": 723,
    "cl": 724,
    "llow": 725,
    "▁au": 726,
    "▁comp": 727,
    "▁ty": 728,
    "▁ent": 729,
    "▁isabella:": 730,
    "▁murd": 731,
    "▁nothing": 732,
    "▁those": 733,
    "amill": 734,
    "ert": 735,
    "urs": 736,
    "▁'tw": 737,
    "▁me.": 738,
    "▁pow": 739,
    "▁tong": 740,
    "fe,": 741,
    "▁bolingbroke": 742,
    "▁leontes:": 743,
    "▁not,": 744,
    "▁unto": 745,
    "▁could": 746,
    "▁juliet:": 747,
    "▁lie": 748,
    "▁so,": 749,
    "▁tri": 750,
    "mio:": 751,
    "▁luc": 752,
    "▁prov": 753,
    "▁still": 754,
    "▁thr": 755,
    "▁best": 756,
    "▁romeo": 757,
    "▁young": 758,
    "▁bid": 759,
    "ought": 760,
    "▁acc": 761,
    "▁thank": 762,
    "▁then,": 763,
    "one,": 764,
    "well": 765,
    "ield": 766,
    "ry,": 767,
    "▁bec": 768,
    "ate,": 769,
    "iv": 770,
    "▁count": 771,
    "▁gu": 772,
    "▁hour": 773,
    "▁hel": 774,
    "▁litt": 775,
    "▁murder": 776,
    "int": 777,
    "▁fare": 778,
    "▁sle": 779,
    "▁str": 780,
    "ious": 781,
    "▁far": 782,
    "▁mak": 783,
    "▁nurse": 784,
    "▁sicinius:": 785,
    "▁tear": 786,
    "eng": 787,
    "ing.": 788,
    "lt": 789,
    "▁capul": 790,
    "▁conf": 791,
    "▁kind": 792,
    "▁margar": 793,
    "▁sm": 794,
    "abe": 795,
    "en,": 796,
    "▁end": 797,
    "alk": 798,
    "es.": 799,
    "liff": 800,
    "ors": 801,
    "▁ere": 802,
    "old": 803,
    "▁two": 804,
    "▁ap": 805,
    "▁camill": 806,
    "▁iv": 807,
    "▁little": 808,
    "▁master": 809,
    "▁right": 810,
    "▁whom": 811,
    "ail": 812,
    "red": 813,
    "▁char": 814,
    "▁die": 815,
    "▁fell": 816,
    "▁high": 817,
    "▁himself": 818,
    "▁beh": 819,
    "▁done": 820,
    "▁lucio:": 821,
    "▁sub": 822,
    "▁therefore": 823,
    "▁vir": 824,
    "ult": 825,
    "▁find": 826,
    "▁iv:": 827,
    "ith": 828,
    "liz": 829,
    "lizabe": 830,
    "ret": 831,
    "▁back": 832,
    "▁elizabe": 833,
    "▁ind": 834,
    "▁since": 835,
    "▁tre": 836,
    "▁wel": 837,
    "cious": 838,
    "▁fort": 839,
    "▁hold": 840,
    "▁par": 841,
    "athar": 842,
    "e:": 843,
    "ison": 844,
    "▁dre": 845,
    "▁house": 846,
    "▁i'": 847,
    "▁kathar": 848,
    "et,": 849,
    "▁follow": 850,
    "▁pard": 851,
    "▁say,": 852,
    "apt": 853,
    "iss": 854,
    "ome,": 855,
    "▁elizabeth:": 856,
    "▁sen": 857,
    "▁vol": 858,
    "band": 859,
    "▁hus": 860,
    "h,": 861,
    "ied": 862,
    "▁after": 863,
    "▁ben": 864,
    "▁car": 865,
    "▁tr": 866,
    "'er": 867,
    "cal": 868,
    "▁breath": 869,
    "▁help": 870,
    "▁husband": 871,
    "▁pom": 872,
    "▁seem": 873,
    "anish": 874,
    "io,": 875,
    "ock": 876,
    "▁es": 877,
    "▁app": 878,
    "▁bra": 879,
    "▁bus": 880,
    "▁else": 881,
    "▁madam": 882,
    "ason": 883,
    "oub": 884,
    "ius": 885,
    "▁but,": 886,
    "▁i,": 887,
    "▁warwick:": 888,
    "anc": 889,
    "▁bapt": 890,
    "▁farewell": 891,
    "▁happ": 892,
    "▁just": 893,
    "▁la": 894,
    "▁mind": 895,
    "▁once": 896,
    "▁peop": 897,
    "▁tra": 898,
    "▁welc": 899,
    "ortens": 900,
    "ousin": 901,
    "urp": 902,
    "▁baptist": 903,
    "▁capulet:": 904,
    "▁citizen:": 905,
    "▁gru": 906,
    "▁ii:": 907,
    "▁need": 908,
    "ect": 909,
    "ird": 910,
    "ister": 911,
    "▁min": 912,
    "y;": 913,
    "ates": 914,
    "▁cousin": 915,
    "▁every": 916,
    "▁hortens": 917,
    "▁worth": 918,
    "▁ga": 919,
    "▁imp": 920,
    "▁law": 921,
    "▁read": 922,
    "▁wo": 923,
    "ant:": 924,
    "fort": 925,
    "▁brut": 926,
    "▁full": 927,
    "▁fellow": 928,
    "▁forth": 929,
    "▁hence": 930,
    "▁over": 931,
    "▁pat": 932,
    "▁roy": 933,
    "▁said": 934,
    "k,": 935,
    "umber": 936,
    "▁bod": 937,
    "▁bolingbroke:": 938,
    "▁mis": 939,
    "▁nat": 940,
    "▁peace": 941,
    "▁fortun": 942,
    "▁into": 943,
    "▁kne": 944,
    "▁light": 945,
    "▁year": 946,
    "▁about": 947,
    "▁answ": 948,
    "▁brutus:": 949,
    "▁buckingham:": 950,
    "▁nurse:": 951,
    "▁present": 952,
    "▁turn": 953,
    "▁wilt": 954,
    "es;": 955,
    "▁dev": 956,
    "▁dost": 957,
    "▁pros": 958,
    "▁tranio:": 959,
    "▁wit": 960,
    "erd": 961,
    "▁angelo:": 962,
    "▁eng": 963,
    "▁go,": 964,
    "▁kill": 965,
    "▁pardon": 966,
    "▁prosper": 967,
    "▁provost": 968,
    "▁that's": 969,
    "▁wrong": 970,
    "ence,": 971,
    "mb": 972,
    "▁fal": 973,
    "▁heard": 974,
    "▁hope": 975,
    "▁last": 976,
    "▁margaret:": 977,
    "▁ob": 978,
    "▁thine": 979,
    "-b": 980,
    "ier": 981,
    "ly.": 982,
    "vol": 983,
    "▁came": 984,
    "▁inde": 985,
    "or:": 986,
    "ty": 987,
    "xt": 988,
    "▁banish": 989,
    "▁king,": 990,
    "▁land": 991,
    "▁please": 992,
    "▁sign": 993,
    "▁sorrow": 994,
    "▁that,": 995,
    "▁weep": 996,
    "▁wife": 997,
    "iness": 998,
    "lifford": 999,
    "vere": 1000,
    "ve,": 1001,
    "▁beli": 1002,
    "▁clifford": 1003,
    "▁escal": 1004,
    "▁fall": 1005,
    "▁let's": 1006,
    "er'd": 1007,
    "sand": 1008,
    "▁cur": 1009,
    "▁me;": 1010,
    "▁north": 1011,
    "▁paul": 1012,
    "▁pompe": 1013,
    "ced": 1014,
    "fid": 1015,
    "ition": 1016,
    "▁marri": 1017,
    "▁pass": 1018,
    "▁thousand": 1019,
    "▁what's": 1020,
    "aud": 1021,
    "one.": 1022,
    "ouch": 1023,
    "▁face": 1024,
    "▁hither": 1025,
    "▁has": 1026,
    "▁maid": 1027,
    "▁pleas": 1028,
    "▁sun": 1029,
    "ceive": 1030,
    "ent,": 1031,
    "led": 1032,
    "▁comfort": 1033,
    "▁daughter": 1034,
    "▁death,": 1035,
    "▁enem": 1036,
    "▁fool": 1037,
    "▁forg": 1038,
    "▁katharina:": 1039,
    "▁mercut": 1040,
    "▁ret": 1041,
    "reat": 1042,
    "▁sound": 1043,
    "▁ste": 1044,
    "▁within": 1045,
    "ain,": 1046,
    "itor": 1047,
    "ud": 1048,
    "▁another": 1049,
    "▁att": 1050,
    "▁court": 1051,
    "▁di": 1052,
    "▁disp": 1053,
    "▁power": 1054,
    "▁sin": 1055,
    "▁talk": 1056,
    "▁tongue": 1057,
    "▁unc": 1058,
    "ford": 1059,
    "lf": 1060,
    "umberland": 1061,
    "▁aufid": 1062,
    "▁claud": 1063,
    "▁doub": 1064,
    "▁grief": 1065,
    "▁joy": 1066,
    "▁northumberland": 1067,
    "▁thou,": 1068,
    "cius": 1069,
    "est,": 1070,
    "ship": 1071,
    "▁bed": 1072,
    "▁escalus:": 1073,
    "▁father,": 1074,
    "▁gracious": 1075,
    "▁hum": 1076,
    "▁he's": 1077,
    "▁here,": 1078,
    "▁lord.": 1079,
    "▁poli": 1080,
    "▁royal": 1081,
    "▁vill": 1082,
    "chess": 1083,
    "▁bar": 1084,
    "▁dra": 1085,
    "▁dep": 1086,
    "▁duchess": 1087,
    "▁less": 1088,
    "▁love,": 1089,
    "▁mont": 1090,
    "▁marcius": 1091,
    "▁none": 1092,
    "▁while": 1093,
    "-h": 1094,
    "ject": 1095,
    "▁adv": 1096,
    "▁earth": 1097,
    "▁gentleman": 1098,
    "▁send": 1099,
    "▁third": 1100,
    "▁val": 1101,
    "▁home": 1102,
    "▁inst": 1103,
    "▁mistress": 1104,
    "▁pers": 1105,
    "▁stri": 1106,
    "balt": 1107,
    "ia:": 1108,
    "o,": 1109,
    "▁thing": 1110,
    "uty": 1111,
    "▁lay": 1112,
    "▁montag": 1113,
    "▁rather": 1114,
    "▁swear": 1115,
    "▁virt": 1116,
    "ge,": 1117,
    "morrow": 1118,
    "▁fault": 1119,
    "▁hang": 1120,
    "▁people": 1121,
    "▁sleep": 1122,
    "▁sold": 1123,
    "▁three": 1124,
    "▁vo": 1125,
    "▁wear": 1126,
    "ken": 1127,
    "xen": 1128,
    "▁camillo:": 1129,
    "▁dr": 1130,
    "▁false": 1131,
    "▁sent": 1132,
    "▁shalt": 1133,
    "▁vi:": 1134,
    "▁wish": 1135,
    "ame,": 1136,
    "eech": 1137,
    "▁bes": 1138,
    "rant": 1139,
    "uto": 1140,
    "▁dar": 1141,
    "▁fight": 1142,
    "▁matter": 1143,
    "▁o'er": 1144,
    "▁sword": 1145,
    "▁tybalt": 1146,
    "▁we'll": 1147,
    "▁benvol": 1148,
    "▁beseech": 1149,
    "▁command": 1150,
    "▁edward:": 1151,
    "▁life,": 1152,
    "▁polixen": 1153,
    "▁remem": 1154,
    "air": 1155,
    "lyc": 1156,
    "utolyc": 1157,
    "vereign": 1158,
    "▁autolyc": 1159,
    "▁baptista:": 1160,
    "▁deli": 1161,
    "▁hortensio:": 1162,
    "▁pati": 1163,
    "▁son,": 1164,
    "▁sovereign": 1165,
    "ace,": 1166,
    "▁mark": 1167,
    "own:": 1168,
    "pherd": 1169,
    "uck": 1170,
    "▁ass": 1171,
    "▁belie": 1172,
    "▁cause": 1173,
    "▁clarence:": 1174,
    "▁cominius:": 1175,
    "▁doubt": 1176,
    "▁dream": 1177,
    "▁father's": 1178,
    "▁get": 1179,
    "▁reven": 1180,
    "▁shepherd": 1181,
    "ere,": 1182,
    "fect": 1183,
    "if": 1184,
    "its": 1185,
    "pect": 1186,
    "▁autolycus:": 1187,
    "▁enough": 1188,
    "▁holy": 1189,
    "▁int": 1190,
    "▁save": 1191,
    "▁supp": 1192,
    "al,": 1193,
    "ior": 1194,
    "oke": 1195,
    "▁bian": 1196,
    "▁bianc": 1197,
    "▁proud": 1198,
    "▁provost:": 1199,
    "▁sir.": 1200,
    "▁want": 1201,
    "ench": 1202,
    "ice,": 1203,
    "oot": 1204,
    "▁under": 1205,
    "▁bea": 1206,
    "▁break": 1207,
    "▁cond": 1208,
    "▁gone": 1209,
    "▁lord:": 1210,
    "▁nature": 1211,
    "▁op": 1212,
    "▁place": 1213,
    "▁prom": 1214,
    "▁saw": 1215,
    "▁to-morrow": 1216,
    "▁yield": 1217,
    "ces": 1218,
    "ke,": 1219,
    "selves": 1220,
    "umn": 1221,
    "▁ann": 1222,
    "▁appe": 1223,
    "▁benvolio:": 1224,
    "▁che": 1225,
    "▁clown:": 1226,
    "▁happy": 1227,
    "▁is,": 1228,
    "▁madam,": 1229,
    "▁reason": 1230,
    "▁shame": 1231,
    "▁tend": 1232,
    "▁use": 1233,
    "▁win": 1234,
    "▁wind": 1235,
    "▁without": 1236,
    "-d": 1237,
    "orse": 1238,
    "ount": 1239,
    "▁fur": 1240,
    "▁grumio:": 1241,
    "▁heav": 1242,
    "▁laur": 1243,
    "▁mess": 1244,
    "▁murderer:": 1245,
    "▁prospero:": 1246,
    "▁ri": 1247,
    "▁spir": 1248,
    "▁stran": 1249,
    "▁thee.": 1250,
    ",--": 1251,
    "▁woman": 1252,
    "dd": 1253,
    "fore,": 1254,
    "se,": 1255,
    "▁bur": 1256,
    "▁common": 1257,
    "▁foul": 1258,
    "▁gremio:": 1259,
    "▁lucentio:": 1260,
    "▁me:": 1261,
    "▁mercutio:": 1262,
    "▁prin": 1263,
    "▁sister": 1264,
    "ange": 1265,
    "ec": 1266,
    "ed:": 1267,
    "▁content": 1268,
    "ings:": 1269,
    "les": 1270,
    "ows": 1271,
    "▁play": 1272,
    "▁lam": 1273,
    "ps": 1274,
    "ins": 1275,
    "▁lords,": 1276,
    "▁servant:": 1277,
    "▁there's": 1278,
    "▁watch": 1279,
    "'d.": 1280,
    "▁stay": 1281,
    "ed;": 1282,
    "▁answer": 1283,
    "und": 1284,
    "ush": 1285,
    "▁den": 1286,
    "▁fi": 1287,
    "▁hate": 1288,
    "▁her,": 1289,
    "▁purp": 1290,
    "▁senat": 1291,
    "▁serving": 1292,
    "▁subject": 1293,
    "▁this,": 1294,
    "as,": 1295,
    "ion,": 1296,
    "ity,": 1297,
    "▁aff": 1298,
    "▁born": 1299,
    "▁cra": 1300,
    "▁country": 1301,
    "▁dang": 1302,
    "▁fortune": 1303,
    "▁man,": 1304,
    "▁paulina:": 1305,
    "▁polixenes:": 1306,
    "▁pompey:": 1307,
    "▁return": 1308,
    "▁sir;": 1309,
    "▁through": 1310,
    "▁traitor": 1311,
    "▁welcome": 1312,
    "▁yourself": 1313,
    "ener": 1314,
    "esh": 1315,
    "ili": 1316,
    "rel": 1317,
    "ue,": 1318,
    "umer": 1319,
    "le:": 1320,
    "▁ta": 1321,
    "ute": 1322,
    "▁aumer": 1323,
    "▁believe": 1324,
    "▁childr": 1325,
    "▁dru": 1326,
    "▁deser": 1327,
    "▁left": 1328,
    "▁lives": 1329,
    "▁oath": 1330,
    "▁requ": 1331,
    "▁so.": 1332,
    "▁stra": 1333,
    "▁tem": 1334,
    "▁volumn": 1335,
    "▁wid": 1336,
    "gether": 1337,
    "it,": 1338,
    "ust": 1339,
    "usic": 1340,
    "▁ant": 1341,
    "▁disc": 1342,
    "▁england": 1343,
    "▁fire": 1344,
    "▁free": 1345,
    "▁hastings:": 1346,
    "▁ne'er": 1347,
    "▁state": 1348,
    "▁volumnia:": 1349,
    "▁wound": 1350,
    "▁words": 1351,
    "ac": 1352,
    "y?": 1353,
    "ause": 1354,
    "arn": 1355,
    "by:": 1356,
    "fend": 1357,
    "▁near": 1358,
    "▁prison": 1359,
    "▁servingman:": 1360,
    "▁touch": 1361,
    "▁told": 1362,
    "form": 1363,
    "ged": 1364,
    "ised": 1365,
    "oman": 1366,
    "▁ye": 1367,
    "read": 1368,
    "▁ah,": 1369,
    "▁beat": 1370,
    "▁gro": 1371,
    "▁gaunt": 1372,
    "▁him;": 1373,
    "▁laurence:": 1374,
    "▁mon": 1375,
    "▁maj": 1376,
    "▁messeng": 1377,
    "▁not.": 1378,
    "▁oft": 1379,
    "▁sad": 1380,
    "▁unt": 1381,
    "aim": 1382,
    "ily": 1383,
    "mp": 1384,
    "▁bless": 1385,
    "▁bloody": 1386,
    "▁body": 1387,
    "▁care": 1388,
    "▁cold": 1389,
    "▁deep": 1390,
    "▁either": 1391,
    "▁flor": 1392,
    "▁foot": 1393,
    "▁gold": 1394,
    "▁ill": 1395,
    "▁music": 1396,
    "▁majest": 1397,
    "▁me?": 1398,
    "▁northumberland:": 1399,
    "▁sight": 1400,
    "▁suff": 1401,
    "▁thyself": 1402,
    "▁us,": 1403,
    "ers,": 1404,
    "iond": 1405,
    "iondell": 1406,
    "th.": 1407,
    "▁biondell": 1408,
    "▁because": 1409,
    "▁betw": 1410,
    "▁horse": 1411,
    "▁joh": 1412,
    "▁john": 1413,
    "▁meth": 1414,
    "▁report": 1415,
    "▁saint": 1416,
    "▁things": 1417,
    "▁together": 1418,
    "▁trust": 1419,
    "▁wond": 1420,
    "▁whil": 1421,
    "▁worthy": 1422,
    "▁you;": 1423,
    "ance,": 1424,
    "ime": 1425,
    "▁som": 1426,
    "retch": 1427,
    "▁business": 1428,
    "▁cates": 1429,
    "▁gener": 1430,
    "▁he,": 1431,
    "▁here's": 1432,
    "▁him:": 1433,
    "▁kiss": 1434,
    "▁mir": 1435,
    "▁marry,": 1436,
    "▁paris": 1437,
    "▁post": 1438,
    "▁rec": 1439,
    "▁sil": 1440,
    "▁tit": 1441,
    "▁therefore,": 1442,
    "▁toward": 1443,
    "▁warrant": 1444,
    "▁you?": 1445,
    "ash": 1446,
    "dom": 1447,
    "ertain": 1448,
    "fol": 1449,
    "ly:": 1450,
    "▁honest": 1451,
    "ves,": 1452,
    "▁all,": 1453,
    "▁anne:": 1454,
    "▁cry": 1455,
    "▁clarence": 1456,
    "▁hard": 1457,
    "▁offic": 1458,
    "▁run": 1459,
    "▁sure": 1460,
    "▁tender": 1461,
    "night": 1462,
    "on:": 1463,
    "▁bold": 1464,
    "▁compan": 1465,
    "▁herm": 1466,
    "▁learn": 1467,
    "▁norfol": 1468,
    "▁pluck": 1469,
    "▁soon": 1470,
    "el:": 1471,
    "ks": 1472,
    "s'": 1473,
    "▁behold": 1474,
    "▁canst": 1475,
    "▁death.": 1476,
    "▁edward's": 1477,
    "▁eye": 1478,
    "▁found": 1479,
    "▁floriz": 1480,
    "▁hands": 1481,
    "▁heir": 1482,
    "▁hermion": 1483,
    "▁on,": 1484,
    "▁past": 1485,
    "▁remember": 1486,
    "▁signior": 1487,
    "-f": 1488,
    "-p": 1489,
    "att": 1490,
    "ray": 1491,
    "vent": 1492,
    "ory": 1493,
    "▁air": 1494,
    "▁bon": 1495,
    "▁desp": 1496,
    "▁draw": 1497,
    "▁each": 1498,
    "▁fast": 1499,
    "▁flow": 1500,
    "▁gentlem": 1501,
    "▁god,": 1502,
    "▁inf": 1503,
    "▁lost": 1504,
    "▁point": 1505,
    "▁quick": 1506,
    "▁river": 1507,
    "▁see,": 1508,
    "▁villain": 1509,
    "▁wat": 1510,
    "-s": 1511,
    "▁sea": 1512,
    "-t": 1513,
    "-w": 1514,
    "enty": 1515,
    "io.": 1516,
    "rew": 1517,
    "▁ord": 1518,
    "▁'twas": 1519,
    "▁bad": 1520,
    "▁brought": 1521,
    "▁danger": 1522,
    "▁desire": 1523,
    "▁devil": 1524,
    "▁entreat": 1525,
    "▁fit": 1526,
    "▁gentleman:": 1527,
    "▁instru": 1528,
    "▁letter": 1529,
    "▁pity": 1530,
    "▁prof": 1531,
    "▁vis": 1532,
    "▁woo": 1533,
    "▁well.": 1534,
    "-m": 1535,
    "age,": 1536,
    "day": 1537,
    "mond": 1538,
    "up": 1539,
    "▁again.": 1540,
    "▁ang": 1541,
    "▁div": 1542,
    "▁deliver": 1543,
    "▁ext": 1544,
    "ore,": 1545,
    "▁more,": 1546,
    "▁four": 1547,
    "▁ground": 1548,
    "▁having": 1549,
    "▁lew": 1550,
    "▁montague": 1551,
    "▁red": 1552,
    "▁richmond": 1553,
    "▁richard:": 1554,
    "▁straight": 1555,
    "▁tak": 1556,
    "▁ten": 1557,
    "▁trib": 1558,
    "▁up,": 1559,
    "▁warwick,": 1560,
    "▁widow": 1561,
    "▁you:": 1562,
    "'t.": 1563,
    "cius:": 1564,
    "er;": 1565,
    "ies,": 1566,
    "ixt": 1567,
    "ing:": 1568,
    "▁meet": 1569,
    "no": 1570,
    "oy": 1571,
    "ured": 1572,
    "▁'s": 1573,
    "▁ask": 1574,
    "▁aufidius:": 1575,
    "▁cut": 1576,
    "▁didst": 1577,
    "▁florizel:": 1578,
    "▁form": 1579,
    "▁friends,": 1580,
    "▁grant": 1581,
    "▁heavy": 1582,
    "▁jud": 1583,
    "▁lead": 1584,
    "▁marcius:": 1585,
    "▁messenger:": 1586,
    "▁nob": 1587,
    "▁ra": 1588,
    "▁ru": 1589,
    "▁resol": 1590,
    "▁soldi": 1591,
    "▁strong": 1592,
    "▁tears": 1593,
    "▁twenty": 1594,
    "▁wife,": 1595,
    "alm": 1596,
    "ent.": 1597,
    "er's": 1598,
    "ern": 1599,
    "ith,": 1600,
    "le.": 1601,
    "od": 1602,
    "vour": 1603,
    "▁appear": 1604,
    "▁attend": 1605,
    "▁bound": 1606,
    "▁exec": 1607,
    "▁half": 1608,
    "▁hand,": 1609,
    "▁person": 1610,
    "▁quar": 1611,
    "▁star": 1612,
    "▁strange": 1613,
    "ains": 1614,
    "asure": 1615,
    "cept": 1616,
    "ift": 1617,
    "▁ac": 1618,
    "▁city": 1619,
    "▁cle": 1620,
    "▁children": 1621,
    "▁confess": 1622,
    "▁counsel": 1623,
    "▁dish": 1624,
    "▁dist": 1625,
    "▁god's": 1626,
    "▁inc": 1627,
    "▁iss": 1628,
    "▁itself": 1629,
    "▁ox": 1630,
    "▁poss": 1631,
    "▁senator:": 1632,
    ".'": 1633,
    "es!": 1634,
    "oth": 1635,
    "iven": 1636,
    "like": 1637,
    "or,": 1638,
    "wh": 1639,
    "oop": 1640,
    "at,": 1641,
    "▁be,": 1642,
    "▁feel": 1643,
    "▁flatter": 1644,
    "▁for,": 1645,
    "▁forb": 1646,
    "▁guil": 1647,
    "▁harm": 1648,
    "▁know,": 1649,
    "▁late": 1650,
    "▁lord;": 1651,
    "▁morn": 1652,
    "▁open": 1653,
    "▁plant": 1654,
    "▁prep": 1655,
    "▁seek": 1656,
    "▁shepherd:": 1657,
    "▁streng": 1658,
    "▁them.": 1659,
    "▁ven": 1660,
    "▁you'll": 1661,
    "alth": 1662,
    "ide,": 1663,
    "urch": 1664,
    "▁ve": 1665,
    "▁'twere": 1666,
    "▁biondello:": 1667,
    "▁blood,": 1668,
    "▁cast": 1669,
    "▁field": 1670,
    "▁fearful": 1671,
    "▁ge": 1672,
    "▁grow": 1673,
    "▁hell": 1674,
    "▁her.": 1675,
    "▁hop": 1676,
    "▁oxford": 1677,
    "▁pret": 1678,
    "▁purpose": 1679,
    "▁short": 1680,
    "▁she's": 1681,
    "▁soft": 1682,
    "▁spirit": 1683,
    "▁strike": 1684,
    "▁us.": 1685,
    "▁wretch": 1686,
    "▁years": 1687,
    "al.": 1688,
    "ceed": 1689,
    "fection": 1690,
    "he": 1691,
    "▁'g": 1692,
    "▁all.": 1693,
    "▁batt": 1694,
    "▁bit": 1695,
    "▁burn": 1696,
    "▁bos": 1697,
    "▁bosom": 1698,
    "▁dam": 1699,
    "▁done,": 1700,
    "▁do,": 1701,
    "▁faith,": 1702,
    "▁king.": 1703,
    "▁known": 1704,
    "▁knows": 1705,
    "▁lanc": 1706,
    "▁lewis": 1707,
    "▁lose": 1708,
    "▁looks": 1709,
    "▁mother,": 1710,
    "▁prith": 1711,
    "▁something": 1712,
    "▁stir": 1713,
    "▁ter": 1714,
    "▁there,": 1715,
    "▁this?": 1716,
    "!'": 1717,
    "▁deed": 1718,
    "bow": 1719,
    "bur": 1720,
    "edi": 1721,
    "iest": 1722,
    "ion.": 1723,
    "lish": 1724,
    "▁brave": 1725,
    "▁change": 1726,
    "▁dare": 1727,
    "▁env": 1728,
    "▁execut": 1729,
    "▁heaven,": 1730,
    "▁indeed,": 1731,
    "▁justice": 1732,
    "▁peace,": 1733,
    "▁queen,": 1734,
    "▁sat": 1735,
    "▁te": 1736,
    "▁unless": 1737,
    "▁voic": 1738,
    "▁vols": 1739,
    "▁which,": 1740,
    "▁woe": 1741,
    "ech": 1742,
    "oward": 1743,
    "ried": 1744,
    "▁abo": 1745,
    "▁aumerle:": 1746,
    "▁become": 1747,
    "▁boy": 1748,
    "▁cro": 1749,
    "▁charge": 1750,
    "▁hous": 1751,
    "▁is't": 1752,
    "▁knew": 1753,
    "▁loving": 1754,
    "▁mine,": 1755,
    "▁mock": 1756,
    "▁neither": 1757,
    "▁perd": 1758,
    "▁pra": 1759,
    "▁pray,": 1760,
    "▁roman": 1761,
    "▁sirra": 1762,
    "▁speak,": 1763,
    "▁speak.": 1764,
    "▁suit": 1765,
    "▁virtu": 1766,
    "▁wa": 1767,
    "▁wast": 1768,
    "n'd": 1769,
    "ness,": 1770,
    "▁act": 1771,
    "▁bel": 1772,
    "▁claudio:": 1773,
    "▁come.": 1774,
    "▁elbow": 1775,
    "▁fet": 1776,
    "▁first,": 1777,
    "▁lancast": 1778,
    "▁lucent": 1779,
    "▁met": 1780,
    "▁march": 1781,
    "▁methink": 1782,
    "▁next": 1783,
    "▁pleasure": 1784,
    "▁revenge": 1785,
    "▁sk": 1786,
    "ey": 1787,
    "▁service": 1788,
    "▁tribun": 1789,
    "▁virg": 1790,
    "ack,": 1791,
    "ade": 1792,
    "cess": 1793,
    "ceived": 1794,
    "ib": 1795,
    "ous,": 1796,
    "▁abs": 1797,
    "▁brother's": 1798,
    "▁cloud": 1799,
    "▁clifford:": 1800,
    "▁dire": 1801,
    "▁exp": 1802,
    "▁further": 1803,
    "▁heart,": 1804,
    "▁honour,": 1805,
    "▁king's": 1806,
    "▁mow": 1807,
    "▁mirand": 1808,
    "▁ph": 1809,
    "▁priv": 1810,
    "▁procl": 1811,
    "▁stands": 1812,
    "▁tow": 1813,
    "▁wed": 1814,
    "-c": 1815,
    "iel": 1816,
    "ings,": 1817,
    "ity.": 1818,
    "ize": 1819,
    "mm": 1820,
    "▁age": 1821,
    "▁beauty": 1822,
    "▁between": 1823,
    "▁caus": 1824,
    "▁chee": 1825,
    "▁consul": 1826,
    "▁curt": 1827,
    "▁faith": 1828,
    "▁gave": 1829,
    "▁given": 1830,
    "▁geor": 1831,
    "▁general": 1832,
    "▁grie": 1833,
    "▁hermione:": 1834,
    "▁inter": 1835,
    "▁love.": 1836,
    "▁mort": 1837,
    "▁marry": 1838,
    "▁name,": 1839,
    "▁pie": 1840,
    "▁rat": 1841,
    "▁reg": 1842,
    "▁sick": 1843,
    "▁sur": 1844,
    "▁scar": 1845,
    "▁self": 1846,
    "▁time,": 1847,
    "▁times": 1848,
    "▁wis": 1849,
    "▁weak": 1850,
    "▁yes,": 1851,
    "▁yea,": 1852,
    "'d;": 1853,
    "'t,": 1854,
    "a.": 1855,
    "amp": 1856,
    "ant,": 1857,
    "ary": 1858,
    "ets": 1859,
    "isf": 1860,
    "ius,": 1861,
    "most": 1862,
    "over": 1863,
    "oof": 1864,
    "ourn": 1865,
    "rem": 1866,
    "▁along": 1867,
    "▁alread": 1868,
    "▁bro": 1869,
    "▁curs": 1870,
    "▁day,": 1871,
    "▁det": 1872,
    "▁emb": 1873,
    "▁farewell,": 1874,
    "▁hence,": 1875,
    "▁it?": 1876,
    "▁kate": 1877,
    "▁miranda:": 1878,
    "▁ped": 1879,
    "▁queen:": 1880,
    "▁sir?": 1881,
    "▁slain": 1882,
    "▁speech": 1883,
    "▁sworn": 1884,
    "▁throw": 1885,
    "▁too,": 1886,
    "▁uncle": 1887,
    "▁ver": 1888,
    "▁whe": 1889,
    "▁world,": 1890,
    "anle": 1891,
    "awd": 1892,
    "er?": 1893,
    "es?": 1894,
    "gn": 1895,
    "gr": 1896,
    "hood": 1897,
    "ial": 1898,
    "osed": 1899,
    "outh": 1900,
    "ub": 1901,
    "▁all:": 1902,
    "▁book": 1903,
    "▁bow": 1904,
    "▁brief": 1905,
    "▁breast": 1906,
    "▁catesby:": 1907,
    "▁cousin,": 1908,
    "▁enc": 1909,
    "▁feast": 1910,
    "▁fetch": 1911,
    "▁france": 1912,
    "▁gar": 1913,
    "▁gone,": 1914,
    "▁good,": 1915,
    "▁here?": 1916,
    "▁hereford": 1917,
    "▁it:": 1918,
    "▁it;": 1919,
    "▁knock": 1920,
    "▁liber": 1921,
    "▁live,": 1922,
    "▁loved": 1923,
    "▁marian": 1924,
    "▁married": 1925,
    "▁more.": 1926,
    "▁mowb": 1927,
    "▁nurs": 1928,
    "▁pay": 1929,
    "▁perdit": 1930,
    "▁quarrel": 1931,
    "▁satisf": 1932,
    "▁speed": 1933,
    "▁stanle": 1934,
    "▁strength": 1935,
    "▁succ": 1936,
    "▁thom": 1937,
    "▁tongu": 1938,
    "▁wall": 1939,
    "▁welcome,": 1940,
    "▁whilst": 1941,
    "▁worship": 1942,
    "ate.": 1943,
    "est.": 1944,
    "ible": 1945,
    "iet": 1946,
    "ouble": 1947,
    "ting": 1948,
    "vers": 1949,
    "we": 1950,
    "▁chr": 1951,
    "▁dro": 1952,
    "▁dog": 1953,
    "▁em": 1954,
    "▁eyes,": 1955,
    "▁favour": 1956,
    "▁forget": 1957,
    "▁grey:": 1958,
    "▁hot": 1959,
    "▁hadst": 1960,
    "▁mal": 1961,
    "▁mann": 1962,
    "▁night,": 1963,
    "▁pen": 1964,
    "▁pale": 1965,
    "▁prince,": 1966,
    "▁rome,": 1967,
    "▁respect": 1968,
    "▁sigh": 1969,
    "▁sing": 1970,
    "▁so?": 1971,
    "▁tro": 1972,
    "▁true,": 1973,
    "▁vict": 1974,
    "▁worse": 1975,
    "ers.": 1976,
    "ives": 1977,
    "ix": 1978,
    "ine,": 1979,
    "ms": 1980,
    "oose": 1981,
    "▁est": 1982,
    "▁away.": 1983,
    "▁ble": 1984,
    "▁bianca:": 1985,
    "▁bitter": 1986,
    "▁curse": 1987,
    "▁compl": 1988,
    "▁dest": 1989,
    "▁dangerous": 1990,
    "▁dead,": 1991,
    "▁drink": 1992,
    "▁dread": 1993,
    "▁earl": 1994,
    "▁edward,": 1995,
    "▁gaunt:": 1996,
    "▁got": 1997,
    "▁highness": 1998,
    "▁ins": 1999,
    "▁liege,": 2000,
    "▁lord?": 2001,
    "▁men,": 2002,
    "▁move": 2003,
    "▁opp": 2004,
    "▁prithe": 2005,
    "▁reb": 2006,
    "el,": 2007,
    "▁same": 2008,
    "▁somet": 2009,
    "▁thomas": 2010,
    "▁to-night": 2011,
    "▁viol": 2012,
    "▁wise": 2013,
    "az": 2014,
    "ank": 2015,
    "empt": 2016,
    "ian:": 2017,
    "light": 2018,
    "umb": 2019,
    "▁action": 2020,
    "▁add": 2021,
    "▁anci": 2022,
    "▁beggar": 2023,
    "▁cal": 2024,
    "▁def": 2025,
    "▁dishon": 2026,
    "▁ev": 2027,
    "▁earth,": 2028,
    "▁fill": 2029,
    "▁frown": 2030,
    "▁friend,": 2031,
    "▁gall": 2032,
    "▁lim": 2033,
    "▁lond": 2034,
    "▁look,": 2035,
    "▁often": 2036,
    "▁prot": 2037,
    "▁scorn": 2038
  },
  "base_chars": [
    "!",
    "$",
    "&",
    "'",
    ",",
    "-",
    ".",
    "0",
    ":",
    ";",
    "?",
    "a",
    "b",
    "c",
    "d",
    "e",
    "f",
    "g",
    "h",
    "i",
    "j",
    "k",
    "l",
    "m",
    "n",
    "o",
    "p",
    "q",
    "r",
    "s",
    "t",
    "u",
    "v",
    "w",
    "x",
    "y",
    "z",
    "▁"
  ],
  "train_time_seconds": 3.06115460395813
}