{
  "num_merges": 2000,
  "end_of_word": "</w>",
  "marker_mode": "suffix",
  "strategy": "split",
  "merges": [
    [
      "e",
      "</w>"
    ],
    [
      "t",
      "h"
    ],
    [
      "s",
      "</w>"
    ],
    [
      "t",
      "</w>"
    ],
    [
      "d",
      "</w>"
    ],
    [
      ",",
      "</w>"
    ],
    [
      "r",
      "</w>"
    ],
    [
      "y",
      "</w>"
    ],
    [
      "n",
      "</w>"
    ],
    [
      "o",
      "u"
    ],
    [
      "o",
      "</w>"
    ],
    [
      "a",
      "n"
    ],
    [
      ":",
      "</w>"
    ],
    [
      "i",
      "n"
    ],
    [
      ".",
      "</w>"
    ],
    [
      "l",
      "</w>"
    ],
    [
      "a",
      "r"
    ],
    [
      "an",
      "d</w>"
    ],
    [
      "th",
      "e</w>"
    ],
    [
      "e",
      "r"
    ],
    [
      "'",
      "</w>"
    ],
    [
      "e",
      "r</w>"
    ],
    [
      "o",
      "r"
    ],
    [
      "h",
      "a"
    ],
    [
      "e",
      "n"
    ],
    [
      "i",
      "s</w>"
    ],
    [
      "f",
      "</w>"
    ],
    [
      "i",
      "</w>"
    ],
    [
      "l",
      "l</w>"
    ],
    [
      "y",
      "ou"
    ],
    [
      "t",
      "o</w>"
    ],
    [
      "e",
      "a"
    ],
    [
      "in",
      "g"
    ],
    [
      "n",
      "o"
    ],
    [
      "w",
      "i"
    ],
    [
      "th",
      "</w>"
    ],
    [
      "e",
      "s"
    ],
    [
      "o",
      "n"
    ],
    [
      "a",
      "</w>"
    ],
    [
      "o",
      "m"
    ],
    [
      "o",
      "f</w>"
    ],
    [
      ";",
      "</w>"
    ],
    [
      "c",
      "h"
    ],
    [
      "ing",
      "</w>"
    ],
    [
      "i",
      "n</w>"
    ],
    [
      "v",
      "e</w>"
    ],
    [
      "a",
      "t</w>"
    ],
    [
      "you",
      "</w>"
    ],
    [
      "m",
      "y</w>"
    ],
    [
      "s",
      "t"
    ],
    [
      "e",
      "n</w>"
    ],
    [
      "e",
      "d</w>"
    ],
    [
      "e",
      "s</w>"
    ],
    [
      "o",
      "r</w>"
    ],
    [
      "m",
      "</w>"
    ],
    [
      "l",
      "i"
    ],
    [
      "w",
      "</w>"
    ],
    [
      "m",
      "a"
    ],
    [
      "w",
      "h"
    ],
    [
      "o",
      "n</w>"
    ],
    [
      "k",
      "</w>"
    ],
    [
      "s",
      "t</w>"
    ],
    [
      "th",
      "at</w>"
    ],
    [
      "m",
      "e</w>"
    ],
    [
      "t",
      "i"
    ],
    [
      "r",
      "i"
    ],
    [
      "?",
      "</w>"
    ],
    [
      "c",
      "e</w>"
    ],
    [
      "th",
      "e"
    ],
    [
      "r",
      "o"
    ],
    [
      "s",
      "h"
    ],
    [
      "e",
      "l"
    ],
    [
      "no",
      "t</w>"
    ],
    [
      "!",
      "</w>"
    ],
    [
      "i",
      "t</w>"
    ],
    [
      "l",
      "o"
    ],
    [
      "b",
      "u"
    ],
    [
      "e",
      "t</w>"
    ],
    [
      "a",
      "s</w>"
    ],
    [
      "k",
      "e</w>"
    ],
    [
      "a",
      "y</w>"
    ],
    [
      "r",
      "e"
    ],
    [
      "g",
      "h"
    ],
    [
      "s",
      "e</w>"
    ],
    [
      "er",
      "e</w>"
    ],
    [
      "f",
      "or</w>"
    ],
    [
      "th",
      "ou"
    ],
    [
      "-",
      "</w>"
    ],
    [
      "o",
      "l"
    ],
    [
      "wi",
      "th</w>"
    ],
    [
      "s",
      "i"
    ],
    [
      "l",
      "a"
    ],
    [
      "u",
      "s</w>"
    ],
    [
      "ch",
      "</w>"
    ],
    [
      "b",
      "e</w>"
    ],
    [
      "d",
      "i"
    ],
    [
      "you",
      "r</w>"
    ],
    [
      "r",
      "a"
    ],
    [
      "l",
      "e</w>"
    ],
    [
      "h",
      "i"
    ],
    [
      "c",
      "a"
    ],
    [
      "u",
      "r"
    ],
    [
      "b",
      "e"
    ],
    [
      "h",
      "is</w>"
    ],
    [
      "c",
      "om"
    ],
    [
      "bu",
      "t</w>"
    ],
    [
      "th",
      "is</w>"
    ],
    [
      "ha",
      "ve</w>"
    ],
    [
      "th",
      "er</w>"
    ],
    [
      "f",
      "a"
    ],
    [
      "thou",
      "</w>"
    ],
    [
      "u",
      "n"
    ],
    [
      "f",
      "or"
    ],
    [
      "l",
      "d</w>"
    ],
    [
      "g",
      "o"
    ],
    [
      "ou",
      "r</w>"
    ],
    [
      "w",
      "ha"
    ],
    [
      "wha",
      "t</w>"
    ],
    [
      "hi",
      "m</w>"
    ],
    [
      "r",
      "u"
    ],
    [
      "d",
      "s</w>"
    ],
    [
      "s",
      "o</w>"
    ],
    [
      "p",
      "</w>"
    ],
    [
      "m",
      "i"
    ],
    [
      "s",
      "ha"
    ],
    [
      "t",
      "a"
    ],
    [
      "l",
      "y</w>"
    ],
    [
      "th",
      "y</w>"
    ],
    [
      "ar",
      "d</w>"
    ],
    [
      "s",
      "e"
    ],
    [
      "w",
      "e"
    ],
    [
      "r",
      "om"
    ],
    [
      "s",
      "p"
    ],
    [
      "a",
      "n</w>"
    ],
    [
      "t",
      "er</w>"
    ],
    [
      "no",
      "w</w>"
    ],
    [
      "f",
      "i"
    ],
    [
      "k",
      "ing</w>"
    ],
    [
      "wi",
      "ll</w>"
    ],
    [
      "es",
      "s</w>"
    ],
    [
      "s",
      "u"
    ],
    [
      "b",
      "y</w>"
    ],
    [
      "ou",
      "ld</w>"
    ],
    [
      "r",
      "ea"
    ],
    [
      "s",
      "a"
    ],
    [
      "ar",
      "e</w>"
    ],
    [
      "gh",
      "t</w>"
    ],
    [
      "l",
      "e"
    ],
    [
      "o",
      "d</w>"
    ],
    [
      "l",
      "or"
    ],
    [
      "w",
      "e</w>"
    ],
    [
      "on",
      "e</w>"
    ],
    [
      "c",
      "i"
    ],
    [
      "c",
      "on"
    ],
    [
      "n",
      "o</w>"
    ],
    [
      "es",
      "t</w>"
    ],
    [
      "e",
      "ar"
    ],
    [
      "t",
      "y</w>"
    ],
    [
      "a",
      "t"
    ],
    [
      "sha",
      "ll</w>"
    ],
    [
      "c",
      "k</w>"
    ],
    [
      "i",
      "r</w>"
    ],
    [
      "q",
      "u"
    ],
    [
      "a",
      "ll</w>"
    ],
    [
      "h",
      "er</w>"
    ],
    [
      "wh",
      "i"
    ],
    [
      "n",
      "e"
    ],
    [
      "d",
      "e"
    ],
    [
      "t",
      "s</w>"
    ],
    [
      "o",
      "w"
    ],
    [
      "w",
      "or"
    ],
    [
      "en",
      "t</w>"
    ],
    [
      "m",
      "or"
    ],
    [
      "d",
      "o</w>"
    ],
    [
      "i",
      "f</w>"
    ],
    [
      "the",
      "e</w>"
    ],
    [
      "o",
      "w</w>"
    ],
    [
      "d",
      "u"
    ],
    [
      "r",
      "y</w>"
    ],
    [
      "com",
      "e</w>"
    ],
    [
      "v",
      "i"
    ],
    [
      "m",
      "u"
    ],
    [
      "h",
      "ea"
    ],
    [
      "g",
      "e</w>"
    ],
    [
      "p",
      "r"
    ],
    [
      "a",
      "l"
    ],
    [
      "m",
      "o"
    ],
    [
      "lor",
      "d</w>"
    ],
    [
      "en",
      "ce</w>"
    ],
    [
      "p",
      "o"
    ],
    [
      "p",
      "a"
    ],
    [
      "v",
      "er"
    ],
    [
      "go",
      "od</w>"
    ],
    [
      "ma",
      "n</w>"
    ],
    [
      "ou",
      "n"
    ],
    [
      "b",
      "o"
    ],
    [
      "l",
      "et</w>"
    ],
    [
      "p",
      "e"
    ],
    [
      "m",
      "ar"
    ],
    [
      "s",
      "el"
    ],
    [
      "we",
      "ll</w>"
    ],
    [
      "d",
      "ea"
    ],
    [
      "g",
      "a"
    ],
    [
      "f",
      "rom"
    ],
    [
      "from",
      "</w>"
    ],
    [
      "p",
      "ro"
    ],
    [
      "a",
      "m</w>"
    ],
    [
      "th",
      "en</w>"
    ],
    [
      "si",
      "r</w>"
    ],
    [
      "whi",
      "ch</w>"
    ],
    [
      "mor",
      "e</w>"
    ],
    [
      "t",
      "ru"
    ],
    [
      "g",
      "</w>"
    ],
    [
      "w",
      "as</w>"
    ],
    [
      "in",
      "e</w>"
    ],
    [
      "d",
      "y</w>"
    ],
    [
      "en",
      "t"
    ],
    [
      "h",
      "ere</w>"
    ],
    [
      "d",
      "e</w>"
    ],
    [
      "er",
      "s</w>"
    ],
    [
      "b",
      "ro"
    ],
    [
      "sh",
      "e</w>"
    ],
    [
      "r",
      "an"
    ],
    [
      "v",
      "er</w>"
    ],
    [
      "the",
      "y</w>"
    ],
    [
      "g",
      "i"
    ],
    [
      "t",
      "e"
    ],
    [
      "w",
      "ould</w>"
    ],
    [
      "l",
      "ea"
    ],
    [
      "ou",
      "s</w>"
    ],
    [
      "h",
      "ow</w>"
    ],
    [
      "p",
      "ar"
    ],
    [
      "b",
      "i"
    ],
    [
      "b",
      "le</w>"
    ],
    [
      "d",
      "o"
    ],
    [
      "t",
      "o"
    ],
    [
      "ol",
      "d</w>"
    ],
    [
      "s",
      "on</w>"
    ],
    [
      "f",
      "u"
    ],
    [
      "s",
      "om"
    ],
    [
      "sel",
      "f</w>"
    ],
    [
      "b",
      "a"
    ],
    [
      "e",
      "d"
    ],
    [
      "th",
      "an</w>"
    ],
    [
      "ti",
      "on</w>"
    ],
    [
      "the",
      "ir</w>"
    ],
    [
      "du",
      "ke</w>"
    ],
    [
      "the",
      "m</w>"
    ],
    [
      "s",
      "ay</w>"
    ],
    [
      "fi",
      "r"
    ],
    [
      "u",
      "p"
    ],
    [
      "gh",
      "</w>"
    ],
    [
      "ha",
      "th</w>"
    ],
    [
      "t",
      "e</w>"
    ],
    [
      "w",
      "ere</w>"
    ],
    [
      "g",
      "u"
    ],
    [
      "ri",
      "ch"
    ],
    [
      "w",
      "ard</w>"
    ],
    [
      "g",
      "o</w>"
    ],
    [
      "li",
      "ke</w>"
    ],
    [
      "f",
      "e</w>"
    ],
    [
      "n",
      "i"
    ],
    [
      "lo",
      "ve</w>"
    ],
    [
      "th",
      "ere</w>"
    ],
    [
      "sh",
      "</w>"
    ],
    [
      "wh",
      "en</w>"
    ],
    [
      "l",
      "u"
    ],
    [
      "m",
      "e"
    ],
    [
      "en",
      "d</w>"
    ],
    [
      "ti",
      "o</w>"
    ],
    [
      "ch",
      "i"
    ],
    [
      "w",
      "a"
    ],
    [
      "o",
      "f"
    ],
    [
      "w",
      "ar"
    ],
    [
      "ma",
      "y</w>"
    ],
    [
      "o",
      "p"
    ],
    [
      "ou",
      "t</w>"
    ],
    [
      "up",
      "on</w>"
    ],
    [
      "for",
      "e</w>"
    ],
    [
      "ma",
      "ke</w>"
    ],
    [
      "f",
      "ri"
    ],
    [
      "g",
      "ra"
    ],
    [
      "er",
      "e"
    ],
    [
      "rich",
      "ard</w>"
    ],
    [
      "qu",
      "e"
    ],
    [
      "ur",
      "e</w>"
    ],
    [
      "p",
      "er"
    ],
    [
      "c",
      "k"
    ],
    [
      "y",
      "et</w>"
    ],
    [
      "c",
      "en"
    ],
    [
      "an",
      "y</w>"
    ],
    [
      "w",
      "n</w>"
    ],
    [
      "k",
      "now</w>"
    ],
    [
      "que",
      "en</w>"
    ],
    [
      "lo",
      "o"
    ],
    [
      "ou",
      "r"
    ],
    [
      "u",
      "m"
    ],
    [
      "v",
      "es</w>"
    ],
    [
      "v",
      "en</w>"
    ],
    [
      "a",
      "l</w>"
    ],
    [
      "c",
      "or"
    ],
    [
      "t",
      "ed</w>"
    ],
    [
      "mu",
      "st</w>"
    ],
    [
      "t",
      "is</w>"
    ],
    [
      "d",
      "er</w>"
    ],
    [
      "ow",
      "n</w>"
    ],
    [
      "e",
      "e"
    ],
    [
      "sh",
      "ould</w>"
    ],
    [
      "fir",
      "st</w>"
    ],
    [
      "j",
      "u"
    ],
    [
      "wh",
      "y</w>"
    ],
    [
      "w",
      "ay</w>"
    ],
    [
      "l",
      "ou"
    ],
    [
      "wh",
      "ere</w>"
    ],
    [
      "h",
      "ear"
    ],
    [
      "c",
      "u"
    ],
    [
      "p",
      "u"
    ],
    [
      "ha",
      "d</w>"
    ],
    [
      "p",
      "i"
    ],
    [
      "fa",
      "ther</w>"
    ],
    [
      "a",
      "ga"
    ],
    [
      "ed",
      "ward</w>"
    ],
    [
      "di",
      "d</w>"
    ],
    [
      "an",
      "t</w>"
    ],
    [
      "d",
      "a"
    ],
    [
      "n",
      "a"
    ],
    [
      "in",
      "d</w>"
    ],
    [
      "cen",
      "tio</w>"
    ],
    [
      "sp",
      "ea"
    ],
    [
      "s",
      "er"
    ],
    [
      "t",
      "t"
    ],
    [
      "se",
      "e</w>"
    ],
    [
      "som",
      "e</w>"
    ],
    [
      "i",
      "r"
    ],
    [
      "c",
      "es"
    ],
    [
      "dea",
      "th</w>"
    ],
    [
      "b",
      "ea"
    ],
    [
      "gi",
      "ve</w>"
    ],
    [
      "ta",
      "ke</w>"
    ],
    [
      "f",
      "e"
    ],
    [
      "l",
      "l"
    ],
    [
      "g",
      "ent"
    ],
    [
      "fu",
      "l</w>"
    ],
    [
      "th",
      "in"
    ],
    [
      "m",
      "en</w>"
    ],
    [
      "an",
      "g"
    ],
    [
      "e",
      "x"
    ],
    [
      "ing",
      "s</w>"
    ],
    [
      "to",
      "o</w>"
    ],
    [
      "th",
      "ing</w>"
    ],
    [
      "w",
      "s</w>"
    ],
    [
      "wh",
      "o</w>"
    ],
    [
      "en",
      "ry</w>"
    ],
    [
      "h",
      "enry</w>"
    ],
    [
      "s",
      "ed</w>"
    ],
    [
      "m",
      "ine</w>"
    ],
    [
      "spea",
      "k</w>"
    ],
    [
      "t",
      "ter</w>"
    ],
    [
      "v",
      "o"
    ],
    [
      "y",
      "or"
    ],
    [
      "es",
      "e</w>"
    ],
    [
      "st",
      "er</w>"
    ],
    [
      "ti",
      "me</w>"
    ],
    [
      "yor",
      "k</w>"
    ],
    [
      "d",
      "es"
    ],
    [
      "at",
      "e</w>"
    ],
    [
      "e",
      "o</w>"
    ],
    [
      "rom",
      "eo</w>"
    ],
    [
      "th",
      "ese</w>"
    ],
    [
      "s",
      "s</w>"
    ],
    [
      "st",
      "i"
    ],
    [
      "h",
      "on"
    ],
    [
      "on",
      "g</w>"
    ],
    [
      "h",
      "e"
    ],
    [
      "ver",
      "y</w>"
    ],
    [
      "k",
      "s</w>"
    ],
    [
      "m",
      "en"
    ],
    [
      "i",
      "us</w>"
    ],
    [
      "go",
      "d</w>"
    ],
    [
      "su",
      "ch</w>"
    ],
    [
      "in",
      "ce</w>"
    ],
    [
      "mo",
      "st</w>"
    ],
    [
      "c",
      "an"
    ],
    [
      "a",
      "c"
    ],
    [
      "om",
      "</w>"
    ],
    [
      "ca",
      "n</w>"
    ],
    [
      "p",
      "ri"
    ],
    [
      "c",
      "e"
    ],
    [
      "ces",
      "ter</w>"
    ],
    [
      "b",
      "lo"
    ],
    [
      "d",
      "ay</w>"
    ],
    [
      "g",
      "lou"
    ],
    [
      "o",
      "o"
    ],
    [
      "v",
      "ed</w>"
    ],
    [
      "glou",
      "cester</w>"
    ],
    [
      "te",
      "ll</w>"
    ],
    [
      "g",
      "re"
    ],
    [
      "el",
      "l"
    ],
    [
      "j",
      "o"
    ],
    [
      "m",
      "on"
    ],
    [
      "t",
      "en"
    ],
    [
      "la",
      "dy</w>"
    ],
    [
      "l",
      "t</w>"
    ],
    [
      "v",
      "in"
    ],
    [
      "e",
      "y"
    ],
    [
      "p",
      "p"
    ],
    [
      "ea",
      "r</w>"
    ],
    [
      "c",
      "oun"
    ],
    [
      "n",
      "ess</w>"
    ],
    [
      "n",
      "e</w>"
    ],
    [
      "oun",
      "d</w>"
    ],
    [
      "thin",
      "k</w>"
    ],
    [
      "en",
      "g"
    ],
    [
      "hear",
      "t</w>"
    ],
    [
      "bro",
      "ther</w>"
    ],
    [
      "l",
      "and</w>"
    ],
    [
      "no",
      "r</w>"
    ],
    [
      "i",
      "i</w>"
    ],
    [
      "li",
      "fe</w>"
    ],
    [
      "wi",
      "ck</w>"
    ],
    [
      "m",
      "er"
    ],
    [
      "r",
      "es"
    ],
    [
      "hea",
      "r</w>"
    ],
    [
      "i",
      "d</w>"
    ],
    [
      "vin",
      "centio</w>"
    ],
    [
      "d",
      "er"
    ],
    [
      "ma",
      "de</w>"
    ],
    [
      "war",
      "wick</w>"
    ],
    [
      "m",
      "b"
    ],
    [
      "a",
      "f"
    ],
    [
      "an",
      "ce</w>"
    ],
    [
      "m",
      "p"
    ],
    [
      "u",
      "se</w>"
    ],
    [
      "ear",
      "s</w>"
    ],
    [
      "a",
      "u"
    ],
    [
      "th",
      "ere"
    ],
    [
      "y",
      "self</w>"
    ],
    [
      "b",
      "r"
    ],
    [
      "loo",
      "k</w>"
    ],
    [
      "l",
      "ess</w>"
    ],
    [
      "mu",
      "ch</w>"
    ],
    [
      "gu",
      "e</w>"
    ],
    [
      "p",
      "la"
    ],
    [
      "lo",
      "w</w>"
    ],
    [
      "h",
      "or"
    ],
    [
      "s",
      "we"
    ],
    [
      "ar",
      "t</w>"
    ],
    [
      "t",
      "u"
    ],
    [
      "m",
      "ent</w>"
    ],
    [
      "b",
      "rea"
    ],
    [
      "g",
      "rea"
    ],
    [
      "l",
      "ar"
    ],
    [
      "ne",
      "ver</w>"
    ],
    [
      "s",
      "w"
    ],
    [
      "c",
      "t</w>"
    ],
    [
      "a",
      "b"
    ],
    [
      "st",
      "r"
    ],
    [
      "d",
      "one</w>"
    ],
    [
      "h",
      "er"
    ],
    [
      "y",
      "s</w>"
    ],
    [
      "c",
      "ro"
    ],
    [
      "di",
      "s"
    ],
    [
      "in",
      "ius</w>"
    ],
    [
      "m",
      "s</w>"
    ],
    [
      "ra",
      "i"
    ],
    [
      "p",
      "re"
    ],
    [
      "ni",
      "ght</w>"
    ],
    [
      "cor",
      "i"
    ],
    [
      "cori",
      "ol"
    ],
    [
      "tru",
      "e</w>"
    ],
    [
      "do",
      "th</w>"
    ],
    [
      "an",
      "ds</w>"
    ],
    [
      "t",
      "es</w>"
    ],
    [
      "t",
      "w"
    ],
    [
      "be",
      "fore</w>"
    ],
    [
      "el",
      "y</w>"
    ],
    [
      "on",
      "s</w>"
    ],
    [
      "pe",
      "tru"
    ],
    [
      "t",
      "er"
    ],
    [
      "blo",
      "od</w>"
    ],
    [
      "bo",
      "th</w>"
    ],
    [
      "c",
      "es</w>"
    ],
    [
      "can",
      "not</w>"
    ],
    [
      "chi",
      "o</w>"
    ],
    [
      "g",
      "ar"
    ],
    [
      "petru",
      "chio</w>"
    ],
    [
      "th",
      "us</w>"
    ],
    [
      "d",
      "ed</w>"
    ],
    [
      "ur",
      "se</w>"
    ],
    [
      "p",
      "lea"
    ],
    [
      "gent",
      "le"
    ],
    [
      "a",
      "way</w>"
    ],
    [
      "in",
      "a</w>"
    ],
    [
      "na",
      "me</w>"
    ],
    [
      "be",
      "ing</w>"
    ],
    [
      "ca",
      "ll</w>"
    ],
    [
      "f",
      "ol"
    ],
    [
      "a",
      "d"
    ],
    [
      "d",
      "r"
    ],
    [
      "fa",
      "ir</w>"
    ],
    [
      "no",
      "ble</w>"
    ],
    [
      "an",
      "us</w>"
    ],
    [
      "coriol",
      "anus</w>"
    ],
    [
      "ou",
      "l</w>"
    ],
    [
      "be",
      "en</w>"
    ],
    [
      "h",
      "</w>"
    ],
    [
      "wor",
      "d</w>"
    ],
    [
      "h",
      "and</w>"
    ],
    [
      "in",
      "st</w>"
    ],
    [
      "k",
      "i"
    ],
    [
      "ju",
      "li"
    ],
    [
      "aga",
      "in</w>"
    ],
    [
      "en",
      "ius</w>"
    ],
    [
      "men",
      "enius</w>"
    ],
    [
      "u",
      "gh"
    ],
    [
      "pr",
      "ay</w>"
    ],
    [
      "hon",
      "our</w>"
    ],
    [
      "i",
      "g"
    ],
    [
      "pr",
      "es"
    ],
    [
      "s",
      "o"
    ],
    [
      "a",
      "r</w>"
    ],
    [
      "thou",
      "gh</w>"
    ],
    [
      "for",
      "d</w>"
    ],
    [
      "t",
      "ur"
    ],
    [
      "juli",
      "et</w>"
    ],
    [
      "n",
      "or"
    ],
    [
      "se",
      "e"
    ],
    [
      "e",
      "p"
    ],
    [
      "se",
      "con"
    ],
    [
      "swe",
      "et</w>"
    ],
    [
      "en",
      "ds</w>"
    ],
    [
      "ha",
      "st"
    ],
    [
      "b",
      "l"
    ],
    [
      "s",
      "et</w>"
    ],
    [
      "c",
      "o"
    ],
    [
      "k",
      "no"
    ],
    [
      "v",
      "ing</w>"
    ],
    [
      "mi",
      "o</w>"
    ],
    [
      "secon",
      "d</w>"
    ],
    [
      "bro",
      "ke</w>"
    ],
    [
      "m",
      "yself</w>"
    ],
    [
      "d",
      "ly</w>"
    ],
    [
      "grea",
      "t</w>"
    ],
    [
      "lea",
      "ve</w>"
    ],
    [
      "t",
      "ing</w>"
    ],
    [
      "com",
      "es</w>"
    ],
    [
      "f",
      "ear</w>"
    ],
    [
      "ang",
      "el"
    ],
    [
      "h",
      "ou"
    ],
    [
      "w",
      "om"
    ],
    [
      "there",
      "fore</w>"
    ],
    [
      "b",
      "ol"
    ],
    [
      "c",
      "la"
    ],
    [
      "li",
      "ve</w>"
    ],
    [
      "pr",
      "ince</w>"
    ],
    [
      "st",
      "and</w>"
    ],
    [
      "aga",
      "inst</w>"
    ],
    [
      "s",
      "ure</w>"
    ],
    [
      "v",
      "en"
    ],
    [
      "c",
      "ar"
    ],
    [
      "h",
      "ar"
    ],
    [
      "ro",
      "w</w>"
    ],
    [
      "l",
      "ay</w>"
    ],
    [
      "bea",
      "r</w>"
    ],
    [
      "h",
      "el"
    ],
    [
      "i",
      "sa"
    ],
    [
      "po",
      "or</w>"
    ],
    [
      "c",
      "lo"
    ],
    [
      "t",
      "or"
    ],
    [
      "angel",
      "o</w>"
    ],
    [
      "d",
      "own</w>"
    ],
    [
      "e",
      "ver</w>"
    ],
    [
      "si",
      "c"
    ],
    [
      "t",
      "ri"
    ],
    [
      "wi",
      "fe</w>"
    ],
    [
      "wor",
      "ld</w>"
    ],
    [
      "gra",
      "ce</w>"
    ],
    [
      "k",
      "ee"
    ],
    [
      "ri",
      "e"
    ],
    [
      "u",
      "s"
    ],
    [
      "ha",
      "st</w>"
    ],
    [
      "ow",
      "er</w>"
    ],
    [
      "p",
      "ea"
    ],
    [
      "ugh",
      "ter</w>"
    ],
    [
      "d",
      "ing</w>"
    ],
    [
      "e",
      "ven</w>"
    ],
    [
      "hea",
      "ven</w>"
    ],
    [
      "i",
      "l</w>"
    ],
    [
      "b",
      "er"
    ],
    [
      "st",
      "ay</w>"
    ],
    [
      "com",
      "m"
    ],
    [
      "k",
      "es</w>"
    ],
    [
      "mo",
      "ther</w>"
    ],
    [
      "n",
      "ay</w>"
    ],
    [
      "a",
      "s"
    ],
    [
      "e",
      "p</w>"
    ],
    [
      "c",
      "lar"
    ],
    [
      "clar",
      "ence</w>"
    ],
    [
      "f",
      "ar"
    ],
    [
      "s",
      "or"
    ],
    [
      "ti",
      "ll</w>"
    ],
    [
      "wh",
      "o"
    ],
    [
      "wi",
      "th"
    ],
    [
      "b",
      "es"
    ],
    [
      "m",
      "ea"
    ],
    [
      "ca",
      "use</w>"
    ],
    [
      "in",
      "t</w>"
    ],
    [
      "n",
      "urse</w>"
    ],
    [
      "r",
      "ou"
    ],
    [
      "s",
      "ea"
    ],
    [
      "ci",
      "ti"
    ],
    [
      "ey",
      "es</w>"
    ],
    [
      "c",
      "ou"
    ],
    [
      "c",
      "ur"
    ],
    [
      "d",
      "on</w>"
    ],
    [
      "h",
      "ol"
    ],
    [
      "h",
      "old</w>"
    ],
    [
      "hea",
      "d</w>"
    ],
    [
      "ma",
      "ster</w>"
    ],
    [
      "s",
      "es</w>"
    ],
    [
      "sh",
      "i"
    ],
    [
      "an",
      "i"
    ],
    [
      "e",
      "l</w>"
    ],
    [
      "bu",
      "ck"
    ],
    [
      "citi",
      "z"
    ],
    [
      "ha",
      "m</w>"
    ],
    [
      "hou",
      "se</w>"
    ],
    [
      "f",
      "t</w>"
    ],
    [
      "l",
      "s</w>"
    ],
    [
      "m",
      "any</w>"
    ],
    [
      "s",
      "in</w>"
    ],
    [
      "t",
      "ran"
    ],
    [
      "dea",
      "d</w>"
    ],
    [
      "h",
      "o"
    ],
    [
      "i",
      "o</w>"
    ],
    [
      "t",
      "on"
    ],
    [
      "l",
      "es</w>"
    ],
    [
      "li",
      "e"
    ],
    [
      "bol",
      "ing"
    ],
    [
      "boling",
      "broke</w>"
    ],
    [
      "you",
      "r"
    ],
    [
      "di",
      "e</w>"
    ],
    [
      "i",
      "ii</w>"
    ],
    [
      "l",
      "an"
    ],
    [
      "s",
      "en"
    ],
    [
      "t",
      "un"
    ],
    [
      "b",
      "ell"
    ],
    [
      "c",
      "our"
    ],
    [
      "d",
      "st</w>"
    ],
    [
      "g",
      "e"
    ],
    [
      "who",
      "se</w>"
    ],
    [
      "b",
      "ra"
    ],
    [
      "p",
      "s</w>"
    ],
    [
      "t",
      "y"
    ],
    [
      "th",
      "o"
    ],
    [
      "bell",
      "a</w>"
    ],
    [
      "fri",
      "ends</w>"
    ],
    [
      "isa",
      "bella</w>"
    ],
    [
      "no",
      "thing</w>"
    ],
    [
      "in",
      "s</w>"
    ],
    [
      "l",
      "ed</w>"
    ],
    [
      "m",
      "ur"
    ],
    [
      "sp",
      "i"
    ],
    [
      "tt",
      "le</w>"
    ],
    [
      "fri",
      "ar</w>"
    ],
    [
      "ing",
      "ham</w>"
    ],
    [
      "le",
      "on"
    ],
    [
      "leon",
      "tes</w>"
    ],
    [
      "buck",
      "ingham</w>"
    ],
    [
      "a",
      "th"
    ],
    [
      "be",
      "tter</w>"
    ],
    [
      "ci",
      "o</w>"
    ],
    [
      "pea",
      "ce</w>"
    ],
    [
      "t",
      "ch</w>"
    ],
    [
      "un",
      "to</w>"
    ],
    [
      "an",
      "s</w>"
    ],
    [
      "c",
      "li"
    ],
    [
      "de",
      "ed</w>"
    ],
    [
      "tho",
      "se</w>"
    ],
    [
      "c",
      "y</w>"
    ],
    [
      "con",
      "t"
    ],
    [
      "ch",
      "ar"
    ],
    [
      "g",
      "one</w>"
    ],
    [
      "our",
      "s</w>"
    ],
    [
      "sti",
      "ll</w>"
    ],
    [
      "of",
      "f</w>"
    ],
    [
      "par",
      "t</w>"
    ],
    [
      "s",
      "oul</w>"
    ],
    [
      "c",
      "ha"
    ],
    [
      "da",
      "ughter</w>"
    ],
    [
      "f",
      "oo"
    ],
    [
      "qu",
      "i"
    ],
    [
      "s",
      "ol"
    ],
    [
      "wor",
      "ds</w>"
    ],
    [
      "you",
      "n"
    ],
    [
      "a",
      "ge</w>"
    ],
    [
      "ci",
      "ous</w>"
    ],
    [
      "h",
      "ence</w>"
    ],
    [
      "tran",
      "io</w>"
    ],
    [
      "ci",
      "us</w>"
    ],
    [
      "s",
      "la"
    ],
    [
      "tw",
      "o</w>"
    ],
    [
      "gentle",
      "man</w>"
    ],
    [
      "lu",
      "cio</w>"
    ],
    [
      "mar",
      "cius</w>"
    ],
    [
      "v",
      "ol"
    ],
    [
      "h",
      "op"
    ],
    [
      "i",
      "ther</w>"
    ],
    [
      "ne",
      "ws</w>"
    ],
    [
      "c",
      "ould</w>"
    ],
    [
      "l",
      "ong</w>"
    ],
    [
      "ru",
      "t"
    ],
    [
      "s",
      "ince</w>"
    ],
    [
      "si",
      "on</w>"
    ],
    [
      "sic",
      "inius</w>"
    ],
    [
      "tur",
      "n</w>"
    ],
    [
      "e",
      "li"
    ],
    [
      "li",
      "ttle</w>"
    ],
    [
      "bi",
      "d</w>"
    ],
    [
      "p",
      "ur"
    ],
    [
      "i",
      "v"
    ],
    [
      "a",
      "p"
    ],
    [
      "cro",
      "wn</w>"
    ],
    [
      "gar",
      "et</w>"
    ],
    [
      "mar",
      "garet</w>"
    ],
    [
      "mi",
      "ll"
    ],
    [
      "s",
      "le"
    ],
    [
      "ca",
      "pu"
    ],
    [
      "lor",
      "ds</w>"
    ],
    [
      "vi",
      "r"
    ],
    [
      "w",
      "el"
    ],
    [
      "b",
      "al"
    ],
    [
      "g",
      "rie"
    ],
    [
      "pu",
      "t</w>"
    ],
    [
      "wh",
      "om</w>"
    ],
    [
      "ca",
      "mill"
    ],
    [
      "camill",
      "o</w>"
    ],
    [
      "cli",
      "f"
    ],
    [
      "t",
      "or</w>"
    ],
    [
      "f",
      "el"
    ],
    [
      "g",
      "ro"
    ],
    [
      "hi",
      "m"
    ],
    [
      "him",
      "self</w>"
    ],
    [
      "ig",
      "n</w>"
    ],
    [
      "w",
      "r"
    ],
    [
      "b",
      "en"
    ],
    [
      "capu",
      "let</w>"
    ],
    [
      "fa",
      "ce</w>"
    ],
    [
      "th",
      "ine</w>"
    ],
    [
      "a",
      "be"
    ],
    [
      "el",
      "se</w>"
    ],
    [
      "iv",
      "</w>"
    ],
    [
      "k",
      "ne"
    ],
    [
      "m",
      "es</w>"
    ],
    [
      "abe",
      "th</w>"
    ],
    [
      "eli",
      "z"
    ],
    [
      "eliz",
      "abeth</w>"
    ],
    [
      "h",
      "om"
    ],
    [
      "su",
      "b"
    ],
    [
      "ar",
      "ina</w>"
    ],
    [
      "c",
      "ed</w>"
    ],
    [
      "n",
      "s</w>"
    ],
    [
      "p",
      "ti"
    ],
    [
      "ton",
      "gue</w>"
    ],
    [
      "ath",
      "arina</w>"
    ],
    [
      "i",
      "m"
    ],
    [
      "k",
      "atharina</w>"
    ],
    [
      "par",
      "don</w>"
    ],
    [
      "s",
      "ing</w>"
    ],
    [
      "g",
      "et</w>"
    ],
    [
      "gent",
      "le</w>"
    ],
    [
      "t",
      "ly</w>"
    ],
    [
      "tun",
      "e</w>"
    ],
    [
      "whi",
      "le</w>"
    ],
    [
      "com",
      "p"
    ],
    [
      "dea",
      "r</w>"
    ],
    [
      "n",
      "ing</w>"
    ],
    [
      "r",
      "e</w>"
    ],
    [
      "youn",
      "g</w>"
    ],
    [
      "b",
      "</w>"
    ],
    [
      "b",
      "est</w>"
    ],
    [
      "ear",
      "th</w>"
    ],
    [
      "h",
      "us"
    ],
    [
      "mi",
      "ght</w>"
    ],
    [
      "no",
      "ne</w>"
    ],
    [
      "p",
      "om"
    ],
    [
      "p",
      "ower</w>"
    ],
    [
      "sh",
      "ow</w>"
    ],
    [
      "ba",
      "ck</w>"
    ],
    [
      "d",
      "ou"
    ],
    [
      "hus",
      "b"
    ],
    [
      "kee",
      "p</w>"
    ],
    [
      "lo",
      "w"
    ],
    [
      "or",
      "t</w>"
    ],
    [
      "d",
      "ra"
    ],
    [
      "for",
      "th</w>"
    ],
    [
      "pe",
      "op"
    ],
    [
      "pro",
      "vo"
    ],
    [
      "f",
      "o"
    ],
    [
      "far",
      "e"
    ],
    [
      "st",
      "a</w>"
    ],
    [
      "t",
      "en</w>"
    ],
    [
      "ce",
      "i"
    ],
    [
      "citiz",
      "en</w>"
    ],
    [
      "d",
      "rea"
    ],
    [
      "fare",
      "well</w>"
    ],
    [
      "in",
      "ess</w>"
    ],
    [
      "li",
      "ght</w>"
    ],
    [
      "peop",
      "le</w>"
    ],
    [
      "thou",
      "ght</w>"
    ],
    [
      "un",
      "t</w>"
    ],
    [
      "ba",
      "pti"
    ],
    [
      "lu",
      "centio</w>"
    ],
    [
      "sp",
      "er"
    ],
    [
      "v",
      "i</w>"
    ],
    [
      "be",
      "g"
    ],
    [
      "ca",
      "me</w>"
    ],
    [
      "ee",
      "ch</w>"
    ],
    [
      "g",
      "ru"
    ],
    [
      "hop",
      "e</w>"
    ],
    [
      "n",
      "at"
    ],
    [
      "pla",
      "ce</w>"
    ],
    [
      "ro",
      "y"
    ],
    [
      "bapti",
      "sta</w>"
    ],
    [
      "d",
      "en</w>"
    ],
    [
      "g",
      "er</w>"
    ],
    [
      "st",
      "a"
    ],
    [
      "hast",
      "ings</w>"
    ],
    [
      "hor",
      "ten"
    ],
    [
      "horten",
      "si"
    ],
    [
      "s",
      "ur"
    ],
    [
      "br",
      "ing</w>"
    ],
    [
      "e",
      "very</w>"
    ],
    [
      "el",
      "d</w>"
    ],
    [
      "ha",
      "pp"
    ],
    [
      "hortensi",
      "o</w>"
    ],
    [
      "husb",
      "and</w>"
    ],
    [
      "of",
      "f"
    ],
    [
      "re",
      "p"
    ],
    [
      "b",
      "ani"
    ],
    [
      "bo",
      "y</w>"
    ],
    [
      "c",
      "tion</w>"
    ],
    [
      "es",
      "ca"
    ],
    [
      "hom",
      "e</w>"
    ],
    [
      "li",
      "es</w>"
    ],
    [
      "ran",
      "t</w>"
    ],
    [
      "wh",
      "ere"
    ],
    [
      "f",
      "ind</w>"
    ],
    [
      "h",
      "ands</w>"
    ],
    [
      "m",
      "an"
    ],
    [
      "sa",
      "id</w>"
    ],
    [
      "str",
      "ess</w>"
    ],
    [
      "v",
      "a"
    ],
    [
      "b",
      "ed</w>"
    ],
    [
      "b",
      "rut"
    ],
    [
      "brut",
      "us</w>"
    ],
    [
      "cou",
      "sin</w>"
    ],
    [
      "sp",
      "o"
    ],
    [
      "st",
      "ri"
    ],
    [
      "wel",
      "come</w>"
    ],
    [
      "an",
      "sw"
    ],
    [
      "c",
      "ra"
    ],
    [
      "d",
      "en"
    ],
    [
      "fa",
      "l"
    ],
    [
      "gh",
      "ts</w>"
    ],
    [
      "he",
      "ard</w>"
    ],
    [
      "in",
      "to</w>"
    ],
    [
      "re",
      "me"
    ],
    [
      "rom",
      "e</w>"
    ],
    [
      "ab",
      "out</w>"
    ],
    [
      "do",
      "st</w>"
    ],
    [
      "k",
      "in"
    ],
    [
      "l",
      "ing</w>"
    ],
    [
      "m",
      "in"
    ],
    [
      "si",
      "g"
    ],
    [
      "t",
      "ears</w>"
    ],
    [
      "ta",
      "in</w>"
    ],
    [
      "th",
      "ir"
    ],
    [
      "an",
      "o"
    ],
    [
      "g",
      "en"
    ],
    [
      "mi",
      "stress</w>"
    ],
    [
      "th",
      "re"
    ],
    [
      "a",
      "pp"
    ],
    [
      "af",
      "ter</w>"
    ],
    [
      "con",
      "f"
    ],
    [
      "hel",
      "p</w>"
    ],
    [
      "jo",
      "y</w>"
    ],
    [
      "l",
      "us</w>"
    ],
    [
      "mur",
      "der"
    ],
    [
      "plea",
      "se</w>"
    ],
    [
      "provo",
      "st</w>"
    ],
    [
      "st",
      "ru"
    ],
    [
      "fu",
      "ll</w>"
    ],
    [
      "j",
      "e"
    ],
    [
      "wom",
      "an</w>"
    ],
    [
      "bu",
      "r"
    ],
    [
      "com",
      "for"
    ],
    [
      "ma",
      "kes</w>"
    ],
    [
      "mb",
      "er</w>"
    ],
    [
      "mor",
      "row</w>"
    ],
    [
      "t",
      "es"
    ],
    [
      "th",
      "um"
    ],
    [
      "b",
      "ri"
    ],
    [
      "gru",
      "mio</w>"
    ],
    [
      "m",
      "ind</w>"
    ],
    [
      "mea",
      "n</w>"
    ],
    [
      "s",
      "ent</w>"
    ],
    [
      "t",
      "le</w>"
    ],
    [
      "ta",
      "l"
    ],
    [
      "answ",
      "er</w>"
    ],
    [
      "com",
      "inius</w>"
    ],
    [
      "esca",
      "lus</w>"
    ],
    [
      "fa",
      "i"
    ],
    [
      "in",
      "deed</w>"
    ],
    [
      "mar",
      "ri"
    ],
    [
      "mar",
      "ry</w>"
    ],
    [
      "pa",
      "u"
    ],
    [
      "t",
      "ry</w>"
    ],
    [
      "u",
      "di"
    ],
    [
      "wi",
      "lt</w>"
    ],
    [
      "clif",
      "ford</w>"
    ],
    [
      "ha",
      "s</w>"
    ],
    [
      "ki",
      "ll</w>"
    ],
    [
      "of",
      "fi"
    ],
    [
      "pe",
      "y</w>"
    ],
    [
      "pom",
      "pey</w>"
    ],
    [
      "st",
      "ate</w>"
    ],
    [
      "t",
      "ch"
    ],
    [
      "w",
      "ea"
    ],
    [
      "b",
      "ar"
    ],
    [
      "es",
      "s"
    ],
    [
      "f",
      "re"
    ],
    [
      "fri",
      "end</w>"
    ],
    [
      "gra",
      "cious</w>"
    ],
    [
      "po",
      "li"
    ],
    [
      "pro",
      "sper"
    ],
    [
      "rea",
      "dy</w>"
    ],
    [
      "sel",
      "ves</w>"
    ],
    [
      "sha",
      "me</w>"
    ],
    [
      "shi",
      "p</w>"
    ],
    [
      "thou",
      "s"
    ],
    [
      "v",
      "ant</w>"
    ],
    [
      "ser",
      "vant</w>"
    ],
    [
      "dou",
      "b"
    ],
    [
      "en",
      "es</w>"
    ],
    [
      "fi",
      "di"
    ],
    [
      "for",
      "tune</w>"
    ],
    [
      "p",
      "ra"
    ],
    [
      "po",
      "se</w>"
    ],
    [
      "som",
      "e"
    ],
    [
      "cu",
      "tio</w>"
    ],
    [
      "fa",
      "ll</w>"
    ],
    [
      "fel",
      "low</w>"
    ],
    [
      "g",
      "s</w>"
    ],
    [
      "gre",
      "mio</w>"
    ],
    [
      "i",
      "s"
    ],
    [
      "in",
      "c"
    ],
    [
      "mer",
      "cutio</w>"
    ],
    [
      "vo",
      "i"
    ],
    [
      "with",
      "in</w>"
    ],
    [
      "ano",
      "ther</w>"
    ],
    [
      "b",
      "la"
    ],
    [
      "d",
      "ar"
    ],
    [
      "g",
      "ed</w>"
    ],
    [
      "pro",
      "ve</w>"
    ],
    [
      "sp",
      "e"
    ],
    [
      "un",
      "c"
    ],
    [
      "au",
      "fidi"
    ],
    [
      "bo",
      "dy</w>"
    ],
    [
      "cla",
      "udi"
    ],
    [
      "claudi",
      "o</w>"
    ],
    [
      "happ",
      "y</w>"
    ],
    [
      "hi",
      "ther</w>"
    ],
    [
      "ir",
      "e</w>"
    ],
    [
      "k",
      "en</w>"
    ],
    [
      "nor",
      "thum"
    ],
    [
      "northum",
      "ber"
    ],
    [
      "on",
      "ly</w>"
    ],
    [
      "te",
      "mp"
    ],
    [
      "w",
      "at"
    ],
    [
      "aufidi",
      "us</w>"
    ],
    [
      "chi",
      "ld</w>"
    ],
    [
      "ey",
      "e</w>"
    ],
    [
      "fa",
      "r</w>"
    ],
    [
      "la",
      "st</w>"
    ],
    [
      "li",
      "e</w>"
    ],
    [
      "northumber",
      "land</w>"
    ],
    [
      "o",
      "k</w>"
    ],
    [
      "p",
      "t</w>"
    ],
    [
      "pa",
      "ti"
    ],
    [
      "rou",
      "gh</w>"
    ],
    [
      "s",
      "it</w>"
    ],
    [
      "sor",
      "row</w>"
    ],
    [
      "st",
      "an"
    ],
    [
      "thous",
      "and</w>"
    ],
    [
      "thre",
      "e</w>"
    ],
    [
      "vi",
      "ce</w>"
    ],
    [
      "ch",
      "ess</w>"
    ],
    [
      "du",
      "chess</w>"
    ],
    [
      "l",
      "la"
    ],
    [
      "roy",
      "al</w>"
    ],
    [
      "x",
      "t</w>"
    ],
    [
      "i",
      "ty</w>"
    ],
    [
      "i",
      "z"
    ],
    [
      "l",
      "ina</w>"
    ],
    [
      "me",
      "et</w>"
    ],
    [
      "pau",
      "lina</w>"
    ],
    [
      "t",
      "re"
    ],
    [
      "t",
      "rea"
    ],
    [
      "thir",
      "d</w>"
    ],
    [
      "an",
      "k</w>"
    ],
    [
      "bu",
      "s"
    ],
    [
      "ea",
      "ch</w>"
    ],
    [
      "l",
      "on"
    ],
    [
      "st",
      "o"
    ],
    [
      "sw",
      "ear</w>"
    ],
    [
      "t",
      "rai"
    ],
    [
      "b",
      "el"
    ],
    [
      "mon",
      "ta"
    ],
    [
      "ra",
      "ther</w>"
    ],
    [
      "ti",
      "mes</w>"
    ],
    [
      "ty",
      "bal"
    ],
    [
      "vir",
      "tu"
    ],
    [
      "wa",
      "r</w>"
    ],
    [
      "c",
      "</w>"
    ],
    [
      "t",
      "ra"
    ],
    [
      "en",
      "e"
    ],
    [
      "f",
      "ro"
    ],
    [
      "f",
      "ur"
    ],
    [
      "fa",
      "u"
    ],
    [
      "murder",
      "er</w>"
    ],
    [
      "tybal",
      "t</w>"
    ],
    [
      "un",
      "der</w>"
    ],
    [
      "comfor",
      "t</w>"
    ],
    [
      "des",
      "er"
    ],
    [
      "sha",
      "lt</w>"
    ],
    [
      "su",
      "n</w>"
    ],
    [
      "vi",
      "lla"
    ],
    [
      "au",
      "t"
    ],
    [
      "c",
      "us</w>"
    ],
    [
      "d",
      "es</w>"
    ],
    [
      "gu",
      "i"
    ],
    [
      "d",
      "ness</w>"
    ],
    [
      "f",
      "la"
    ],
    [
      "h",
      "our</w>"
    ],
    [
      "ol",
      "y"
    ],
    [
      "or",
      "n</w>"
    ],
    [
      "tal",
      "k</w>"
    ],
    [
      "vo",
      "li"
    ],
    [
      "y",
      "ing</w>"
    ],
    [
      "ar",
      "y</w>"
    ],
    [
      "an",
      "c"
    ],
    [
      "be",
      "lie"
    ],
    [
      "ben",
      "voli"
    ],
    [
      "benvoli",
      "o</w>"
    ],
    [
      "bes",
      "eech</w>"
    ],
    [
      "c",
      "ri"
    ],
    [
      "ex",
      "e"
    ],
    [
      "go",
      "t</w>"
    ],
    [
      "grie",
      "f</w>"
    ],
    [
      "her",
      "d</w>"
    ],
    [
      "n",
      "ed</w>"
    ],
    [
      "poli",
      "x"
    ],
    [
      "polix",
      "enes</w>"
    ],
    [
      "aut",
      "oly"
    ],
    [
      "autoly",
      "cus</w>"
    ],
    [
      "chi",
      "l"
    ],
    [
      "fol",
      "low</w>"
    ],
    [
      "gra",
      "ve</w>"
    ],
    [
      "monta",
      "gue</w>"
    ],
    [
      "sh",
      "ep"
    ],
    [
      "so",
      "ver"
    ],
    [
      "sover",
      "e"
    ],
    [
      "w",
      "on"
    ],
    [
      "d",
      "ge</w>"
    ],
    [
      "f",
      "ran"
    ],
    [
      "hol",
      "y</w>"
    ],
    [
      "i",
      "se</w>"
    ],
    [
      "la",
      "w</w>"
    ],
    [
      "p",
      "lay</w>"
    ],
    [
      "pr",
      "ou"
    ],
    [
      "r",
      "ed</w>"
    ],
    [
      "si",
      "de</w>"
    ],
    [
      "sol",
      "di"
    ],
    [
      "y",
      "ears</w>"
    ],
    [
      "ck",
      "s</w>"
    ],
    [
      "d",
      "ro"
    ],
    [
      "en",
      "ou"
    ],
    [
      "enou",
      "gh</w>"
    ],
    [
      "fai",
      "th</w>"
    ],
    [
      "ha",
      "te</w>"
    ],
    [
      "k",
      "ind</w>"
    ],
    [
      "ma",
      "tter</w>"
    ],
    [
      "t",
      "wi"
    ],
    [
      "ta",
      "l</w>"
    ],
    [
      "w",
      "in"
    ],
    [
      "bi",
      "anc"
    ],
    [
      "bus",
      "iness</w>"
    ],
    [
      "ju",
      "sti"
    ],
    [
      "mi",
      "s"
    ],
    [
      "e",
      "ds</w>"
    ],
    [
      "p",
      "e</w>"
    ],
    [
      "th",
      "ank</w>"
    ],
    [
      "th",
      "ings</w>"
    ],
    [
      "bianc",
      "a</w>"
    ],
    [
      "clo",
      "wn</w>"
    ],
    [
      "en",
      "s</w>"
    ],
    [
      "ha",
      "l"
    ],
    [
      "j",
      "es"
    ],
    [
      "li",
      "ves</w>"
    ],
    [
      "nat",
      "ure</w>"
    ],
    [
      "p",
      "er</w>"
    ],
    [
      "p",
      "rom"
    ],
    [
      "prosper",
      "o</w>"
    ],
    [
      "ri",
      "t</w>"
    ],
    [
      "sea",
      "</w>"
    ],
    [
      "t",
      "ure</w>"
    ],
    [
      "vi",
      "l</w>"
    ],
    [
      "y",
      "i"
    ],
    [
      "b",
      "on"
    ],
    [
      "de",
      "li"
    ],
    [
      "ou",
      "l"
    ],
    [
      "pa",
      "ss</w>"
    ],
    [
      "pi",
      "ty</w>"
    ],
    [
      "sa",
      "w</w>"
    ],
    [
      "sh",
      "ed</w>"
    ],
    [
      "st",
      "ran"
    ],
    [
      "thou",
      "t</w>"
    ],
    [
      "tru",
      "th</w>"
    ],
    [
      "wi",
      "sh</w>"
    ],
    [
      "wi",
      "thout</w>"
    ],
    [
      "wr",
      "ong</w>"
    ],
    [
      "a",
      "h</w>"
    ],
    [
      "b",
      "loo"
    ],
    [
      "c",
      "re"
    ],
    [
      "ch",
      "e"
    ],
    [
      "er",
      "y</w>"
    ],
    [
      "fal",
      "se</w>"
    ],
    [
      "la",
      "ur"
    ],
    [
      "men",
      "ts</w>"
    ],
    [
      "po",
      "s"
    ],
    [
      "shep",
      "herd</w>"
    ],
    [
      "ti",
      "ons</w>"
    ],
    [
      "villa",
      "in</w>"
    ],
    [
      "b",
      "orn</w>"
    ],
    [
      "bea",
      "u"
    ],
    [
      "belie",
      "ve</w>"
    ],
    [
      "ci",
      "ty</w>"
    ],
    [
      "d",
      "ow</w>"
    ],
    [
      "e",
      "y</w>"
    ],
    [
      "k",
      "ate</w>"
    ],
    [
      "laur",
      "ence</w>"
    ],
    [
      "s",
      "end</w>"
    ],
    [
      "sa",
      "ve</w>"
    ],
    [
      "t",
      "ro"
    ],
    [
      "ver",
      "s</w>"
    ],
    [
      "wor",
      "thy</w>"
    ],
    [
      "d",
      "om</w>"
    ],
    [
      "do",
      "es</w>"
    ],
    [
      "ee",
      "l</w>"
    ],
    [
      "fi",
      "ght</w>"
    ],
    [
      "for",
      "m</w>"
    ],
    [
      "go",
      "ds</w>"
    ],
    [
      "hi",
      "gh</w>"
    ],
    [
      "la",
      "te</w>"
    ],
    [
      "le",
      "ft</w>"
    ],
    [
      "oun",
      "ds</w>"
    ],
    [
      "s",
      "ons</w>"
    ],
    [
      "s",
      "ou"
    ],
    [
      "t",
      "a</w>"
    ],
    [
      "ti",
      "es</w>"
    ],
    [
      "unc",
      "le</w>"
    ],
    [
      "h",
      "um"
    ],
    [
      "h",
      "un"
    ],
    [
      "hor",
      "se</w>"
    ],
    [
      "ma",
      "id</w>"
    ],
    [
      "ran",
      "d"
    ],
    [
      "si",
      "l"
    ],
    [
      "sub",
      "je"
    ],
    [
      "t",
      "ou"
    ],
    [
      "t",
      "ow"
    ],
    [
      "vol",
      "um"
    ],
    [
      "wor",
      "n</w>"
    ],
    [
      "x",
      "</w>"
    ],
    [
      "bloo",
      "dy</w>"
    ],
    [
      "d",
      "ang"
    ],
    [
      "fir",
      "e</w>"
    ],
    [
      "justi",
      "ce</w>"
    ],
    [
      "o",
      "a"
    ],
    [
      "pres",
      "ent</w>"
    ],
    [
      "prou",
      "d</w>"
    ],
    [
      "s",
      "ly</w>"
    ],
    [
      "se",
      "en</w>"
    ],
    [
      "sen",
      "at"
    ],
    [
      "sovere",
      "ign</w>"
    ],
    [
      "w",
      "al"
    ],
    [
      "your",
      "s</w>"
    ],
    [
      "your",
      "self</w>"
    ],
    [
      "a",
      "um"
    ],
    [
      "an",
      "ne</w>"
    ],
    [
      "aum",
      "er"
    ],
    [
      "aumer",
      "le</w>"
    ],
    [
      "chil",
      "dr"
    ],
    [
      "childr",
      "en</w>"
    ],
    [
      "coun",
      "try</w>"
    ],
    [
      "f",
      "it</w>"
    ],
    [
      "go",
      "o"
    ],
    [
      "loo",
      "ks</w>"
    ],
    [
      "me",
      "ans</w>"
    ],
    [
      "mer",
      "cy</w>"
    ],
    [
      "ni",
      "a</w>"
    ],
    [
      "o",
      "p</w>"
    ],
    [
      "sig",
      "ni"
    ],
    [
      "th",
      "ers</w>"
    ],
    [
      "volum",
      "nia</w>"
    ],
    [
      "a",
      "ble</w>"
    ],
    [
      "cont",
      "ent</w>"
    ],
    [
      "eng",
      "land</w>"
    ],
    [
      "f",
      "ly</w>"
    ],
    [
      "ge",
      "ther</w>"
    ],
    [
      "gen",
      "er"
    ],
    [
      "hast",
      "e</w>"
    ],
    [
      "mar",
      "k</w>"
    ],
    [
      "ow",
      "s</w>"
    ],
    [
      "p",
      "lu"
    ],
    [
      "r",
      "ound</w>"
    ],
    [
      "t",
      "old</w>"
    ],
    [
      "to",
      "gether</w>"
    ],
    [
      "w",
      "an"
    ],
    [
      "eng",
      "er</w>"
    ],
    [
      "f",
      "oul</w>"
    ],
    [
      "ing",
      "man</w>"
    ],
    [
      "ser",
      "v"
    ],
    [
      "k",
      "ed</w>"
    ],
    [
      "th",
      "an"
    ],
    [
      "m",
      "ed</w>"
    ],
    [
      "ne",
      "ed</w>"
    ],
    [
      "pa",
      "s"
    ],
    [
      "serv",
      "ingman</w>"
    ],
    [
      "si",
      "ster</w>"
    ],
    [
      "sle",
      "ep</w>"
    ],
    [
      "t",
      "ness</w>"
    ],
    [
      "v",
      "al"
    ],
    [
      "b",
      "ow</w>"
    ],
    [
      "c",
      "are</w>"
    ],
    [
      "da",
      "ys</w>"
    ],
    [
      "doub",
      "t</w>"
    ],
    [
      "ess",
      "enger</w>"
    ],
    [
      "ga",
      "unt</w>"
    ],
    [
      "le",
      "ar"
    ],
    [
      "m",
      "essenger</w>"
    ],
    [
      "of",
      "t</w>"
    ],
    [
      "s",
      "ound</w>"
    ],
    [
      "st",
      "or"
    ],
    [
      "su",
      "f"
    ],
    [
      "trai",
      "tor</w>"
    ],
    [
      "w",
      "re"
    ],
    [
      "be",
      "cause</w>"
    ],
    [
      "brea",
      "k</w>"
    ],
    [
      "brea",
      "th</w>"
    ],
    [
      "e",
      "ither</w>"
    ],
    [
      "f",
      "lor"
    ],
    [
      "hal",
      "f</w>"
    ],
    [
      "i",
      "m</w>"
    ],
    [
      "in",
      "ted</w>"
    ],
    [
      "ma",
      "jes"
    ],
    [
      "s",
      "word</w>"
    ],
    [
      "se",
      "l</w>"
    ],
    [
      "see",
      "m</w>"
    ],
    [
      "st",
      "ar"
    ],
    [
      "th",
      "rough</w>"
    ],
    [
      "th",
      "yself</w>"
    ],
    [
      "an",
      "ge</w>"
    ],
    [
      "bi",
      "on"
    ],
    [
      "bion",
      "d"
    ],
    [
      "biond",
      "ell"
    ],
    [
      "biondell",
      "o</w>"
    ],
    [
      "h",
      "n</w>"
    ],
    [
      "jo",
      "hn</w>"
    ],
    [
      "ki",
      "ss</w>"
    ],
    [
      "majes",
      "ty</w>"
    ],
    [
      "o",
      "be"
    ],
    [
      "p",
      "h"
    ],
    [
      "thin",
      "ks</w>"
    ],
    [
      "c",
      "ted</w>"
    ],
    [
      "ca",
      "tes"
    ],
    [
      "cates",
      "by</w>"
    ],
    [
      "char",
      "ge</w>"
    ],
    [
      "d",
      "le</w>"
    ],
    [
      "dra",
      "w</w>"
    ],
    [
      "f",
      "ear"
    ],
    [
      "f",
      "er"
    ],
    [
      "fol",
      "k</w>"
    ],
    [
      "hi",
      "gh"
    ],
    [
      "kno",
      "wn</w>"
    ],
    [
      "par",
      "is</w>"
    ],
    [
      "re",
      "l</w>"
    ],
    [
      "reme",
      "mber</w>"
    ],
    [
      "s",
      "on"
    ],
    [
      "we",
      "ep</w>"
    ],
    [
      "b",
      "at"
    ],
    [
      "c",
      "ol"
    ],
    [
      "c",
      "old</w>"
    ],
    [
      "ch",
      "ange</w>"
    ],
    [
      "de",
      "m"
    ],
    [
      "g",
      "la"
    ],
    [
      "r",
      "en"
    ],
    [
      "re",
      "turn</w>"
    ],
    [
      "su",
      "e</w>"
    ],
    [
      "un",
      "der"
    ],
    [
      "r",
      "est</w>"
    ],
    [
      "al",
      "as</w>"
    ],
    [
      "ar",
      "i"
    ],
    [
      "d",
      "ers</w>"
    ],
    [
      "f",
      "ea"
    ],
    [
      "gre",
      "y</w>"
    ],
    [
      "her",
      "mi"
    ],
    [
      "nor",
      "folk</w>"
    ],
    [
      "sa",
      "ys</w>"
    ],
    [
      "signi",
      "or</w>"
    ],
    [
      "st",
      "rai"
    ],
    [
      "st",
      "s</w>"
    ],
    [
      "t",
      "was</w>"
    ],
    [
      "tor",
      "s</w>"
    ],
    [
      "c",
      "ry</w>"
    ],
    [
      "c",
      "ts</w>"
    ],
    [
      "can",
      "st</w>"
    ],
    [
      "de",
      "f"
    ],
    [
      "flor",
      "iz"
    ],
    [
      "floriz",
      "el</w>"
    ],
    [
      "foo",
      "t</w>"
    ],
    [
      "g",
      "es</w>"
    ],
    [
      "h",
      "an"
    ],
    [
      "hea",
      "ven"
    ],
    [
      "hermi",
      "one</w>"
    ],
    [
      "lie",
      "ge</w>"
    ],
    [
      "oa",
      "th</w>"
    ],
    [
      "pur",
      "pose</w>"
    ],
    [
      "qu",
      "ar"
    ],
    [
      "rea",
      "son</w>"
    ],
    [
      "s",
      "ca"
    ],
    [
      "thou",
      "ghts</w>"
    ],
    [
      "al",
      "one</w>"
    ],
    [
      "at",
      "es</w>"
    ],
    [
      "be",
      "ar"
    ],
    [
      "bu",
      "ry</w>"
    ],
    [
      "fa",
      "ir"
    ],
    [
      "gentle",
      "men</w>"
    ],
    [
      "in",
      "t"
    ],
    [
      "lo",
      "st</w>"
    ],
    [
      "pa",
      "ir</w>"
    ],
    [
      "pri",
      "son</w>"
    ],
    [
      "ra",
      "ge</w>"
    ],
    [
      "s",
      "worn</w>"
    ],
    [
      "si",
      "ci"
    ],
    [
      "tw",
      "en"
    ],
    [
      "twen",
      "ty</w>"
    ],
    [
      "war",
      "rant</w>"
    ],
    [
      "bani",
      "sh</w>"
    ],
    [
      "br",
      "ou"
    ],
    [
      "brou",
      "ght</w>"
    ],
    [
      "ent",
      "rea"
    ],
    [
      "fre",
      "e</w>"
    ],
    [
      "g",
      "round</w>"
    ],
    [
      "h",
      "ere"
    ],
    [
      "in",
      "stru"
    ],
    [
      "m",
      "er</w>"
    ],
    [
      "marri",
      "ed</w>"
    ],
    [
      "n",
      "ear</w>"
    ],
    [
      "n",
      "er</w>"
    ],
    [
      "re",
      "qu"
    ],
    [
      "ri",
      "vers</w>"
    ],
    [
      "sla",
      "in</w>"
    ],
    [
      "spi",
      "rit</w>"
    ],
    [
      "st",
      "ands</w>"
    ],
    [
      "than",
      "ks</w>"
    ],
    [
      "tt",
      "er"
    ],
    [
      "wom",
      "en</w>"
    ],
    [
      "beau",
      "ty</w>"
    ],
    [
      "de",
      "ep</w>"
    ],
    [
      "fran",
      "ce</w>"
    ],
    [
      "ha",
      "ving</w>"
    ],
    [
      "kno",
      "ws</w>"
    ],
    [
      "li",
      "a</w>"
    ],
    [
      "ma",
      "d</w>"
    ],
    [
      "mi",
      "l"
    ],
    [
      "o",
      "ver"
    ],
    [
      "on",
      "d</w>"
    ],
    [
      "per",
      "son</w>"
    ],
    [
      "re",
      "ven"
    ],
    [
      "rep",
      "ort</w>"
    ],
    [
      "res",
      "ol"
    ],
    [
      "rich",
      "mon"
    ],
    [
      "sh",
      "or"
    ],
    [
      "strai",
      "ght</w>"
    ],
    [
      "stri",
      "ke</w>"
    ],
    [
      "c",
      "er"
    ],
    [
      "con",
      "su"
    ],
    [
      "cour",
      "se</w>"
    ],
    [
      "di",
      "dst</w>"
    ],
    [
      "ene",
      "my</w>"
    ],
    [
      "eng",
      "th</w>"
    ],
    [
      "foo",
      "l</w>"
    ],
    [
      "g",
      "on"
    ],
    [
      "gener",
      "al</w>"
    ],
    [
      "h",
      "ours</w>"
    ],
    [
      "ma",
      "y"
    ],
    [
      "pati",
      "ence</w>"
    ],
    [
      "richmon",
      "d</w>"
    ],
    [
      "sa",
      "me</w>"
    ],
    [
      "ser",
      "vice</w>"
    ],
    [
      "si",
      "ght</w>"
    ],
    [
      "st",
      "er"
    ],
    [
      "stran",
      "ge</w>"
    ],
    [
      "ten",
      "der</w>"
    ],
    [
      "tri",
      "bu"
    ],
    [
      "bi",
      "r"
    ],
    [
      "ri",
      "ght</w>"
    ],
    [
      "cei",
      "ve</w>"
    ],
    [
      "ch",
      "es</w>"
    ],
    [
      "ch",
      "o"
    ],
    [
      "comm",
      "on</w>"
    ],
    [
      "des",
      "ire</w>"
    ],
    [
      "exe",
      "cu"
    ],
    [
      "f",
      "er</w>"
    ],
    [
      "f",
      "l"
    ],
    [
      "fau",
      "lt</w>"
    ],
    [
      "lo",
      "ss</w>"
    ],
    [
      "m",
      "ou"
    ],
    [
      "pa",
      "st</w>"
    ],
    [
      "sa",
      "int</w>"
    ],
    [
      "senat",
      "or</w>"
    ],
    [
      "so",
      "on</w>"
    ],
    [
      "tou",
      "ch</w>"
    ],
    [
      "y",
      "ea"
    ],
    [
      "yea",
      "</w>"
    ],
    [
      "z",
      "e</w>"
    ],
    [
      "a",
      "tion</w>"
    ],
    [
      "an",
      "ti"
    ],
    [
      "b",
      "our</w>"
    ],
    [
      "cour",
      "t</w>"
    ],
    [
      "du",
      "ty</w>"
    ],
    [
      "fi",
      "e</w>"
    ],
    [
      "mi",
      "gh"
    ],
    [
      "or",
      "s</w>"
    ],
    [
      "a",
      "m"
    ],
    [
      "plu",
      "ck</w>"
    ],
    [
      "su",
      "c"
    ],
    [
      "t",
      "self</w>"
    ],
    [
      "i",
      "tself</w>"
    ],
    [
      "v",
      "an"
    ],
    [
      "wor",
      "k</w>"
    ],
    [
      "yi",
      "eld</w>"
    ],
    [
      "a",
      "bo"
    ],
    [
      "ac",
      "cu"
    ],
    [
      "citiz",
      "ens</w>"
    ],
    [
      "comm",
      "and</w>"
    ],
    [
      "comp",
      "any</w>"
    ],
    [
      "k",
      "ing"
    ],
    [
      "op",
      "en</w>"
    ],
    [
      "sa",
      "ke</w>"
    ],
    [
      "ser",
      "ve</w>"
    ],
    [
      "t",
      "were</w>"
    ],
    [
      "ta",
      "tion</w>"
    ],
    [
      "un",
      "less</w>"
    ],
    [
      "w",
      "is</w>"
    ],
    [
      "wi",
      "dow</w>"
    ],
    [
      "with",
      "al</w>"
    ],
    [
      "af",
      "fe"
    ],
    [
      "cla",
      "im</w>"
    ],
    [
      "cu",
      "t</w>"
    ],
    [
      "dr",
      "ed</w>"
    ],
    [
      "drea",
      "m</w>"
    ],
    [
      "fear",
      "ful</w>"
    ],
    [
      "fu",
      "l"
    ],
    [
      "h",
      "ang"
    ],
    [
      "he",
      "ll</w>"
    ],
    [
      "hear",
      "ts</w>"
    ],
    [
      "heaven",
      "s</w>"
    ],
    [
      "hon",
      "est</w>"
    ],
    [
      "ju",
      "st</w>"
    ],
    [
      "l",
      "in"
    ],
    [
      "ea",
      "l</w>"
    ],
    [
      "o",
      "b"
    ],
    [
      "pa",
      "le</w>"
    ],
    [
      "r",
      "ing</w>"
    ],
    [
      "ri",
      "ch</w>"
    ],
    [
      "s",
      "cor"
    ],
    [
      "som",
      "</w>"
    ],
    [
      "su",
      "pp"
    ],
    [
      "ta",
      "ble</w>"
    ],
    [
      "ta",
      "le</w>"
    ],
    [
      "th",
      "r"
    ],
    [
      "th",
      "s</w>"
    ],
    [
      "tru",
      "st</w>"
    ],
    [
      "tt",
      "ing</w>"
    ],
    [
      "w",
      "o"
    ],
    [
      "wo",
      "e</w>"
    ],
    [
      "v",
      "eng"
    ],
    [
      "w",
      "ear</w>"
    ],
    [
      "wa",
      "ter</w>"
    ],
    [
      "as",
      "k</w>"
    ],
    [
      "bea",
      "t</w>"
    ],
    [
      "d",
      "are</w>"
    ],
    [
      "d",
      "in"
    ],
    [
      "e",
      "th</w>"
    ],
    [
      "ea",
      "se</w>"
    ],
    [
      "el",
      "s</w>"
    ],
    [
      "he",
      "ir</w>"
    ],
    [
      "i",
      "es</w>"
    ],
    [
      "le",
      "wis</w>"
    ],
    [
      "lo",
      "ving</w>"
    ],
    [
      "pe",
      "ter</w>"
    ],
    [
      "po",
      "int</w>"
    ],
    [
      "pr",
      "inc"
    ],
    [
      "pri",
      "thee</w>"
    ],
    [
      "qu",
      "a"
    ],
    [
      "s",
      "ci"
    ],
    [
      "s",
      "y</w>"
    ],
    [
      "some",
      "thing</w>"
    ],
    [
      "wi",
      "se</w>"
    ],
    [
      "x",
      "ford</w>"
    ],
    [
      "o",
      "xford</w>"
    ],
    [
      "bo",
      "o"
    ],
    [
      "c",
      "rea"
    ],
    [
      "ch",
      "ance</w>"
    ],
    [
      "coun",
      "sel</w>"
    ],
    [
      "ent",
      "ly</w>"
    ],
    [
      "fa",
      "st</w>"
    ],
    [
      "fi",
      "eld</w>"
    ],
    [
      "for",
      "ce</w>"
    ],
    [
      "har",
      "k</w>"
    ],
    [
      "lo",
      "ws</w>"
    ],
    [
      "mi",
      "es</w>"
    ],
    [
      "offi",
      "c"
    ],
    [
      "oul",
      "dst</w>"
    ],
    [
      "pi",
      "e"
    ],
    [
      "pre",
      "t"
    ],
    [
      "r",
      "ra"
    ],
    [
      "reven",
      "ge</w>"
    ],
    [
      "rra",
      "h</w>"
    ],
    [
      "si",
      "rrah</w>"
    ],
    [
      "sou",
      "ls</w>"
    ],
    [
      "st",
      "u"
    ],
    [
      "f",
      "f</w>"
    ],
    [
      "t",
      "est</w>"
    ],
    [
      "virtu",
      "e</w>"
    ],
    [
      "voi",
      "ces</w>"
    ],
    [
      "w",
      "d</w>"
    ],
    [
      "wi",
      "l"
    ],
    [
      "b",
      "or"
    ],
    [
      "be",
      "come</w>"
    ],
    [
      "d",
      "est</w>"
    ],
    [
      "deli",
      "ver</w>"
    ],
    [
      "ep",
      "ing</w>"
    ],
    [
      "high",
      "ness</w>"
    ],
    [
      "i",
      "ts</w>"
    ],
    [
      "kne",
      "w</w>"
    ],
    [
      "lear",
      "n</w>"
    ],
    [
      "ll",
      "ing</w>"
    ],
    [
      "lo",
      "ves</w>"
    ],
    [
      "ne",
      "ither</w>"
    ],
    [
      "ru",
      "n</w>"
    ],
    [
      "st",
      "ers</w>"
    ],
    [
      "th",
      "ri"
    ],
    [
      "ll",
      "s</w>"
    ],
    [
      "en",
      "d"
    ],
    [
      "twi",
      "xt</w>"
    ],
    [
      "un",
      "ti"
    ],
    [
      "wor",
      "se</w>"
    ],
    [
      "be",
      "hold</w>"
    ],
    [
      "bra",
      "ve</w>"
    ],
    [
      "ca",
      "ster</w>"
    ],
    [
      "ch",
      "oo"
    ],
    [
      "com",
      "ing</w>"
    ],
    [
      "e",
      "f"
    ],
    [
      "el",
      "bow</w>"
    ],
    [
      "ene",
      "mies</w>"
    ],
    [
      "ent",
      "ed</w>"
    ],
    [
      "f",
      "an"
    ],
    [
      "gui",
      "l"
    ],
    [
      "hel",
      "d</w>"
    ],
    [
      "i",
      "gh"
    ],
    [
      "lan",
      "caster</w>"
    ],
    [
      "li",
      "ps</w>"
    ],
    [
      "m",
      "et</w>"
    ],
    [
      "mo",
      "ve</w>"
    ],
    [
      "ne",
      "xt</w>"
    ],
    [
      "plea",
      "sure</w>"
    ],
    [
      "po",
      "st</w>"
    ],
    [
      "pri",
      "son"
    ],
    [
      "ri",
      "ed</w>"
    ],
    [
      "s",
      "car"
    ],
    [
      "s",
      "mi"
    ],
    [
      "see",
      "k</w>"
    ],
    [
      "st",
      "ra"
    ],
    [
      "su",
      "it</w>"
    ],
    [
      "t",
      "ted</w>"
    ],
    [
      "ti",
      "tle</w>"
    ],
    [
      "w",
      "ind</w>"
    ],
    [
      "you",
      "th</w>"
    ],
    [
      "c",
      "lou"
    ],
    [
      "c",
      "ru"
    ],
    [
      "cei",
      "ved</w>"
    ],
    [
      "conf",
      "ess</w>"
    ],
    [
      "de",
      "vil</w>"
    ],
    [
      "fur",
      "ther</w>"
    ],
    [
      "g",
      "ates</w>"
    ],
    [
      "g",
      "lor"
    ],
    [
      "gi",
      "ven</w>"
    ],
    [
      "la",
      "w"
    ],
    [
      "le",
      "y</w>"
    ],
    [
      "m",
      "ing</w>"
    ],
    [
      "marri",
      "age</w>"
    ],
    [
      "me",
      "thinks</w>"
    ],
    [
      "mi",
      "rand"
    ],
    [
      "mirand",
      "a</w>"
    ],
    [
      "n",
      "es</w>"
    ],
    [
      "or",
      "ge</w>"
    ],
    [
      "p",
      "lan"
    ],
    [
      "po",
      "sed</w>"
    ],
    [
      "re",
      "ma"
    ],
    [
      "st",
      "ing</w>"
    ],
    [
      "str",
      "ength</w>"
    ],
    [
      "str",
      "ong</w>"
    ],
    [
      "t",
      "ower</w>"
    ],
    [
      "t",
      "we"
    ],
    [
      "ti",
      "s"
    ],
    [
      "to",
      "ok</w>"
    ],
    [
      "us",
      "ur"
    ],
    [
      "b",
      "rie"
    ],
    [
      "ba",
      "d</w>"
    ],
    [
      "be",
      "twe"
    ],
    [
      "betwe",
      "en</w>"
    ],
    [
      "bo",
      "som</w>"
    ],
    [
      "ch",
      "ee"
    ],
    [
      "di",
      "sh"
    ],
    [
      "fa",
      "v"
    ],
    [
      "fe",
      "ct</w>"
    ],
    [
      "g",
      "ing</w>"
    ],
    [
      "ga",
      "ve</w>"
    ],
    [
      "ge",
      "orge</w>"
    ],
    [
      "h",
      "o</w>"
    ],
    [
      "i",
      "ce</w>"
    ],
    [
      "i",
      "son</w>"
    ],
    [
      "in",
      "ter"
    ],
    [
      "k",
      "en"
    ],
    [
      "k",
      "ings</w>"
    ],
    [
      "mer",
      "ry</w>"
    ],
    [
      "mi",
      "ty</w>"
    ],
    [
      "mur",
      "der</w>"
    ],
    [
      "per",
      "di"
    ],
    [
      "sa",
      "d</w>"
    ],
    [
      "soldi",
      "er</w>"
    ],
    [
      "t",
      "in"
    ],
    [
      "te",
      "ous</w>"
    ],
    [
      "tt",
      "ers</w>"
    ],
    [
      "u",
      "ght</w>"
    ],
    [
      "al",
      "ong</w>"
    ],
    [
      "al",
      "ready</w>"
    ],
    [
      "bes",
      "i"
    ],
    [
      "bla",
      "ck</w>"
    ],
    [
      "br",
      "ay</w>"
    ],
    [
      "ci",
      "ent</w>"
    ],
    [
      "da",
      "m"
    ],
    [
      "di",
      "re"
    ],
    [
      "fi",
      "ed</w>"
    ],
    [
      "i",
      "ous</w>"
    ],
    [
      "in",
      "ts</w>"
    ],
    [
      "l",
      "th</w>"
    ],
    [
      "lo",
      "ved</w>"
    ],
    [
      "low",
      "ers</w>"
    ],
    [
      "m",
      "selves</w>"
    ],
    [
      "mor",
      "tal</w>"
    ],
    [
      "of",
      "ten</w>"
    ],
    [
      "p",
      "or"
    ],
    [
      "di",
      "sp"
    ],
    [
      "pla",
      "in</w>"
    ],
    [
      "pos",
      "s"
    ],
    [
      "s",
      "ma"
    ],
    [
      "sa",
      "tis"
    ],
    [
      "sh",
      "op</w>"
    ],
    [
      "sic",
      "</w>"
    ],
    [
      "t",
      "on</w>"
    ],
    [
      "th",
      "row</w>"
    ],
    [
      "the",
      "mselves</w>"
    ],
    [
      "tribu",
      "nes</w>"
    ],
    [
      "y",
      "ers</w>"
    ],
    [
      "b",
      "ly</w>"
    ],
    [
      "c",
      "ess</w>"
    ],
    [
      "dang",
      "er"
    ],
    [
      "e",
      "m"
    ],
    [
      "e",
      "ts</w>"
    ],
    [
      "t",
      "r"
    ],
    [
      "st",
      "re"
    ],
    [
      "ear",
      "l</w>"
    ],
    [
      "fe",
      "tch</w>"
    ],
    [
      "for",
      "get</w>"
    ],
    [
      "go",
      "es</w>"
    ],
    [
      "han",
      "g</w>"
    ],
    [
      "here",
      "ford</w>"
    ],
    [
      "ho",
      "od</w>"
    ],
    [
      "is",
      "sue</w>"
    ],
    [
      "kno",
      "w"
    ],
    [
      "l",
      "st</w>"
    ],
    [
      "li",
      "ber"
    ],
    [
      "m",
      "ow"
    ],
    [
      "mor",
      "ning</w>"
    ],
    [
      "mow",
      "bray</w>"
    ],
    [
      "n",
      "ar"
    ],
    [
      "offi",
      "ce</w>"
    ],
    [
      "om",
      "as</w>"
    ],
    [
      "perdi",
      "ta</w>"
    ],
    [
      "r",
      "et</w>"
    ],
    [
      "res",
      "pe"
    ],
    [
      "s",
      "man</w>"
    ],
    [
      "s",
      "oft</w>"
    ],
    [
      "soldi",
      "ers</w>"
    ],
    [
      "spo",
      "ke</w>"
    ],
    [
      "stan",
      "ley</w>"
    ],
    [
      "subje",
      "ct</w>"
    ],
    [
      "th",
      "omas</w>"
    ],
    [
      "vi",
      "c"
    ],
    [
      "vi",
      "ol"
    ],
    [
      "wat",
      "ch</w>"
    ],
    [
      "whi",
      "lst</w>"
    ],
    [
      "wor",
      "th</w>"
    ],
    [
      "p",
      "en"
    ],
    [
      "an",
      "a</w>"
    ],
    [
      "mar",
      "i"
    ],
    [
      "app",
      "ear</w>"
    ],
    [
      "e",
      "mb"
    ],
    [
      "en",
      "ter</w>"
    ],
    [
      "fo",
      "e</w>"
    ],
    [
      "ha",
      "dst</w>"
    ],
    [
      "j",
      "est</w>"
    ],
    [
      "l",
      "o</w>"
    ],
    [
      "mar",
      "ch</w>"
    ],
    [
      "mari",
      "ana</w>"
    ],
    [
      "offic",
      "er</w>"
    ],
    [
      "pro",
      "ce"
    ],
    [
      "s",
      "wi"
    ],
    [
      "si",
      "ble</w>"
    ],
    [
      "t",
      "ent</w>"
    ],
    [
      "ta",
      "ge</w>"
    ],
    [
      "w",
      "ounds</w>"
    ],
    [
      "wa",
      "ys</w>"
    ],
    [
      "wh",
      "e"
    ],
    [
      "wi",
      "t</w>"
    ],
    [
      "won",
      "der</w>"
    ],
    [
      "b",
      "li"
    ],
    [
      "ba",
      "se</w>"
    ],
    [
      "bat",
      "tle</w>"
    ],
    [
      "bl",
      "es"
    ],
    [
      "t",
      "rou"
    ],
    [
      "ca",
      "se</w>"
    ],
    [
      "ch",
      "ang"
    ],
    [
      "ck",
      "ed</w>"
    ],
    [
      "danger",
      "ous</w>"
    ],
    [
      "den",
      "y</w>"
    ],
    [
      "dr",
      "in"
    ],
    [
      "e",
      "mp"
    ],
    [
      "entrea",
      "t</w>"
    ],
    [
      "er",
      "i"
    ],
    [
      "ful",
      "ly</w>"
    ],
    [
      "g",
      "rant</w>"
    ],
    [
      "gre",
      "en</w>"
    ],
    [
      "gu",
      "es</w>"
    ],
    [
      "jo",
      "in</w>"
    ],
    [
      "k",
      "na"
    ],
    [
      "li",
      "ant</w>"
    ],
    [
      "li",
      "ty</w>"
    ],
    [
      "h",
      "u"
    ],
    [
      "mo",
      "ck</w>"
    ],
    [
      "p",
      "at"
    ],
    [
      "pe",
      "d"
    ],
    [
      "po",
      "ison</w>"
    ],
    [
      "pres",
      "ence</w>"
    ],
    [
      "requ",
      "est</w>"
    ],
    [
      "spe",
      "ed</w>"
    ],
    [
      "st",
      "y</w>"
    ],
    [
      "th",
      "ence</w>"
    ],
    [
      "th",
      "rea"
    ],
    [
      "ti",
      "ve</w>"
    ],
    [
      "in",
      "i"
    ],
    [
      "voi",
      "ce</w>"
    ],
    [
      "war",
      "s</w>"
    ],
    [
      "b",
      "lu"
    ],
    [
      "c",
      "ure</w>"
    ],
    [
      "ch",
      "ri"
    ],
    [
      "consu",
      "l</w>"
    ],
    [
      "d",
      "den</w>"
    ],
    [
      "d",
      "ru"
    ],
    [
      "de",
      "eds</w>"
    ],
    [
      "dish",
      "on"
    ],
    [
      "f",
      "eel</w>"
    ],
    [
      "for",
      "ward</w>"
    ],
    [
      "h",
      "ard</w>"
    ],
    [
      "h",
      "ur"
    ],
    [
      "hea",
      "ds</w>"
    ],
    [
      "ma",
      "i"
    ],
    [
      "ho",
      "t</w>"
    ],
    [
      "l",
      "ts</w>"
    ],
    [
      "lon",
      "don</w>"
    ],
    [
      "mi",
      "ser"
    ],
    [
      "migh",
      "ty</w>"
    ],
    [
      "pr",
      "ess</w>"
    ],
    [
      "quar",
      "rel</w>"
    ],
    [
      "qui",
      "ck"
    ],
    [
      "re",
      "ver"
    ],
    [
      "s",
      "k"
    ],
    [
      "see",
      "ms</w>"
    ],
    [
      "som",
      "er"
    ],
    [
      "th",
      "ro"
    ],
    [
      "thr",
      "one</w>"
    ],
    [
      "ti",
      "us</w>"
    ],
    [
      "v",
      "el</w>"
    ],
    [
      "wa",
      "in</w>"
    ],
    [
      "where",
      "in</w>"
    ],
    [
      "wo",
      "o</w>"
    ],
    [
      "a",
      "la"
    ],
    [
      "al",
      "ly</w>"
    ],
    [
      "an",
      "cient</w>"
    ],
    [
      "b",
      "s</w>"
    ],
    [
      "beg",
      "in</w>"
    ],
    [
      "brea",
      "st</w>"
    ],
    [
      "brie",
      "f</w>"
    ],
    [
      "bu",
      "y</w>"
    ],
    [
      "c",
      "ow"
    ],
    [
      "ar",
      "ds</w>"
    ],
    [
      "ch",
      "ur"
    ],
    [
      "di",
      "g"
    ],
    [
      "e",
      "f</w>"
    ],
    [
      "th",
      "i"
    ],
    [
      "el",
      "ess</w>"
    ],
    [
      "for",
      "e"
    ],
    [
      "go",
      "ver"
    ],
    [
      "har",
      "m</w>"
    ],
    [
      "i",
      "ma"
    ],
    [
      "kee",
      "per</w>"
    ],
    [
      "lar",
      "tius</w>"
    ],
    [
      "law",
      "ful</w>"
    ],
    [
      "le",
      "dge</w>"
    ],
    [
      "low",
      "er</w>"
    ],
    [
      "m",
      "el"
    ],
    [
      "mu",
      "sic</w>"
    ],
    [
      "pati",
      "ent</w>"
    ],
    [
      "per",
      "i"
    ],
    [
      "pra",
      "yers</w>"
    ],
    [
      "princ",
      "ely</w>"
    ],
    [
      "prom",
      "ise</w>"
    ],
    [
      "sa",
      "fe</w>"
    ],
    [
      "sla",
      "ve</w>"
    ],
    [
      "somer",
      "set</w>"
    ],
    [
      "sp",
      "a"
    ],
    [
      "th",
      "er"
    ],
    [
      "ea",
      "t</w>"
    ],
    [
      "th",
      "ither</w>"
    ],
    [
      "th",
      "or"
    ],
    [
      "u",
      "</w>"
    ],
    [
      "w",
      "ant</w>"
    ],
    [
      "wa",
      "sh</w>"
    ],
    [
      "we",
      "d"
    ],
    [
      "a",
      "wa"
    ],
    [
      "abo",
      "ve</w>"
    ],
    [
      "ap",
      "pro"
    ],
    [
      "b",
      "re"
    ],
    [
      "bi",
      "shop</w>"
    ],
    [
      "bro",
      "a"
    ],
    [
      "clif",
      "f</w>"
    ],
    [
      "con",
      "c"
    ],
    [
      "con",
      "dem"
    ],
    [
      "con",
      "sent</w>"
    ],
    [
      "d",
      "ine</w>"
    ],
    [
      "dr",
      "un"
    ],
    [
      "ent",
      "er"
    ],
    [
      "f",
      "led</w>"
    ],
    [
      "fau",
      "lts</w>"
    ],
    [
      "fi",
      "ve</w>"
    ],
    [
      "fl",
      "es"
    ],
    [
      "g",
      "ri"
    ],
    [
      "kno",
      "ck</w>"
    ],
    [
      "mea",
      "sure</w>"
    ],
    [
      "pe",
      "ti"
    ],
    [
      "pres",
      "ently</w>"
    ],
    [
      "pret",
      "ty</w>"
    ],
    [
      "ra",
      "l</w>"
    ],
    [
      "ra",
      "t"
    ],
    [
      "rat",
      "cliff</w>"
    ],
    [
      "s",
      "lan"
    ],
    [
      "sa",
      "ge</w>"
    ],
    [
      "sh",
      "ment</w>"
    ],
    [
      "sp",
      "eech</w>"
    ],
    [
      "tri",
      "um"
    ],
    [
      "v",
      "ow</w>"
    ],
    [
      "va",
      "liant</w>"
    ],
    [
      "vi",
      "se</w>"
    ],
    [
      "wh",
      "ence</w>"
    ],
    [
      "wi",
      "s"
    ],
    [
      "0",
      "</w>"
    ],
    [
      "al",
      "most</w>"
    ],
    [
      "ala",
      "ck</w>"
    ],
    [
      "ch",
      "ol"
    ],
    [
      "coun",
      "t</w>"
    ],
    [
      "cur",
      "sed</w>"
    ],
    [
      "d",
      "ry</w>"
    ],
    [
      "di",
      "st"
    ],
    [
      "ear",
      "ly</w>"
    ],
    [
      "f",
      "res"
    ],
    [
      "f",
      "y</w>"
    ],
    [
      "fles",
      "h</w>"
    ],
    [
      "g",
      "or"
    ],
    [
      "gi",
      "r"
    ],
    [
      "i",
      "mp"
    ],
    [
      "i",
      "sed</w>"
    ],
    [
      "ju",
      "d"
    ],
    [
      "la",
      "r</w>"
    ],
    [
      "le",
      "i"
    ],
    [
      "ll",
      "ed</w>"
    ],
    [
      "ma",
      "li"
    ],
    [
      "may",
      "or</w>"
    ],
    [
      "mi",
      "ss</w>"
    ],
    [
      "mp",
      "le</w>"
    ],
    [
      "off",
      "er</w>"
    ],
    [
      "ou",
      "ra"
    ],
    [
      "rom",
      "an</w>"
    ],
    [
      "s",
      "ent"
    ],
    [
      "st",
      "le</w>"
    ],
    [
      "su",
      "p"
    ],
    [
      "suf",
      "fer</w>"
    ],
    [
      "ta",
      "in"
    ],
    [
      "temp",
      "t</w>"
    ],
    [
      "tor",
      "y</w>"
    ],
    [
      "tow",
      "ards</w>"
    ],
    [
      "tt",
      "en</w>"
    ],
    [
      "w",
      "ri"
    ],
    [
      "v",
      "ent"
    ],
    [
      "van",
      "tage</w>"
    ],
    [
      "whe",
      "ther</w>"
    ],
    [
      "a",
      "while</w>"
    ],
    [
      "ap",
      "par"
    ],
    [
      "ari",
      "el</w>"
    ],
    [
      "bo",
      "he"
    ],
    [
      "bo",
      "ok</w>"
    ],
    [
      "bohe",
      "mi"
    ],
    [
      "cha",
      "mber</w>"
    ],
    [
      "clo",
      "se</w>"
    ],
    [
      "co",
      "ver</w>"
    ],
    [
      "cur",
      "tis</w>"
    ],
    [
      "des",
      "pi"
    ],
    [
      "deser",
      "ved</w>"
    ],
    [
      "disp",
      "at"
    ],
    [
      "dispat",
      "ch</w>"
    ],
    [
      "do",
      "ing</w>"
    ],
    [
      "gh",
      "o"
    ],
    [
      "gi",
      "lia</w>"
    ],
    [
      "h",
      "ind</w>"
    ],
    [
      "hear",
      "ing</w>"
    ],
    [
      "king",
      "dom</w>"
    ],
    [
      "lea",
      "st</w>"
    ],
    [
      "li",
      "ving</w>"
    ],
    [
      "mo",
      "on</w>"
    ],
    [
      "mo",
      "ved</w>"
    ],
    [
      "mou",
      "th</w>"
    ],
    [
      "mu",
      "sici"
    ],
    [
      "nat",
      "u"
    ],
    [
      "sh",
      "y</w>"
    ],
    [
      "sla",
      "ughter</w>"
    ],
    [
      "sti",
      "an</w>"
    ],
    [
      "subje",
      "cts</w>"
    ],
    [
      "tow",
      "ard</w>"
    ],
    [
      "v",
      "est</w>"
    ],
    [
      "vir",
      "gilia</w>"
    ],
    [
      "virtu",
      "ous</w>"
    ],
    [
      "w",
      "ouldst</w>"
    ],
    [
      "we",
      "eping</w>"
    ],
    [
      "wh",
      "ol"
    ],
    [
      "wi",
      "tness</w>"
    ],
    [
      "wor",
      "ship</w>"
    ],
    [
      "a",
      "di"
    ],
    [
      "a",
      "ma"
    ],
    [
      "ab",
      "hor"
    ],
    [
      "anti",
      "gon"
    ],
    [
      "antigon",
      "us</w>"
    ],
    [
      "ba",
      "wd</w>"
    ],
    [
      "be",
      "hind</w>"
    ],
    [
      "besi",
      "des</w>"
    ],
    [
      "bl",
      "es</w>"
    ],
    [
      "blo",
      "ws</w>"
    ],
    [
      "bohemi",
      "a</w>"
    ],
    [
      "brea",
      "the</w>"
    ],
    [
      "di",
      "tion</w>"
    ],
    [
      "ed",
      "ing</w>"
    ],
    [
      "b",
      "le"
    ],
    [
      "emb",
      "ra"
    ],
    [
      "ex",
      "tre"
    ],
    [
      "g",
      "row</w>"
    ],
    [
      "ga",
      "r</w>"
    ],
    [
      "goo",
      "dly</w>"
    ],
    [
      "grea",
      "ter</w>"
    ]
  ],
  "vocab": {
    "<unk>": 0,
    "!": 1,
    "$": 2,
    "&": 3,
    "'": 4,
    ",": 5,
    "-": 6,
    ".": 7,
    "0": 8,
    ":": 9,
    ";": 10,
    "</w>": 11,
    "?": 12,
    "a": 13,
    "b": 14,
    "c": 15,
    "d": 16,
    "e": 17,
    "f": 18,
    "g": 19,
    "h": 20,
    "i": 21,
    "j": 22,
    "k": 23,
    "l": 24,
    "m": 25,
    "n": 26,
    "o": 27,
    "p": 28,
    "q": 29,
    "r": 30,
    "s": 31,
    "t": 32,
    "u": 33,
    "v": 34,
    "w": 35,
    "x": 36,
    "y": 37,
    "z": 38,
    "e</w>": 39,
    "th": 40,
    "s</w>": 41,
    "t</w>": 42,
    "d</w>": 43,
    ",</w>": 44,
    "r</w>": 45,
    "y</w>": 46,
    "n</w>": 47,
    "ou": 48,
    "o</w>": 49,
    "an": 50,
    ":</w>": 51,
    "in": 52,
    ".</w>": 53,
    "l</w>": 54,
    "ar": 55,
    "and</w>": 56,
    "the</w>": 57,
    "er": 58,
    "'</w>": 59,
    "er</w>": 60,
    "or": 61,
    "ha": 62,
    "en": 63,
    "is</w>": 64,
    "f</w>": 65,
    "i</w>": 66,
    "ll</w>": 67,
    "you": 68,
    "to</w>": 69,
    "ea": 70,
    "ing": 71,
    "no": 72,
    "wi": 73,
    "th</w>": 74,
    "es": 75,
    "on": 76,
    "a</w>": 77,
    "om": 78,
    "of</w>": 79,
    ";</w>": 80,
    "ch": 81,
    "ing</w>": 82,
    "in</w>": 83,
    "ve</w>": 84,
    "at</w>": 85,
    "you</w>": 86,
    "my</w>": 87,
    "st": 88,
    "en</w>": 89,
    "ed</w>": 90,
    "es</w>": 91,
    "or</w>": 92,
    "m</w>": 93,
    "li": 94,
    "w</w>": 95,
    "ma": 96,
    "wh": 97,
    "on</w>": 98,
    "k</w>": 99,
    "st</w>": 100,
    "that</w>": 101,
    "me</w>": 102,
    "ti": 103,
    "ri": 104,
    "?</w>": 105,
    "ce</w>": 106,
    "the": 107,
    "ro": 108,
    "sh": 109,
    "el": 110,
    "not</w>": 111,
    "!</w>": 112,
    "it</w>": 113,
    "lo": 114,
    "bu": 115,
    "et</w>": 116,
    "as</w>": 117,
    "ke</w>": 118,
    "ay</w>": 119,
    "re": 120,
    "gh": 121,
    "se</w>": 122,
    "ere</w>": 123,
    "for</w>": 124,
    "thou": 125,
    "-</w>": 126,
    "ol": 127,
    "with</w>": 128,
    "si": 129,
    "la": 130,
    "us</w>": 131,
    "ch</w>": 132,
    "be</w>": 133,
    "di": 134,
    "your</w>": 135,
    "ra": 136,
    "le</w>": 137,
    "hi": 138,
    "ca": 139,
    "ur": 140,
    "be": 141,
    "his</w>": 142,
    "com": 143,
    "but</w>": 144,
    "this</w>": 145,
    "have</w>": 146,
    "ther</w>": 147,
    "fa": 148,
    "thou</w>": 149,
    "un": 150,
    "for": 151,
    "ld</w>": 152,
    "go": 153,
    "our</w>": 154,
    "wha": 155,
    "what</w>": 156,
    "him</w>": 157,
    "ru": 158,
    "ds</w>": 159,
    "so</w>": 160,
    "p</w>": 161,
    "mi": 162,
    "sha": 163,
    "ta": 164,
    "ly</w>": 165,
    "thy</w>": 166,
    "ard</w>": 167,
    "se": 168,
    "we": 169,
    "rom": 170,
    "sp": 171,
    "an</w>": 172,
    "ter</w>": 173,
    "now</w>": 174,
    "fi": 175,
    "king</w>": 176,
    "will</w>": 177,
    "ess</w>": 178,
    "su": 179,
    "by</w>": 180,
    "ould</w>": 181,
    "rea": 182,
    "sa": 183,
    "are</w>": 184,
    "ght</w>": 185,
    "le": 186,
    "od</w>": 187,
    "lor": 188,
    "we</w>": 189,
    "one</w>": 190,
    "ci": 191,
    "con": 192,
    "no</w>": 193,
    "est</w>": 194,
    "ear": 195,
    "ty</w>": 196,
    "at": 197,
    "shall</w>": 198,
    "ck</w>": 199,
    "ir</w>": 200,
    "qu": 201,
    "all</w>": 202,
    "her</w>": 203,
    "whi": 204,
    "ne": 205,
    "de": 206,
    "ts</w>": 207,
    "ow": 208,
    "wor": 209,
    "ent</w>": 210,
    "mor": 211,
    "do</w>": 212,
    "if</w>": 213,
    "thee</w>": 214,
    "ow</w>": 215,
    "du": 216,
    "ry</w>": 217,
    "come</w>": 218,
    "vi": 219,
    "mu": 220,
    "hea": 221,
    "ge</w>": 222,
    "pr": 223,
    "al": 224,
    "mo": 225,
    "lord</w>": 226,
    "ence</w>": 227,
    "po": 228,
    "pa": 229,
    "ver": 230,
    "good</w>": 231,
    "man</w>": 232,
    "oun": 233,
    "bo": 234,
    "let</w>": 235,
    "pe": 236,
    "mar": 237,
    "sel": 238,
    "well</w>": 239,
    "dea": 240,
    "ga": 241,
    "from": 242,
    "from</w>": 243,
    "pro": 244,
    "am</w>": 245,
    "then</w>": 246,
    "sir</w>": 247,
    "which</w>": 248,
    "more</w>": 249,
    "tru": 250,
    "g</w>": 251,
    "was</w>": 252,
    "ine</w>": 253,
    "dy</w>": 254,
    "ent": 255,
    "here</w>": 256,
    "de</w>": 257,
    "ers</w>": 258,
    "bro": 259,
    "she</w>": 260,
    "ran": 261,
    "ver</w>": 262,
    "they</w>": 263,
    "gi": 264,
    "te": 265,
    "would</w>": 266,
    "lea": 267,
    "ous</w>": 268,
    "how</w>": 269,
    "par": 270,
    "bi": 271,
    "ble</w>": 272,
    "do": 273,
    "to": 274,
    "old</w>": 275,
    "son</w>": 276,
    "fu": 277,
    "som": 278,
    "self</w>": 279,
    "ba": 280,
    "ed": 281,
    "than</w>": 282,
    "tion</w>": 283,
    "their</w>": 284,
    "duke</w>": 285,
    "them</w>": 286,
    "say</w>": 287,
    "fir": 288,
    "up": 289,
    "gh</w>": 290,
    "hath</w>": 291,
    "te</w>": 292,
    "were</w>": 293,
    "gu": 294,
    "rich": 295,
    "ward</w>": 296,
    "go</w>": 297,
    "like</w>": 298,
    "fe</w>": 299,
    "ni": 300,
    "love</w>": 301,
    "there</w>": 302,
    "sh</w>": 303,
    "when</w>": 304,
    "lu": 305,
    "me": 306,
    "end</w>": 307,
    "tio</w>": 308,
    "chi": 309,
    "wa": 310,
    "of": 311,
    "war": 312,
    "may</w>": 313,
    "op": 314,
    "out</w>": 315,
    "upon</w>": 316,
    "fore</w>": 317,
    "make</w>": 318,
    "fri": 319,
    "gra": 320,
    "ere": 321,
    "richard</w>": 322,
    "que": 323,
    "ure</w>": 324,
    "per": 325,
    "ck": 326,
    "yet</w>": 327,
    "cen": 328,
    "any</w>": 329,
    "wn</w>": 330,
    "know</w>": 331,
    "queen</w>": 332,
    "loo": 333,
    "our": 334,
    "um": 335,
    "ves</w>": 336,
    "ven</w>": 337,
    "al</w>": 338,
    "cor": 339,
    "ted</w>": 340,
    "must</w>": 341,
    "tis</w>": 342,
    "der</w>": 343,
    "own</w>": 344,
    "ee": 345,
    "should</w>": 346,
    "first</w>": 347,
    "ju": 348,
    "why</w>": 349,
    "way</w>": 350,
    "lou": 351,
    "where</w>": 352,
    "hear": 353,
    "cu": 354,
    "pu": 355,
    "had</w>": 356,
    "pi": 357,
    "father</w>": 358,
    "aga": 359,
    "edward</w>": 360,
    "did</w>": 361,
    "ant</w>": 362,
    "da": 363,
    "na": 364,
    "ind</w>": 365,
    "centio</w>": 366,
    "spea": 367,
    "ser": 368,
    "tt": 369,
    "see</w>": 370,
    "some</w>": 371,
    "ir": 372,
    "ces": 373,
    "death</w>": 374,
    "bea": 375,
    "give</w>": 376,
    "take</w>": 377,
    "fe": 378,
    "ll": 379,
    "gent": 380,
    "ful</w>": 381,
    "thin": 382,
    "men</w>": 383,
    "ang": 384,
    "ex": 385,
    "ings</w>": 386,
    "too</w>": 387,
    "thing</w>": 388,
    "ws</w>": 389,
    "who</w>": 390,
    "enry</w>": 391,
    "henry</w>": 392,
    "sed</w>": 393,
    "mine</w>": 394,
    "speak</w>": 395,
    "tter</w>": 396,
    "vo": 397,
    "yor": 398,
    "ese</w>": 399,
    "ster</w>": 400,
    "time</w>": 401,
    "york</w>": 402,
    "des": 403,
    "ate</w>": 404,
    "eo</w>": 405,
    "romeo</w>": 406,
    "these</w>": 407,
    "ss</w>": 408,
    "sti": 409,
    "hon": 410,
    "ong</w>": 411,
    "he": 412,
    "very</w>": 413,
    "ks</w>": 414,
    "men": 415,
    "ius</w>": 416,
    "god</w>": 417,
    "such</w>": 418,
    "ince</w>": 419,
    "most</w>": 420,
    "can": 421,
    "ac": 422,
    "om</w>": 423,
    "can</w>": 424,
    "pri": 425,
    "ce": 426,
    "cester</w>": 427,
    "blo": 428,
    "day</w>": 429,
    "glou": 430,
    "oo": 431,
    "ved</w>": 432,
    "gloucester</w>": 433,
    "tell</w>": 434,
    "gre": 435,
    "ell": 436,
    "jo": 437,
    "mon": 438,
    "ten": 439,
    "lady</w>": 440,
    "lt</w>": 441,
    "vin": 442,
    "ey": 443,
    "pp": 444,
    "ear</w>": 445,
    "coun": 446,
    "ness</w>": 447,
    "ne</w>": 448,
    "ound</w>": 449,
    "think</w>": 450,
    "eng": 451,
    "heart</w>": 452,
    "brother</w>": 453,
    "land</w>": 454,
    "nor</w>": 455,
    "ii</w>": 456,
    "life</w>": 457,
    "wick</w>": 458,
    "mer": 459,
    "res": 460,
    "hear</w>": 461,
    "id</w>": 462,
    "vincentio</w>": 463,
    "der": 464,
    "made</w>": 465,
    "warwick</w>": 466,
    "mb": 467,
    "af": 468,
    "ance</w>": 469,
    "mp": 470,
    "use</w>": 471,
    "ears</w>": 472,
    "au": 473,
    "there": 474,
    "yself</w>": 475,
    "br": 476,
    "look</w>": 477,
    "less</w>": 478,
    "much</w>": 479,
    "gue</w>": 480,
    "pla": 481,
    "low</w>": 482,
    "hor": 483,
    "swe": 484,
    "art</w>": 485,
    "tu": 486,
    "ment</w>": 487,
    "brea": 488,
    "grea": 489,
    "lar": 490,
    "never</w>": 491,
    "sw": 492,
    "ct</w>": 493,
    "ab": 494,
    "str": 495,
    "done</w>": 496,
    "her": 497,
    "ys</w>": 498,
    "cro": 499,
    "dis": 500,
    "inius</w>": 501,
    "ms</w>": 502,
    "rai": 503,
    "pre": 504,
    "night</w>": 505,
    "cori": 506,
    "coriol": 507,
    "true</w>": 508,
    "doth</w>": 509,
    "ands</w>": 510,
    "tes</w>": 511,
    "tw": 512,
    "before</w>": 513,
    "ely</w>": 514,
    "ons</w>": 515,
    "petru": 516,
    "ter": 517,
    "blood</w>": 518,
    "both</w>": 519,
    "ces</w>": 520,
    "cannot</w>": 521,
    "chio</w>": 522,
    "gar": 523,
    "petruchio</w>": 524,
    "thus</w>": 525,
    "ded</w>": 526,
    "urse</w>": 527,
    "plea": 528,
    "gentle": 529,
    "away</w>": 530,
    "ina</w>": 531,
    "name</w>": 532,
    "being</w>": 533,
    "call</w>": 534,
    "fol": 535,
    "ad": 536,
    "dr": 537,
    "fair</w>": 538,
    "noble</w>": 539,
    "anus</w>": 540,
    "coriolanus</w>": 541,
    "oul</w>": 542,
    "been</w>": 543,
    "h</w>": 544,
    "word</w>": 545,
    "hand</w>": 546,
    "inst</w>": 547,
    "ki": 548,
    "juli": 549,
    "again</w>": 550,
    "enius</w>": 551,
    "menenius</w>": 552,
    "ugh": 553,
    "pray</w>": 554,
    "honour</w>": 555,
    "ig": 556,
    "pres": 557,
    "so": 558,
    "ar</w>": 559,
    "though</w>": 560,
    "ford</w>": 561,
    "tur": 562,
    "juliet</w>": 563,
    "nor": 564,
    "see": 565,
    "ep": 566,
    "secon": 567,
    "sweet</w>": 568,
    "ends</w>": 569,
    "hast": 570,
    "bl": 571,
    "set</w>": 572,
    "co": 573,
    "kno": 574,
    "ving</w>": 575,
    "mio</w>": 576,
    "second</w>": 577,
    "broke</w>": 578,
    "myself</w>": 579,
    "dly</w>": 580,
    "great</w>": 581,
    "leave</w>": 582,
    "ting</w>": 583,
    "comes</w>": 584,
    "fear</w>": 585,
    "angel": 586,
    "hou": 587,
    "wom": 588,
    "therefore</w>": 589,
    "bol": 590,
    "cla": 591,
    "live</w>": 592,
    "prince</w>": 593,
    "stand</w>": 594,
    "against</w>": 595,
    "sure</w>": 596,
    "ven": 597,
    "car": 598,
    "har": 599,
    "row</w>": 600,
    "lay</w>": 601,
    "bear</w>": 602,
    "hel": 603,
    "isa": 604,
    "poor</w>": 605,
    "clo": 606,
    "tor": 607,
    "angelo</w>": 608,
    "down</w>": 609,
    "ever</w>": 610,
    "sic": 611,
    "tri": 612,
    "wife</w>": 613,
    "world</w>": 614,
    "grace</w>": 615,
    "kee": 616,
    "rie": 617,
    "us": 618,
    "hast</w>": 619,
    "ower</w>": 620,
    "pea": 621,
    "ughter</w>": 622,
    "ding</w>": 623,
    "even</w>": 624,
    "heaven</w>": 625,
    "il</w>": 626,
    "ber": 627,
    "stay</w>": 628,
    "comm": 629,
    "kes</w>": 630,
    "mother</w>": 631,
    "nay</w>": 632,
    "as": 633,
    "ep</w>": 634,
    "clar": 635,
    "clarence</w>": 636,
    "far": 637,
    "sor": 638,
    "till</w>": 639,
    "who": 640,
    "with": 641,
    "bes": 642,
    "mea": 643,
    "cause</w>": 644,
    "int</w>": 645,
    "nurse</w>": 646,
    "rou": 647,
    "sea": 648,
    "citi": 649,
    "eyes</w>": 650,
    "cou": 651,
    "cur": 652,
    "don</w>": 653,
    "hol": 654,
    "hold</w>": 655,
    "head</w>": 656,
    "master</w>": 657,
    "ses</w>": 658,
    "shi": 659,
    "ani": 660,
    "el</w>": 661,
    "buck": 662,
    "citiz": 663,
    "ham</w>": 664,
    "house</w>": 665,
    "ft</w>": 666,
    "ls</w>": 667,
    "many</w>": 668,
    "sin</w>": 669,
    "tran": 670,
    "dead</w>": 671,
    "ho": 672,
    "io</w>": 673,
    "ton": 674,
    "les</w>": 675,
    "lie": 676,
    "boling": 677,
    "bolingbroke</w>": 678,
    "your": 679,
    "die</w>": 680,
    "iii</w>": 681,
    "lan": 682,
    "sen": 683,
    "tun": 684,
    "bell": 685,
    "cour": 686,
    "dst</w>": 687,
    "ge": 688,
    "whose</w>": 689,
    "bra": 690,
    "ps</w>": 691,
    "ty": 692,
    "tho": 693,
    "bella</w>": 694,
    "friends</w>": 695,
    "isabella</w>": 696,
    "nothing</w>": 697,
    "ins</w>": 698,
    "led</w>": 699,
    "mur": 700,
    "spi": 701,
    "ttle</w>": 702,
    "friar</w>": 703,
    "ingham</w>": 704,
    "leon": 705,
    "leontes</w>": 706,
    "buckingham</w>": 707,
    "ath": 708,
    "better</w>": 709,
    "cio</w>": 710,
    "peace</w>": 711,
    "tch</w>": 712,
    "unto</w>": 713,
    "ans</w>": 714,
    "cli": 715,
    "deed</w>": 716,
    "those</w>": 717,
    "cy</w>": 718,
    "cont": 719,
    "char": 720,
    "gone</w>": 721,
    "ours</w>": 722,
    "still</w>": 723,
    "off</w>": 724,
    "part</w>": 725,
    "soul</w>": 726,
    "cha": 727,
    "daughter</w>": 728,
    "foo": 729,
    "qui": 730,
    "sol": 731,
    "words</w>": 732,
    "youn": 733,
    "age</w>": 734,
    "cious</w>": 735,
    "hence</w>": 736,
    "tranio</w>": 737,
    "cius</w>": 738,
    "sla": 739,
    "two</w>": 740,
    "gentleman</w>": 741,
    "lucio</w>": 742,
    "marcius</w>": 743,
    "vol": 744,
    "hop": 745,
    "ither</w>": 746,
    "news</w>": 747,
    "could</w>": 748,
    "long</w>": 749,
    "rut": 750,
    "since</w>": 751,
    "sion</w>": 752,
    "sicinius</w>": 753,
    "turn</w>": 754,
    "eli": 755,
    "little</w>": 756,
    "bid</w>": 757,
    "pur": 758,
    "iv": 759,
    "ap": 760,
    "crown</w>": 761,
    "garet</w>": 762,
    "margaret</w>": 763,
    "mill": 764,
    "sle": 765,
    "capu": 766,
    "lords</w>": 767,
    "vir": 768,
    "wel": 769,
    "bal": 770,
    "grie": 771,
    "put</w>": 772,
    "whom</w>": 773,
    "camill": 774,
    "camillo</w>": 775,
    "clif": 776,
    "tor</w>": 777,
    "fel": 778,
    "gro": 779,
    "him": 780,
    "himself</w>": 781,
    "ign</w>": 782,
    "wr": 783,
    "ben": 784,
    "capulet</w>": 785,
    "face</w>": 786,
    "thine</w>": 787,
    "abe": 788,
    "else</w>": 789,
    "iv</w>": 790,
    "kne": 791,
    "mes</w>": 792,
    "abeth</w>": 793,
    "eliz": 794,
    "elizabeth</w>": 795,
    "hom": 796,
    "sub": 797,
    "arina</w>": 798,
    "ced</w>": 799,
    "ns</w>": 800,
    "pti": 801,
    "tongue</w>": 802,
    "atharina</w>": 803,
    "im": 804,
    "katharina</w>": 805,
    "pardon</w>": 806,
    "sing</w>": 807,
    "get</w>": 808,
    "gentle</w>": 809,
    "tly</w>": 810,
    "tune</w>": 811,
    "while</w>": 812,
    "comp": 813,
    "dear</w>": 814,
    "ning</w>": 815,
    "re</w>": 816,
    "young</w>": 817,
    "b</w>": 818,
    "best</w>": 819,
    "earth</w>": 820,
    "hus": 821,
    "might</w>": 822,
    "none</w>": 823,
    "pom": 824,
    "power</w>": 825,
    "show</w>": 826,
    "back</w>": 827,
    "dou": 828,
    "husb": 829,
    "keep</w>": 830,
    "low": 831,
    "ort</w>": 832,
    "dra": 833,
    "forth</w>": 834,
    "peop": 835,
    "provo": 836,
    "fo": 837,
    "fare": 838,
    "sta</w>": 839,
    "ten</w>": 840,
    "cei": 841,
    "citizen</w>": 842,
    "drea": 843,
    "farewell</w>": 844,
    "iness</w>": 845,
    "light</w>": 846,
    "people</w>": 847,
    "thought</w>": 848,
    "unt</w>": 849,
    "bapti": 850,
    "lucentio</w>": 851,
    "sper": 852,
    "vi</w>": 853,
    "beg": 854,
    "came</w>": 855,
    "eech</w>": 856,
    "gru": 857,
    "hope</w>": 858,
    "nat": 859,
    "place</w>": 860,
    "roy": 861,
    "baptista</w>": 862,
    "den</w>": 863,
    "ger</w>": 864,
    "sta": 865,
    "hastings</w>": 866,
    "horten": 867,
    "hortensi": 868,
    "sur": 869,
    "bring</w>": 870,
    "every</w>": 871,
    "eld</w>": 872,
    "happ": 873,
    "hortensio</w>": 874,
    "husband</w>": 875,
    "off": 876,
    "rep": 877,
    "bani": 878,
    "boy</w>": 879,
    "ction</w>": 880,
    "esca": 881,
    "home</w>": 882,
    "lies</w>": 883,
    "rant</w>": 884,
    "where": 885,
    "find</w>": 886,
    "hands</w>": 887,
    "man": 888,
    "said</w>": 889,
    "stress</w>": 890,
    "va": 891,
    "bed</w>": 892,
    "brut": 893,
    "brutus</w>": 894,
    "cousin</w>": 895,
    "spo": 896,
    "stri": 897,
    "welcome</w>": 898,
    "answ": 899,
    "cra": 900,
    "den": 901,
    "fal": 902,
    "ghts</w>": 903,
    "heard</w>": 904,
    "into</w>": 905,
    "reme": 906,
    "rome</w>": 907,
    "about</w>": 908,
    "dost</w>": 909,
    "kin": 910,
    "ling</w>": 911,
    "min": 912,
    "sig": 913,
    "tears</w>": 914,
    "tain</w>": 915,
    "thir": 916,
    "ano": 917,
    "gen": 918,
    "mistress</w>": 919,
    "thre": 920,
    "app": 921,
    "after</w>": 922,
    "conf": 923,
    "help</w>": 924,
    "joy</w>": 925,
    "lus</w>": 926,
    "murder": 927,
    "please</w>": 928,
    "provost</w>": 929,
    "stru": 930,
    "full</w>": 931,
    "je": 932,
    "woman</w>": 933,
    "bur": 934,
    "comfor": 935,
    "makes</w>": 936,
    "mber</w>": 937,
    "morrow</w>": 938,
    "tes": 939,
    "thum": 940,
    "bri": 941,
    "grumio</w>": 942,
    "mind</w>": 943,
    "mean</w>": 944,
    "sent</w>": 945,
    "tle</w>": 946,
    "tal": 947,
    "answer</w>": 948,
    "cominius</w>": 949,
    "escalus</w>": 950,
    "fai": 951,
    "indeed</w>": 952,
    "marri": 953,
    "marry</w>": 954,
    "pau": 955,
    "try</w>": 956,
    "udi": 957,
    "wilt</w>": 958,
    "clifford</w>": 959,
    "has</w>": 960,
    "kill</w>": 961,
    "offi": 962,
    "pey</w>": 963,
    "pompey</w>": 964,
    "state</w>": 965,
    "tch": 966,
    "wea": 967,
    "bar": 968,
    "ess": 969,
    "fre": 970,
    "friend</w>": 971,
    "gracious</w>": 972,
    "poli": 973,
    "prosper": 974,
    "ready</w>": 975,
    "selves</w>": 976,
    "shame</w>": 977,
    "ship</w>": 978,
    "thous": 979,
    "vant</w>": 980,
    "servant</w>": 981,
    "doub": 982,
    "enes</w>": 983,
    "fidi": 984,
    "fortune</w>": 985,
    "pra": 986,
    "pose</w>": 987,
    "some": 988,
    "cutio</w>": 989,
    "fall</w>": 990,
    "fellow</w>": 991,
    "gs</w>": 992,
    "gremio</w>": 993,
    "is": 994,
    "inc": 995,
    "mercutio</w>": 996,
    "voi": 997,
    "within</w>": 998,
    "another</w>": 999,
    "bla": 1000,
    "dar": 1001,
    "ged</w>": 1002,
    "prove</w>": 1003,
    "spe": 1004,
    "unc": 1005,
    "aufidi": 1006,
    "body</w>": 1007,
    "claudi": 1008,
    "claudio</w>": 1009,
    "happy</w>": 1010,
    "hither</w>": 1011,
    "ire</w>": 1012,
    "ken</w>": 1013,
    "northum": 1014,
    "northumber": 1015,
    "only</w>": 1016,
    "temp": 1017,
    "wat": 1018,
    "aufidius</w>": 1019,
    "child</w>": 1020,
    "eye</w>": 1021,
    "far</w>": 1022,
    "last</w>": 1023,
    "lie</w>": 1024,
    "northumberland</w>": 1025,
    "ok</w>": 1026,
    "pt</w>": 1027,
    "pati": 1028,
    "rough</w>": 1029,
    "sit</w>": 1030,
    "sorrow</w>": 1031,
    "stan": 1032,
    "thousand</w>": 1033,
    "three</w>": 1034,
    "vice</w>": 1035,
    "chess</w>": 1036,
    "duchess</w>": 1037,
    "lla": 1038,
    "royal</w>": 1039,
    "xt</w>": 1040,
    "ity</w>": 1041,
    "iz": 1042,
    "lina</w>": 1043,
    "meet</w>": 1044,
    "paulina</w>": 1045,
    "tre": 1046,
    "trea": 1047,
    "third</w>": 1048,
    "ank</w>": 1049,
    "bus": 1050,
    "each</w>": 1051,
    "lon": 1052,
    "sto": 1053,
    "swear</w>": 1054,
    "trai": 1055,
    "bel": 1056,
    "monta": 1057,
    "rather</w>": 1058,
    "times</w>": 1059,
    "tybal": 1060,
    "virtu": 1061,
    "war</w>": 1062,
    "c</w>": 1063,
    "tra": 1064,
    "ene": 1065,
    "fro": 1066,
    "fur": 1067,
    "fau": 1068,
    "murderer</w>": 1069,
    "tybalt</w>": 1070,
    "under</w>": 1071,
    "comfort</w>": 1072,
    "deser": 1073,
    "shalt</w>": 1074,
    "sun</w>": 1075,
    "villa": 1076,
    "aut": 1077,
    "cus</w>": 1078,
    "des</w>": 1079,
    "gui": 1080,
    "dness</w>": 1081,
    "fla": 1082,
    "hour</w>": 1083,
    "oly": 1084,
    "orn</w>": 1085,
    "talk</w>": 1086,
    "voli": 1087,
    "ying</w>": 1088,
    "ary</w>": 1089,
    "anc": 1090,
    "belie": 1091,
    "benvoli": 1092,
    "benvolio</w>": 1093,
    "beseech</w>": 1094,
    "cri": 1095,
    "exe": 1096,
    "got</w>": 1097,
    "grief</w>": 1098,
    "herd</w>": 1099,
    "ned</w>": 1100,
    "polix": 1101,
    "polixenes</w>": 1102,
    "autoly": 1103,
    "autolycus</w>": 1104,
    "chil": 1105,
    "follow</w>": 1106,
    "grave</w>": 1107,
    "montague</w>": 1108,
    "shep": 1109,
    "sover": 1110,
    "sovere": 1111,
    "won": 1112,
    "dge</w>": 1113,
    "fran": 1114,
    "holy</w>": 1115,
    "ise</w>": 1116,
    "law</w>": 1117,
    "play</w>": 1118,
    "prou": 1119,
    "red</w>": 1120,
    "side</w>": 1121,
    "soldi": 1122,
    "years</w>": 1123,
    "cks</w>": 1124,
    "dro": 1125,
    "enou": 1126,
    "enough</w>": 1127,
    "faith</w>": 1128,
    "hate</w>": 1129,
    "kind</w>": 1130,
    "matter</w>": 1131,
    "twi": 1132,
    "tal</w>": 1133,
    "win": 1134,
    "bianc": 1135,
    "business</w>": 1136,
    "justi": 1137,
    "mis": 1138,
    "eds</w>": 1139,
    "pe</w>": 1140,
    "thank</w>": 1141,
    "things</w>": 1142,
    "bianca</w>": 1143,
    "clown</w>": 1144,
    "ens</w>": 1145,
    "hal": 1146,
    "jes": 1147,
    "lives</w>": 1148,
    "nature</w>": 1149,
    "per</w>": 1150,
    "prom": 1151,
    "prospero</w>": 1152,
    "rit</w>": 1153,
    "sea</w>": 1154,
    "ture</w>": 1155,
    "vil</w>": 1156,
    "yi": 1157,
    "bon": 1158,
    "deli": 1159,
    "oul": 1160,
    "pass</w>": 1161,
    "pity</w>": 1162,
    "saw</w>": 1163,
    "shed</w>": 1164,
    "stran": 1165,
    "thout</w>": 1166,
    "truth</w>": 1167,
    "wish</w>": 1168,
    "without</w>": 1169,
    "wrong</w>": 1170,
    "ah</w>": 1171,
    "bloo": 1172,
    "cre": 1173,
    "che": 1174,
    "ery</w>": 1175,
    "false</w>": 1176,
    "laur": 1177,
    "ments</w>": 1178,
    "pos": 1179,
    "shepherd</w>": 1180,
    "tions</w>": 1181,
    "villain</w>": 1182,
    "born</w>": 1183,
    "beau": 1184,
    "believe</w>": 1185,
    "city</w>": 1186,
    "dow</w>": 1187,
    "ey</w>": 1188,
    "kate</w>": 1189,
    "laurence</w>": 1190,
    "send</w>": 1191,
    "save</w>": 1192,
    "tro": 1193,
    "vers</w>": 1194,
    "worthy</w>": 1195,
    "dom</w>": 1196,
    "does</w>": 1197,
    "eel</w>": 1198,
    "fight</w>": 1199,
    "form</w>": 1200,
    "gods</w>": 1201,
    "high</w>": 1202,
    "late</w>": 1203,
    "left</w>": 1204,
    "ounds</w>": 1205,
    "sons</w>": 1206,
    "sou": 1207,
    "ta</w>": 1208,
    "ties</w>": 1209,
    "uncle</w>": 1210,
    "hum": 1211,
    "hun": 1212,
    "horse</w>": 1213,
    "maid</w>": 1214,
    "rand": 1215,
    "sil": 1216,
    "subje": 1217,
    "tou": 1218,
    "tow": 1219,
    "volum": 1220,
    "worn</w>": 1221,
    "x</w>": 1222,
    "bloody</w>": 1223,
    "dang": 1224,
    "fire</w>": 1225,
    "justice</w>": 1226,
    "oa": 1227,
    "present</w>": 1228,
    "proud</w>": 1229,
    "sly</w>": 1230,
    "seen</w>": 1231,
    "senat": 1232,
    "sovereign</w>": 1233,
    "wal": 1234,
    "yours</w>": 1235,
    "yourself</w>": 1236,
    "aum": 1237,
    "anne</w>": 1238,
    "aumer": 1239,
    "aumerle</w>": 1240,
    "childr": 1241,
    "children</w>": 1242,
    "country</w>": 1243,
    "fit</w>": 1244,
    "goo": 1245,
    "looks</w>": 1246,
    "means</w>": 1247,
    "mercy</w>": 1248,
    "nia</w>": 1249,
    "op</w>": 1250,
    "signi": 1251,
    "thers</w>": 1252,
    "volumnia</w>": 1253,
    "able</w>": 1254,
    "content</w>": 1255,
    "england</w>": 1256,
    "fly</w>": 1257,
    "gether</w>": 1258,
    "gener": 1259,
    "haste</w>": 1260,
    "mark</w>": 1261,
    "ows</w>": 1262,
    "plu": 1263,
    "round</w>": 1264,
    "told</w>": 1265,
    "together</w>": 1266,
    "wan": 1267,
    "enger</w>": 1268,
    "foul</w>": 1269,
    "ingman</w>": 1270,
    "serv": 1271,
    "ked</w>": 1272,
    "than": 1273,
    "med</w>": 1274,
    "need</w>": 1275,
    "pas": 1276,
    "servingman</w>": 1277,
    "sister</w>": 1278,
    "sleep</w>": 1279,
    "tness</w>": 1280,
    "val": 1281,
    "bow</w>": 1282,
    "care</w>": 1283,
    "days</w>": 1284,
    "doubt</w>": 1285,
    "essenger</w>": 1286,
    "gaunt</w>": 1287,
    "lear": 1288,
    "messenger</w>": 1289,
    "oft</w>": 1290,
    "sound</w>": 1291,
    "stor": 1292,
    "suf": 1293,
    "traitor</w>": 1294,
    "wre": 1295,
    "because</w>": 1296,
    "break</w>": 1297,
    "breath</w>": 1298,
    "either</w>": 1299,
    "flor": 1300,
    "half</w>": 1301,
    "im</w>": 1302,
    "inted</w>": 1303,
    "majes": 1304,
    "sword</w>": 1305,
    "sel</w>": 1306,
    "seem</w>": 1307,
    "star": 1308,
    "through</w>": 1309,
    "thyself</w>": 1310,
    "ange</w>": 1311,
    "bion": 1312,
    "biond": 1313,
    "biondell": 1314,
    "biondello</w>": 1315,
    "hn</w>": 1316,
    "john</w>": 1317,
    "kiss</w>": 1318,
    "majesty</w>": 1319,
    "obe": 1320,
    "ph": 1321,
    "thinks</w>": 1322,
    "cted</w>": 1323,
    "cates": 1324,
    "catesby</w>": 1325,
    "charge</w>": 1326,
    "dle</w>": 1327,
    "draw</w>": 1328,
    "fear": 1329,
    "fer": 1330,
    "folk</w>": 1331,
    "high": 1332,
    "known</w>": 1333,
    "paris</w>": 1334,
    "rel</w>": 1335,
    "remember</w>": 1336,
    "son": 1337,
    "weep</w>": 1338,
    "bat": 1339,
    "col": 1340,
    "cold</w>": 1341,
    "change</w>": 1342,
    "dem": 1343,
    "gla": 1344,
    "ren": 1345,
    "return</w>": 1346,
    "sue</w>": 1347,
    "under": 1348,
    "rest</w>": 1349,
    "alas</w>": 1350,
    "ari": 1351,
    "ders</w>": 1352,
    "fea": 1353,
    "grey</w>": 1354,
    "hermi": 1355,
    "norfolk</w>": 1356,
    "says</w>": 1357,
    "signior</w>": 1358,
    "strai": 1359,
    "sts</w>": 1360,
    "twas</w>": 1361,
    "tors</w>": 1362,
    "cry</w>": 1363,
    "cts</w>": 1364,
    "canst</w>": 1365,
    "def": 1366,
    "floriz": 1367,
    "florizel</w>": 1368,
    "foot</w>": 1369,
    "ges</w>": 1370,
    "han": 1371,
    "heaven": 1372,
    "hermione</w>": 1373,
    "liege</w>": 1374,
    "oath</w>": 1375,
    "purpose</w>": 1376,
    "quar": 1377,
    "reason</w>": 1378,
    "sca": 1379,
    "thoughts</w>": 1380,
    "alone</w>": 1381,
    "ates</w>": 1382,
    "bear": 1383,
    "bury</w>": 1384,
    "fair": 1385,
    "gentlemen</w>": 1386,
    "int": 1387,
    "lost</w>": 1388,
    "pair</w>": 1389,
    "prison</w>": 1390,
    "rage</w>": 1391,
    "sworn</w>": 1392,
    "sici": 1393,
    "twen": 1394,
    "twenty</w>": 1395,
    "warrant</w>": 1396,
    "banish</w>": 1397,
    "brou": 1398,
    "brought</w>": 1399,
    "entrea": 1400,
    "free</w>": 1401,
    "ground</w>": 1402,
    "here": 1403,
    "instru": 1404,
    "mer</w>": 1405,
    "married</w>": 1406,
    "near</w>": 1407,
    "ner</w>": 1408,
    "requ": 1409,
    "rivers</w>": 1410,
    "slain</w>": 1411,
    "spirit</w>": 1412,
    "stands</w>": 1413,
    "thanks</w>": 1414,
    "tter": 1415,
    "women</w>": 1416,
    "beauty</w>": 1417,
    "deep</w>": 1418,
    "france</w>": 1419,
    "having</w>": 1420,
    "knows</w>": 1421,
    "lia</w>": 1422,
    "mad</w>": 1423,
    "mil": 1424,
    "over": 1425,
    "ond</w>": 1426,
    "person</w>": 1427,
    "reven": 1428,
    "report</w>": 1429,
    "resol": 1430,
    "richmon": 1431,
    "shor": 1432,
    "straight</w>": 1433,
    "strike</w>": 1434,
    "cer": 1435,
    "consu": 1436,
    "course</w>": 1437,
    "didst</w>": 1438,
    "enemy</w>": 1439,
    "ength</w>": 1440,
    "fool</w>": 1441,
    "gon": 1442,
    "general</w>": 1443,
    "hours</w>": 1444,
    "may": 1445,
    "patience</w>": 1446,
    "richmond</w>": 1447,
    "same</w>": 1448,
    "service</w>": 1449,
    "sight</w>": 1450,
    "ster": 1451,
    "strange</w>": 1452,
    "tender</w>": 1453,
    "tribu": 1454,
    "bir": 1455,
    "right</w>": 1456,
    "ceive</w>": 1457,
    "ches</w>": 1458,
    "cho": 1459,
    "common</w>": 1460,
    "desire</w>": 1461,
    "execu": 1462,
    "fer</w>": 1463,
    "fl": 1464,
    "fault</w>": 1465,
    "loss</w>": 1466,
    "mou": 1467,
    "past</w>": 1468,
    "saint</w>": 1469,
    "senator</w>": 1470,
    "soon</w>": 1471,
    "touch</w>": 1472,
    "yea": 1473,
    "yea</w>": 1474,
    "ze</w>": 1475,
    "ation</w>": 1476,
    "anti": 1477,
    "bour</w>": 1478,
    "court</w>": 1479,
    "duty</w>": 1480,
    "fie</w>": 1481,
    "migh": 1482,
    "ors</w>": 1483,
    "am": 1484,
    "pluck</w>": 1485,
    "suc": 1486,
    "tself</w>": 1487,
    "itself</w>": 1488,
    "van": 1489,
    "work</w>": 1490,
    "yield</w>": 1491,
    "abo": 1492,
    "accu": 1493,
    "citizens</w>": 1494,
    "command</w>": 1495,
    "company</w>": 1496,
    "king": 1497,
    "open</w>": 1498,
    "sake</w>": 1499,
    "serve</w>": 1500,
    "twere</w>": 1501,
    "tation</w>": 1502,
    "unless</w>": 1503,
    "wis</w>": 1504,
    "widow</w>": 1505,
    "withal</w>": 1506,
    "affe": 1507,
    "claim</w>": 1508,
    "cut</w>": 1509,
    "dred</w>": 1510,
    "dream</w>": 1511,
    "fearful</w>": 1512,
    "ful": 1513,
    "hang": 1514,
    "hell</w>": 1515,
    "hearts</w>": 1516,
    "heavens</w>": 1517,
    "honest</w>": 1518,
    "just</w>": 1519,
    "lin": 1520,
    "eal</w>": 1521,
    "ob": 1522,
    "pale</w>": 1523,
    "ring</w>": 1524,
    "rich</w>": 1525,
    "scor": 1526,
    "som</w>": 1527,
    "supp": 1528,
    "table</w>": 1529,
    "tale</w>": 1530,
    "thr": 1531,
    "ths</w>": 1532,
    "trust</w>": 1533,
    "tting</w>": 1534,
    "wo": 1535,
    "woe</w>": 1536,
    "veng": 1537,
    "wear</w>": 1538,
    "water</w>": 1539,
    "ask</w>": 1540,
    "beat</w>": 1541,
    "dare</w>": 1542,
    "din": 1543,
    "eth</w>": 1544,
    "ease</w>": 1545,
    "els</w>": 1546,
    "heir</w>": 1547,
    "ies</w>": 1548,
    "lewis</w>": 1549,
    "loving</w>": 1550,
    "peter</w>": 1551,
    "point</w>": 1552,
    "princ": 1553,
    "prithee</w>": 1554,
    "qua": 1555,
    "sci": 1556,
    "sy</w>": 1557,
    "something</w>": 1558,
    "wise</w>": 1559,
    "xford</w>": 1560,
    "oxford</w>": 1561,
    "boo": 1562,
    "crea": 1563,
    "chance</w>": 1564,
    "counsel</w>": 1565,
    "ently</w>": 1566,
    "fast</w>": 1567,
    "field</w>": 1568,
    "force</w>": 1569,
    "hark</w>": 1570,
    "lows</w>": 1571,
    "mies</w>": 1572,
    "offic": 1573,
    "ouldst</w>": 1574,
    "pie": 1575,
    "pret": 1576,
    "rra": 1577,
    "revenge</w>": 1578,
    "rrah</w>": 1579,
    "sirrah</w>": 1580,
    "souls</w>": 1581,
    "stu": 1582,
    "ff</w>": 1583,
    "test</w>": 1584,
    "virtue</w>": 1585,
    "voices</w>": 1586,
    "wd</w>": 1587,
    "wil": 1588,
    "bor": 1589,
    "become</w>": 1590,
    "dest</w>": 1591,
    "deliver</w>": 1592,
    "eping</w>": 1593,
    "highness</w>": 1594,
    "its</w>": 1595,
    "knew</w>": 1596,
    "learn</w>": 1597,
    "lling</w>": 1598,
    "loves</w>": 1599,
    "neither</w>": 1600,
    "run</w>": 1601,
    "sters</w>": 1602,
    "thri": 1603,
    "lls</w>": 1604,
    "end": 1605,
    "twixt</w>": 1606,
    "unti": 1607,
    "worse</w>": 1608,
    "behold</w>": 1609,
    "brave</w>": 1610,
    "caster</w>": 1611,
    "choo": 1612,
    "coming</w>": 1613,
    "ef": 1614,
    "elbow</w>": 1615,
    "enemies</w>": 1616,
    "ented</w>": 1617,
    "fan": 1618,
    "guil": 1619,
    "held</w>": 1620,
    "igh": 1621,
    "lancaster</w>": 1622,
    "lips</w>": 1623,
    "met</w>": 1624,
    "move</w>": 1625,
    "next</w>": 1626,
    "pleasure</w>": 1627,
    "post</w>": 1628,
    "prison": 1629,
    "ried</w>": 1630,
    "scar": 1631,
    "smi": 1632,
    "seek</w>": 1633,
    "stra": 1634,
    "suit</w>": 1635,
    "tted</w>": 1636,
    "title</w>": 1637,
    "wind</w>": 1638,
    "youth</w>": 1639,
    "clou": 1640,
    "cru": 1641,
    "ceived</w>": 1642,
    "confess</w>": 1643,
    "devil</w>": 1644,
    "further</w>": 1645,
    "gates</w>": 1646,
    "glor": 1647,
    "given</w>": 1648,
    "law": 1649,
    "ley</w>": 1650,
    "ming</w>": 1651,
    "marriage</w>": 1652,
    "methinks</w>": 1653,
    "mirand": 1654,
    "miranda</w>": 1655,
    "nes</w>": 1656,
    "orge</w>": 1657,
    "plan": 1658,
    "posed</w>": 1659,
    "rema": 1660,
    "sting</w>": 1661,
    "strength</w>": 1662,
    "strong</w>": 1663,
    "tower</w>": 1664,
    "twe": 1665,
    "tis": 1666,
    "took</w>": 1667,
    "usur": 1668,
    "brie": 1669,
    "bad</w>": 1670,
    "betwe": 1671,
    "between</w>": 1672,
    "bosom</w>": 1673,
    "chee": 1674,
    "dish": 1675,
    "fav": 1676,
    "fect</w>": 1677,
    "ging</w>": 1678,
    "gave</w>": 1679,
    "george</w>": 1680,
    "ho</w>": 1681,
    "ice</w>": 1682,
    "ison</w>": 1683,
    "inter": 1684,
    "ken": 1685,
    "kings</w>": 1686,
    "merry</w>": 1687,
    "mity</w>": 1688,
    "murder</w>": 1689,
    "perdi": 1690,
    "sad</w>": 1691,
    "soldier</w>": 1692,
    "tin": 1693,
    "teous</w>": 1694,
    "tters</w>": 1695,
    "ught</w>": 1696,
    "along</w>": 1697,
    "already</w>": 1698,
    "besi": 1699,
    "black</w>": 1700,
    "bray</w>": 1701,
    "cient</w>": 1702,
    "dam": 1703,
    "dire": 1704,
    "fied</w>": 1705,
    "ious</w>": 1706,
    "ints</w>": 1707,
    "lth</w>": 1708,
    "loved</w>": 1709,
    "lowers</w>": 1710,
    "mselves</w>": 1711,
    "mortal</w>": 1712,
    "often</w>": 1713,
    "por": 1714,
    "disp": 1715,
    "plain</w>": 1716,
    "poss": 1717,
    "sma": 1718,
    "satis": 1719,
    "shop</w>": 1720,
    "sic</w>": 1721,
    "ton</w>": 1722,
    "throw</w>": 1723,
    "themselves</w>": 1724,
    "tribunes</w>": 1725,
    "yers</w>": 1726,
    "bly</w>": 1727,
    "cess</w>": 1728,
    "danger": 1729,
    "em": 1730,
    "ets</w>": 1731,
    "tr": 1732,
    "stre": 1733,
    "earl</w>": 1734,
    "fetch</w>": 1735,
    "forget</w>": 1736,
    "goes</w>": 1737,
    "hang</w>": 1738,
    "hereford</w>": 1739,
    "hood</w>": 1740,
    "issue</w>": 1741,
    "know": 1742,
    "lst</w>": 1743,
    "liber": 1744,
    "mow": 1745,
    "morning</w>": 1746,
    "mowbray</w>": 1747,
    "nar": 1748,
    "office</w>": 1749,
    "omas</w>": 1750,
    "perdita</w>": 1751,
    "ret</w>": 1752,
    "respe": 1753,
    "sman</w>": 1754,
    "soft</w>": 1755,
    "soldiers</w>": 1756,
    "spoke</w>": 1757,
    "stanley</w>": 1758,
    "subject</w>": 1759,
    "thomas</w>": 1760,
    "vic": 1761,
    "viol": 1762,
    "watch</w>": 1763,
    "whilst</w>": 1764,
    "worth</w>": 1765,
    "pen": 1766,
    "ana</w>": 1767,
    "mari": 1768,
    "appear</w>": 1769,
    "emb": 1770,
    "enter</w>": 1771,
    "foe</w>": 1772,
    "hadst</w>": 1773,
    "jest</w>": 1774,
    "lo</w>": 1775,
    "march</w>": 1776,
    "mariana</w>": 1777,
    "officer</w>": 1778,
    "proce": 1779,
    "swi": 1780,
    "sible</w>": 1781,
    "tent</w>": 1782,
    "tage</w>": 1783,
    "wounds</w>": 1784,
    "ways</w>": 1785,
    "whe": 1786,
    "wit</w>": 1787,
    "wonder</w>": 1788,
    "bli": 1789,
    "base</w>": 1790,
    "battle</w>": 1791,
    "bles": 1792,
    "trou": 1793,
    "case</w>": 1794,
    "chang": 1795,
    "cked</w>": 1796,
    "dangerous</w>": 1797,
    "deny</w>": 1798,
    "drin": 1799,
    "emp": 1800,
    "entreat</w>": 1801,
    "eri": 1802,
    "fully</w>": 1803,
    "grant</w>": 1804,
    "green</w>": 1805,
    "gues</w>": 1806,
    "join</w>": 1807,
    "kna": 1808,
    "liant</w>": 1809,
    "lity</w>": 1810,
    "hu": 1811,
    "mock</w>": 1812,
    "pat": 1813,
    "ped": 1814,
    "poison</w>": 1815,
    "presence</w>": 1816,
    "request</w>": 1817,
    "speed</w>": 1818,
    "sty</w>": 1819,
    "thence</w>": 1820,
    "threa": 1821,
    "tive</w>": 1822,
    "ini": 1823,
    "voice</w>": 1824,
    "wars</w>": 1825,
    "blu": 1826,
    "cure</w>": 1827,
    "chri": 1828,
    "consul</w>": 1829,
    "dden</w>": 1830,
    "dru": 1831,
    "deeds</w>": 1832,
    "dishon": 1833,
    "feel</w>": 1834,
    "forward</w>": 1835,
    "hard</w>": 1836,
    "hur": 1837,
    "heads</w>": 1838,
    "mai": 1839,
    "hot</w>": 1840,
    "lts</w>": 1841,
    "london</w>": 1842,
    "miser": 1843,
    "mighty</w>": 1844,
    "press</w>": 1845,
    "quarrel</w>": 1846,
    "quick": 1847,
    "rever": 1848,
    "sk": 1849,
    "seems</w>": 1850,
    "somer": 1851,
    "thro": 1852,
    "throne</w>": 1853,
    "tius</w>": 1854,
    "vel</w>": 1855,
    "wain</w>": 1856,
    "wherein</w>": 1857,
    "woo</w>": 1858,
    "ala": 1859,
    "ally</w>": 1860,
    "ancient</w>": 1861,
    "bs</w>": 1862,
    "begin</w>": 1863,
    "breast</w>": 1864,
    "brief</w>": 1865,
    "buy</w>": 1866,
    "cow": 1867,
    "ards</w>": 1868,
    "chur": 1869,
    "dig": 1870,
    "ef</w>": 1871,
    "thi": 1872,
    "eless</w>": 1873,
    "fore": 1874,
    "gover": 1875,
    "harm</w>": 1876,
    "ima": 1877,
    "keeper</w>": 1878,
    "lartius</w>": 1879,
    "lawful</w>": 1880,
    "ledge</w>": 1881,
    "lower</w>": 1882,
    "mel": 1883,
    "music</w>": 1884,
    "patient</w>": 1885,
    "peri": 1886,
    "prayers</w>": 1887,
    "princely</w>": 1888,
    "promise</w>": 1889,
    "safe</w>": 1890,
    "slave</w>": 1891,
    "somerset</w>": 1892,
    "spa": 1893,
    "ther": 1894,
    "eat</w>": 1895,
    "thither</w>": 1896,
    "thor": 1897,
    "u</w>": 1898,
    "want</w>": 1899,
    "wash</w>": 1900,
    "wed": 1901,
    "awa": 1902,
    "above</w>": 1903,
    "appro": 1904,
    "bre": 1905,
    "bishop</w>": 1906,
    "broa": 1907,
    "cliff</w>": 1908,
    "conc": 1909,
    "condem": 1910,
    "consent</w>": 1911,
    "dine</w>": 1912,
    "drun": 1913,
    "enter": 1914,
    "fled</w>": 1915,
    "faults</w>": 1916,
    "five</w>": 1917,
    "fles": 1918,
    "gri": 1919,
    "knock</w>": 1920,
    "measure</w>": 1921,
    "peti": 1922,
    "presently</w>": 1923,
    "pretty</w>": 1924,
    "ral</w>": 1925,
    "rat": 1926,
    "ratcliff</w>": 1927,
    "slan": 1928,
    "sage</w>": 1929,
    "shment</w>": 1930,
    "speech</w>": 1931,
    "trium": 1932,
    "vow</w>": 1933,
    "valiant</w>": 1934,
    "vise</w>": 1935,
    "whence</w>": 1936,
    "wis": 1937,
    "0</w>": 1938,
    "almost</w>": 1939,
    "alack</w>": 1940,
    "chol": 1941,
    "count</w>": 1942,
    "cursed</w>": 1943,
    "dry</w>": 1944,
    "dist": 1945,
    "early</w>": 1946,
    "fres": 1947,
    "fy</w>": 1948,
    "flesh</w>": 1949,
    "gor": 1950,
    "gir": 1951,
    "imp": 1952,
    "ised</w>": 1953,
    "jud": 1954,
    "lar</w>": 1955,
    "lei": 1956,
    "lled</w>": 1957,
    "mali": 1958,
    "mayor</w>": 1959,
    "miss</w>": 1960,
    "mple</w>": 1961,
    "offer</w>": 1962,
    "oura": 1963,
    "roman</w>": 1964,
    "sent": 1965,
    "stle</w>": 1966,
    "sup": 1967,
    "suffer</w>": 1968,
    "tain": 1969,
    "tempt</w>": 1970,
    "tory</w>": 1971,
    "towards</w>": 1972,
    "tten</w>": 1973,
    "wri": 1974,
    "vent": 1975,
    "vantage</w>": 1976,
    "whether</w>": 1977,
    "awhile</w>": 1978,
    "appar": 1979,
    "ariel</w>": 1980,
    "bohe": 1981,
    "book</w>": 1982,
    "bohemi": 1983,
    "chamber</w>": 1984,
    "close</w>": 1985,
    "cover</w>": 1986,
    "curtis</w>": 1987,
    "despi": 1988,
    "deserved</w>": 1989,
    "dispat": 1990,
    "dispatch</w>": 1991,
    "doing</w>": 1992,
    "gho": 1993,
    "gilia</w>": 1994,
    "hind</w>": 1995,
    "hearing</w>": 1996,
    "kingdom</w>": 1997,
    "least</w>": 1998,
    "living</w>": 1999,
    "moon</w>": 2000,
    "moved</w>": 2001,
    "mouth</w>": 2002,
    "musici": 2003,
    "natu": 2004,
    "shy</w>": 2005,
    "slaughter</w>": 2006,
    "stian</w>": 2007,
    "subjects</w>": 2008,
    "toward</w>": 2009,
    "vest</w>": 2010,
    "virgilia</w>": 2011,
    "virtuous</w>": 2012,
    "wouldst</w>": 2013,
    "weeping</w>": 2014,
    "whol": 2015,
    "witness</w>": 2016,
    "worship</w>": 2017,
    "adi": 2018,
    "ama": 2019,
    "abhor": 2020,
    "antigon": 2021,
    "antigonus</w>": 2022,
    "bawd</w>": 2023,
    "behind</w>": 2024,
    "besides</w>": 2025,
    "bles</w>": 2026,
    "blows</w>": 2027,
    "bohemia</w>": 2028,
    "breathe</w>": 2029,
    "dition</w>": 2030,
    "eding</w>": 2031,
    "ble": 2032,
    "embra": 2033,
    "extre": 2034,
    "grow</w>": 2035,
    "gar</w>": 2036,
    "goodly</w>": 2037,
    "greater</w>": 2038
  },
  "base_chars": [
    "!",
    "$",
    "&",
    "'",
    ",",
    "-",
    ".",
    "0",
    ":",
    ";",
    "</w>",
    "?",
    "a",
    "b",
    "c",
    "d",
    "e",
    "f",
    "g",
    "h",
    "i",
    "j",
    "k",
    "l",
    "m",
    "n",
    "o",
    "p",
    "q",
    "r",
    "s",
    "t",
    "u",
    "v",
    "w",
    "x",
    "y",
    "z"
  ],
  "train_time_seconds": 1.534022569656372
}