{
  "num_merges": 4000,
  "end_of_word": "</w>",
  "marker_mode": "suffix",
  "strategy": "clean",
  "merges": [
    [
      "e",
      "</w>"
    ],
    [
      "t",
      "h"
    ],
    [
      ",",
      "</w>"
    ],
    [
      "t",
      "</w>"
    ],
    [
      "s",
      "</w>"
    ],
    [
      "d",
      "</w>"
    ],
    [
      "o",
      "u"
    ],
    [
      "a",
      "n"
    ],
    [
      "e",
      "r"
    ],
    [
      "i",
      "n"
    ],
    [
      "y",
      "</w>"
    ],
    [
      ":",
      "</w>"
    ],
    [
      "o",
      "r"
    ],
    [
      "e",
      "n"
    ],
    [
      "o",
      "</w>"
    ],
    [
      "a",
      "r"
    ],
    [
      ".",
      "</w>"
    ],
    [
      "o",
      "n"
    ],
    [
      "l",
      "l"
    ],
    [
      "th",
      "e</w>"
    ],
    [
      "h",
      "a"
    ],
    [
      "an",
      "d</w>"
    ],
    [
      "e",
      "s"
    ],
    [
      "i",
      "s</w>"
    ],
    [
      "y",
      "ou"
    ],
    [
      "f",
      "</w>"
    ],
    [
      "t",
      "o</w>"
    ],
    [
      "i",
      "</w>"
    ],
    [
      "in",
      "g"
    ],
    [
      "ll",
      "</w>"
    ],
    [
      "n",
      "o"
    ],
    [
      "w",
      "i"
    ],
    [
      "o",
      "m"
    ],
    [
      "e",
      "a"
    ],
    [
      "e",
      ",</w>"
    ],
    [
      "o",
      "f</w>"
    ],
    [
      "s",
      "t"
    ],
    [
      ";",
      "</w>"
    ],
    [
      "c",
      "h"
    ],
    [
      "er",
      "</w>"
    ],
    [
      "r",
      "</w>"
    ],
    [
      "f",
      "or"
    ],
    [
      "th",
      "</w>"
    ],
    [
      "m",
      "y</w>"
    ],
    [
      "a",
      "</w>"
    ],
    [
      "a",
      "t</w>"
    ],
    [
      "l",
      "i"
    ],
    [
      "in",
      "</w>"
    ],
    [
      "v",
      "e</w>"
    ],
    [
      "w",
      "h"
    ],
    [
      "ing",
      "</w>"
    ],
    [
      "o",
      "w"
    ],
    [
      "s",
      "e"
    ],
    [
      "t",
      "i"
    ],
    [
      "r",
      "i"
    ],
    [
      "r",
      "e"
    ],
    [
      "you",
      "</w>"
    ],
    [
      "th",
      "at</w>"
    ],
    [
      "?",
      "</w>"
    ],
    [
      "u",
      "s"
    ],
    [
      "th",
      "e"
    ],
    [
      "l",
      "e"
    ],
    [
      "en",
      "</w>"
    ],
    [
      "s",
      "h"
    ],
    [
      "b",
      "e"
    ],
    [
      "m",
      "a"
    ],
    [
      "!",
      "</w>"
    ],
    [
      "o",
      "o"
    ],
    [
      "b",
      "u"
    ],
    [
      "g",
      "h"
    ],
    [
      "d",
      ",</w>"
    ],
    [
      "no",
      "t</w>"
    ],
    [
      "r",
      "a"
    ],
    [
      "l",
      "a"
    ],
    [
      "th",
      "ou"
    ],
    [
      "for",
      "</w>"
    ],
    [
      "e",
      "ar"
    ],
    [
      "m",
      "</w>"
    ],
    [
      "wi",
      "th</w>"
    ],
    [
      "on",
      "</w>"
    ],
    [
      "s",
      "i"
    ],
    [
      "a",
      "s</w>"
    ],
    [
      "'",
      "s</w>"
    ],
    [
      "s",
      "t</w>"
    ],
    [
      "s",
      ",</w>"
    ],
    [
      "k",
      "e</w>"
    ],
    [
      "e",
      "d</w>"
    ],
    [
      "t",
      ",</w>"
    ],
    [
      "d",
      "i"
    ],
    [
      "m",
      "e</w>"
    ],
    [
      "h",
      "i"
    ],
    [
      "you",
      "r</w>"
    ],
    [
      "r",
      "o"
    ],
    [
      "y",
      ",</w>"
    ],
    [
      "l",
      "d</w>"
    ],
    [
      "b",
      "e</w>"
    ],
    [
      "i",
      "t</w>"
    ],
    [
      "an",
      "</w>"
    ],
    [
      "c",
      "om"
    ],
    [
      "e",
      "s</w>"
    ],
    [
      "h",
      "is</w>"
    ],
    [
      "o",
      ":</w>"
    ],
    [
      "u",
      "r"
    ],
    [
      "k",
      "</w>"
    ],
    [
      "u",
      "n"
    ],
    [
      "er",
      "e</w>"
    ],
    [
      "s",
      "a"
    ],
    [
      "ch",
      "</w>"
    ],
    [
      "c",
      "a"
    ],
    [
      "h",
      "e</w>"
    ],
    [
      "bu",
      "t</w>"
    ],
    [
      "ha",
      "ve</w>"
    ],
    [
      "f",
      "a"
    ],
    [
      "th",
      "is</w>"
    ],
    [
      "w",
      "e"
    ],
    [
      "e",
      ".</w>"
    ],
    [
      "thou",
      "</w>"
    ],
    [
      "c",
      "e</w>"
    ],
    [
      "l",
      "</w>"
    ],
    [
      "w",
      "ha"
    ],
    [
      "no",
      "w"
    ],
    [
      "t",
      "a"
    ],
    [
      "m",
      "i"
    ],
    [
      "th",
      "er"
    ],
    [
      "s",
      "ha"
    ],
    [
      "th",
      "y</w>"
    ],
    [
      "'",
      "d</w>"
    ],
    [
      "o",
      "l"
    ],
    [
      "or",
      "</w>"
    ],
    [
      "r",
      "om"
    ],
    [
      "s",
      "e</w>"
    ],
    [
      "l",
      "o"
    ],
    [
      "s",
      "p"
    ],
    [
      "f",
      "i"
    ],
    [
      "r",
      "u"
    ],
    [
      "l",
      "e</w>"
    ],
    [
      "ou",
      "r</w>"
    ],
    [
      "a",
      "t"
    ],
    [
      "e",
      "d"
    ],
    [
      "i",
      "t"
    ],
    [
      "r",
      "ea"
    ],
    [
      "d",
      "e"
    ],
    [
      "ou",
      "ld</w>"
    ],
    [
      "s",
      "u"
    ],
    [
      "l",
      "or"
    ],
    [
      "wi",
      "ll</w>"
    ],
    [
      "n",
      "e"
    ],
    [
      "t",
      "er"
    ],
    [
      "e",
      "l"
    ],
    [
      "wha",
      "t</w>"
    ],
    [
      "w",
      "ar"
    ],
    [
      "ow",
      "</w>"
    ],
    [
      "us",
      ":</w>"
    ],
    [
      "c",
      "on"
    ],
    [
      "s",
      "o</w>"
    ],
    [
      "b",
      "y</w>"
    ],
    [
      "m",
      "e"
    ],
    [
      "en",
      "t"
    ],
    [
      "c",
      "k"
    ],
    [
      "n",
      "</w>"
    ],
    [
      "q",
      "u"
    ],
    [
      "ar",
      "e</w>"
    ],
    [
      "c",
      "i"
    ],
    [
      "c",
      "e"
    ],
    [
      "v",
      "i"
    ],
    [
      "w",
      "or"
    ],
    [
      "m",
      "or"
    ],
    [
      "sha",
      "ll</w>"
    ],
    [
      "wh",
      "i"
    ],
    [
      "d",
      "a"
    ],
    [
      "i",
      "f</w>"
    ],
    [
      "v",
      "er"
    ],
    [
      "k",
      "ing</w>"
    ],
    [
      "w",
      "a"
    ],
    [
      "l",
      "y</w>"
    ],
    [
      "oo",
      "d</w>"
    ],
    [
      "d",
      "u"
    ],
    [
      "e",
      "t"
    ],
    [
      "u",
      "p"
    ],
    [
      "o",
      ",</w>"
    ],
    [
      "th",
      "er</w>"
    ],
    [
      "i",
      "r</w>"
    ],
    [
      "e",
      "t</w>"
    ],
    [
      "m",
      "an"
    ],
    [
      "p",
      "a"
    ],
    [
      "hi",
      "m</w>"
    ],
    [
      "p",
      "o"
    ],
    [
      "r",
      "es"
    ],
    [
      "m",
      "o"
    ],
    [
      "d",
      "o</w>"
    ],
    [
      "now",
      "</w>"
    ],
    [
      "h",
      "ear"
    ],
    [
      "n",
      "o</w>"
    ],
    [
      "h",
      "er"
    ],
    [
      "ou",
      "n"
    ],
    [
      "h",
      "er</w>"
    ],
    [
      "m",
      "ar"
    ],
    [
      "g",
      "a"
    ],
    [
      "gh",
      "t</w>"
    ],
    [
      "s",
      ".</w>"
    ],
    [
      "se",
      "l"
    ],
    [
      "f",
      "rom"
    ],
    [
      "from",
      "</w>"
    ],
    [
      "t",
      "e"
    ],
    [
      "b",
      "o"
    ],
    [
      "b",
      "a"
    ],
    [
      "es",
      "s</w>"
    ],
    [
      "d",
      "s</w>"
    ],
    [
      "p",
      "ro"
    ],
    [
      "si",
      "r"
    ],
    [
      "g",
      "o"
    ],
    [
      "hi",
      "m"
    ],
    [
      "g",
      "ood</w>"
    ],
    [
      "on",
      "e</w>"
    ],
    [
      "'",
      "</w>"
    ],
    [
      "b",
      "l"
    ],
    [
      "t",
      "o"
    ],
    [
      "d",
      "o"
    ],
    [
      "m",
      "en"
    ],
    [
      "'",
      "ll</w>"
    ],
    [
      "ou",
      "r"
    ],
    [
      "'",
      "t"
    ],
    [
      "d",
      ":</w>"
    ],
    [
      "d",
      ".</w>"
    ],
    [
      "es",
      "t</w>"
    ],
    [
      "r",
      "an"
    ],
    [
      "whi",
      "ch</w>"
    ],
    [
      "y",
      ".</w>"
    ],
    [
      "w",
      "as</w>"
    ],
    [
      "g",
      "i"
    ],
    [
      "on",
      "g"
    ],
    [
      "p",
      "</w>"
    ],
    [
      "e",
      ":</w>"
    ],
    [
      "u",
      "s</w>"
    ],
    [
      "d",
      "ea"
    ],
    [
      "ch",
      "ar"
    ],
    [
      "p",
      "ar"
    ],
    [
      "n",
      "a"
    ],
    [
      "the",
      "y</w>"
    ],
    [
      "w",
      "ould</w>"
    ],
    [
      "es",
      ",</w>"
    ],
    [
      "h",
      "ea"
    ],
    [
      "a",
      "ll</w>"
    ],
    [
      "s",
      ":</w>"
    ],
    [
      "gh",
      "t"
    ],
    [
      "l",
      "ea"
    ],
    [
      "y",
      ":</w>"
    ],
    [
      "s",
      "om"
    ],
    [
      "b",
      "ro"
    ],
    [
      "h",
      "ow</w>"
    ],
    [
      "f",
      "e"
    ],
    [
      "o",
      "f"
    ],
    [
      "th",
      "an</w>"
    ],
    [
      "a",
      ":</w>"
    ],
    [
      "m",
      "in"
    ],
    [
      "t",
      "t"
    ],
    [
      "the",
      "ir</w>"
    ],
    [
      "mor",
      "e</w>"
    ],
    [
      "p",
      "er"
    ],
    [
      "an",
      "g"
    ],
    [
      "r",
      "y</w>"
    ],
    [
      "sh",
      "e</w>"
    ],
    [
      "h",
      "en"
    ],
    [
      "f",
      "u"
    ],
    [
      "b",
      "i"
    ],
    [
      "a",
      "l"
    ],
    [
      "le",
      "t</w>"
    ],
    [
      "us",
      "t</w>"
    ],
    [
      "ha",
      "th</w>"
    ],
    [
      "ou",
      "s</w>"
    ],
    [
      "th",
      "in"
    ],
    [
      "r",
      "ow"
    ],
    [
      "fi",
      "r"
    ],
    [
      "-",
      "-"
    ],
    [
      "w",
      "e</w>"
    ],
    [
      "c",
      "e,</w>"
    ],
    [
      "v",
      "er</w>"
    ],
    [
      "the",
      "e</w>"
    ],
    [
      "w",
      "ere</w>"
    ],
    [
      "i",
      "'ll</w>"
    ],
    [
      "n",
      "i"
    ],
    [
      "s",
      "on"
    ],
    [
      "du",
      "ke</w>"
    ],
    [
      "ch",
      "i"
    ],
    [
      "u",
      "m"
    ],
    [
      "wh",
      "en</w>"
    ],
    [
      "p",
      "e"
    ],
    [
      "c",
      "en"
    ],
    [
      "d",
      "e</w>"
    ],
    [
      "th",
      "en</w>"
    ],
    [
      "d",
      "er"
    ],
    [
      "t",
      ":</w>"
    ],
    [
      "li",
      "ke</w>"
    ],
    [
      "o",
      "p"
    ],
    [
      "f",
      "ri"
    ],
    [
      "b",
      "le</w>"
    ],
    [
      "com",
      "e</w>"
    ],
    [
      "g",
      "ra"
    ],
    [
      "c",
      "es"
    ],
    [
      "c",
      "k</w>"
    ],
    [
      "ri",
      "char"
    ],
    [
      "qu",
      "e"
    ],
    [
      "i",
      "r"
    ],
    [
      "ma",
      "ke</w>"
    ],
    [
      "we",
      "ll"
    ],
    [
      "ear",
      "</w>"
    ],
    [
      "l",
      "u"
    ],
    [
      "i",
      "i"
    ],
    [
      "ar",
      "</w>"
    ],
    [
      "c",
      "or"
    ],
    [
      "en",
      "t</w>"
    ],
    [
      "ma",
      "y</w>"
    ],
    [
      "up",
      "on</w>"
    ],
    [
      "i",
      "us:</w>"
    ],
    [
      "l",
      "an"
    ],
    [
      "d",
      "y</w>"
    ],
    [
      "g",
      "e</w>"
    ],
    [
      "you",
      ",</w>"
    ],
    [
      "m",
      "ust</w>"
    ],
    [
      "gh",
      "</w>"
    ],
    [
      "h",
      "e"
    ],
    [
      "t",
      ".</w>"
    ],
    [
      "l",
      "ou"
    ],
    [
      "j",
      "u"
    ],
    [
      "t",
      "ru"
    ],
    [
      "sh",
      "ould</w>"
    ],
    [
      "k",
      "ing"
    ],
    [
      "m",
      "e,</w>"
    ],
    [
      "th",
      ",</w>"
    ],
    [
      "t",
      "s</w>"
    ],
    [
      "lo",
      "v"
    ],
    [
      "p",
      "u"
    ],
    [
      "a",
      "ga"
    ],
    [
      "ed",
      "war"
    ],
    [
      "p",
      "r"
    ],
    [
      "ti",
      "o:</w>"
    ],
    [
      "s",
      "er"
    ],
    [
      "d",
      ";</w>"
    ],
    [
      "s",
      "o"
    ],
    [
      "w",
      "</w>"
    ],
    [
      "h",
      "ere</w>"
    ],
    [
      "'t",
      "is</w>"
    ],
    [
      "li",
      "f"
    ],
    [
      "sp",
      "ea"
    ],
    [
      "e",
      ";</w>"
    ],
    [
      "ha",
      "d</w>"
    ],
    [
      "s",
      ";</w>"
    ],
    [
      "sir",
      ",</w>"
    ],
    [
      "t",
      "en"
    ],
    [
      "st",
      "a"
    ],
    [
      "y",
      "et</w>"
    ],
    [
      "g",
      "ent"
    ],
    [
      "the",
      "m</w>"
    ],
    [
      "l",
      "oo"
    ],
    [
      "som",
      "e</w>"
    ],
    [
      "y",
      "or"
    ],
    [
      "d",
      "es"
    ],
    [
      "e",
      "x"
    ],
    [
      "m",
      "u"
    ],
    [
      "ou",
      "t</w>"
    ],
    [
      "ther",
      "e"
    ],
    [
      "wh",
      "ere</w>"
    ],
    [
      "c",
      "an"
    ],
    [
      "fir",
      "st</w>"
    ],
    [
      "c",
      "l"
    ],
    [
      "ta",
      "ke</w>"
    ],
    [
      "di",
      "d</w>"
    ],
    [
      "ti",
      "on"
    ],
    [
      "c",
      "u"
    ],
    [
      "for",
      "e</w>"
    ],
    [
      "i",
      "s"
    ],
    [
      "p",
      "la"
    ],
    [
      "th",
      "es"
    ],
    [
      "e",
      "p"
    ],
    [
      "gi",
      "ve</w>"
    ],
    [
      "v",
      "o"
    ],
    [
      "s",
      "en"
    ],
    [
      "richar",
      "d</w>"
    ],
    [
      "g",
      "u"
    ],
    [
      "h",
      "on"
    ],
    [
      "k",
      "now</w>"
    ],
    [
      "sa",
      "y</w>"
    ],
    [
      "aga",
      "in"
    ],
    [
      "ter",
      ":</w>"
    ],
    [
      "p",
      "ra"
    ],
    [
      "thes",
      "e</w>"
    ],
    [
      "v",
      "en"
    ],
    [
      "cen",
      "tio:</w>"
    ],
    [
      "g",
      "o</w>"
    ],
    [
      "su",
      "ch</w>"
    ],
    [
      "p",
      "ri"
    ],
    [
      "a",
      "m</w>"
    ],
    [
      "ver",
      "y</w>"
    ],
    [
      "es",
      ":</w>"
    ],
    [
      "v",
      "in"
    ],
    [
      "mo",
      "st</w>"
    ],
    [
      "st",
      "i"
    ],
    [
      "g",
      "lou"
    ],
    [
      "glou",
      "ces"
    ],
    [
      "th",
      "ere</w>"
    ],
    [
      "a",
      "c"
    ],
    [
      "j",
      "o"
    ],
    [
      "e",
      "y"
    ],
    [
      "o",
      "ld</w>"
    ],
    [
      "g",
      "re"
    ],
    [
      "t",
      "y</w>"
    ],
    [
      "m",
      "p"
    ],
    [
      "ur",
      "e</w>"
    ],
    [
      "m",
      "er"
    ],
    [
      "com",
      "e,</w>"
    ],
    [
      "m",
      "an</w>"
    ],
    [
      "m",
      "on"
    ],
    [
      "ther",
      ",</w>"
    ],
    [
      "we",
      "ll</w>"
    ],
    [
      "fu",
      "l</w>"
    ],
    [
      "s",
      "in"
    ],
    [
      "ti",
      "on</w>"
    ],
    [
      "p",
      "p"
    ],
    [
      "yor",
      "k"
    ],
    [
      "c",
      "an</w>"
    ],
    [
      "wh",
      "o</w>"
    ],
    [
      "now",
      ",</w>"
    ],
    [
      "ow",
      "n</w>"
    ],
    [
      "se",
      "e</w>"
    ],
    [
      "sel",
      "f"
    ],
    [
      "en",
      ",</w>"
    ],
    [
      "k",
      "e"
    ],
    [
      "que",
      "en</w>"
    ],
    [
      "st",
      "er"
    ],
    [
      "hen",
      "ry</w>"
    ],
    [
      "lo",
      "ve</w>"
    ],
    [
      "te",
      "ll</w>"
    ],
    [
      "c",
      "oun"
    ],
    [
      "sel",
      "f</w>"
    ],
    [
      "t",
      "ed</w>"
    ],
    [
      "a",
      "l</w>"
    ],
    [
      "d",
      "er</w>"
    ],
    [
      "a",
      "ll"
    ],
    [
      "ce",
      ":</w>"
    ],
    [
      "d",
      "s,</w>"
    ],
    [
      "lor",
      "d</w>"
    ],
    [
      "ow",
      "n"
    ],
    [
      "--",
      "</w>"
    ],
    [
      "rom",
      "e"
    ],
    [
      "fri",
      "en"
    ],
    [
      "n",
      "or</w>"
    ],
    [
      "m",
      ",</w>"
    ],
    [
      "war",
      "wi"
    ],
    [
      "b",
      "er"
    ],
    [
      "glouces",
      "ter:</w>"
    ],
    [
      "a",
      "f"
    ],
    [
      "et",
      ":</w>"
    ],
    [
      "l",
      "t</w>"
    ],
    [
      "pr",
      "in"
    ],
    [
      "th",
      "ing</w>"
    ],
    [
      "y",
      ";</w>"
    ],
    [
      "v",
      "es</w>"
    ],
    [
      "h",
      "an"
    ],
    [
      "k",
      ",</w>"
    ],
    [
      "p",
      "et"
    ],
    [
      "se",
      "d</w>"
    ],
    [
      "a",
      "u"
    ],
    [
      "en",
      "ce</w>"
    ],
    [
      "g",
      "ar"
    ],
    [
      "t",
      "'s</w>"
    ],
    [
      "us",
      "e</w>"
    ],
    [
      "h",
      "or"
    ],
    [
      "lor",
      "d,</w>"
    ],
    [
      "vin",
      "centio:</w>"
    ],
    [
      "a",
      "wa"
    ],
    [
      "sh",
      "</w>"
    ],
    [
      "wh",
      "y,</w>"
    ],
    [
      "b",
      "rea"
    ],
    [
      "e",
      "?</w>"
    ],
    [
      "g",
      "rea"
    ],
    [
      "ou",
      "l"
    ],
    [
      "min",
      "e</w>"
    ],
    [
      "ma",
      "de</w>"
    ],
    [
      "st",
      ",</w>"
    ],
    [
      "to",
      "o</w>"
    ],
    [
      "up",
      "</w>"
    ],
    [
      "s",
      "we"
    ],
    [
      "t",
      "e</w>"
    ],
    [
      "the",
      "e,</w>"
    ],
    [
      "a",
      "b"
    ],
    [
      "p",
      "re"
    ],
    [
      "i",
      "l"
    ],
    [
      "om",
      "</w>"
    ],
    [
      "b",
      "an"
    ],
    [
      "d",
      "'s</w>"
    ],
    [
      "e",
      "!</w>"
    ],
    [
      "s",
      "w"
    ],
    [
      "ti",
      "me</w>"
    ],
    [
      "st",
      "an"
    ],
    [
      "ne",
      "ver</w>"
    ],
    [
      "a",
      "d"
    ],
    [
      "an",
      "y</w>"
    ],
    [
      "cor",
      "i"
    ],
    [
      "e",
      "v"
    ],
    [
      "p",
      "res"
    ],
    [
      "s",
      "e,</w>"
    ],
    [
      "b",
      "r"
    ],
    [
      "t",
      "u"
    ],
    [
      "e",
      "p</w>"
    ],
    [
      "b",
      "ra"
    ],
    [
      "ing",
      ",</w>"
    ],
    [
      "er",
      ":</w>"
    ],
    [
      "di",
      "s"
    ],
    [
      "f",
      "o"
    ],
    [
      "gent",
      "le"
    ],
    [
      "i",
      "g"
    ],
    [
      "pet",
      "ru"
    ],
    [
      "t",
      "r"
    ],
    [
      "cori",
      "ol"
    ],
    [
      "h",
      "ar"
    ],
    [
      "petru",
      "chi"
    ],
    [
      "c",
      "e.</w>"
    ],
    [
      "hear",
      "</w>"
    ],
    [
      "york",
      ":</w>"
    ],
    [
      "do",
      "th</w>"
    ],
    [
      "p",
      "lea"
    ],
    [
      "s",
      "!</w>"
    ],
    [
      "thin",
      "k</w>"
    ],
    [
      "in",
      "ius:</w>"
    ],
    [
      "m",
      "y"
    ],
    [
      "p",
      "i"
    ],
    [
      "e",
      "'s</w>"
    ],
    [
      "d",
      "on"
    ],
    [
      "e",
      "d,</w>"
    ],
    [
      "th",
      "i"
    ],
    [
      "well",
      ",</w>"
    ],
    [
      "t",
      "er</w>"
    ],
    [
      "coriol",
      "an"
    ],
    [
      "warwi",
      "ck"
    ],
    [
      "be",
      "ing</w>"
    ],
    [
      "c",
      "ar"
    ],
    [
      "edwar",
      "d</w>"
    ],
    [
      "mu",
      "ch</w>"
    ],
    [
      "ser",
      "v"
    ],
    [
      "t",
      "w"
    ],
    [
      "g",
      "</w>"
    ],
    [
      "ju",
      "li"
    ],
    [
      "k",
      "now"
    ],
    [
      "ong",
      "</w>"
    ],
    [
      "se",
      "e"
    ],
    [
      "spea",
      "k</w>"
    ],
    [
      "c",
      "o"
    ],
    [
      "can",
      "not</w>"
    ],
    [
      "s",
      "on</w>"
    ],
    [
      "ha",
      "st"
    ],
    [
      "k",
      "s</w>"
    ],
    [
      "men",
      "en"
    ],
    [
      "n",
      "or"
    ],
    [
      "t",
      "ra"
    ],
    [
      "t",
      "ur"
    ],
    [
      "b",
      "es"
    ],
    [
      "no",
      "ble</w>"
    ],
    [
      "d",
      "?</w>"
    ],
    [
      "tt",
      "er</w>"
    ],
    [
      "'",
      "st</w>"
    ],
    [
      "k",
      "in"
    ],
    [
      "la",
      "dy</w>"
    ],
    [
      "b",
      "ol"
    ],
    [
      "i",
      "v"
    ],
    [
      "thou",
      "gh</w>"
    ],
    [
      "a",
      "s"
    ],
    [
      "s",
      "?</w>"
    ],
    [
      "se",
      "con"
    ],
    [
      "c",
      "ur"
    ],
    [
      "l",
      "ess</w>"
    ],
    [
      "a",
      "y,</w>"
    ],
    [
      "be",
      "ll"
    ],
    [
      "d",
      "!</w>"
    ],
    [
      "him",
      ",</w>"
    ],
    [
      "t",
      "y"
    ],
    [
      "m",
      "e.</w>"
    ],
    [
      "secon",
      "d</w>"
    ],
    [
      "t",
      "ter"
    ],
    [
      "go",
      "d</w>"
    ],
    [
      "rome",
      "o:</w>"
    ],
    [
      "t",
      ";</w>"
    ],
    [
      "th",
      ":</w>"
    ],
    [
      "be",
      "en</w>"
    ],
    [
      "e",
      "e"
    ],
    [
      "en",
      ":</w>"
    ],
    [
      "h",
      "ou"
    ],
    [
      "t",
      "or"
    ],
    [
      "w",
      "om"
    ],
    [
      "wh",
      "o"
    ],
    [
      "c",
      "la"
    ],
    [
      "f",
      "in"
    ],
    [
      "menen",
      "ius:</w>"
    ],
    [
      "b",
      "ea"
    ],
    [
      "g",
      "e"
    ],
    [
      "be",
      "fore</w>"
    ],
    [
      "h",
      "ol"
    ],
    [
      "wi",
      "ll"
    ],
    [
      "again",
      "st</w>"
    ],
    [
      "c",
      "t</w>"
    ],
    [
      "it",
      ".</w>"
    ],
    [
      "i",
      "sa"
    ],
    [
      "n",
      "ess</w>"
    ],
    [
      "petruchi",
      "o:</w>"
    ],
    [
      "li",
      "v"
    ],
    [
      "oun",
      "d</w>"
    ],
    [
      "f",
      "ar"
    ],
    [
      "h",
      "o"
    ],
    [
      "ll",
      "ow"
    ],
    [
      "no",
      ",</w>"
    ],
    [
      "t",
      "ri"
    ],
    [
      "u",
      "l"
    ],
    [
      "'",
      "d,</w>"
    ],
    [
      "er",
      "s</w>"
    ],
    [
      "him",
      ".</w>"
    ],
    [
      "p",
      "ea"
    ],
    [
      "es",
      ".</w>"
    ],
    [
      "fa",
      "ther"
    ],
    [
      "ne",
      "w"
    ],
    [
      "swe",
      "et</w>"
    ],
    [
      "n",
      "ur"
    ],
    [
      "s",
      "or"
    ],
    [
      "coriolan",
      "us:</w>"
    ],
    [
      "ed",
      ".</w>"
    ],
    [
      "er",
      ",</w>"
    ],
    [
      "fa",
      "ir</w>"
    ],
    [
      "on",
      ",</w>"
    ],
    [
      "at",
      "e</w>"
    ],
    [
      "cl",
      "ar"
    ],
    [
      "grea",
      "t</w>"
    ],
    [
      "i",
      "t,</w>"
    ],
    [
      "po",
      "or</w>"
    ],
    [
      "wi",
      "f"
    ],
    [
      "c",
      "row"
    ],
    [
      "f",
      "oo"
    ],
    [
      "ha",
      "st</w>"
    ],
    [
      "man",
      ":</w>"
    ],
    [
      "us",
      ",</w>"
    ],
    [
      "d",
      "r"
    ],
    [
      "you",
      ".</w>"
    ],
    [
      "en",
      "g"
    ],
    [
      "th",
      ".</w>"
    ],
    [
      "bl",
      "oo"
    ],
    [
      "loo",
      "k</w>"
    ],
    [
      "m",
      "en</w>"
    ],
    [
      "s",
      "ea"
    ],
    [
      "th",
      "us</w>"
    ],
    [
      "ci",
      "ti"
    ],
    [
      "ha",
      "m"
    ],
    [
      "r",
      "ow</w>"
    ],
    [
      "re",
      "d</w>"
    ],
    [
      "th",
      "at"
    ],
    [
      "ti",
      "ll</w>"
    ],
    [
      "wh",
      "er"
    ],
    [
      "bu",
      "ck"
    ],
    [
      "ca",
      "ll</w>"
    ],
    [
      "citi",
      "z"
    ],
    [
      "g",
      "ri"
    ],
    [
      "b",
      "le"
    ],
    [
      "i",
      "d</w>"
    ],
    [
      "in",
      "a:</w>"
    ],
    [
      "sh",
      "i"
    ],
    [
      "t",
      "oo"
    ],
    [
      "t",
      "ran"
    ],
    [
      "bo",
      "th</w>"
    ],
    [
      "da",
      "u"
    ],
    [
      "g",
      "on"
    ],
    [
      "mi",
      "ll"
    ],
    [
      "no",
      "t,</w>"
    ],
    [
      "y",
      "s</w>"
    ],
    [
      "you",
      "r"
    ],
    [
      "bol",
      "ing"
    ],
    [
      "boling",
      "bro"
    ],
    [
      "na",
      "y,</w>"
    ],
    [
      "ev",
      "en</w>"
    ],
    [
      "ii",
      "i"
    ],
    [
      "iii",
      ":</w>"
    ],
    [
      "ing",
      "s</w>"
    ],
    [
      "wha",
      "t,</w>"
    ],
    [
      "y",
      "!</w>"
    ],
    [
      "'",
      "er</w>"
    ],
    [
      "c",
      "ou"
    ],
    [
      "c",
      "our"
    ],
    [
      "el",
      "y</w>"
    ],
    [
      "t",
      "un"
    ],
    [
      "'",
      "t</w>"
    ],
    [
      "com",
      "es</w>"
    ],
    [
      "e",
      "f"
    ],
    [
      "of",
      "f"
    ],
    [
      "se",
      ".</w>"
    ],
    [
      "wh",
      "y</w>"
    ],
    [
      "who",
      "se</w>"
    ],
    [
      "wi",
      "th"
    ],
    [
      "an",
      "t</w>"
    ],
    [
      "en",
      "ce:</w>"
    ],
    [
      "man",
      "y</w>"
    ],
    [
      "st",
      "er</w>"
    ],
    [
      "th",
      "an"
    ],
    [
      "y",
      "?</w>"
    ],
    [
      "e",
      "ver</w>"
    ],
    [
      "isa",
      "bell"
    ],
    [
      "se",
      ":</w>"
    ],
    [
      "s",
      "la"
    ],
    [
      "the",
      "m"
    ],
    [
      "a",
      "th"
    ],
    [
      "d",
      "ed</w>"
    ],
    [
      "g",
      "e,</w>"
    ],
    [
      "le",
      "on"
    ],
    [
      "lea",
      "ve</w>"
    ],
    [
      "leon",
      "t"
    ],
    [
      "m",
      "ur"
    ],
    [
      "buck",
      "ing"
    ],
    [
      "f",
      "l"
    ],
    [
      "th",
      "o"
    ],
    [
      "to",
      "-"
    ],
    [
      "en",
      "d</w>"
    ],
    [
      "f",
      "ear"
    ],
    [
      "ong",
      "u"
    ],
    [
      "p",
      "it"
    ],
    [
      "t",
      "ongu"
    ],
    [
      "d",
      "st</w>"
    ],
    [
      "i",
      "m"
    ],
    [
      "isabell",
      "a:</w>"
    ],
    [
      "p",
      "ow"
    ],
    [
      "p",
      "ur"
    ],
    [
      "s",
      "wor"
    ],
    [
      "we",
      "l"
    ],
    [
      "be",
      "ar</w>"
    ],
    [
      "h",
      "el"
    ],
    [
      "i",
      "sh"
    ],
    [
      "st",
      "and</w>"
    ],
    [
      "leont",
      "es:</w>"
    ],
    [
      "li",
      "e"
    ],
    [
      "m",
      "ent"
    ],
    [
      "s",
      "o,</w>"
    ],
    [
      "si",
      "c"
    ],
    [
      "t",
      "ch"
    ],
    [
      "d",
      "ly</w>"
    ],
    [
      "juli",
      "et:</w>"
    ],
    [
      "l",
      ",</w>"
    ],
    [
      "s",
      "le"
    ],
    [
      "tho",
      "se</w>"
    ],
    [
      "un",
      "to</w>"
    ],
    [
      "fa",
      "ther</w>"
    ],
    [
      "g",
      "oo"
    ],
    [
      "mi",
      "o:</w>"
    ],
    [
      "you",
      "n"
    ],
    [
      "n",
      ",</w>"
    ],
    [
      "tran",
      "i"
    ],
    [
      "b",
      "ri"
    ],
    [
      "chi",
      "l"
    ],
    [
      "da",
      "y</w>"
    ],
    [
      "mar",
      "ci"
    ],
    [
      "ang",
      "el"
    ],
    [
      "bu",
      "r"
    ],
    [
      "ca",
      "l"
    ],
    [
      "gh",
      "t,</w>"
    ],
    [
      "lu",
      "ci"
    ],
    [
      "th",
      "en,</w>"
    ],
    [
      "w",
      "r"
    ],
    [
      "pra",
      "y</w>"
    ],
    [
      "v",
      "ol"
    ],
    [
      "an",
      "ce</w>"
    ],
    [
      "hear",
      "t</w>"
    ],
    [
      "k",
      "es</w>"
    ],
    [
      "l",
      "e,</w>"
    ],
    [
      "li",
      "tt"
    ],
    [
      "pa",
      "s"
    ],
    [
      "w",
      "at"
    ],
    [
      "d",
      "ing</w>"
    ],
    [
      "in",
      ",</w>"
    ],
    [
      "be",
      "g"
    ],
    [
      "t",
      "?</w>"
    ],
    [
      "ing",
      ".</w>"
    ],
    [
      "me",
      "an"
    ],
    [
      "w",
      "in"
    ],
    [
      "h",
      "op"
    ],
    [
      "mar",
      "gar"
    ],
    [
      "sic",
      "inius:</w>"
    ],
    [
      "ca",
      "pu"
    ],
    [
      "men",
      "t</w>"
    ],
    [
      "n",
      "es"
    ],
    [
      "se",
      "t</w>"
    ],
    [
      "vi",
      "r"
    ],
    [
      "capu",
      "le"
    ],
    [
      "st",
      "r"
    ],
    [
      "c",
      "ould</w>"
    ],
    [
      "ci",
      "ous</w>"
    ],
    [
      "e",
      "li"
    ],
    [
      "ha",
      "pp"
    ],
    [
      "ou",
      "l</w>"
    ],
    [
      "c",
      "lif"
    ],
    [
      "ca",
      "mill"
    ],
    [
      "pu",
      "t</w>"
    ],
    [
      "t",
      "ing</w>"
    ],
    [
      "th",
      "r"
    ],
    [
      "a",
      "be"
    ],
    [
      "me",
      ";</w>"
    ],
    [
      "v",
      "e,</w>"
    ],
    [
      "b",
      "en"
    ],
    [
      "bolingbro",
      "k"
    ],
    [
      "d",
      "en"
    ],
    [
      "er",
      ".</w>"
    ],
    [
      "es",
      ";</w>"
    ],
    [
      "hea",
      "ven"
    ],
    [
      "hon",
      "our"
    ],
    [
      "luci",
      "o:</w>"
    ],
    [
      "mur",
      "der"
    ],
    [
      "w",
      "o"
    ],
    [
      "a",
      "p"
    ],
    [
      "bl",
      "ood</w>"
    ],
    [
      "c",
      "es</w>"
    ],
    [
      "ca",
      "use</w>"
    ],
    [
      "iv",
      ":</w>"
    ],
    [
      "b",
      "us"
    ],
    [
      "eli",
      "z"
    ],
    [
      "eliz",
      "abe"
    ],
    [
      "h",
      ",</w>"
    ],
    [
      "h",
      "om"
    ],
    [
      "su",
      "b"
    ],
    [
      "con",
      "t"
    ],
    [
      "e",
      "t,</w>"
    ],
    [
      "h",
      "us"
    ],
    [
      "k",
      "ne"
    ],
    [
      "ni",
      "ght"
    ],
    [
      "qu",
      "i"
    ],
    [
      "ath",
      "ar"
    ],
    [
      "ch",
      ",</w>"
    ],
    [
      "dea",
      "th</w>"
    ],
    [
      "k",
      "athar"
    ],
    [
      "o",
      "'</w>"
    ],
    [
      "p",
      "ti"
    ],
    [
      "sa",
      "y,</w>"
    ],
    [
      "there",
      "fore</w>"
    ],
    [
      "bi",
      "d</w>"
    ],
    [
      "bro",
      "ther"
    ],
    [
      "ll",
      "ow</w>"
    ],
    [
      "s",
      "oul"
    ],
    [
      "tru",
      "e</w>"
    ],
    [
      "tw",
      "o</w>"
    ],
    [
      "ar",
      "m"
    ],
    [
      "elizabe",
      "th:</w>"
    ],
    [
      "ou",
      "gh</w>"
    ],
    [
      "r",
      "y,</w>"
    ],
    [
      "re",
      "e</w>"
    ],
    [
      "s",
      "ol"
    ],
    [
      "sin",
      "ce</w>"
    ],
    [
      "wh",
      "om</w>"
    ],
    [
      "be",
      "tter</w>"
    ],
    [
      "bro",
      "ther</w>"
    ],
    [
      "litt",
      "le</w>"
    ],
    [
      "ma",
      "da"
    ],
    [
      "na",
      "me</w>"
    ],
    [
      "p",
      "om"
    ],
    [
      "ro",
      "y"
    ],
    [
      "t",
      "!</w>"
    ],
    [
      "v",
      "ed</w>"
    ],
    [
      "a",
      "t,</w>"
    ],
    [
      "b",
      "ru"
    ],
    [
      "bucking",
      "ham"
    ],
    [
      "com",
      "p"
    ],
    [
      "h",
      "old</w>"
    ],
    [
      "sp",
      "i"
    ],
    [
      "st",
      ":</w>"
    ],
    [
      "d",
      "ou"
    ],
    [
      "d",
      "ra"
    ],
    [
      "k",
      "i"
    ],
    [
      "pe",
      "op"
    ],
    [
      "pro",
      "vo"
    ],
    [
      "son",
      ",</w>"
    ],
    [
      "bu",
      "t,</w>"
    ],
    [
      "far",
      "e"
    ],
    [
      "for",
      "tun"
    ],
    [
      "ma",
      "ster"
    ],
    [
      "mi",
      "ght</w>"
    ],
    [
      "ta",
      "l"
    ],
    [
      "b",
      "or"
    ],
    [
      "ck",
      ",</w>"
    ],
    [
      "d",
      "rea"
    ],
    [
      "e",
      "l</w>"
    ],
    [
      "lif",
      "e</w>"
    ],
    [
      "st",
      "res"
    ],
    [
      "warwick",
      ":</w>"
    ],
    [
      "ba",
      "pti"
    ],
    [
      "i",
      ",</w>"
    ],
    [
      "mi",
      "s"
    ],
    [
      "no",
      "thing</w>"
    ],
    [
      "t",
      "ear"
    ],
    [
      "t",
      "s,</w>"
    ],
    [
      "capule",
      "t:</w>"
    ],
    [
      "ce",
      ";</w>"
    ],
    [
      "citiz",
      "en:</w>"
    ],
    [
      "fa",
      "i"
    ],
    [
      "g",
      "ru"
    ],
    [
      "ii",
      ":</w>"
    ],
    [
      "ll",
      ",</w>"
    ],
    [
      "n",
      "at"
    ],
    [
      "s",
      "un"
    ],
    [
      "wa",
      "y</w>"
    ],
    [
      "e",
      "m"
    ],
    [
      "f",
      "ear</w>"
    ],
    [
      "hor",
      "ten"
    ],
    [
      "horten",
      "si"
    ],
    [
      "k",
      "e,</w>"
    ],
    [
      "ke",
      "ep</w>"
    ],
    [
      "ou",
      "ght</w>"
    ],
    [
      "wher",
      "e"
    ],
    [
      "e",
      "very</w>"
    ],
    [
      "gh",
      "ter"
    ],
    [
      "king",
      ",</w>"
    ],
    [
      "sti",
      "ll</w>"
    ],
    [
      ",",
      "--</w>"
    ],
    [
      "t",
      "es"
    ],
    [
      "br",
      "ing</w>"
    ],
    [
      "re",
      "p"
    ],
    [
      "gent",
      "le</w>"
    ],
    [
      "l",
      "y,</w>"
    ],
    [
      "la",
      "d"
    ],
    [
      "y",
      "'s</w>"
    ],
    [
      "sp",
      "er"
    ],
    [
      "t",
      "us:</w>"
    ],
    [
      "um",
      "ber"
    ],
    [
      "an",
      "t:</w>"
    ],
    [
      "bolingbrok",
      "e:</w>"
    ],
    [
      "fri",
      "ar</w>"
    ],
    [
      "g",
      "en"
    ],
    [
      "v",
      "a"
    ],
    [
      "le",
      "d</w>"
    ],
    [
      "man",
      ",</w>"
    ],
    [
      "sp",
      "o"
    ],
    [
      "st",
      "ri"
    ],
    [
      "ti",
      "m"
    ],
    [
      "an",
      "sw"
    ],
    [
      "c",
      "ra"
    ],
    [
      "f",
      "f"
    ],
    [
      "in",
      "t</w>"
    ],
    [
      "l",
      "ong</w>"
    ],
    [
      "s",
      "ur"
    ],
    [
      "t",
      "ow"
    ],
    [
      "bru",
      "tus:</w>"
    ],
    [
      "buckingham",
      ":</w>"
    ],
    [
      "g",
      "o,</w>"
    ],
    [
      "gra",
      "ce</w>"
    ],
    [
      "in",
      "to</w>"
    ],
    [
      "mi",
      "stres"
    ],
    [
      "nur",
      "se:</w>"
    ],
    [
      "si",
      "g"
    ],
    [
      "th",
      "ir"
    ],
    [
      "youn",
      "g</w>"
    ],
    [
      "an",
      "o"
    ],
    [
      "be",
      "ar"
    ],
    [
      "c",
      "ha"
    ],
    [
      "s",
      "ure</w>"
    ],
    [
      "that",
      "'s</w>"
    ],
    [
      "trani",
      "o:</w>"
    ],
    [
      "wor",
      "l"
    ],
    [
      "b",
      "ar"
    ],
    [
      "c",
      "lo"
    ],
    [
      "i",
      "'</w>"
    ],
    [
      "j",
      "e"
    ],
    [
      "self",
      ",</w>"
    ],
    [
      "spea",
      "k"
    ],
    [
      "angel",
      "o:</w>"
    ],
    [
      "d",
      "ar"
    ],
    [
      "fa",
      "l"
    ],
    [
      "fin",
      "d</w>"
    ],
    [
      "margar",
      "et:</w>"
    ],
    [
      "on",
      "ce</w>"
    ],
    [
      "st",
      "ra"
    ],
    [
      "c",
      "ed</w>"
    ],
    [
      "ca",
      "me</w>"
    ],
    [
      "com",
      "for"
    ],
    [
      "d",
      "ear</w>"
    ],
    [
      "d",
      "s.</w>"
    ],
    [
      "do",
      "st</w>"
    ],
    [
      "in",
      "de"
    ],
    [
      "le",
      ":</w>"
    ],
    [
      "my",
      "self</w>"
    ],
    [
      "se",
      "s</w>"
    ],
    [
      "t",
      "en</w>"
    ],
    [
      "con",
      "f"
    ],
    [
      "en",
      "ce,</w>"
    ],
    [
      "ba",
      "l"
    ],
    [
      "c",
      "re"
    ],
    [
      "clif",
      "for"
    ],
    [
      "d",
      "own</w>"
    ],
    [
      "es",
      "cal"
    ],
    [
      "h",
      "</w>"
    ],
    [
      "le",
      "t's</w>"
    ],
    [
      "ll",
      "a"
    ],
    [
      "mar",
      "ri"
    ],
    [
      "st",
      "ru"
    ],
    [
      "th",
      "at,</w>"
    ],
    [
      "u",
      "di"
    ],
    [
      "d",
      "one</w>"
    ],
    [
      "el",
      "se</w>"
    ],
    [
      "hon",
      "our</w>"
    ],
    [
      "le",
      "s</w>"
    ],
    [
      "of",
      "fi"
    ],
    [
      "po",
      "li"
    ],
    [
      "pom",
      "pe"
    ],
    [
      "prin",
      "ce</w>"
    ],
    [
      "sta",
      "y</w>"
    ],
    [
      "vo",
      "i"
    ],
    [
      "d",
      "on</w>"
    ],
    [
      "d",
      "own"
    ],
    [
      "fu",
      "ll</w>"
    ],
    [
      "li",
      "ve</w>"
    ],
    [
      "ma",
      "kes</w>"
    ],
    [
      "of",
      "f</w>"
    ],
    [
      "p",
      "s</w>"
    ],
    [
      "pa",
      "ul"
    ],
    [
      "pro",
      "sper"
    ],
    [
      "st",
      "ar"
    ],
    [
      "thou",
      "s"
    ],
    [
      "an",
      "d,</w>"
    ],
    [
      "v",
      "ing</w>"
    ],
    [
      "wha",
      "t's</w>"
    ],
    [
      "ch",
      "ang"
    ],
    [
      "ey",
      "es</w>"
    ],
    [
      "f",
      "t</w>"
    ],
    [
      "fi",
      "di"
    ],
    [
      "ll",
      "'d</w>"
    ],
    [
      "me",
      ":</w>"
    ],
    [
      "nor",
      "th"
    ],
    [
      "som",
      "e"
    ],
    [
      "w",
      "ea"
    ],
    [
      "a",
      "pp"
    ],
    [
      "ban",
      "ish"
    ],
    [
      "dea",
      "th,</w>"
    ],
    [
      "ha",
      "s</w>"
    ],
    [
      "it",
      "y</w>"
    ],
    [
      "kathar",
      "ina:</w>"
    ],
    [
      "la",
      "w"
    ],
    [
      "me",
      "m"
    ],
    [
      "mer",
      "cu"
    ],
    [
      "thou",
      "ght</w>"
    ],
    [
      "y",
      "ear"
    ],
    [
      "b",
      "est</w>"
    ],
    [
      "bapti",
      "st"
    ],
    [
      "bes",
      "ee"
    ],
    [
      "d",
      "ow"
    ],
    [
      "h",
      "and</w>"
    ],
    [
      "j",
      "es"
    ],
    [
      "l",
      "ong"
    ],
    [
      "me",
      "?</w>"
    ],
    [
      "on",
      "e,</w>"
    ],
    [
      "s",
      "'</w>"
    ],
    [
      "hast",
      "ing"
    ],
    [
      "t",
      "re"
    ],
    [
      "tur",
      "n</w>"
    ],
    [
      "a",
      "la"
    ],
    [
      "au",
      "fidi"
    ],
    [
      "cla",
      "udi"
    ],
    [
      "dou",
      "b"
    ],
    [
      "fa",
      "ther,</w>"
    ],
    [
      "gra",
      "cious</w>"
    ],
    [
      "hear",
      "d</w>"
    ],
    [
      "lov",
      "e,</w>"
    ],
    [
      "north",
      "umber"
    ],
    [
      "t",
      "y,</w>"
    ],
    [
      "a",
      "m"
    ],
    [
      "awa",
      "y</w>"
    ],
    [
      "b",
      "la"
    ],
    [
      "d",
      "in"
    ],
    [
      "escal",
      "us:</w>"
    ],
    [
      "he",
      "'s</w>"
    ],
    [
      "le",
      ".</w>"
    ],
    [
      "n",
      "'d</w>"
    ],
    [
      "par",
      "t</w>"
    ],
    [
      "thou",
      ",</w>"
    ],
    [
      "tion",
      ",</w>"
    ],
    [
      "wi",
      "lt</w>"
    ],
    [
      "du",
      "ch"
    ],
    [
      "e",
      "ig"
    ],
    [
      "her",
      "e,</w>"
    ],
    [
      "lor",
      "d.</w>"
    ],
    [
      "pa",
      "ti"
    ],
    [
      "plea",
      "se</w>"
    ],
    [
      "sh",
      "ow</w>"
    ],
    [
      "thin",
      "e</w>"
    ],
    [
      "ab",
      "out</w>"
    ],
    [
      "dea",
      "th"
    ],
    [
      "h",
      "our"
    ],
    [
      "i",
      "l</w>"
    ],
    [
      "ni",
      "ght</w>"
    ],
    [
      "t",
      "e,</w>"
    ],
    [
      "t",
      "ol"
    ],
    [
      "t",
      "rea"
    ],
    [
      "us",
      ".</w>"
    ],
    [
      "dau",
      "ghter"
    ],
    [
      "el",
      ":</w>"
    ],
    [
      "fe",
      "c"
    ],
    [
      "i",
      "z"
    ],
    [
      "men",
      ",</w>"
    ],
    [
      "northumber",
      "lan"
    ],
    [
      "roy",
      "al</w>"
    ],
    [
      "s",
      "ing</w>"
    ],
    [
      "w",
      "on"
    ],
    [
      "fe",
      "llow"
    ],
    [
      "h",
      "ang"
    ],
    [
      "loo",
      "k"
    ],
    [
      "m",
      "s</w>"
    ],
    [
      "mon",
      "ta"
    ],
    [
      "monta",
      "gu"
    ],
    [
      "res",
      "t</w>"
    ],
    [
      "sp",
      "e"
    ],
    [
      "tra",
      "it"
    ],
    [
      "vir",
      "tu"
    ],
    [
      "d",
      "g"
    ],
    [
      "duch",
      "ess</w>"
    ],
    [
      "f",
      "ur"
    ],
    [
      "thir",
      "d</w>"
    ],
    [
      "us",
      "i"
    ],
    [
      "v",
      "e"
    ],
    [
      "well",
      ".</w>"
    ],
    [
      ",",
      "--"
    ],
    [
      "camill",
      "o:</w>"
    ],
    [
      "d",
      "-"
    ],
    [
      "d",
      "d"
    ],
    [
      "de",
      "li"
    ],
    [
      "des",
      "er"
    ],
    [
      "for",
      "th</w>"
    ],
    [
      "n",
      ".</w>"
    ],
    [
      "re",
      "mem"
    ],
    [
      "vi",
      ":</w>"
    ],
    [
      "vi",
      "lla"
    ],
    [
      "wor",
      "ld</w>"
    ],
    [
      "af",
      "ter</w>"
    ],
    [
      "ea",
      "ch</w>"
    ],
    [
      "f",
      "la"
    ],
    [
      "fa",
      "ir"
    ],
    [
      "g",
      "ran"
    ],
    [
      "happ",
      "y</w>"
    ],
    [
      "l",
      "ar"
    ],
    [
      "or",
      "t</w>"
    ],
    [
      "s",
      "ent</w>"
    ],
    [
      "sen",
      "at"
    ],
    [
      "sha",
      "lt</w>"
    ],
    [
      "st",
      ".</w>"
    ],
    [
      "te",
      "mp"
    ],
    [
      "thous",
      "and</w>"
    ],
    [
      "vo",
      "li"
    ],
    [
      "we",
      "'ll</w>"
    ],
    [
      "ben",
      "voli"
    ],
    [
      "c",
      "</w>"
    ],
    [
      "c",
      "er"
    ],
    [
      "c",
      "ri"
    ],
    [
      "ce",
      "!</w>"
    ],
    [
      "edwar",
      "d:</w>"
    ],
    [
      "ex",
      "e"
    ],
    [
      "h",
      "un"
    ],
    [
      "m",
      "es"
    ],
    [
      "ma",
      "ster</w>"
    ],
    [
      "n",
      "ing</w>"
    ],
    [
      "ou",
      "gh"
    ],
    [
      "poli",
      "x"
    ],
    [
      "polix",
      "en"
    ],
    [
      "ro",
      "s"
    ],
    [
      "au",
      "tol"
    ],
    [
      "autol",
      "y"
    ],
    [
      "autoly",
      "c"
    ],
    [
      "baptist",
      "a:</w>"
    ],
    [
      "besee",
      "ch</w>"
    ],
    [
      "de",
      "vi"
    ],
    [
      "hortensi",
      "o:</w>"
    ],
    [
      "on",
      "ly</w>"
    ],
    [
      "pro",
      "ve</w>"
    ],
    [
      "so",
      "ver"
    ],
    [
      "sover",
      "eig"
    ],
    [
      "ther",
      ".</w>"
    ],
    [
      "clar",
      "ence:</w>"
    ],
    [
      "com",
      "inius:</w>"
    ],
    [
      "ep",
      "her"
    ],
    [
      "f",
      "ran"
    ],
    [
      "i",
      "se</w>"
    ],
    [
      "n",
      "one</w>"
    ],
    [
      "on",
      ".</w>"
    ],
    [
      "pr",
      "ou"
    ],
    [
      "re",
      "ven"
    ],
    [
      "sh",
      "epher"
    ],
    [
      "si",
      "t</w>"
    ],
    [
      "sol",
      "di"
    ],
    [
      "tion",
      ".</w>"
    ],
    [
      "autolyc",
      "us:</w>"
    ],
    [
      "b",
      "ow"
    ],
    [
      "bus",
      "in"
    ],
    [
      "ch",
      "e"
    ],
    [
      "com",
      "m"
    ],
    [
      "ed",
      ":</w>"
    ],
    [
      "hol",
      "y</w>"
    ],
    [
      "hou",
      "se</w>"
    ],
    [
      "in",
      "s</w>"
    ],
    [
      "lif",
      "e,</w>"
    ],
    [
      "v",
      "y</w>"
    ],
    [
      "wr",
      "ong"
    ],
    [
      "x",
      "t</w>"
    ],
    [
      ".",
      "'</w>"
    ],
    [
      "bi",
      "an"
    ],
    [
      "f",
      "ol"
    ],
    [
      "ght",
      "er</w>"
    ],
    [
      "ju",
      "sti"
    ],
    [
      "ma",
      "i"
    ],
    [
      "par",
      "don</w>"
    ],
    [
      "provo",
      "st:</w>"
    ],
    [
      "sh",
      "ow"
    ],
    [
      "sir",
      ".</w>"
    ],
    [
      "whi",
      "le</w>"
    ],
    [
      "'",
      "d.</w>"
    ],
    [
      "b",
      "it"
    ],
    [
      "b",
      "oo"
    ],
    [
      "cl",
      "own"
    ],
    [
      "father",
      "'s</w>"
    ],
    [
      "h",
      "um"
    ],
    [
      "hop",
      "e</w>"
    ],
    [
      "hus",
      "ban"
    ],
    [
      "me",
      "et</w>"
    ],
    [
      "o",
      "ver"
    ],
    [
      "p",
      "rom"
    ],
    [
      "ra",
      "ther</w>"
    ],
    [
      "si",
      "on</w>"
    ],
    [
      "son",
      ":</w>"
    ],
    [
      "st",
      "ran"
    ],
    [
      "the",
      "e.</w>"
    ],
    [
      "to-",
      "mor"
    ],
    [
      "wom",
      "an"
    ],
    [
      "y",
      "i"
    ],
    [
      "benvoli",
      "o:</w>"
    ],
    [
      "clown",
      ":</w>"
    ],
    [
      "cou",
      "sin"
    ],
    [
      "di",
      "e</w>"
    ],
    [
      "e",
      "-"
    ],
    [
      "hea",
      "d</w>"
    ],
    [
      "hi",
      "gh"
    ],
    [
      "lor",
      "d:</w>"
    ],
    [
      "n",
      "s</w>"
    ],
    [
      "or",
      ",</w>"
    ],
    [
      "self",
      ".</w>"
    ],
    [
      "than",
      "k</w>"
    ],
    [
      "tongu",
      "e</w>"
    ],
    [
      "wi",
      "thou"
    ],
    [
      "e",
      "f</w>"
    ],
    [
      "gru",
      "mio:</w>"
    ],
    [
      "k",
      "is"
    ],
    [
      "la",
      "ur"
    ],
    [
      "mada",
      "m,</w>"
    ],
    [
      "murder",
      "er:</w>"
    ],
    [
      "prosper",
      "o:</w>"
    ],
    [
      "ri",
      "ght</w>"
    ],
    [
      "we",
      "ep"
    ],
    [
      "wor",
      "d</w>"
    ],
    [
      "bea",
      "u"
    ],
    [
      "ce",
      "?</w>"
    ],
    [
      "th",
      "en"
    ],
    [
      "es",
      "s,</w>"
    ],
    [
      "for",
      "e,</w>"
    ],
    [
      "gre",
      "mio:</w>"
    ],
    [
      "her",
      ",</w>"
    ],
    [
      "lu",
      "centio:</w>"
    ],
    [
      "mercu",
      "tio:</w>"
    ],
    [
      "ne",
      "i"
    ],
    [
      "po",
      "s"
    ],
    [
      "pow",
      "er</w>"
    ],
    [
      "spi",
      "ri"
    ],
    [
      "there",
      "'s</w>"
    ],
    [
      "un",
      "der"
    ],
    [
      "w",
      "an"
    ],
    [
      "with",
      "in</w>"
    ],
    [
      "b",
      "er</w>"
    ],
    [
      "e",
      "ld</w>"
    ],
    [
      "ed",
      "s</w>"
    ],
    [
      "ir",
      "e</w>"
    ],
    [
      "l",
      "and</w>"
    ],
    [
      "l",
      "y.</w>"
    ],
    [
      "li",
      "es</w>"
    ],
    [
      "lie",
      "ve</w>"
    ],
    [
      "lor",
      "ds,</w>"
    ],
    [
      "s",
      "in</w>"
    ],
    [
      "sa",
      "id</w>"
    ],
    [
      "sa",
      "ve</w>"
    ],
    [
      "serv",
      "ant:</w>"
    ],
    [
      "thi",
      "s,</w>"
    ],
    [
      "vol",
      "um"
    ],
    [
      "withou",
      "t</w>"
    ],
    [
      "a",
      "g"
    ],
    [
      "at",
      "e,</w>"
    ],
    [
      "b",
      "y:</w>"
    ],
    [
      "d",
      "e,</w>"
    ],
    [
      "e",
      "i"
    ],
    [
      "ed",
      ";</w>"
    ],
    [
      "ha",
      "l"
    ],
    [
      "m",
      "ea"
    ],
    [
      "o",
      "'"
    ],
    [
      "ser",
      "vi"
    ],
    [
      "serv",
      "ing"
    ],
    [
      "sub",
      "je"
    ],
    [
      "ter",
      ",</w>"
    ],
    [
      "th",
      "ree</w>"
    ],
    [
      "wor",
      "thy</w>"
    ],
    [
      "a",
      ",</w>"
    ],
    [
      "b",
      "on"
    ],
    [
      "be",
      "t"
    ],
    [
      "d",
      "ang"
    ],
    [
      "hel",
      "p</w>"
    ],
    [
      "me",
      "an</w>"
    ],
    [
      "mer",
      "c"
    ],
    [
      "paul",
      "ina:</w>"
    ],
    [
      "polixen",
      "es:</w>"
    ],
    [
      "pompe",
      "y:</w>"
    ],
    [
      "s",
      "oul</w>"
    ],
    [
      "se",
      ";</w>"
    ],
    [
      "sen",
      "d</w>"
    ],
    [
      "sir",
      ";</w>"
    ],
    [
      "ta",
      "in"
    ],
    [
      "ta",
      "in</w>"
    ],
    [
      "un",
      "der</w>"
    ],
    [
      "a",
      "ge</w>"
    ],
    [
      "a",
      "um"
    ],
    [
      "aum",
      "er"
    ],
    [
      "be",
      "lieve</w>"
    ],
    [
      "chil",
      "dr"
    ],
    [
      "p",
      ",</w>"
    ],
    [
      "r",
      "un"
    ],
    [
      "senat",
      "or"
    ],
    [
      "sig",
      "ni"
    ],
    [
      "so",
      ".</w>"
    ],
    [
      "t",
      "ou"
    ],
    [
      "volum",
      "ni"
    ],
    [
      "war",
      "d</w>"
    ],
    [
      "wor",
      "ds</w>"
    ],
    [
      "y",
      "ing</w>"
    ],
    [
      ",",
      "'</w>"
    ],
    [
      "answ",
      "er</w>"
    ],
    [
      "b",
      "</w>"
    ],
    [
      "bro",
      "ther,</w>"
    ],
    [
      "fa",
      "ll</w>"
    ],
    [
      "fo",
      "llow"
    ],
    [
      "g",
      "r"
    ],
    [
      "gen",
      "er"
    ],
    [
      "ght",
      ".</w>"
    ],
    [
      "hasting",
      "s:</w>"
    ],
    [
      "him",
      "self</w>"
    ],
    [
      "kin",
      "d"
    ],
    [
      "le",
      "ar"
    ],
    [
      "m",
      "usi"
    ],
    [
      "ne",
      "'er</w>"
    ],
    [
      "que",
      "en"
    ],
    [
      "sh",
      "or"
    ],
    [
      "to",
      "ge"
    ],
    [
      "v",
      "al"
    ],
    [
      "volumni",
      "a:</w>"
    ],
    [
      "a",
      "h,</w>"
    ],
    [
      "c",
      "ol"
    ],
    [
      "d",
      "s:</w>"
    ],
    [
      "dau",
      "ghter</w>"
    ],
    [
      "f",
      "re"
    ],
    [
      "g",
      "g"
    ],
    [
      "g",
      "row"
    ],
    [
      "kin",
      "d</w>"
    ],
    [
      "le",
      "ft</w>"
    ],
    [
      "ll",
      ".</w>"
    ],
    [
      "mo",
      "ther"
    ],
    [
      "p",
      "t</w>"
    ],
    [
      "sa",
      "w</w>"
    ],
    [
      "sen",
      "g"
    ],
    [
      "serving",
      "man:</w>"
    ],
    [
      "the",
      "m,</w>"
    ],
    [
      "thou",
      "ght"
    ],
    [
      "cen",
      "ti"
    ],
    [
      "coun",
      "tr"
    ],
    [
      "da",
      "y,</w>"
    ],
    [
      "f",
      "oul</w>"
    ],
    [
      "ga",
      "un"
    ],
    [
      "him",
      ";</w>"
    ],
    [
      "k",
      "en</w>"
    ],
    [
      "laur",
      "ence:</w>"
    ],
    [
      "ll",
      "s</w>"
    ],
    [
      "mes",
      "seng"
    ],
    [
      "no",
      "t.</w>"
    ],
    [
      "o",
      ".</w>"
    ],
    [
      "p",
      "lu"
    ],
    [
      "st",
      "or"
    ],
    [
      "sw",
      "ear</w>"
    ],
    [
      "t",
      "-"
    ],
    [
      "t",
      "y.</w>"
    ],
    [
      "ty",
      "bal"
    ],
    [
      "w",
      "re"
    ],
    [
      "wif",
      "e</w>"
    ],
    [
      "ano",
      "ther</w>"
    ],
    [
      "ba",
      "ck</w>"
    ],
    [
      "bi",
      "on"
    ],
    [
      "ck",
      "'d</w>"
    ],
    [
      "ent",
      ".</w>"
    ],
    [
      "f",
      "lor"
    ],
    [
      "k",
      "s,</w>"
    ],
    [
      "ma",
      "jes"
    ],
    [
      "northumberlan",
      "d:</w>"
    ],
    [
      "si",
      "l"
    ],
    [
      "t",
      "ly</w>"
    ],
    [
      "ta",
      "l</w>"
    ],
    [
      "th",
      "y"
    ],
    [
      "'t",
      ".</w>"
    ],
    [
      "an",
      "ne"
    ],
    [
      "b",
      "e,</w>"
    ],
    [
      "be",
      "cause</w>"
    ],
    [
      "bion",
      "de"
    ],
    [
      "bionde",
      "ll"
    ],
    [
      "bloo",
      "dy</w>"
    ],
    [
      "do",
      "es</w>"
    ],
    [
      "frien",
      "ds</w>"
    ],
    [
      "hen",
      "ce</w>"
    ],
    [
      "jo",
      "h"
    ],
    [
      "jo",
      "y</w>"
    ],
    [
      "k",
      "en"
    ],
    [
      "mo",
      "ther</w>"
    ],
    [
      "on",
      "e:</w>"
    ],
    [
      "s",
      "l"
    ],
    [
      "th",
      "ing"
    ],
    [
      "th",
      "ings</w>"
    ],
    [
      "tow",
      "ar"
    ],
    [
      "v",
      "an"
    ],
    [
      "war",
      "ran"
    ],
    [
      "b",
      "at"
    ],
    [
      "ca",
      "tes"
    ],
    [
      "com",
      "man"
    ],
    [
      "er",
      "s,</w>"
    ],
    [
      "f",
      "et"
    ],
    [
      "her",
      "e"
    ],
    [
      "him",
      ":</w>"
    ],
    [
      "o",
      "a"
    ],
    [
      "pur",
      "po"
    ],
    [
      "th",
      "is"
    ],
    [
      "there",
      "fore,</w>"
    ],
    [
      "ti",
      "t"
    ],
    [
      "un",
      "c"
    ],
    [
      "w",
      "er"
    ],
    [
      "you",
      "?</w>"
    ],
    [
      "all",
      ",</w>"
    ],
    [
      "anne",
      ":</w>"
    ],
    [
      "bian",
      "ca"
    ],
    [
      "ci",
      "an"
    ],
    [
      "di",
      "sp"
    ],
    [
      "e",
      "lo"
    ],
    [
      "her",
      "e's</w>"
    ],
    [
      "mar",
      "ry,</w>"
    ],
    [
      "mistres",
      "s</w>"
    ],
    [
      "new",
      "s</w>"
    ],
    [
      "st",
      "e"
    ],
    [
      "to",
      "ld</w>"
    ],
    [
      "aga",
      "in</w>"
    ],
    [
      "c",
      "rea"
    ],
    [
      "c",
      "tor"
    ],
    [
      "ce",
      "iv"
    ],
    [
      "f",
      "ea"
    ],
    [
      "fa",
      "ul"
    ],
    [
      "g",
      "la"
    ],
    [
      "gi",
      "v"
    ],
    [
      "h",
      "e,</w>"
    ],
    [
      "her",
      "mi"
    ],
    [
      "nor",
      "fol"
    ],
    [
      "pea",
      "ce</w>"
    ],
    [
      "pra",
      "y"
    ],
    [
      "qu",
      "ar"
    ],
    [
      "s",
      "es"
    ],
    [
      "su",
      "re"
    ],
    [
      "thr",
      "ough</w>"
    ],
    [
      "tim",
      "es</w>"
    ],
    [
      "warwi",
      "ck</w>"
    ],
    [
      "'t",
      "was</w>"
    ],
    [
      "ar",
      "i"
    ],
    [
      "ce",
      "i"
    ],
    [
      "dea",
      "th.</w>"
    ],
    [
      "fal",
      "se</w>"
    ],
    [
      "flor",
      "iz"
    ],
    [
      "fo",
      "llow</w>"
    ],
    [
      "go",
      "t</w>"
    ],
    [
      "h",
      "ow"
    ],
    [
      "hi",
      "gh</w>"
    ],
    [
      "in",
      "e</w>"
    ],
    [
      "l",
      ":</w>"
    ],
    [
      "li",
      "e</w>"
    ],
    [
      "o",
      "p</w>"
    ],
    [
      "p",
      "en"
    ],
    [
      "par",
      "don"
    ],
    [
      "pres",
      "ent</w>"
    ],
    [
      "s",
      "'d</w>"
    ],
    [
      "s",
      "oun"
    ],
    [
      "signi",
      "or</w>"
    ],
    [
      "w",
      "oun"
    ],
    [
      "w",
      "ri"
    ],
    [
      "you",
      ";</w>"
    ],
    [
      "at",
      "ten"
    ],
    [
      "ei",
      "ther</w>"
    ],
    [
      "fa",
      "ce</w>"
    ],
    [
      "fl",
      "ow"
    ],
    [
      "for",
      "m"
    ],
    [
      "fortun",
      "e</w>"
    ],
    [
      "go",
      "d,</w>"
    ],
    [
      "min",
      "d</w>"
    ],
    [
      "mor",
      "e,</w>"
    ],
    [
      "o",
      "be"
    ],
    [
      "on",
      "e.</w>"
    ],
    [
      "p",
      "h"
    ],
    [
      "ri",
      "ver"
    ],
    [
      "se",
      "e,</w>"
    ],
    [
      "tw",
      "ent"
    ],
    [
      "up",
      ",</w>"
    ],
    [
      "bo",
      "dy</w>"
    ],
    [
      "brea",
      "k</w>"
    ],
    [
      "ent",
      "rea"
    ],
    [
      "gentle",
      "man:</w>"
    ],
    [
      "in",
      "stru"
    ],
    [
      "k",
      ".</w>"
    ],
    [
      "ki",
      "ll</w>"
    ],
    [
      "l",
      ".</w>"
    ],
    [
      "l",
      "ing</w>"
    ],
    [
      "n",
      "ed</w>"
    ],
    [
      "p",
      "lan"
    ],
    [
      "r",
      "en"
    ],
    [
      "shi",
      "p</w>"
    ],
    [
      "warwick",
      ",</w>"
    ],
    [
      "again",
      ".</w>"
    ],
    [
      "ang",
      "elo"
    ],
    [
      "br",
      "ought</w>"
    ],
    [
      "ch",
      "'d</w>"
    ],
    [
      "ch",
      "mon"
    ],
    [
      "ch",
      "oo"
    ],
    [
      "com",
      "e.</w>"
    ],
    [
      "d",
      "ear"
    ],
    [
      "es",
      "t,</w>"
    ],
    [
      "da",
      "m"
    ],
    [
      "eng",
      "lan"
    ],
    [
      "han",
      "ds</w>"
    ],
    [
      "in",
      "i"
    ],
    [
      "k",
      "e.</w>"
    ],
    [
      "king",
      ".</w>"
    ],
    [
      "li",
      "sh</w>"
    ],
    [
      "li",
      "ves</w>"
    ],
    [
      "me",
      "!</w>"
    ],
    [
      "p",
      "e</w>"
    ],
    [
      "res",
      "ol"
    ],
    [
      "ri",
      "chmon"
    ],
    [
      "rome",
      "o</w>"
    ],
    [
      "sel",
      "v"
    ],
    [
      "sle",
      "ep"
    ],
    [
      "sor",
      "row</w>"
    ],
    [
      "st",
      "ate</w>"
    ],
    [
      "stra",
      "i"
    ],
    [
      "tal",
      "k</w>"
    ],
    [
      "wif",
      "e,</w>"
    ],
    [
      "you",
      ":</w>"
    ],
    [
      "aufidi",
      "us:</w>"
    ],
    [
      "con",
      "su"
    ],
    [
      "d",
      "om</w>"
    ],
    [
      "de",
      "f"
    ],
    [
      "dea",
      "d</w>"
    ],
    [
      "di",
      "sh"
    ],
    [
      "dra",
      "w</w>"
    ],
    [
      "e",
      "mi"
    ],
    [
      "edwar",
      "d's</w>"
    ],
    [
      "floriz",
      "el:</w>"
    ],
    [
      "g",
      "ed</w>"
    ],
    [
      "lor",
      "d"
    ],
    [
      "marci",
      "us:</w>"
    ],
    [
      "messeng",
      "er:</w>"
    ],
    [
      "ne",
      "ed</w>"
    ],
    [
      "s",
      "wa"
    ],
    [
      "tear",
      "s</w>"
    ],
    [
      "v",
      "e.</w>"
    ],
    [
      "w",
      "oo"
    ],
    [
      "will",
      ",</w>"
    ],
    [
      "bi",
      "r"
    ],
    [
      "bl",
      "e,</w>"
    ],
    [
      "ca",
      "u"
    ],
    [
      "can",
      "st</w>"
    ],
    [
      "d",
      "en</w>"
    ],
    [
      "di",
      "dst</w>"
    ],
    [
      "en",
      "ter"
    ],
    [
      "exe",
      "cu"
    ],
    [
      "h",
      "our</w>"
    ],
    [
      "han",
      "d,</w>"
    ],
    [
      "hea",
      "vy</w>"
    ],
    [
      "i",
      "an"
    ],
    [
      "l",
      "est</w>"
    ],
    [
      "m",
      "ou"
    ],
    [
      "men",
      "t,</w>"
    ],
    [
      "o",
      "x"
    ],
    [
      "pla",
      "y</w>"
    ],
    [
      "richar",
      "d:</w>"
    ],
    [
      "s",
      "of"
    ],
    [
      "tri",
      "bu"
    ],
    [
      "w",
      "ear"
    ],
    [
      "y",
      "ea"
    ],
    [
      "!",
      "'</w>"
    ],
    [
      "an",
      "ti"
    ],
    [
      "c",
      "t"
    ],
    [
      "ch",
      ".</w>"
    ],
    [
      "comfor",
      "t</w>"
    ],
    [
      "f",
      "an"
    ],
    [
      "for",
      ",</w>"
    ],
    [
      "gri",
      "ef"
    ],
    [
      "ha",
      "ving</w>"
    ],
    [
      "ing",
      ":</w>"
    ],
    [
      "is",
      "su"
    ],
    [
      "le",
      "w"
    ],
    [
      "mean",
      "s</w>"
    ],
    [
      "re",
      "qu"
    ],
    [
      "it",
      "e</w>"
    ],
    [
      "se",
      "en</w>"
    ],
    [
      "senator",
      ":</w>"
    ],
    [
      "sh",
      "e's</w>"
    ],
    [
      "si",
      "r</w>"
    ],
    [
      "wi",
      "sh</w>"
    ],
    [
      "a",
      "bo"
    ],
    [
      "ar",
      "d</w>"
    ],
    [
      "bloo",
      "d,</w>"
    ],
    [
      "chang",
      "e</w>"
    ],
    [
      "citiz",
      "en"
    ],
    [
      "der",
      ",</w>"
    ],
    [
      "fai",
      "th,</w>"
    ],
    [
      "g",
      "ol"
    ],
    [
      "go",
      "d's</w>"
    ],
    [
      "joh",
      "n</w>"
    ],
    [
      "k",
      "now,</w>"
    ],
    [
      "li",
      "ght"
    ],
    [
      "ll",
      "y</w>"
    ],
    [
      "lor",
      "d;</w>"
    ],
    [
      "man",
      ".</w>"
    ],
    [
      "o",
      "b"
    ],
    [
      "oul",
      "dst</w>"
    ],
    [
      "rea",
      "d</w>"
    ],
    [
      "sh",
      "e"
    ],
    [
      "shepher",
      "d:</w>"
    ],
    [
      "sor",
      "row"
    ],
    [
      "str",
      "eng"
    ],
    [
      "them",
      ".</w>"
    ],
    [
      "thin",
      "ks</w>"
    ],
    [
      "wi",
      "t"
    ],
    [
      "you",
      "'ll</w>"
    ],
    [
      "'t",
      "were</w>"
    ],
    [
      "a",
      "ble</w>"
    ],
    [
      "ba",
      "ck"
    ],
    [
      "biondell",
      "o:</w>"
    ],
    [
      "c",
      "ry</w>"
    ],
    [
      "comp",
      "an"
    ],
    [
      "don",
      "e,</w>"
    ],
    [
      "f",
      "row"
    ],
    [
      "frien",
      "ds,</w>"
    ],
    [
      "her",
      ".</w>"
    ],
    [
      "it",
      ":</w>"
    ],
    [
      "o",
      "!</w>"
    ],
    [
      "o'",
      "er"
    ],
    [
      "ox",
      "for"
    ],
    [
      "po",
      "in"
    ],
    [
      "qu",
      "a"
    ],
    [
      "rea",
      "dy</w>"
    ],
    [
      "s",
      "ca"
    ],
    [
      "s",
      "cor"
    ],
    [
      "s",
      "s</w>"
    ],
    [
      "see",
      "m</w>"
    ],
    [
      "sha",
      "me</w>"
    ],
    [
      "su",
      "c"
    ],
    [
      "su",
      "ff"
    ],
    [
      "sun",
      "</w>"
    ],
    [
      "ti",
      "me,</w>"
    ],
    [
      "year",
      "s</w>"
    ],
    [
      "all",
      ".</w>"
    ],
    [
      "bo",
      "som"
    ],
    [
      "crow",
      "n</w>"
    ],
    [
      "d",
      "o,</w>"
    ],
    [
      "fri",
      "ar"
    ],
    [
      "go",
      "ds</w>"
    ],
    [
      "gu",
      "il"
    ],
    [
      "hal",
      "f</w>"
    ],
    [
      "i",
      "s:</w>"
    ],
    [
      "know",
      "s</w>"
    ],
    [
      "liv",
      "e,</w>"
    ],
    [
      "loo",
      "ks</w>"
    ],
    [
      "ma",
      "tter"
    ],
    [
      "mo",
      "ther,</w>"
    ],
    [
      "nat",
      "u"
    ],
    [
      "pea",
      "ce,</w>"
    ],
    [
      "peop",
      "le</w>"
    ],
    [
      "pit",
      "y</w>"
    ],
    [
      "pra",
      "y,</w>"
    ],
    [
      "prou",
      "d</w>"
    ],
    [
      "re",
      "s</w>"
    ],
    [
      "sa",
      "me</w>"
    ],
    [
      "sa",
      "ys</w>"
    ],
    [
      "son",
      ".</w>"
    ],
    [
      "st",
      "re"
    ],
    [
      "st",
      "u"
    ],
    [
      "ther",
      "e,</w>"
    ],
    [
      "this",
      "?</w>"
    ],
    [
      "ti",
      "es</w>"
    ],
    [
      "twent",
      "y</w>"
    ],
    [
      "un",
      "less</w>"
    ],
    [
      "wel",
      "come</w>"
    ],
    [
      "y",
      "et,</w>"
    ],
    [
      "b",
      "and</w>"
    ],
    [
      "c",
      "lou"
    ],
    [
      "comm",
      "on</w>"
    ],
    [
      "d",
      "es</w>"
    ],
    [
      "d",
      "ge</w>"
    ],
    [
      "es",
      "s.</w>"
    ],
    [
      "f",
      "ra"
    ],
    [
      "f",
      "ree</w>"
    ],
    [
      "ha",
      "te</w>"
    ],
    [
      "heaven",
      ",</w>"
    ],
    [
      "inde",
      "ed,</w>"
    ],
    [
      "it",
      "y,</w>"
    ],
    [
      "l",
      "s</w>"
    ],
    [
      "mar",
      "k</w>"
    ],
    [
      "mi",
      "l"
    ],
    [
      "o",
      "'s</w>"
    ],
    [
      "que",
      "en,</w>"
    ],
    [
      "r",
      "oo"
    ],
    [
      "remem",
      "ber</w>"
    ],
    [
      "si",
      "ster"
    ],
    [
      "sir",
      "ra"
    ],
    [
      "t",
      "ro"
    ],
    [
      "li",
      "ght</w>"
    ],
    [
      "v",
      "ent"
    ],
    [
      "vol",
      "s"
    ],
    [
      "wa",
      "l"
    ],
    [
      "whi",
      "ch,</w>"
    ],
    [
      "wi",
      "dow"
    ],
    [
      "yor",
      "k</w>"
    ],
    [
      "'",
      "t,</w>"
    ],
    [
      "aumer",
      "le:</w>"
    ],
    [
      "bat",
      "t"
    ],
    [
      "be",
      "d</w>"
    ],
    [
      "c",
      "old</w>"
    ],
    [
      "cei",
      "ve</w>"
    ],
    [
      "cu",
      "t</w>"
    ],
    [
      "d",
      "y,</w>"
    ],
    [
      "e",
      "vi"
    ],
    [
      "on",
      "d</w>"
    ],
    [
      "g",
      "e.</w>"
    ],
    [
      "g",
      "one</w>"
    ],
    [
      "hus",
      "band</w>"
    ],
    [
      "k",
      "'d</w>"
    ],
    [
      "k",
      "ed</w>"
    ],
    [
      "k",
      "no"
    ],
    [
      "ck",
      "s</w>"
    ],
    [
      "kis",
      "s</w>"
    ],
    [
      "know",
      "n</w>"
    ],
    [
      "l",
      "in"
    ],
    [
      "lov",
      "ed</w>"
    ],
    [
      "mi",
      "ght"
    ],
    [
      "nes",
      "s,</w>"
    ],
    [
      "ni",
      "ght,</w>"
    ],
    [
      "on",
      ":</w>"
    ],
    [
      "sa",
      "ti"
    ],
    [
      "some",
      "thing</w>"
    ],
    [
      "son",
      "s</w>"
    ],
    [
      "spea",
      "k,</w>"
    ],
    [
      "speak",
      ".</w>"
    ],
    [
      "swe",
      "et"
    ],
    [
      "ten",
      "der</w>"
    ],
    [
      "th",
      "ri"
    ],
    [
      "tion",
      "s</w>"
    ],
    [
      "wi",
      "xt</w>"
    ],
    [
      "ad",
      "vi"
    ],
    [
      "af",
      "fec"
    ],
    [
      "again",
      ",</w>"
    ],
    [
      "bea",
      "t</w>"
    ],
    [
      "ch",
      "o"
    ],
    [
      "claudi",
      "o:</w>"
    ],
    [
      "d",
      "are</w>"
    ],
    [
      "des",
      "ire</w>"
    ],
    [
      "drea",
      "m"
    ],
    [
      "en",
      "emi"
    ],
    [
      "es",
      "?</w>"
    ],
    [
      "fir",
      "st,</w>"
    ],
    [
      "gentle",
      "man</w>"
    ],
    [
      "it",
      "?</w>"
    ],
    [
      "la",
      "te</w>"
    ],
    [
      "lan",
      "ca"
    ],
    [
      "lew",
      "is</w>"
    ],
    [
      "lu",
      "centi"
    ],
    [
      "min",
      "e,</w>"
    ],
    [
      "offi",
      "c"
    ],
    [
      "pi",
      "e"
    ],
    [
      "pla",
      "ce</w>"
    ],
    [
      "s",
      "car"
    ],
    [
      "se",
      "d,</w>"
    ],
    [
      "bl",
      "es"
    ],
    [
      "sel",
      "ves</w>"
    ],
    [
      "shi",
      "p"
    ],
    [
      "so",
      "on</w>"
    ],
    [
      "sp",
      "ee"
    ],
    [
      "st",
      ";</w>"
    ],
    [
      "th",
      ";</w>"
    ],
    [
      "to-mor",
      "row"
    ],
    [
      "warran",
      "t</w>"
    ],
    [
      "yi",
      "eld</w>"
    ],
    [
      "ac",
      "c"
    ],
    [
      "bor",
      "n</w>"
    ],
    [
      "c",
      "are</w>"
    ],
    [
      "c",
      "ely</w>"
    ],
    [
      "char",
      "ge</w>"
    ],
    [
      "cliffor",
      "d:</w>"
    ],
    [
      "di",
      "ta"
    ],
    [
      "ed",
      "?</w>"
    ],
    [
      "el",
      "bow"
    ],
    [
      "en",
      "ough"
    ],
    [
      "es",
      "!</w>"
    ],
    [
      "ey",
      "e</w>"
    ],
    [
      "g",
      "e:</w>"
    ],
    [
      "g",
      "lor"
    ],
    [
      "gri",
      "ef</w>"
    ],
    [
      "hear",
      "t,</w>"
    ],
    [
      "honour",
      ",</w>"
    ],
    [
      "kne",
      "w</w>"
    ],
    [
      "li",
      "fe"
    ],
    [
      "lov",
      "ing</w>"
    ],
    [
      "ment",
      "s</w>"
    ],
    [
      "mi",
      "ran"
    ],
    [
      "miran",
      "da"
    ],
    [
      "na",
      "me,</w>"
    ],
    [
      "o",
      "?</w>"
    ],
    [
      "ou",
      "t"
    ],
    [
      "our",
      "s</w>"
    ],
    [
      "pro",
      "cla"
    ],
    [
      "quar",
      "re"
    ],
    [
      "re",
      "ma"
    ],
    [
      "in",
      ".</w>"
    ],
    [
      "su",
      "p"
    ],
    [
      "swor",
      "n</w>"
    ],
    [
      "t",
      "ar"
    ],
    [
      "g",
      "et</w>"
    ],
    [
      "us",
      "ur"
    ],
    [
      "well",
      ";</w>"
    ],
    [
      "y",
      "-"
    ],
    [
      "hea",
      "v"
    ],
    [
      "heav",
      "en</w>"
    ],
    [
      "s",
      "k"
    ],
    [
      "z",
      "e</w>"
    ],
    [
      "b",
      "row"
    ],
    [
      "be",
      "come</w>"
    ],
    [
      "bet",
      "we"
    ],
    [
      "bra",
      "ve</w>"
    ],
    [
      "brother",
      "'s</w>"
    ],
    [
      "ch",
      "ee"
    ],
    [
      "cl",
      "e,</w>"
    ],
    [
      "con",
      "s"
    ],
    [
      "d",
      "e.</w>"
    ],
    [
      "d",
      "ro"
    ],
    [
      "de",
      "ep</w>"
    ],
    [
      "de",
      "m"
    ],
    [
      "dra",
      "w"
    ],
    [
      "e",
      "'er</w>"
    ],
    [
      "er",
      "i"
    ],
    [
      "er",
      "y</w>"
    ],
    [
      "fa",
      "v"
    ],
    [
      "ge",
      "or"
    ],
    [
      "hermi",
      "one:</w>"
    ],
    [
      "in",
      "'d</w>"
    ],
    [
      "lov",
      "e.</w>"
    ],
    [
      "n",
      "ar"
    ],
    [
      "nat",
      "ure</w>"
    ],
    [
      "p",
      "at"
    ],
    [
      "p",
      "or"
    ],
    [
      "rom",
      "e</w>"
    ],
    [
      "s",
      "ma"
    ],
    [
      "see",
      "k</w>"
    ],
    [
      "stan",
      "ds</w>"
    ],
    [
      "ty",
      "ran"
    ],
    [
      "whi",
      "l"
    ],
    [
      "wre",
      "tch"
    ],
    [
      "yea",
      ",</w>"
    ],
    [
      "al",
      ",</w>"
    ],
    [
      "bes",
      "i"
    ],
    [
      "c",
      "ity</w>"
    ],
    [
      "c",
      "tion</w>"
    ],
    [
      "cou",
      "sin</w>"
    ],
    [
      "cousin",
      ",</w>"
    ],
    [
      "dang",
      "er"
    ],
    [
      "di",
      "re"
    ],
    [
      "e",
      "mp"
    ],
    [
      "e",
      "ver"
    ],
    [
      "fare",
      "well,</w>"
    ],
    [
      "fear",
      "ful</w>"
    ],
    [
      "ga",
      "ve</w>"
    ],
    [
      "giv",
      "en</w>"
    ],
    [
      "gra",
      "ve</w>"
    ],
    [
      "hen",
      "ce,</w>"
    ],
    [
      "i",
      "m</w>"
    ],
    [
      "i",
      "mp"
    ],
    [
      "in",
      ":</w>"
    ],
    [
      "ir",
      ",</w>"
    ],
    [
      "it",
      "s</w>"
    ],
    [
      "la",
      "w</w>"
    ],
    [
      "le",
      "tter"
    ],
    [
      "look",
      "'d</w>"
    ],
    [
      "m",
      "ed</w>"
    ],
    [
      "m",
      "ow"
    ],
    [
      "mada",
      "m"
    ],
    [
      "man",
      "n"
    ],
    [
      "miranda",
      ":</w>"
    ],
    [
      "night",
      ".</w>"
    ],
    [
      "o",
      "'er</w>"
    ],
    [
      "pro",
      "ce"
    ],
    [
      "que",
      "en:</w>"
    ],
    [
      "rome",
      "o,</w>"
    ],
    [
      "sa",
      "y"
    ],
    [
      "sati",
      "s"
    ],
    [
      "se",
      "!</w>"
    ],
    [
      "sir",
      "?</w>"
    ],
    [
      "t",
      "in"
    ],
    [
      "too",
      ",</w>"
    ],
    [
      "w",
      "ear</w>"
    ],
    [
      "wel",
      "come,</w>"
    ],
    [
      "worl",
      "d,</w>"
    ],
    [
      "x",
      "</w>"
    ],
    [
      "'",
      "d;</w>"
    ],
    [
      "g",
      "ro"
    ],
    [
      "b",
      "y,</w>"
    ],
    [
      "bl",
      "ow"
    ],
    [
      "busin",
      "ess</w>"
    ],
    [
      "ca",
      "ll"
    ],
    [
      "cates",
      "by:</w>"
    ],
    [
      "clar",
      "ence</w>"
    ],
    [
      "da",
      "y.</w>"
    ],
    [
      "fe",
      "ct</w>"
    ],
    [
      "fi",
      "ght</w>"
    ],
    [
      "frien",
      "d</w>"
    ],
    [
      "gon",
      "e,</w>"
    ],
    [
      "goo",
      "d,</w>"
    ],
    [
      "h",
      "in"
    ],
    [
      "hea",
      "d,</w>"
    ],
    [
      "her",
      "e?</w>"
    ],
    [
      "here",
      "for"
    ],
    [
      "hi",
      "ther</w>"
    ],
    [
      "hou",
      "se,</w>"
    ],
    [
      "i",
      "ous</w>"
    ],
    [
      "i",
      "sed</w>"
    ],
    [
      "is",
      "'t</w>"
    ],
    [
      "li",
      "ber"
    ],
    [
      "men",
      "d</w>"
    ],
    [
      "mor",
      "e.</w>"
    ],
    [
      "mow",
      "bra"
    ],
    [
      "ou",
      "s,</w>"
    ],
    [
      "pa",
      "st</w>"
    ],
    [
      "pas",
      "s</w>"
    ],
    [
      "plu",
      "ck</w>"
    ],
    [
      "qui",
      "ck"
    ],
    [
      "ra",
      "t"
    ],
    [
      "rep",
      "ort</w>"
    ],
    [
      "res",
      "pe"
    ],
    [
      "sa",
      "f"
    ],
    [
      "ser",
      "ve</w>"
    ],
    [
      "st",
      "ea"
    ],
    [
      "stan",
      "le"
    ],
    [
      "stri",
      "ke</w>"
    ],
    [
      "su",
      "pp"
    ],
    [
      "t",
      "ry</w>"
    ],
    [
      "th",
      "or"
    ],
    [
      "too",
      "k</w>"
    ],
    [
      "tr",
      "ou"
    ],
    [
      "tr",
      "ust</w>"
    ],
    [
      "wh",
      "e"
    ],
    [
      "wom",
      "en</w>"
    ],
    [
      "y",
      "'d</w>"
    ],
    [
      "youn",
      "g"
    ],
    [
      "all",
      ":</w>"
    ],
    [
      "an",
      "ce,</w>"
    ],
    [
      "b",
      "ound</w>"
    ],
    [
      "b",
      "ran"
    ],
    [
      "ba",
      "w"
    ],
    [
      "c",
      "ros"
    ],
    [
      "c",
      "ru"
    ],
    [
      "ca",
      "p"
    ],
    [
      "ch",
      "es</w>"
    ],
    [
      "f",
      "ro"
    ],
    [
      "gre",
      "y:</w>"
    ],
    [
      "h",
      "oo"
    ],
    [
      "d",
      "s;</w>"
    ],
    [
      "hom",
      "e</w>"
    ],
    [
      "hon",
      "est</w>"
    ],
    [
      "l",
      "on"
    ],
    [
      "lo",
      "st</w>"
    ],
    [
      "m",
      "b"
    ],
    [
      "m",
      "ed"
    ],
    [
      "ma",
      "y"
    ],
    [
      "mar",
      "ian"
    ],
    [
      "off",
      "en"
    ],
    [
      "om",
      ",</w>"
    ],
    [
      "ou",
      "t,</w>"
    ],
    [
      "p",
      "ed"
    ],
    [
      "prin",
      "ce,</w>"
    ],
    [
      "s",
      "ound</w>"
    ],
    [
      "sa",
      "int</w>"
    ],
    [
      "see",
      "m"
    ],
    [
      "so",
      "?</w>"
    ],
    [
      "tre",
      "m"
    ],
    [
      "tru",
      "th</w>"
    ],
    [
      "well",
      ":</w>"
    ],
    [
      "wi",
      "fe"
    ],
    [
      "al",
      ".</w>"
    ],
    [
      "awa",
      "y.</w>"
    ],
    [
      "b",
      "li"
    ],
    [
      "sh",
      "'d</w>"
    ],
    [
      "bianca",
      ":</w>"
    ],
    [
      "c",
      "es,</w>"
    ],
    [
      "c",
      "le"
    ],
    [
      "c",
      "ted</w>"
    ],
    [
      "ci",
      "ent</w>"
    ],
    [
      "cont",
      "ent</w>"
    ],
    [
      "crow",
      "n"
    ],
    [
      "crow",
      "n,</w>"
    ],
    [
      "d",
      "est</w>"
    ],
    [
      "da",
      "ys</w>"
    ],
    [
      "dr",
      "in"
    ],
    [
      "edwar",
      "d,</w>"
    ],
    [
      "en",
      "ough</w>"
    ],
    [
      "ey",
      "es,</w>"
    ],
    [
      "fet",
      "ch</w>"
    ],
    [
      "gaun",
      "t:</w>"
    ],
    [
      "hen",
      "r"
    ],
    [
      "in",
      "ted</w>"
    ],
    [
      "in",
      "ten"
    ],
    [
      "k",
      "na"
    ],
    [
      "king",
      "'s</w>"
    ],
    [
      "le",
      ";</w>"
    ],
    [
      "ll",
      "ing</w>"
    ],
    [
      "loo",
      "k,</w>"
    ],
    [
      "lor",
      "d?</w>"
    ],
    [
      "man",
      "'s</w>"
    ],
    [
      "marci",
      "us</w>"
    ],
    [
      "marri",
      "ed</w>"
    ],
    [
      "n",
      "ear</w>"
    ],
    [
      "op",
      "en</w>"
    ],
    [
      "per",
      "dita"
    ],
    [
      "re",
      "turn</w>"
    ],
    [
      "si",
      "de</w>"
    ],
    [
      "st",
      "s</w>"
    ],
    [
      "tribu",
      "n"
    ],
    [
      "tru",
      "e,</w>"
    ],
    [
      "van",
      "ta"
    ],
    [
      "vi",
      "ctor"
    ],
    [
      "wi",
      "l"
    ],
    [
      "ala",
      "s,</w>"
    ],
    [
      "b",
      "re"
    ],
    [
      "betwe",
      "en</w>"
    ],
    [
      "c",
      "ham"
    ],
    [
      "ch",
      "ri"
    ],
    [
      "d",
      "le</w>"
    ],
    [
      "d",
      "ru"
    ],
    [
      "dea",
      "d,</w>"
    ],
    [
      "deli",
      "ver"
    ],
    [
      "dish",
      "on"
    ],
    [
      "ex",
      "ce"
    ],
    [
      "en",
      "t,</w>"
    ],
    [
      "f",
      ",</w>"
    ],
    [
      "frien",
      "d,</w>"
    ],
    [
      "gu",
      "e</w>"
    ],
    [
      "h",
      "ur"
    ],
    [
      "ha",
      "dst</w>"
    ],
    [
      "hour",
      "s</w>"
    ],
    [
      "i",
      "ma"
    ],
    [
      "in",
      "t"
    ],
    [
      "ju",
      "dg"
    ],
    [
      "ke",
      "ep"
    ],
    [
      "lie",
      "ge,</w>"
    ],
    [
      "m",
      "el"
    ],
    [
      "mi",
      "ser"
    ],
    [
      "mo",
      "ve</w>"
    ],
    [
      "nei",
      "ther</w>"
    ],
    [
      "of",
      "ten</w>"
    ],
    [
      "re",
      "ver"
    ],
    [
      "ri",
      "ed</w>"
    ],
    [
      "ri",
      "ght"
    ],
    [
      "rom",
      "an"
    ],
    [
      "rom",
      "e,</w>"
    ],
    [
      "run",
      "</w>"
    ],
    [
      "s",
      "an"
    ],
    [
      "s",
      "us"
    ],
    [
      "sea",
      "</w>"
    ],
    [
      "som",
      "er"
    ],
    [
      "sw",
      "ear"
    ],
    [
      "th",
      "re"
    ],
    [
      "th",
      "row</w>"
    ],
    [
      "tt",
      "ing</w>"
    ],
    [
      "tt",
      "y</w>"
    ],
    [
      "va",
      "li"
    ],
    [
      "war",
      "</w>"
    ],
    [
      "we",
      "i"
    ],
    [
      "wh",
      "o,</w>"
    ],
    [
      "whil",
      "st</w>"
    ],
    [
      "your",
      "self</w>"
    ],
    [
      "awa",
      "y,</w>"
    ],
    [
      "bi",
      "sh"
    ],
    [
      "ble",
      ".</w>"
    ],
    [
      "c",
      "ow"
    ],
    [
      "ch",
      "ur"
    ],
    [
      "co",
      "ver"
    ],
    [
      "t",
      "ure</w>"
    ],
    [
      "di",
      "e.</w>"
    ],
    [
      "doub",
      "t</w>"
    ],
    [
      "down",
      ",</w>"
    ],
    [
      "e",
      "per"
    ],
    [
      "elbow",
      ":</w>"
    ],
    [
      "f",
      "li"
    ],
    [
      "fe",
      "llow</w>"
    ],
    [
      "fir",
      "e</w>"
    ],
    [
      "fla",
      "tter"
    ],
    [
      "for",
      "ce</w>"
    ],
    [
      "ga",
      "in"
    ],
    [
      "go",
      ".</w>"
    ],
    [
      "go",
      "ver"
    ],
    [
      "he",
      "ld</w>"
    ],
    [
      "her",
      "e.</w>"
    ],
    [
      "ing",
      ";</w>"
    ],
    [
      "lar",
      "ti"
    ],
    [
      "li",
      "a:</w>"
    ],
    [
      "my",
      "self,</w>"
    ],
    [
      "pa",
      "ir</w>"
    ],
    [
      "pri",
      "thee,</w>"
    ],
    [
      "prin",
      "cely</w>"
    ],
    [
      "pro",
      "f"
    ],
    [
      "river",
      "s:</w>"
    ],
    [
      "se",
      "?</w>"
    ],
    [
      "se",
      "cre"
    ],
    [
      "se",
      "l</w>"
    ],
    [
      "sh",
      "ed</w>"
    ],
    [
      "sp",
      "a"
    ],
    [
      "t",
      "ch</w>"
    ],
    [
      "te",
      "d,</w>"
    ],
    [
      "us",
      ";</w>"
    ],
    [
      "'",
      "d:</w>"
    ],
    [
      "'",
      "s,</w>"
    ],
    [
      "atten",
      "d</w>"
    ],
    [
      "beau",
      "ty</w>"
    ],
    [
      "bucking",
      "ha"
    ],
    [
      "c",
      "ea"
    ],
    [
      "c",
      "ti"
    ],
    [
      "ch",
      "ance</w>"
    ],
    [
      "ck",
      "ed</w>"
    ],
    [
      "clar",
      "ence,</w>"
    ],
    [
      "com",
      "e;</w>"
    ],
    [
      "con",
      "dem"
    ],
    [
      "coun",
      "ter"
    ],
    [
      "d",
      "ness</w>"
    ],
    [
      "dr",
      "un"
    ],
    [
      "ear",
      "l</w>"
    ],
    [
      "el",
      ",</w>"
    ],
    [
      "er",
      "'d</w>"
    ],
    [
      "er",
      "?</w>"
    ],
    [
      "pri",
      "son"
    ],
    [
      "fa",
      "ce,</w>"
    ],
    [
      "fl",
      "es"
    ],
    [
      "foo",
      "t</w>"
    ],
    [
      "g",
      "or"
    ],
    [
      "ha",
      "ve,</w>"
    ],
    [
      "him",
      "?</w>"
    ],
    [
      "inde",
      "ed</w>"
    ],
    [
      "ke",
      "eper"
    ],
    [
      "master",
      ",</w>"
    ],
    [
      "men",
      ".</w>"
    ],
    [
      "merc",
      "y</w>"
    ],
    [
      "might",
      "y</w>"
    ],
    [
      "mor",
      "tal</w>"
    ],
    [
      "ne",
      "ed"
    ],
    [
      "ne",
      "xt</w>"
    ],
    [
      "om",
      "as</w>"
    ],
    [
      "on",
      ";</w>"
    ],
    [
      "or",
      "s</w>"
    ],
    [
      "pe",
      "ti"
    ],
    [
      "rat",
      "clif"
    ],
    [
      "re",
      "tur"
    ],
    [
      "rea",
      "d"
    ],
    [
      "ri",
      "ch</w>"
    ],
    [
      "s",
      "lan"
    ],
    [
      "s",
      "li"
    ],
    [
      "s",
      "y</w>"
    ],
    [
      "sla",
      "u"
    ],
    [
      "soul",
      ",</w>"
    ],
    [
      "st",
      "ing</w>"
    ],
    [
      "st",
      "oo"
    ],
    [
      "st",
      "y</w>"
    ],
    [
      "te",
      "ll"
    ],
    [
      "th",
      "omas</w>"
    ],
    [
      "thin",
      "k,</w>"
    ],
    [
      "to-mor",
      "row</w>"
    ],
    [
      "tri",
      "um"
    ],
    [
      "tt",
      "ed</w>"
    ],
    [
      "w",
      "in</w>"
    ],
    [
      "wi",
      "se</w>"
    ],
    [
      "o",
      "ther"
    ],
    [
      "wom",
      "an</w>"
    ],
    [
      "wor",
      "th</w>"
    ],
    [
      "yi",
      "el"
    ],
    [
      "'",
      "ld</w>"
    ],
    [
      "0",
      "</w>"
    ],
    [
      "ap",
      "pro"
    ],
    [
      "as",
      "k</w>"
    ],
    [
      "be",
      "tter"
    ],
    [
      "ca",
      "ll'd</w>"
    ],
    [
      "childr",
      "en</w>"
    ],
    [
      "da",
      "y"
    ],
    [
      "e",
      "th</w>"
    ],
    [
      "entrea",
      "t</w>"
    ],
    [
      "f",
      "our"
    ],
    [
      "f",
      "res"
    ],
    [
      "fi",
      "e,</w>"
    ],
    [
      "for",
      "m</w>"
    ],
    [
      "g",
      "s</w>"
    ],
    [
      "gener",
      "al</w>"
    ],
    [
      "gentle",
      "men,</w>"
    ],
    [
      "gi",
      "r"
    ],
    [
      "go",
      "es</w>"
    ],
    [
      "gr",
      "oun"
    ],
    [
      "gra",
      "v"
    ],
    [
      "gran",
      "t</w>"
    ],
    [
      "gu",
      "i"
    ],
    [
      "hear",
      "t.</w>"
    ],
    [
      "him",
      "!</w>"
    ],
    [
      "hol",
      "d,</w>"
    ],
    [
      "hom",
      "e,</w>"
    ],
    [
      "il",
      ",</w>"
    ],
    [
      "justi",
      "ce</w>"
    ],
    [
      "k",
      ":</w>"
    ],
    [
      "kin",
      "s"
    ],
    [
      "la",
      "b"
    ],
    [
      "ma",
      "li"
    ],
    [
      "mar",
      "ry</w>"
    ],
    [
      "me",
      "thinks</w>"
    ],
    [
      "min",
      "e.</w>"
    ],
    [
      "montagu",
      "e:</w>"
    ],
    [
      "nur",
      "se,</w>"
    ],
    [
      "oa",
      "th</w>"
    ],
    [
      "on",
      "s</w>"
    ],
    [
      "x",
      "i"
    ],
    [
      "ou",
      "ra"
    ],
    [
      "s",
      "ing"
    ],
    [
      "se",
      "ver"
    ],
    [
      "sir",
      ":</w>"
    ],
    [
      "sirra",
      "h,</w>"
    ],
    [
      "sle",
      "ep</w>"
    ],
    [
      "spo",
      "ke</w>"
    ],
    [
      "str",
      "ong</w>"
    ],
    [
      "strai",
      "ght</w>"
    ],
    [
      "stran",
      "ge</w>"
    ],
    [
      "sur",
      "e,</w>"
    ],
    [
      "t",
      "wi"
    ],
    [
      "ta",
      "'"
    ],
    [
      "ta",
      "ble</w>"
    ],
    [
      "th",
      "rea"
    ],
    [
      "tit",
      "le</w>"
    ],
    [
      "u",
      "lt</w>"
    ],
    [
      "v",
      "i</w>"
    ],
    [
      "wer",
      "t</w>"
    ],
    [
      "whe",
      "ther</w>"
    ],
    [
      "a",
      ".</w>"
    ],
    [
      "a",
      "ge,</w>"
    ],
    [
      "ab",
      "hor"
    ],
    [
      "al",
      "most</w>"
    ],
    [
      "an",
      "cient</w>"
    ],
    [
      "ap",
      "par"
    ],
    [
      "ba",
      "se</w>"
    ],
    [
      "be",
      "hold</w>"
    ],
    [
      "bla",
      "ck</w>"
    ],
    [
      "bo",
      "he"
    ],
    [
      "bohe",
      "mi"
    ],
    [
      "bu",
      "y</w>"
    ],
    [
      "c",
      "y</w>"
    ],
    [
      "cur",
      "ti"
    ],
    [
      "de",
      "po"
    ],
    [
      "di",
      "e,</w>"
    ],
    [
      "di",
      "g"
    ],
    [
      "disp",
      "at"
    ],
    [
      "don",
      "e:</w>"
    ],
    [
      "ed",
      "!</w>"
    ],
    [
      "fare",
      "well.</w>"
    ],
    [
      "fi",
      "el"
    ],
    [
      "gh",
      "o"
    ],
    [
      "gon",
      "e.</w>"
    ],
    [
      "hor",
      "se</w>"
    ],
    [
      "i",
      "es</w>"
    ],
    [
      "in",
      "f"
    ],
    [
      "ing",
      "-"
    ],
    [
      "et",
      ".</w>"
    ],
    [
      "k",
      "ate,</w>"
    ],
    [
      "kathar",
      "in"
    ],
    [
      "l",
      "ow"
    ],
    [
      "lanca",
      "ster"
    ],
    [
      "law",
      "ful</w>"
    ],
    [
      "lif",
      "e.</w>"
    ],
    [
      "majes",
      "ty</w>"
    ],
    [
      "natu",
      "ra"
    ],
    [
      "new",
      "s?</w>"
    ],
    [
      "no",
      "t;</w>"
    ],
    [
      "no",
      "t?</w>"
    ],
    [
      "o",
      ";</w>"
    ],
    [
      "pa",
      "le</w>"
    ],
    [
      "par",
      "is:</w>"
    ],
    [
      "perdita",
      ":</w>"
    ],
    [
      "pos",
      "ses"
    ],
    [
      "pre",
      "tty</w>"
    ],
    [
      "pur",
      "su"
    ],
    [
      "res",
      "t,</w>"
    ],
    [
      "richar",
      "d,</w>"
    ],
    [
      "se",
      "t:</w>"
    ],
    [
      "d",
      "or"
    ],
    [
      "self",
      ":</w>"
    ],
    [
      "si",
      "gh"
    ],
    [
      "sir",
      "!</w>"
    ],
    [
      "so",
      ";</w>"
    ],
    [
      "sp",
      "r"
    ],
    [
      "sta",
      "y,</w>"
    ],
    [
      "su",
      "it"
    ],
    [
      "than",
      "k"
    ],
    [
      "thy",
      "self</w>"
    ],
    [
      "towar",
      "ds</w>"
    ],
    [
      "un",
      "cle,</w>"
    ],
    [
      "us",
      "?</w>"
    ],
    [
      "v",
      "ow"
    ],
    [
      "vir",
      "gi"
    ],
    [
      "wh",
      "ol"
    ],
    [
      "where",
      "in</w>"
    ],
    [
      "a",
      "di"
    ],
    [
      "a",
      "ma"
    ],
    [
      "abo",
      "ve</w>"
    ],
    [
      "anti",
      "gon"
    ],
    [
      "app",
      "ear"
    ],
    [
      "ar",
      "y</w>"
    ],
    [
      "be",
      "hin"
    ],
    [
      "bo",
      "d"
    ],
    [
      "bo",
      "y,</w>"
    ],
    [
      "brea",
      "th</w>"
    ],
    [
      "ch",
      "ol"
    ],
    [
      "conf",
      "ess</w>"
    ],
    [
      "cur",
      "se</w>"
    ],
    [
      "cur",
      "sed</w>"
    ],
    [
      "d",
      "row"
    ],
    [
      "danger",
      "ous</w>"
    ],
    [
      "de",
      "d,</w>"
    ],
    [
      "deser",
      "ved</w>"
    ],
    [
      "di",
      "vin"
    ],
    [
      "em",
      "bra"
    ],
    [
      "er",
      "s.</w>"
    ],
    [
      "f",
      "le"
    ],
    [
      "father",
      ".</w>"
    ],
    [
      "fi",
      "ve</w>"
    ],
    [
      "for",
      "get</w>"
    ],
    [
      "he",
      "ir</w>"
    ],
    [
      "hear",
      "ts</w>"
    ],
    [
      "heaven",
      "s</w>"
    ],
    [
      "ho",
      "!</w>"
    ],
    [
      "j",
      "ust</w>"
    ],
    [
      "la",
      "di"
    ],
    [
      "lear",
      "n</w>"
    ],
    [
      "lo",
      "ss</w>"
    ],
    [
      "ma",
      "id</w>"
    ],
    [
      "mi",
      "sta"
    ],
    [
      "n",
      "ear"
    ],
    [
      "no",
      ";</w>"
    ],
    [
      "no",
      "t:</w>"
    ],
    [
      "now",
      "!</w>"
    ],
    [
      "o",
      "c"
    ],
    [
      "on",
      "i"
    ],
    [
      "pa",
      "y</w>"
    ],
    [
      "pos",
      "si"
    ],
    [
      "ra",
      "ge</w>"
    ],
    [
      "s",
      "o:</w>"
    ],
    [
      "s",
      "wif"
    ],
    [
      "sa",
      "d</w>"
    ],
    [
      "st",
      "?</w>"
    ],
    [
      "st",
      "on"
    ],
    [
      "that",
      "?</w>"
    ],
    [
      "the",
      "e:</w>"
    ],
    [
      "the",
      "e;</w>"
    ],
    [
      "thought",
      "s</w>"
    ],
    [
      "trait",
      "or</w>"
    ],
    [
      "u",
      "e</w>"
    ],
    [
      "st",
      "at"
    ],
    [
      "t",
      "es</w>"
    ],
    [
      "virgi",
      "lia:</w>"
    ],
    [
      "w",
      "ouldst</w>"
    ],
    [
      "wa",
      "st</w>"
    ],
    [
      "wh",
      "ence</w>"
    ],
    [
      "wi",
      "s"
    ],
    [
      "york",
      ",</w>"
    ],
    [
      "'",
      "st,</w>"
    ],
    [
      "a",
      "po"
    ],
    [
      "af",
      "ter"
    ],
    [
      "arm",
      "s</w>"
    ],
    [
      "awa",
      "y!</w>"
    ],
    [
      "be",
      "d,</w>"
    ],
    [
      "bo",
      "ld</w>"
    ],
    [
      "c",
      "ure</w>"
    ],
    [
      "ca",
      "i"
    ],
    [
      "ch",
      ":</w>"
    ],
    [
      "ch",
      "er"
    ],
    [
      "chi",
      "ld</w>"
    ],
    [
      "ck",
      ".</w>"
    ],
    [
      "com",
      "mon"
    ],
    [
      "con",
      "si"
    ],
    [
      "cu",
      "st"
    ],
    [
      "daughter",
      ",</w>"
    ],
    [
      "den",
      "y</w>"
    ],
    [
      "di",
      "spo"
    ],
    [
      "don",
      "e.</w>"
    ],
    [
      "du",
      "ty</w>"
    ],
    [
      "englan",
      "d's</w>"
    ],
    [
      "ent",
      "s</w>"
    ],
    [
      "es",
      "t.</w>"
    ],
    [
      "goo",
      "dly</w>"
    ],
    [
      "ha",
      "v"
    ],
    [
      "henr",
      "y's</w>"
    ],
    [
      "i",
      ".</w>"
    ],
    [
      "isa",
      "be"
    ],
    [
      "it",
      "self</w>"
    ],
    [
      "lad",
      "y,</w>"
    ],
    [
      "le",
      "!</w>"
    ],
    [
      "lo",
      "y"
    ],
    [
      "lor",
      "ds</w>"
    ],
    [
      "m",
      "oun"
    ],
    [
      "m",
      "our"
    ],
    [
      "man",
      "!</w>"
    ],
    [
      "man",
      ";</w>"
    ],
    [
      "marian",
      "a:</w>"
    ],
    [
      "mea",
      "sure</w>"
    ],
    [
      "ment",
      ".</w>"
    ],
    [
      "musi",
      "cian"
    ],
    [
      "nei",
      "gh"
    ],
    [
      "ou",
      "t.</w>"
    ],
    [
      "own",
      ",</w>"
    ],
    [
      "p",
      "ing</w>"
    ],
    [
      "peop",
      "le,</w>"
    ],
    [
      "po",
      "int</w>"
    ],
    [
      "purpo",
      "se</w>"
    ],
    [
      "re",
      ".</w>"
    ],
    [
      "re",
      "ig"
    ],
    [
      "sa",
      "y.</w>"
    ],
    [
      "see",
      "ms</w>"
    ],
    [
      "sh",
      ",</w>"
    ],
    [
      "sl",
      "y:</w>"
    ],
    [
      "st",
      "ate,</w>"
    ],
    [
      "st",
      "op"
    ],
    [
      "streng",
      "th</w>"
    ],
    [
      "suc",
      "ces"
    ],
    [
      "sup",
      "po"
    ],
    [
      "ta",
      "tion</w>"
    ],
    [
      "in",
      "ter"
    ],
    [
      "b",
      "ly</w>"
    ],
    [
      "ce",
      "p"
    ],
    [
      "then",
      "?</w>"
    ],
    [
      "virtu",
      "e</w>"
    ],
    [
      "w",
      "en"
    ],
    [
      "we",
      "ep</w>"
    ],
    [
      "wit",
      "ness</w>"
    ],
    [
      "'t",
      ":</w>"
    ],
    [
      "ad",
      "ver"
    ],
    [
      "an",
      "t,</w>"
    ],
    [
      "ar",
      "d,</w>"
    ],
    [
      "at",
      "es</w>"
    ],
    [
      "b",
      "lo"
    ],
    [
      "b",
      "oun"
    ],
    [
      "ba",
      "d</w>"
    ],
    [
      "banish",
      "'d</w>"
    ],
    [
      "beg",
      "gar"
    ],
    [
      "bish",
      "op</w>"
    ],
    [
      "bl",
      "in"
    ],
    [
      "bor",
      "n"
    ],
    [
      "bus",
      "h"
    ],
    [
      "c",
      "lu"
    ],
    [
      "cham",
      "ber"
    ],
    [
      "com",
      "mend</w>"
    ],
    [
      "cons",
      "ci"
    ],
    [
      "coun",
      "sel"
    ],
    [
      "d",
      "ow</w>"
    ],
    [
      "des",
      "per"
    ],
    [
      "down",
      ".</w>"
    ],
    [
      "e",
      "u"
    ],
    [
      "ed",
      "s,</w>"
    ],
    [
      "en",
      "ce.</w>"
    ],
    [
      "s",
      "ent"
    ],
    [
      "er",
      ";</w>"
    ],
    [
      "f",
      "ing"
    ],
    [
      "fa",
      "ult</w>"
    ],
    [
      "friar",
      ",</w>"
    ],
    [
      "fur",
      "ther</w>"
    ],
    [
      "gol",
      "den</w>"
    ],
    [
      "gru",
      "mi"
    ],
    [
      "hang",
      "</w>"
    ],
    [
      "hast",
      "e</w>"
    ],
    [
      "he",
      "'ll</w>"
    ],
    [
      "ig",
      "nor"
    ],
    [
      "il",
      "s</w>"
    ],
    [
      "in",
      "no"
    ],
    [
      "j",
      "a"
    ],
    [
      "k",
      "!</w>"
    ],
    [
      "king",
      ":</w>"
    ],
    [
      "king",
      ";</w>"
    ],
    [
      "ll",
      "-"
    ],
    [
      "lov",
      "es</w>"
    ],
    [
      "m",
      ".</w>"
    ],
    [
      "musi",
      "c</w>"
    ],
    [
      "ne",
      "eds</w>"
    ],
    [
      "neigh",
      "b"
    ],
    [
      "pa",
      "du"
    ],
    [
      "par",
      "t,</w>"
    ],
    [
      "par",
      "ti"
    ],
    [
      "pi",
      "er"
    ],
    [
      "pie",
      "ce</w>"
    ],
    [
      "plan",
      "ta"
    ],
    [
      "planta",
      "gen"
    ],
    [
      "po",
      "i"
    ],
    [
      "prin",
      "ce:</w>"
    ],
    [
      "qu",
      "o"
    ],
    [
      "reven",
      "ge</w>"
    ],
    [
      "s",
      "ly</w>"
    ],
    [
      "s",
      "oo"
    ],
    [
      "se",
      "iz"
    ],
    [
      "self",
      ";</w>"
    ],
    [
      "servi",
      "ce</w>"
    ],
    [
      "si",
      "ster</w>"
    ],
    [
      "sle",
      "w</w>"
    ],
    [
      "st",
      "!</w>"
    ],
    [
      "stran",
      "g"
    ],
    [
      "t",
      "est</w>"
    ],
    [
      "them",
      ";</w>"
    ],
    [
      "thin",
      "k"
    ],
    [
      "ti",
      "l</w>"
    ],
    [
      "tou",
      "ch</w>"
    ],
    [
      "un",
      "til</w>"
    ],
    [
      "us",
      "!</w>"
    ],
    [
      "vali",
      "ant</w>"
    ],
    [
      "w",
      "ant</w>"
    ],
    [
      "won",
      "der"
    ],
    [
      "wor",
      "d,</w>"
    ],
    [
      "wor",
      "se</w>"
    ],
    [
      ":",
      "'</w>"
    ],
    [
      "es",
      "t"
    ],
    [
      "a",
      "tion</w>"
    ],
    [
      "an",
      "t"
    ],
    [
      "angel",
      "o</w>"
    ],
    [
      "bar",
      "nar"
    ],
    [
      "barnar",
      "din"
    ],
    [
      "beg",
      "in</w>"
    ],
    [
      "ble",
      "s</w>"
    ],
    [
      "c",
      "t,</w>"
    ],
    [
      "chil",
      "d,</w>"
    ],
    [
      "con",
      "qu"
    ],
    [
      "cont",
      "in"
    ],
    [
      "cour",
      "se</w>"
    ],
    [
      "dd",
      "en</w>"
    ],
    [
      "do",
      ".</w>"
    ],
    [
      "e",
      "di"
    ],
    [
      "c",
      "it"
    ],
    [
      "ey",
      "e,</w>"
    ],
    [
      "f",
      "ru"
    ],
    [
      "fa",
      "ll"
    ],
    [
      "fe",
      "el</w>"
    ],
    [
      "grea",
      "ter</w>"
    ],
    [
      "gri",
      "ev"
    ],
    [
      "her",
      ":</w>"
    ],
    [
      "her",
      ";</w>"
    ],
    [
      "him",
      "self,</w>"
    ],
    [
      "hon",
      "oura"
    ],
    [
      "hun",
      "d"
    ],
    [
      "i",
      "ly</w>"
    ],
    [
      "in",
      "!</w>"
    ],
    [
      "jo",
      "y"
    ],
    [
      "li",
      "p"
    ],
    [
      "marci",
      "us,</w>"
    ],
    [
      "mer",
      "ry</w>"
    ],
    [
      "min",
      "i"
    ],
    [
      "n",
      ";</w>"
    ],
    [
      "our",
      ",</w>"
    ],
    [
      "pe",
      "ter:</w>"
    ],
    [
      "pro",
      "vi"
    ],
    [
      "sha",
      "p"
    ],
    [
      "sma",
      "ll</w>"
    ],
    [
      "soul",
      "s</w>"
    ],
    [
      "str",
      "ong"
    ],
    [
      "swor",
      "d</w>"
    ],
    [
      "th",
      "ing,</w>"
    ],
    [
      "too",
      ".</w>"
    ],
    [
      "towar",
      "d</w>"
    ],
    [
      "tru",
      "mp"
    ],
    [
      "et",
      "s</w>"
    ],
    [
      "ur",
      "e,</w>"
    ],
    [
      "us",
      "h</w>"
    ],
    [
      "vi",
      "ol"
    ],
    [
      "w",
      "ra"
    ],
    [
      "wan",
      "t"
    ],
    [
      "well",
      "-"
    ],
    [
      "f",
      "ound</w>"
    ],
    [
      "wo",
      "e</w>"
    ],
    [
      "woun",
      "ds</w>"
    ],
    [
      "wr",
      "ong</w>"
    ],
    [
      "'t",
      "wixt</w>"
    ],
    [
      "ac",
      "coun"
    ],
    [
      "adi",
      "eu"
    ],
    [
      "app",
      "ear</w>"
    ],
    [
      "ari",
      "el:</w>"
    ],
    [
      "b",
      ",</w>"
    ],
    [
      "ba",
      "star"
    ],
    [
      "bl",
      "ing</w>"
    ],
    [
      "bri",
      "ef"
    ],
    [
      "c",
      "ing</w>"
    ],
    [
      "d",
      "an"
    ],
    [
      "c",
      "r"
    ],
    [
      "us",
      "h"
    ],
    [
      "c",
      "ts</w>"
    ],
    [
      "ca",
      "m"
    ],
    [
      "cer",
      "tain</w>"
    ],
    [
      "ch",
      "ing</w>"
    ],
    [
      "ch",
      "man:</w>"
    ],
    [
      "cl",
      "in"
    ],
    [
      "cliffor",
      "d,</w>"
    ],
    [
      "com",
      "ing</w>"
    ],
    [
      "com",
      "pla"
    ],
    [
      "con",
      "di"
    ],
    [
      "countr",
      "y's</w>"
    ],
    [
      "d",
      "s!</w>"
    ],
    [
      "des",
      "i"
    ],
    [
      "du",
      "k"
    ],
    [
      "ent",
      "ly</w>"
    ],
    [
      "es",
      "ti"
    ],
    [
      "t",
      "e.</w>"
    ],
    [
      "f",
      ":</w>"
    ],
    [
      "f",
      "f</w>"
    ],
    [
      "fear",
      ",</w>"
    ],
    [
      "foo",
      "l"
    ],
    [
      "ga",
      "ll"
    ],
    [
      "gla",
      "d</w>"
    ],
    [
      "grow",
      "n</w>"
    ],
    [
      "hasting",
      "s,</w>"
    ],
    [
      "hea",
      "l"
    ],
    [
      "hen",
      "ry,</w>"
    ],
    [
      "i",
      "ed</w>"
    ],
    [
      "i",
      "lor"
    ],
    [
      "ima",
      "g"
    ],
    [
      "in",
      ";</w>"
    ],
    [
      "in",
      "s,</w>"
    ],
    [
      "issu",
      "e</w>"
    ],
    [
      "ki",
      "ll'd</w>"
    ],
    [
      "kno",
      "ck</w>"
    ],
    [
      "know",
      "le"
    ],
    [
      "la",
      "u"
    ],
    [
      "larti",
      "us:</w>"
    ],
    [
      "le",
      "'s</w>"
    ],
    [
      "ma",
      "d</w>"
    ],
    [
      "ma",
      "y,</w>"
    ],
    [
      "mar",
      "ch</w>"
    ],
    [
      "mo",
      "v"
    ],
    [
      "mp",
      "le</w>"
    ],
    [
      "my",
      "self.</w>"
    ],
    [
      "no",
      "thing"
    ],
    [
      "norfol",
      "k,</w>"
    ],
    [
      "now",
      "?</w>"
    ],
    [
      "o",
      "d"
    ],
    [
      "obe",
      "di"
    ],
    [
      "of",
      "t</w>"
    ],
    [
      "oul",
      "d,</w>"
    ],
    [
      "own",
      ".</w>"
    ],
    [
      "ped",
      "ant:</w>"
    ],
    [
      "per",
      "son</w>"
    ],
    [
      "pla",
      "ce,</w>"
    ],
    [
      "pla",
      "in"
    ],
    [
      "re",
      "ceiv"
    ],
    [
      "rep",
      "or"
    ],
    [
      "s",
      "choo"
    ],
    [
      "sh",
      "oul"
    ],
    [
      "slau",
      "ghter"
    ],
    [
      "sovereig",
      "n,</w>"
    ],
    [
      "sp",
      "ur"
    ],
    [
      "spiri",
      "t</w>"
    ],
    [
      "st",
      "ood</w>"
    ],
    [
      "t",
      "s.</w>"
    ],
    [
      "t",
      "y;</w>"
    ],
    [
      "h",
      "u"
    ],
    [
      "ta'",
      "en</w>"
    ],
    [
      "the",
      "e?</w>"
    ],
    [
      "thi",
      "s.</w>"
    ],
    [
      "tion",
      ";</w>"
    ],
    [
      "u",
      "ght</w>"
    ],
    [
      "u",
      "te</w>"
    ],
    [
      "unc",
      "le</w>"
    ],
    [
      "v",
      "ou"
    ],
    [
      "vi",
      "sit</w>"
    ],
    [
      "villa",
      "in,</w>"
    ],
    [
      "wat",
      "chman:</w>"
    ],
    [
      "wher",
      "e's</w>"
    ],
    [
      "will",
      ".</w>"
    ],
    [
      "xi",
      ":</w>"
    ],
    [
      "you",
      "!</w>"
    ],
    [
      "you",
      "th</w>"
    ],
    [
      "'",
      "gain"
    ],
    [
      "'gain",
      "st</w>"
    ],
    [
      "a",
      "-"
    ],
    [
      "a",
      "bro"
    ],
    [
      "a",
      "whi"
    ],
    [
      "ala",
      "ck,</w>"
    ],
    [
      "be",
      ".</w>"
    ],
    [
      "be",
      "li"
    ],
    [
      "bi",
      "ds</w>"
    ],
    [
      "bl",
      "ess</w>"
    ],
    [
      "bles",
      "sed</w>"
    ],
    [
      "bo",
      "th,</w>"
    ],
    [
      "bra",
      "ken"
    ],
    [
      "braken",
      "bur"
    ],
    [
      "bu",
      "tch"
    ],
    [
      "ca",
      "se</w>"
    ],
    [
      "ch",
      ";</w>"
    ],
    [
      "citizen",
      "s:</w>"
    ],
    [
      "con",
      "sent</w>"
    ],
    [
      "coun",
      "sel</w>"
    ],
    [
      "curti",
      "s:</w>"
    ],
    [
      "d",
      "om"
    ],
    [
      "d",
      "res"
    ],
    [
      "de",
      "ceiv"
    ],
    [
      "de",
      "ep"
    ],
    [
      "de",
      "ter"
    ],
    [
      "def",
      "end</w>"
    ],
    [
      "du",
      "ke"
    ],
    [
      "e",
      "le"
    ],
    [
      "v",
      "en</w>"
    ],
    [
      "en",
      "em"
    ],
    [
      "ex",
      "pe"
    ],
    [
      "fin",
      "e</w>"
    ],
    [
      "fu",
      "l,</w>"
    ],
    [
      "fu",
      "lly</w>"
    ],
    [
      "g",
      "ates</w>"
    ],
    [
      "gi",
      "ves</w>"
    ],
    [
      "gr",
      "ound</w>"
    ],
    [
      "gra",
      "ce,</w>"
    ],
    [
      "gro",
      "an"
    ],
    [
      "guil",
      "ty</w>"
    ],
    [
      "h",
      "ood</w>"
    ],
    [
      "har",
      "d</w>"
    ],
    [
      "hi",
      "ther,</w>"
    ],
    [
      "hund",
      "red</w>"
    ],
    [
      "ing",
      "?</w>"
    ],
    [
      "k",
      ";</w>"
    ],
    [
      "k",
      "ep"
    ],
    [
      "keeper",
      ":</w>"
    ],
    [
      "l",
      "'d</w>"
    ],
    [
      "l",
      "en"
    ],
    [
      "la",
      "id</w>"
    ],
    [
      "liv",
      "ing</w>"
    ],
    [
      "lor",
      "d!</w>"
    ],
    [
      "mi",
      "le</w>"
    ],
    [
      "mp",
      "son:</w>"
    ],
    [
      "new",
      "s,</w>"
    ],
    [
      "of",
      ",</w>"
    ],
    [
      "off",
      ",</w>"
    ],
    [
      "offi",
      "ce</w>"
    ],
    [
      "op",
      "po"
    ],
    [
      "p",
      "un"
    ],
    [
      "i",
      "sh</w>"
    ],
    [
      "per",
      "su"
    ],
    [
      "pray",
      "ers</w>"
    ],
    [
      "pre",
      "p"
    ],
    [
      "pre",
      "par"
    ],
    [
      "prep",
      "are</w>"
    ],
    [
      "pres",
      "ence</w>"
    ],
    [
      "pro",
      "p"
    ],
    [
      "prom",
      "ise</w>"
    ],
    [
      "qu",
      "es"
    ],
    [
      "quarre",
      "l</w>"
    ],
    [
      "quo",
      "th</w>"
    ],
    [
      "remem",
      "ber"
    ],
    [
      "s",
      "-"
    ],
    [
      "s",
      "s,</w>"
    ],
    [
      "sa",
      "mpson:</w>"
    ],
    [
      "sh",
      "o"
    ],
    [
      "show",
      "s</w>"
    ],
    [
      "si",
      "de,</w>"
    ],
    [
      "sovereig",
      "n</w>"
    ],
    [
      "spe",
      "ed</w>"
    ],
    [
      "st",
      "o"
    ],
    [
      "subje",
      "ct</w>"
    ],
    [
      "t",
      "lan"
    ],
    [
      "t",
      "less</w>"
    ],
    [
      "ta",
      "le</w>"
    ],
    [
      "there",
      "?</w>"
    ],
    [
      "tion",
      ":</w>"
    ],
    [
      "toge",
      "ther</w>"
    ],
    [
      "tt",
      "en</w>"
    ],
    [
      "ty",
      "r"
    ],
    [
      "tybal",
      "t,</w>"
    ],
    [
      "us",
      "e,</w>"
    ],
    [
      "v",
      "au"
    ],
    [
      "an",
      ",</w>"
    ],
    [
      "wa",
      "ys</w>"
    ],
    [
      "wat",
      "er</w>"
    ],
    [
      "win",
      "d</w>"
    ],
    [
      "y",
      "ond</w>"
    ],
    [
      "your",
      "s,</w>"
    ],
    [
      "ama",
      "z"
    ],
    [
      "antigon",
      "us:</w>"
    ],
    [
      "ar",
      "ri"
    ],
    [
      "b",
      "s</w>"
    ],
    [
      "be",
      "comes</w>"
    ],
    [
      "brea",
      "the</w>"
    ],
    [
      "c",
      "op"
    ],
    [
      "c",
      "up"
    ],
    [
      "i",
      "d,</w>"
    ],
    [
      "sa",
      "id,</w>"
    ],
    [
      "ca",
      "st"
    ],
    [
      "ca",
      "st</w>"
    ],
    [
      "camill",
      "o,</w>"
    ],
    [
      "ci",
      "r"
    ],
    [
      "d",
      "ent</w>"
    ],
    [
      "de",
      "ed</w>"
    ],
    [
      "de",
      "pu"
    ],
    [
      "dea",
      "d.</w>"
    ],
    [
      "dea",
      "dly</w>"
    ],
    [
      "der",
      "s</w>"
    ],
    [
      "drea",
      "m</w>"
    ],
    [
      "e",
      "my</w>"
    ],
    [
      "el",
      "ess</w>"
    ],
    [
      "en",
      "emy</w>"
    ],
    [
      "f",
      "fi"
    ],
    [
      "f",
      "our</w>"
    ],
    [
      "f",
      "y</w>"
    ],
    [
      "fe",
      "it</w>"
    ],
    [
      "for",
      "ced</w>"
    ],
    [
      "for",
      "e"
    ],
    [
      "gre",
      "gor"
    ],
    [
      "gre",
      "mi"
    ],
    [
      "ha",
      "!</w>"
    ],
    [
      "han",
      "d.</w>"
    ],
    [
      "hear",
      ",</w>"
    ],
    [
      "hear",
      "ing</w>"
    ],
    [
      "hel",
      "p"
    ],
    [
      "hop",
      "e,</w>"
    ],
    [
      "king",
      "?</w>"
    ],
    [
      "law",
      ",</w>"
    ],
    [
      "lea",
      "d</w>"
    ],
    [
      "letter",
      "s</w>"
    ],
    [
      "m",
      "oo"
    ],
    [
      "ma",
      "tch"
    ],
    [
      "man",
      "?</w>"
    ],
    [
      "me",
      "t</w>"
    ],
    [
      "mercu",
      "ti"
    ],
    [
      "our",
      ".</w>"
    ],
    [
      "p",
      "lo"
    ],
    [
      "plea",
      "sure</w>"
    ],
    [
      "pre",
      "cious</w>"
    ],
    [
      "quick",
      "ly</w>"
    ],
    [
      "r",
      "'d</w>"
    ],
    [
      "st",
      "ir"
    ],
    [
      "ri",
      "ght,</w>"
    ],
    [
      "ru",
      "tlan"
    ],
    [
      "sa",
      "in"
    ],
    [
      "satis",
      "fi"
    ],
    [
      "se",
      "t,</w>"
    ],
    [
      "sh",
      "e,</w>"
    ],
    [
      "sh",
      "re"
    ],
    [
      "w",
      ",</w>"
    ],
    [
      "sha",
      "ke</w>"
    ],
    [
      "si",
      "ght</w>"
    ],
    [
      "sof",
      "t</w>"
    ],
    [
      "sovereig",
      "n"
    ],
    [
      "swor",
      "d,</w>"
    ],
    [
      "t",
      "each</w>"
    ],
    [
      "t",
      "om"
    ],
    [
      "tear",
      "s,</w>"
    ],
    [
      "ter",
      "'s</w>"
    ],
    [
      "than",
      "ks,</w>"
    ],
    [
      "ther",
      "e.</w>"
    ],
    [
      "trium",
      "p"
    ],
    [
      "tru",
      "e.</w>"
    ],
    [
      "twi",
      "ce</w>"
    ],
    [
      "tyr",
      "re"
    ],
    [
      "vanta",
      "ge</w>"
    ],
    [
      "wa",
      "s,</w>"
    ],
    [
      "wat",
      "ch</w>"
    ],
    [
      "wea",
      "l"
    ],
    [
      "wha",
      "t!</w>"
    ],
    [
      "wi",
      "thin"
    ],
    [
      ";",
      "'</w>"
    ],
    [
      "frien",
      "d"
    ],
    [
      "a",
      "gre"
    ],
    [
      "again",
      ";</w>"
    ],
    [
      "all",
      "y</w>"
    ],
    [
      "angelo",
      ",</w>"
    ],
    [
      "as",
      "si"
    ],
    [
      "au",
      "thor"
    ],
    [
      "ba",
      "lt</w>"
    ],
    [
      "bapti",
      "sta"
    ],
    [
      "bl",
      "un"
    ],
    [
      "bolingbro",
      "ke</w>"
    ],
    [
      "boo",
      "k</w>"
    ],
    [
      "br",
      "oo"
    ],
    [
      "c",
      "un"
    ],
    [
      "ces",
      ".</w>"
    ],
    [
      "che",
      "er"
    ],
    [
      "choo",
      "se</w>"
    ],
    [
      "clo",
      "se</w>"
    ],
    [
      "comm",
      "and</w>"
    ],
    [
      "con",
      "tra"
    ],
    [
      "conf",
      "es"
    ],
    [
      "da",
      "y!</w>"
    ],
    [
      "deli",
      "ver</w>"
    ],
    [
      "du",
      "e</w>"
    ],
    [
      "e",
      "ve</w>"
    ],
    [
      "el",
      "s</w>"
    ],
    [
      "en",
      ".</w>"
    ],
    [
      "eng",
      "lish</w>"
    ],
    [
      "er",
      "'s</w>"
    ],
    [
      "ex",
      "c"
    ],
    [
      "f",
      "are</w>"
    ],
    [
      "fa",
      "st</w>"
    ],
    [
      "fellow",
      ",</w>"
    ],
    [
      "fi",
      "ght"
    ],
    [
      "foo",
      "lish</w>"
    ],
    [
      "for",
      "ward</w>"
    ],
    [
      "gentle",
      "man,</w>"
    ],
    [
      "han",
      "ds,</w>"
    ],
    [
      "hea",
      "ds</w>"
    ],
    [
      "high",
      "ness</w>"
    ],
    [
      "ho",
      "t</w>"
    ],
    [
      "honour",
      ".</w>"
    ],
    [
      "husban",
      "d,</w>"
    ],
    [
      "juli",
      "et,</w>"
    ],
    [
      "kep",
      "t</w>"
    ],
    [
      "king",
      "dom</w>"
    ],
    [
      "l",
      "ous</w>"
    ],
    [
      "lad",
      "y:</w>"
    ],
    [
      "liv",
      "e.</w>"
    ],
    [
      "ma",
      "king</w>"
    ],
    [
      "ma",
      "yor"
    ],
    [
      "men",
      "'s</w>"
    ],
    [
      "montagu",
      "e,</w>"
    ],
    [
      "mur",
      "der</w>"
    ],
    [
      "na",
      "me?</w>"
    ],
    [
      "nat",
      "ure,</w>"
    ],
    [
      "no",
      ".</w>"
    ],
    [
      "or",
      "der</w>"
    ],
    [
      "p",
      "'d</w>"
    ],
    [
      "per",
      "form"
    ],
    [
      "po",
      "st</w>"
    ],
    [
      "pres",
      "ent"
    ],
    [
      "queen",
      "'s</w>"
    ],
    [
      "ratclif",
      "f:</w>"
    ],
    [
      "se",
      "m"
    ],
    [
      "self",
      "?</w>"
    ],
    [
      "sh",
      "ar"
    ],
    [
      "p",
      "er</w>"
    ],
    [
      "sha",
      "ll,</w>"
    ],
    [
      "sha",
      "me,</w>"
    ],
    [
      "si",
      "x</w>"
    ],
    [
      "sister",
      ",</w>"
    ],
    [
      "so",
      "le"
    ],
    [
      "son",
      "?</w>"
    ],
    [
      "sta",
      "y.</w>"
    ],
    [
      "stanle",
      "y:</w>"
    ],
    [
      "stru",
      "ck</w>"
    ],
    [
      "t",
      "ear</w>"
    ],
    [
      "te",
      "ous</w>"
    ],
    [
      "th",
      "ro"
    ],
    [
      "th",
      "s</w>"
    ],
    [
      "the",
      "d</w>"
    ],
    [
      "lo",
      "a"
    ],
    [
      "the",
      "e!</w>"
    ],
    [
      "them",
      "selves</w>"
    ],
    [
      "ti",
      "me.</w>"
    ],
    [
      "toge",
      "ther,</w>"
    ],
    [
      "trani",
      "o,</w>"
    ],
    [
      "ven",
      "ge"
    ],
    [
      "vi",
      "e"
    ],
    [
      "vi",
      "si"
    ],
    [
      "villa",
      "in</w>"
    ],
    [
      "virtu",
      "ous</w>"
    ],
    [
      "wa",
      "sh</w>"
    ],
    [
      "war",
      ",</w>"
    ],
    [
      "war",
      "s</w>"
    ],
    [
      "we",
      "d"
    ],
    [
      "wea",
      "k</w>"
    ],
    [
      "wh",
      "ite</w>"
    ],
    [
      "where",
      "fore</w>"
    ],
    [
      "woman",
      ",</w>"
    ],
    [
      "worl",
      "d.</w>"
    ],
    [
      "york",
      ".</w>"
    ],
    [
      "z",
      "en</w>"
    ],
    [
      "'",
      "?</w>"
    ],
    [
      "g",
      "at"
    ],
    [
      "a",
      "bi"
    ],
    [
      "a",
      "bu"
    ],
    [
      "ab",
      "sen"
    ],
    [
      "ac",
      "qua"
    ],
    [
      "ad",
      "mi"
    ],
    [
      "r",
      "e</w>"
    ],
    [
      "'",
      "re</w>"
    ],
    [
      "af",
      "for"
    ],
    [
      "am",
      "ong</w>"
    ],
    [
      "an",
      "d:</w>"
    ],
    [
      "f",
      "er"
    ],
    [
      "ang",
      "u"
    ],
    [
      "b",
      "'d</w>"
    ],
    [
      "be",
      "g</w>"
    ],
    [
      "bet",
      "wixt</w>"
    ],
    [
      "bit",
      "e</w>"
    ],
    [
      "bit",
      "ter</w>"
    ],
    [
      "buckingha",
      "m,</w>"
    ],
    [
      "c",
      "red</w>"
    ],
    [
      "c",
      "tu"
    ],
    [
      "c",
      "y:</w>"
    ],
    [
      "cir",
      "c"
    ],
    [
      "ck",
      "ing</w>"
    ],
    [
      "com",
      "ini"
    ],
    [
      "con",
      "du"
    ],
    [
      "con",
      "stan"
    ],
    [
      "coun",
      "ten"
    ],
    [
      "cra",
      "ve</w>"
    ],
    [
      "cre",
      "di"
    ],
    [
      "cru",
      "el</w>"
    ],
    [
      "d",
      "ri"
    ],
    [
      "d",
      "ry</w>"
    ],
    [
      "d",
      "ur"
    ],
    [
      "dea",
      "d;</w>"
    ],
    [
      "des",
      "pit"
    ],
    [
      "di",
      "st"
    ],
    [
      "ear",
      "ly</w>"
    ],
    [
      "ent",
      "er</w>"
    ],
    [
      "er",
      "s;</w>"
    ],
    [
      "et",
      "?</w>"
    ],
    [
      "fres",
      "h</w>"
    ],
    [
      "g",
      "o:</w>"
    ],
    [
      "g",
      "ros"
    ],
    [
      "g",
      "row</w>"
    ],
    [
      "go",
      "ing</w>"
    ],
    [
      "gra",
      "ce.</w>"
    ],
    [
      "gu",
      "ard</w>"
    ],
    [
      "han",
      "d:</w>"
    ],
    [
      "hast",
      "e,</w>"
    ],
    [
      "hear",
      "t's</w>"
    ],
    [
      "hi",
      "de</w>"
    ],
    [
      "hum",
      "ble</w>"
    ],
    [
      "in",
      "fec"
    ],
    [
      "is",
      "on</w>"
    ],
    [
      "j",
      "est</w>"
    ],
    [
      "k",
      "ate</w>"
    ],
    [
      "k",
      "est</w>"
    ],
    [
      "l",
      "end</w>"
    ],
    [
      "le",
      "?</w>"
    ],
    [
      "le",
      "is"
    ],
    [
      "lon",
      "don</w>"
    ],
    [
      "long",
      "er</w>"
    ],
    [
      "lov",
      "e;</w>"
    ],
    [
      "man",
      "tu"
    ],
    [
      "mar",
      "sha"
    ],
    [
      "marri",
      "age</w>"
    ],
    [
      "mo",
      "ck</w>"
    ],
    [
      "mor",
      "ning</w>"
    ],
    [
      "mor",
      "row"
    ],
    [
      "ne",
      "ces"
    ],
    [
      "no",
      "bl"
    ],
    [
      "no",
      "te</w>"
    ],
    [
      "o",
      "ath"
    ],
    [
      "on",
      "s,</w>"
    ],
    [
      "our",
      "'d</w>"
    ],
    [
      "p",
      "sa"
    ],
    [
      "pa",
      "ir"
    ],
    [
      "pat",
      "ri"
    ],
    [
      "pati",
      "ence</w>"
    ],
    [
      "paul",
      "in"
    ],
    [
      "pla",
      "ce.</w>"
    ],
    [
      "plea",
      "sure"
    ],
    [
      "pow",
      "er,</w>"
    ],
    [
      "pre",
      "va"
    ],
    [
      "pres",
      "s</w>"
    ],
    [
      "pro",
      "te"
    ],
    [
      "qu",
      "it</w>"
    ],
    [
      "r",
      "ough</w>"
    ],
    [
      "re",
      "de"
    ],
    [
      "e",
      "m</w>"
    ],
    [
      "re",
      "ti"
    ],
    [
      "rea",
      "son"
    ],
    [
      "sa",
      "cred</w>"
    ],
    [
      "sa",
      "ge</w>"
    ],
    [
      "secre",
      "t</w>"
    ],
    [
      "sh",
      "ri"
    ],
    [
      "sla",
      "in</w>"
    ],
    [
      "some",
      "time</w>"
    ],
    [
      "st",
      "ed</w>"
    ],
    [
      "st",
      "ly</w>"
    ],
    [
      "st",
      "op</w>"
    ],
    [
      "st",
      "ro"
    ],
    [
      "stan",
      "ding</w>"
    ],
    [
      "t",
      "'st</w>"
    ],
    [
      "ta",
      "ilor"
    ],
    [
      "ta",
      "st"
    ],
    [
      "te",
      "m"
    ],
    [
      "temp",
      "t</w>"
    ],
    [
      "th",
      "ful</w>"
    ],
    [
      "th",
      "ing.</w>"
    ],
    [
      "tim",
      "es,</w>"
    ],
    [
      "tru",
      "th,</w>"
    ],
    [
      "ty",
      "balt</w>"
    ],
    [
      "tybal",
      "t:</w>"
    ],
    [
      "v",
      "es"
    ],
    [
      "val",
      "eri"
    ],
    [
      "vin",
      "centi"
    ],
    [
      "weep",
      "ing</w>"
    ],
    [
      "wha",
      "t?</w>"
    ],
    [
      "whi",
      "ther</w>"
    ],
    [
      "wif",
      "e.</w>"
    ],
    [
      "won",
      "der</w>"
    ],
    [
      "wor",
      "st</w>"
    ],
    [
      "a",
      "men"
    ],
    [
      "ac",
      "t</w>"
    ],
    [
      "af",
      "fair"
    ],
    [
      "al",
      "though</w>"
    ],
    [
      "al",
      "ways</w>"
    ],
    [
      "ang",
      "ry</w>"
    ],
    [
      "appro",
      "a"
    ],
    [
      "batt",
      "le</w>"
    ],
    [
      "bear",
      "s</w>"
    ],
    [
      "beg",
      "g"
    ],
    [
      "besi",
      "d"
    ],
    [
      "besid",
      "es,</w>"
    ],
    [
      "bo",
      "y</w>"
    ],
    [
      "brakenbur",
      "y:</w>"
    ],
    [
      "ca",
      "lls</w>"
    ],
    [
      "ca",
      "pit"
    ],
    [
      "car",
      "ry</w>"
    ],
    [
      "char",
      "g"
    ],
    [
      "cho",
      "i"
    ],
    [
      "cliffor",
      "d</w>"
    ],
    [
      "consci",
      "ence</w>"
    ],
    [
      "cow",
      "ar"
    ],
    [
      "cri",
      "ed</w>"
    ],
    [
      "d",
      "s?</w>"
    ],
    [
      "de",
      "eds</w>"
    ],
    [
      "dea",
      "th:</w>"
    ],
    [
      "death",
      ";</w>"
    ],
    [
      "drea",
      "d"
    ],
    [
      "e",
      "ous</w>"
    ],
    [
      "p",
      "l"
    ],
    [
      "es",
      "s"
    ],
    [
      "f",
      "ond</w>"
    ],
    [
      "fa",
      "ced</w>"
    ],
    [
      "fa",
      "tal</w>"
    ],
    [
      "fal",
      "se"
    ],
    [
      "fe",
      "ll</w>"
    ],
    [
      "fe",
      "w</w>"
    ],
    [
      "fi",
      "eld</w>"
    ],
    [
      "fles",
      "h</w>"
    ],
    [
      "foo",
      "l,</w>"
    ],
    [
      "for",
      "got</w>"
    ],
    [
      "fran",
      "ce</w>"
    ],
    [
      "fu",
      "l"
    ],
    [
      "ha",
      "te,</w>"
    ],
    [
      "hel",
      "p,</w>"
    ],
    [
      "honoura",
      "ble</w>"
    ],
    [
      "hou",
      "se.</w>"
    ],
    [
      "how",
      "!</w>"
    ],
    [
      "i",
      "'ld</w>"
    ],
    [
      "il",
      "'d</w>"
    ],
    [
      "in",
      "k"
    ],
    [
      "ing",
      "ly</w>"
    ],
    [
      "fe",
      "el"
    ],
    [
      "inno",
      "cen"
    ],
    [
      "jo",
      "in"
    ],
    [
      "justi",
      "ce,</w>"
    ],
    [
      "king",
      "s</w>"
    ],
    [
      "kne",
      "el</w>"
    ],
    [
      "l",
      "eng"
    ],
    [
      "l",
      "s,</w>"
    ],
    [
      "lan",
      "d,</w>"
    ],
    [
      "lea",
      "ve,</w>"
    ],
    [
      "lov",
      "e's</w>"
    ],
    [
      "mar",
      "k"
    ],
    [
      "may",
      "st</w>"
    ],
    [
      "me",
      "di"
    ],
    [
      "mean",
      ",</w>"
    ],
    [
      "ment",
      "s,</w>"
    ],
    [
      "mo",
      "ved</w>"
    ],
    [
      "mor",
      "n"
    ],
    [
      "mother",
      "'s</w>"
    ],
    [
      "n",
      "ea"
    ],
    [
      "n",
      "one,</w>"
    ],
    [
      "n",
      "y</w>"
    ],
    [
      "natura",
      "l</w>"
    ],
    [
      "oc",
      "ca"
    ],
    [
      "offic",
      "er:</w>"
    ],
    [
      "on",
      "!</w>"
    ],
    [
      "pardon",
      ",</w>"
    ],
    [
      "petruchi",
      "o,</w>"
    ],
    [
      "pi",
      "ti"
    ],
    [
      "po",
      "ison</w>"
    ],
    [
      "pp",
      "'d</w>"
    ],
    [
      "pr",
      "on"
    ],
    [
      "pu",
      "bli"
    ],
    [
      "pu",
      "l"
    ],
    [
      "re",
      "med"
    ],
    [
      "res",
      "i"
    ],
    [
      "res",
      "ig"
    ],
    [
      "ri",
      "ght.</w>"
    ],
    [
      "ro",
      "ar"
    ],
    [
      "s",
      "es,</w>"
    ],
    [
      "lo",
      "s"
    ],
    [
      "s",
      "ou"
    ],
    [
      "sa",
      "ke,</w>"
    ],
    [
      "schoo",
      "l"
    ],
    [
      "se",
      "d.</w>"
    ],
    [
      "selv",
      "es,</w>"
    ],
    [
      "serv",
      "an"
    ],
    [
      "sh",
      "in"
    ],
    [
      "si",
      "ck</w>"
    ],
    [
      "sig",
      "n</w>"
    ],
    [
      "soun",
      "d"
    ],
    [
      "spea",
      "ks</w>"
    ],
    [
      "st",
      "ep"
    ],
    [
      "stan",
      "d,</w>"
    ],
    [
      "te",
      "en</w>"
    ],
    [
      "th",
      "?</w>"
    ],
    [
      "th",
      "row"
    ],
    [
      "thi",
      "s:</w>"
    ],
    [
      "thou",
      "'"
    ],
    [
      "ti",
      "c"
    ],
    [
      "tu",
      "t,</w>"
    ],
    [
      "venge",
      "ance</w>"
    ],
    [
      "vent",
      "ure</w>"
    ],
    [
      "ver",
      "on"
    ],
    [
      "war",
      "m</w>"
    ],
    [
      "wear",
      "y</w>"
    ],
    [
      "wer",
      "e,</w>"
    ],
    [
      "whi",
      "les</w>"
    ],
    [
      "who",
      "'s</w>"
    ],
    [
      "with",
      "al</w>"
    ],
    [
      "wor",
      "k</w>"
    ],
    [
      "wrong",
      ",</w>"
    ],
    [
      "'",
      "em"
    ],
    [
      "?",
      "'</w>"
    ],
    [
      "clar",
      "en"
    ],
    [
      "ag",
      "e.</w>"
    ],
    [
      "ala",
      "s!</w>"
    ],
    [
      "an",
      ":</w>"
    ],
    [
      "apo",
      "ll"
    ],
    [
      "arm",
      "s,</w>"
    ],
    [
      "aufidi",
      "us,</w>"
    ],
    [
      "be",
      "hol"
    ],
    [
      "bl",
      "ow</w>"
    ],
    [
      "ble",
      "d</w>"
    ],
    [
      "blow",
      "s</w>"
    ],
    [
      "bo",
      "di"
    ],
    [
      "busin",
      "ess,</w>"
    ],
    [
      "c",
      "ent"
    ],
    [
      "c",
      "li"
    ],
    [
      "c",
      "y,</w>"
    ],
    [
      "ca",
      "li"
    ],
    [
      "cai",
      "us</w>"
    ],
    [
      "chri",
      "sti"
    ],
    [
      "ck",
      "-"
    ],
    [
      "com",
      "mi"
    ],
    [
      "con",
      "spi"
    ],
    [
      "con",
      "tr"
    ],
    [
      "coun",
      "ter</w>"
    ],
    [
      "cour",
      "t</w>"
    ],
    [
      "dar",
      "k</w>"
    ],
    [
      "daughter",
      ".</w>"
    ],
    [
      "de",
      "gre"
    ],
    [
      "de",
      "la"
    ],
    [
      "death",
      "!</w>"
    ],
    [
      "death",
      "?</w>"
    ],
    [
      "der",
      "by:</w>"
    ],
    [
      "des",
      "ig"
    ],
    [
      "doub",
      "t,</w>"
    ],
    [
      "drin",
      "k</w>"
    ],
    [
      "du",
      "ke,</w>"
    ],
    [
      "e",
      "qu"
    ],
    [
      "e",
      "y</w>"
    ],
    [
      "ea",
      "g"
    ],
    [
      "en",
      ";</w>"
    ],
    [
      "en",
      "counter</w>"
    ],
    [
      "ent",
      "ed</w>"
    ],
    [
      "f",
      "led</w>"
    ],
    [
      "fa",
      "ce.</w>"
    ],
    [
      "fai",
      "th</w>"
    ],
    [
      "faul",
      "ts</w>"
    ],
    [
      "fir",
      "e,</w>"
    ],
    [
      "for",
      "th"
    ],
    [
      "g",
      "e!</w>"
    ],
    [
      "geor",
      "ge</w>"
    ],
    [
      "gregor",
      "y:</w>"
    ],
    [
      "hea",
      "d.</w>"
    ],
    [
      "honour",
      "s</w>"
    ],
    [
      "i",
      "dle</w>"
    ],
    [
      "i",
      "f"
    ],
    [
      "in",
      "clin"
    ],
    [
      "j",
      "ea"
    ],
    [
      "j",
      "our"
    ],
    [
      "king",
      "!</w>"
    ],
    [
      "know",
      "'st</w>"
    ],
    [
      "l",
      "ess,</w>"
    ],
    [
      "la",
      "ce</w>"
    ],
    [
      "la",
      "mb"
    ],
    [
      "la",
      "men"
    ],
    [
      "la",
      "st,</w>"
    ],
    [
      "lad",
      "y's</w>"
    ],
    [
      "le",
      "d,</w>"
    ],
    [
      "lea",
      "st</w>"
    ],
    [
      "lea",
      "ves</w>"
    ],
    [
      "li",
      "s"
    ],
    [
      "li",
      "ty</w>"
    ],
    [
      "lo",
      "dg"
    ],
    [
      "m",
      "er</w>"
    ],
    [
      "su",
      "m"
    ],
    [
      "ma",
      "mill"
    ],
    [
      "mai",
      "d,</w>"
    ],
    [
      "menen",
      "i"
    ],
    [
      "merc",
      "y,</w>"
    ],
    [
      "mi",
      "ty</w>"
    ],
    [
      "ex",
      "tre"
    ],
    [
      "mis",
      "s</w>"
    ],
    [
      "mu",
      "ch.</w>"
    ],
    [
      "ne",
      "g"
    ],
    [
      "nes",
      "s.</w>"
    ],
    [
      "no",
      "ise</w>"
    ],
    [
      "o",
      "la"
    ],
    [
      "off",
      "er</w>"
    ],
    [
      "over",
      "-"
    ],
    [
      "over",
      "done:</w>"
    ],
    [
      "p",
      "ly</w>"
    ],
    [
      "pa",
      "ge:</w>"
    ],
    [
      "pas",
      "sing</w>"
    ],
    [
      "patri",
      "cian"
    ],
    [
      "per",
      "ceive</w>"
    ],
    [
      "ph",
      "y"
    ],
    [
      "pla",
      "gue</w>"
    ],
    [
      "pr",
      "oo"
    ],
    [
      "pra",
      "cti"
    ],
    [
      "pres",
      "er"
    ],
    [
      "procla",
      "im</w>"
    ],
    [
      "prom",
      "ised</w>"
    ],
    [
      "pron",
      "oun"
    ],
    [
      "qu",
      "en"
    ],
    [
      "queen",
      ".</w>"
    ],
    [
      "qui",
      "et</w>"
    ],
    [
      "r",
      "ing</w>"
    ],
    [
      "re",
      ";</w>"
    ],
    [
      "re",
      "d,</w>"
    ],
    [
      "re",
      "qui"
    ],
    [
      "rea",
      "dy,</w>"
    ],
    [
      "rema",
      "in</w>"
    ],
    [
      "richmon",
      "d:</w>"
    ],
    [
      "sa",
      "fet"
    ],
    [
      "se",
      "ven</w>"
    ],
    [
      "sea",
      "l</w>"
    ],
    [
      "seiz",
      "e</w>"
    ],
    [
      "sh",
      "u"
    ],
    [
      "show",
      "'d</w>"
    ],
    [
      "si",
      "ci"
    ],
    [
      "sla",
      "ve,</w>"
    ],
    [
      "somer",
      "set:</w>"
    ],
    [
      "sp",
      "ar"
    ],
    [
      "su",
      "dden</w>"
    ],
    [
      "swif",
      "t</w>"
    ],
    [
      "t",
      "wel"
    ],
    [
      "te",
      "di"
    ],
    [
      "th",
      "ence</w>"
    ],
    [
      "the",
      "y"
    ],
    [
      "there",
      "in</w>"
    ],
    [
      "thi",
      "ther</w>"
    ],
    [
      "thought",
      "s,</w>"
    ],
    [
      "tongu",
      "e,</w>"
    ],
    [
      "trou",
      "ble</w>"
    ],
    [
      "tun",
      "e</w>"
    ],
    [
      "vi",
      "le</w>"
    ],
    [
      "vi",
      "ous</w>"
    ],
    [
      "voi",
      "ces</w>"
    ],
    [
      "w",
      "e,</w>"
    ],
    [
      "w",
      "ing"
    ],
    [
      "w",
      "n</w>"
    ],
    [
      "wi",
      "t</w>"
    ],
    [
      "woman",
      "'s</w>"
    ],
    [
      "wor",
      "ship</w>"
    ],
    [
      "your",
      "s</w>"
    ],
    [
      "'",
      "d?</w>"
    ],
    [
      "'",
      "s.</w>"
    ],
    [
      "suff",
      "er"
    ],
    [
      "'t",
      ";</w>"
    ],
    [
      "a",
      "edi"
    ],
    [
      "abro",
      "a"
    ],
    [
      "again",
      ":</w>"
    ],
    [
      "al",
      "one,</w>"
    ],
    [
      "al",
      "one.</w>"
    ],
    [
      "al",
      "ong</w>"
    ],
    [
      "al",
      "read"
    ],
    [
      "an",
      "ce.</w>"
    ],
    [
      "ant",
      "oni"
    ],
    [
      "arm",
      "s.</w>"
    ],
    [
      "aufidi",
      "us</w>"
    ],
    [
      "b",
      "end</w>"
    ],
    [
      "ban",
      "ish</w>"
    ],
    [
      "be",
      ";</w>"
    ],
    [
      "behin",
      "d</w>"
    ],
    [
      "bian",
      "c"
    ],
    [
      "bianc",
      "a</w>"
    ],
    [
      "bloo",
      "d.</w>"
    ],
    [
      "bo",
      "at"
    ],
    [
      "born",
      "e</w>"
    ],
    [
      "bosom",
      "</w>"
    ],
    [
      "bri",
      "de"
    ],
    [
      "bro",
      "ken</w>"
    ],
    [
      "bur",
      "n</w>"
    ],
    [
      "c",
      "roo"
    ],
    [
      "capit",
      "ol"
    ],
    [
      "ce",
      "'s</w>"
    ],
    [
      "cer",
      "tain"
    ],
    [
      "ch",
      "an"
    ],
    [
      "ci",
      "al</w>"
    ],
    [
      "clou",
      "ds</w>"
    ],
    [
      "co",
      "ver</w>"
    ],
    [
      "comfor",
      "t,</w>"
    ],
    [
      "comp",
      "any</w>"
    ],
    [
      "compan",
      "y.</w>"
    ],
    [
      "conspi",
      "ra"
    ],
    [
      "cor",
      "ru"
    ],
    [
      "cou",
      "ra"
    ],
    [
      "coun",
      "try</w>"
    ],
    [
      "cour",
      "tes"
    ],
    [
      "crow",
      "n.</w>"
    ],
    [
      "dang",
      "er</w>"
    ],
    [
      "desper",
      "ate</w>"
    ],
    [
      "devi",
      "l</w>"
    ],
    [
      "di",
      "ff"
    ],
    [
      "din",
      "n"
    ],
    [
      "dispo",
      "si"
    ],
    [
      "do",
      "ing</w>"
    ],
    [
      "don",
      "e!</w>"
    ],
    [
      "draw",
      "n</w>"
    ],
    [
      "dro",
      "p</w>"
    ],
    [
      "ea",
      "sy</w>"
    ],
    [
      "en",
      "d.</w>"
    ],
    [
      "er",
      "-"
    ],
    [
      "es",
      "ta"
    ],
    [
      "ex",
      "a"
    ],
    [
      "ex",
      "i"
    ],
    [
      "exce",
      "ll"
    ],
    [
      "exe",
      "ter:</w>"
    ],
    [
      "f",
      "ought</w>"
    ],
    [
      "fa",
      "in</w>"
    ],
    [
      "fa",
      "shi"
    ],
    [
      "fair",
      ",</w>"
    ],
    [
      "fi",
      "ery</w>"
    ],
    [
      "fi",
      "f"
    ],
    [
      "fo",
      "ll"
    ],
    [
      "foo",
      "l</w>"
    ],
    [
      "for",
      "e.</w>"
    ],
    [
      "be",
      "fore.</w>"
    ],
    [
      "for",
      "war"
    ],
    [
      "form",
      "er</w>"
    ],
    [
      "frien",
      "ds.</w>"
    ],
    [
      "ga",
      "ol"
    ],
    [
      "glouces",
      "ter,</w>"
    ],
    [
      "go",
      ";</w>"
    ],
    [
      "gon",
      "z"
    ],
    [
      "lo",
      ",</w>"
    ],
    [
      "gran",
      "d"
    ],
    [
      "grief",
      ",</w>"
    ],
    [
      "han",
      "d;</w>"
    ],
    [
      "happ",
      "in"
    ],
    [
      "har",
      "m"
    ],
    [
      "her",
      "!</w>"
    ],
    [
      "her",
      "ea"
    ],
    [
      "herefor",
      "d,</w>"
    ],
    [
      "hi",
      "e</w>"
    ],
    [
      "hom",
      "e.</w>"
    ],
    [
      "hortensi",
      "o,</w>"
    ],
    [
      "hour",
      ",</w>"
    ],
    [
      "hum",
      "bly</w>"
    ],
    [
      "i",
      "ll-"
    ],
    [
      "im",
      "prison"
    ],
    [
      "in",
      "?</w>"
    ],
    [
      "in",
      "ed</w>"
    ],
    [
      "in",
      "stan"
    ],
    [
      "k",
      "es,</w>"
    ],
    [
      "keep",
      "s</w>"
    ],
    [
      "ki",
      "ll"
    ],
    [
      "kind",
      "ness</w>"
    ],
    [
      "l",
      "angu"
    ],
    [
      "l",
      "y;</w>"
    ],
    [
      "lan",
      "ds</w>"
    ],
    [
      "le",
      "-"
    ],
    [
      "leis",
      "ure</w>"
    ],
    [
      "li",
      "ght,</w>"
    ],
    [
      "li",
      "k"
    ],
    [
      "ma",
      "d"
    ],
    [
      "mamill",
      "ius:</w>"
    ],
    [
      "mann",
      "er</w>"
    ],
    [
      "master",
      "'s</w>"
    ],
    [
      "mistres",
      "s,</w>"
    ],
    [
      "mo",
      "psa"
    ],
    [
      "mu",
      "ch,</w>"
    ],
    [
      "musician",
      ":</w>"
    ],
    [
      "na",
      "l</w>"
    ],
    [
      "new",
      "-"
    ],
    [
      "no",
      "t"
    ],
    [
      "northumberlan",
      "d,</w>"
    ],
    [
      "on",
      "'s</w>"
    ],
    [
      "ong",
      "st</w>"
    ],
    [
      "op",
      "ini"
    ],
    [
      "or",
      "s,</w>"
    ],
    [
      "oxfor",
      "d,</w>"
    ],
    [
      "oxfor",
      "d:</w>"
    ],
    [
      "pa",
      "l"
    ],
    [
      "par",
      "t"
    ],
    [
      "pea",
      "ce.</w>"
    ],
    [
      "per",
      "ha"
    ],
    [
      "pi",
      "ci"
    ],
    [
      "po",
      "ster"
    ],
    [
      "pres",
      "ently</w>"
    ],
    [
      "pro",
      "ph"
    ],
    [
      "prom",
      "i"
    ],
    [
      "qu",
      "ite</w>"
    ],
    [
      "r",
      "or</w>"
    ],
    [
      "re",
      "ceive</w>"
    ],
    [
      "re",
      "f"
    ],
    [
      "re",
      "vol"
    ],
    [
      "rep",
      "ent</w>"
    ],
    [
      "ri",
      "d</w>"
    ],
    [
      "s",
      "ant</w>"
    ],
    [
      "s",
      "cep"
    ],
    [
      "s",
      "y"
    ],
    [
      "scar",
      "ce</w>"
    ],
    [
      "scor",
      "n</w>"
    ],
    [
      "sea",
      ",</w>"
    ],
    [
      "sh",
      "ort</w>"
    ],
    [
      "she",
      "ep"
    ],
    [
      "si",
      "mple</w>"
    ],
    [
      "soldi",
      "ers</w>"
    ],
    [
      "sole",
      "m"
    ],
    [
      "spa",
      "ke</w>"
    ],
    [
      "st",
      "ir</w>"
    ],
    [
      "st",
      "ol"
    ],
    [
      "sta",
      "b"
    ],
    [
      "su",
      "ffi"
    ],
    [
      "suff",
      "er</w>"
    ],
    [
      "tast",
      "e</w>"
    ],
    [
      "ter",
      ".</w>"
    ],
    [
      "th",
      "ur"
    ],
    [
      "then",
      ".</w>"
    ],
    [
      "thin",
      "e.</w>"
    ],
    [
      "think",
      "'st</w>"
    ],
    [
      "thur",
      "s"
    ],
    [
      "ti",
      "tu"
    ],
    [
      "tion",
      "s,</w>"
    ],
    [
      "too",
      ":</w>"
    ],
    [
      "tou",
      "ch'd</w>"
    ],
    [
      "tr",
      "oo"
    ],
    [
      "trait",
      "or,</w>"
    ],
    [
      "tro",
      "th,</w>"
    ],
    [
      "u",
      "tter"
    ],
    [
      "up",
      ".</w>"
    ],
    [
      "v",
      "ey"
    ],
    [
      "v",
      "ow</w>"
    ],
    [
      "valeri",
      "a:</w>"
    ],
    [
      "vi",
      "le"
    ],
    [
      "voi",
      "ce</w>"
    ],
    [
      "vols",
      "ces</w>"
    ],
    [
      "w",
      "ent</w>"
    ],
    [
      "w",
      "of"
    ],
    [
      "w",
      "ol"
    ],
    [
      "w",
      "on</w>"
    ],
    [
      "want",
      "on</w>"
    ],
    [
      "wea",
      "p"
    ],
    [
      "wi",
      "cked</w>"
    ],
    [
      "wis",
      "dom</w>"
    ],
    [
      "wo",
      "o</w>"
    ],
    [
      "wor",
      "k,</w>"
    ],
    [
      "wretch",
      "ed</w>"
    ],
    [
      "wri",
      "te</w>"
    ],
    [
      "'",
      "d!</w>"
    ],
    [
      "a",
      "m,</w>"
    ],
    [
      "abhor",
      "son:</w>"
    ],
    [
      "ac",
      "cor"
    ],
    [
      "ac",
      "cu"
    ],
    [
      "ac",
      "tion</w>"
    ],
    [
      "ad",
      "d</w>"
    ],
    [
      "al",
      "o:</w>"
    ],
    [
      "al",
      "ready</w>"
    ],
    [
      "ar",
      "ch"
    ],
    [
      "as",
      "ar"
    ],
    [
      "au",
      "ght</w>"
    ],
    [
      "ba",
      "ck,</w>"
    ],
    [
      "back",
      ".</w>"
    ],
    [
      "bal",
      "th"
    ],
    [
      "balth",
      "asar"
    ],
    [
      "bear",
      "ing</w>"
    ],
    [
      "bl",
      "est</w>"
    ],
    [
      "blin",
      "d</w>"
    ],
    [
      "bo",
      "th.</w>"
    ],
    [
      "bo",
      "y:</w>"
    ],
    [
      "boat",
      "swa"
    ],
    [
      "brea",
      "th,</w>"
    ],
    [
      "bri",
      "ght</w>"
    ],
    [
      "bu",
      "ry</w>"
    ],
    [
      "bush",
      "y:</w>"
    ],
    [
      "ce",
      "d,</w>"
    ],
    [
      "char",
      "ged</w>"
    ],
    [
      "chi",
      "de</w>"
    ],
    [
      "chi",
      "ef"
    ],
    [
      "circ",
      "um"
    ],
    [
      "ck",
      "?</w>"
    ],
    [
      "cla",
      "im</w>"
    ],
    [
      "claudi",
      "o</w>"
    ],
    [
      "con",
      "clu"
    ],
    [
      "con",
      "vey"
    ],
    [
      "coun",
      "ty</w>"
    ],
    [
      "cour",
      "se,</w>"
    ],
    [
      "cros",
      "s</w>"
    ],
    [
      "d",
      "'st</w>"
    ],
    [
      "f",
      "oun"
    ],
    [
      "d",
      "ing"
    ],
    [
      "d",
      "ure</w>"
    ],
    [
      "da",
      "y;</w>"
    ],
    [
      "dam",
      "ned</w>"
    ],
    [
      "de",
      "man"
    ],
    [
      "des",
      "cen"
    ],
    [
      "des",
      "pair"
    ],
    [
      "deter",
      "min"
    ],
    [
      "di",
      "d,</w>"
    ],
    [
      "diff",
      "er"
    ],
    [
      "dis",
      "da"
    ],
    [
      "dou",
      "ble</w>"
    ],
    [
      "dread",
      "ful</w>"
    ],
    [
      "du",
      "ke.</w>"
    ],
    [
      "du",
      "ll</w>"
    ],
    [
      "ed",
      "ing</w>"
    ],
    [
      "enough",
      ".</w>"
    ],
    [
      "enter",
      "tain"
    ],
    [
      "er",
      "s:</w>"
    ],
    [
      "es",
      "t;</w>"
    ],
    [
      "es",
      "ty</w>"
    ],
    [
      "f",
      "ren"
    ],
    [
      "far",
      "es</w>"
    ],
    [
      "fare",
      "well:</w>"
    ],
    [
      "father",
      ":</w>"
    ],
    [
      "fi",
      "ll</w>"
    ],
    [
      "fla",
      "tter</w>"
    ],
    [
      "flow",
      "ers</w>"
    ],
    [
      "fortun",
      "es</w>"
    ],
    [
      "fran",
      "ce,</w>"
    ],
    [
      "fu",
      "ll"
    ],
    [
      "go",
      "ld</w>"
    ],
    [
      "gonz",
      "alo:</w>"
    ],
    [
      "goo",
      "d.</w>"
    ],
    [
      "gover",
      "n"
    ],
    [
      "har",
      "k,</w>"
    ],
    [
      "har",
      "k</w>"
    ],
    [
      "hast",
      "ings</w>"
    ],
    [
      "he",
      "ll</w>"
    ],
    [
      "hen",
      "ce;</w>"
    ],
    [
      "her",
      "?</w>"
    ],
    [
      "her",
      "e;</w>"
    ],
    [
      "herea",
      "f"
    ],
    [
      "hi",
      "t</w>"
    ],
    [
      "him",
      "self.</w>"
    ],
    [
      "hol",
      "ds</w>"
    ],
    [
      "hou",
      "se"
    ],
    [
      "v",
      "es,</w>"
    ],
    [
      "hun",
      "t"
    ],
    [
      "husban",
      "d.</w>"
    ],
    [
      "il",
      ".</w>"
    ],
    [
      "in",
      "ju"
    ],
    [
      "inten",
      "d</w>"
    ],
    [
      "it",
      "ed</w>"
    ],
    [
      "it",
      "y.</w>"
    ],
    [
      "j",
      "ur"
    ],
    [
      "jo",
      "in</w>"
    ],
    [
      "jo",
      "y,</w>"
    ],
    [
      "king",
      "ly</w>"
    ],
    [
      "kne",
      "es</w>"
    ],
    [
      "l",
      "?</w>"
    ],
    [
      "l",
      "y"
    ],
    [
      "la",
      "m"
    ],
    [
      "li",
      "ke"
    ],
    [
      "liv",
      "ed</w>"
    ],
    [
      "ll",
      "s,</w>"
    ],
    [
      "lo",
      "ver"
    ],
    [
      "lon",
      "don"
    ],
    [
      "lov",
      "e!</w>"
    ],
    [
      "ma",
      "in"
    ],
    [
      "ma",
      "s"
    ],
    [
      "matter",
      ",</w>"
    ],
    [
      "mayor",
      ":</w>"
    ],
    [
      "men",
      ":</w>"
    ],
    [
      "mi",
      "d"
    ],
    [
      "mopsa",
      ":</w>"
    ],
    [
      "mor",
      "e:</w>"
    ],
    [
      "mor",
      "e;</w>"
    ],
    [
      "mowbra",
      "y:</w>"
    ],
    [
      "n",
      "umber"
    ],
    [
      "night",
      ":</w>"
    ],
    [
      "norfol",
      "k:</w>"
    ],
    [
      "om",
      "a"
    ],
    [
      "on",
      "ce,</w>"
    ],
    [
      "or",
      ".</w>"
    ],
    [
      "or",
      ";</w>"
    ],
    [
      "ou",
      "s.</w>"
    ],
    [
      "oun",
      "ds</w>"
    ],
    [
      "ow",
      "e</w>"
    ],
    [
      "p",
      ".</w>"
    ],
    [
      "pa",
      "in</w>"
    ],
    [
      "pas",
      "s'd</w>"
    ],
    [
      "pea",
      "ce!</w>"
    ],
    [
      "pen",
      "it"
    ],
    [
      "per",
      "i"
    ],
    [
      "per",
      "pet"
    ],
    [
      "u",
      "al</w>"
    ],
    [
      "persu",
      "a"
    ],
    [
      "pit",
      "eous</w>"
    ],
    [
      "pla",
      "ce;</w>"
    ],
    [
      "pri",
      "son,</w>"
    ],
    [
      "procla",
      "im"
    ],
    [
      "proo",
      "f"
    ],
    [
      "pur",
      "cha"
    ],
    [
      "r",
      "t</w>"
    ],
    [
      "remem",
      "bran"
    ],
    [
      "resol",
      "ve</w>"
    ],
    [
      "ri",
      "es</w>"
    ],
    [
      "richmon",
      "d</w>"
    ],
    [
      "ro",
      "tten</w>"
    ],
    [
      "roman",
      ":</w>"
    ],
    [
      "rome",
      "o!</w>"
    ],
    [
      "ru",
      "de</w>"
    ],
    [
      "sa",
      "fe"
    ],
    [
      "saf",
      "e</w>"
    ],
    [
      "sea",
      "t</w>"
    ],
    [
      "see",
      "ing</w>"
    ],
    [
      "sent",
      "ence</w>"
    ],
    [
      "sever",
      "al</w>"
    ],
    [
      "sh",
      "ouldst</w>"
    ],
    [
      "sh",
      "r"
    ],
    [
      "sha",
      "ll"
    ],
    [
      "si",
      "on.</w>"
    ],
    [
      "sil",
      "ver</w>"
    ],
    [
      "sla",
      "in,</w>"
    ],
    [
      "sleep",
      ",</w>"
    ],
    [
      "son",
      "!</w>"
    ],
    [
      "sp",
      "or"
    ],
    [
      "ti",
      "ve</w>"
    ],
    [
      "spiri",
      "t,</w>"
    ],
    [
      "st",
      "it"
    ],
    [
      "u",
      "t"
    ],
    [
      "st",
      "one</w>"
    ],
    [
      "sti",
      "ll,</w>"
    ],
    [
      "stor",
      "y</w>"
    ],
    [
      "sur",
      "re"
    ],
    [
      "sus",
      "pe"
    ],
    [
      "sus",
      "pici"
    ],
    [
      "t",
      "ent"
    ],
    [
      "t",
      "y:</w>"
    ],
    [
      "te",
      ";</w>"
    ],
    [
      "resol",
      "u"
    ],
    [
      "te",
      "ful</w>"
    ],
    [
      "tem",
      "per"
    ],
    [
      "ten",
      "der"
    ],
    [
      "ter",
      "s</w>"
    ],
    [
      "th",
      "us,</w>"
    ],
    [
      "than",
      "ks</w>"
    ],
    [
      "them",
      "?</w>"
    ],
    [
      "thou",
      "?</w>"
    ],
    [
      "tim",
      "ely</w>"
    ],
    [
      "tion",
      "!</w>"
    ],
    [
      "to",
      "a"
    ],
    [
      "toge",
      "ther"
    ],
    [
      "tongu",
      "e.</w>"
    ],
    [
      "tribun",
      "es</w>"
    ],
    [
      "tur",
      "e,</w>"
    ],
    [
      "de",
      "par"
    ],
    [
      "ty",
      "'s</w>"
    ],
    [
      "u",
      "l</w>"
    ],
    [
      "un",
      "timely</w>"
    ],
    [
      "vou",
      "ch"
    ],
    [
      "w",
      "est"
    ],
    [
      "wa",
      "il</w>"
    ],
    [
      "wea",
      "k"
    ],
    [
      "whol",
      "e</w>"
    ],
    [
      "wi",
      "ther"
    ],
    [
      "wo",
      "es</w>"
    ],
    [
      "wor",
      "ds.</w>"
    ],
    [
      "year",
      "s,</w>"
    ],
    [
      "your",
      "s.</w>"
    ],
    [
      "!",
      "--</w>"
    ],
    [
      "wi",
      "sh"
    ],
    [
      "for",
      "bi"
    ],
    [
      "a",
      "ir,</w>"
    ],
    [
      "a",
      "voi"
    ],
    [
      "acc",
      "us"
    ],
    [
      "acc",
      "use</w>"
    ],
    [
      "advi",
      "se</w>"
    ],
    [
      "af",
      "fli"
    ],
    [
      "all",
      "-"
    ],
    [
      "all",
      ";</w>"
    ],
    [
      "all",
      "ow"
    ],
    [
      "am",
      "bi"
    ],
    [
      "an",
      "on</w>"
    ],
    [
      "ap",
      "poin"
    ],
    [
      "app",
      "ea"
    ],
    [
      "app",
      "re"
    ],
    [
      "appre",
      "hen"
    ],
    [
      "ar",
      "e.</w>"
    ],
    [
      "ar",
      "y.</w>"
    ],
    [
      "as",
      "sa"
    ],
    [
      "as",
      "sur"
    ],
    [
      "balthasar",
      ":</w>"
    ],
    [
      "be",
      "?</w>"
    ],
    [
      "be",
      "yond</w>"
    ],
    [
      "beg",
      "ins</w>"
    ],
    [
      "beli",
      "ev"
    ],
    [
      "ben",
      "ef"
    ],
    [
      "benef",
      "it</w>"
    ],
    [
      "bla",
      "me</w>"
    ],
    [
      "bo",
      "y!</w>"
    ],
    [
      "bohemi",
      "a</w>"
    ],
    [
      "bolingbrok",
      "e,</w>"
    ],
    [
      "bor",
      "n.</w>"
    ],
    [
      "bri",
      "ef</w>"
    ],
    [
      "c",
      "oo"
    ],
    [
      "ca",
      "use,</w>"
    ],
    [
      "can",
      ",</w>"
    ],
    [
      "cau",
      "se.</w>"
    ],
    [
      "ce",
      "it</w>"
    ],
    [
      "ce",
      "pt</w>"
    ],
    [
      "ch",
      "ea"
    ],
    [
      "chang",
      "ed</w>"
    ],
    [
      "che",
      "er</w>"
    ],
    [
      "christi",
      "an</w>"
    ],
    [
      "cle",
      "om"
    ],
    [
      "cleom",
      "en"
    ],
    [
      "comp",
      "le"
    ],
    [
      "compan",
      "i"
    ],
    [
      "con",
      "ten"
    ],
    [
      "consi",
      "der"
    ],
    [
      "coriolan",
      "us</w>"
    ],
    [
      "crea",
      "ture</w>"
    ],
    [
      "cust",
      "om"
    ],
    [
      "d",
      "ed.</w>"
    ],
    [
      "d",
      "ings</w>"
    ],
    [
      "d",
      "ying</w>"
    ],
    [
      "da",
      "gg"
    ],
    [
      "de",
      ";</w>"
    ],
    [
      "de",
      "vo"
    ],
    [
      "dea",
      "d?</w>"
    ],
    [
      "dea",
      "l</w>"
    ],
    [
      "deser",
      "ve</w>"
    ],
    [
      "deser",
      "ves</w>"
    ],
    [
      "despit",
      "e</w>"
    ],
    [
      "di",
      "ed</w>"
    ],
    [
      "do",
      "om"
    ],
    [
      "duk",
      "ed"
    ],
    [
      "dur",
      "st</w>"
    ],
    [
      "e",
      "ful</w>"
    ],
    [
      "e",
      "ves</w>"
    ],
    [
      "el",
      "se,</w>"
    ],
    [
      "en",
      "ce;</w>"
    ],
    [
      "en",
      "dure</w>"
    ],
    [
      "en",
      "vious</w>"
    ],
    [
      "englan",
      "d,</w>"
    ],
    [
      "es",
      "om"
    ],
    [
      "es",
      "s;</w>"
    ],
    [
      "es",
      "ter"
    ],
    [
      "et",
      ";</w>"
    ],
    [
      "exc",
      "use</w>"
    ],
    [
      "f",
      "lou"
    ],
    [
      "f",
      "on"
    ],
    [
      "fair",
      "ly</w>"
    ],
    [
      "fare",
      "well</w>"
    ],
    [
      "fer",
      "din"
    ],
    [
      "fi",
      "e!</w>"
    ],
    [
      "fi",
      "x"
    ],
    [
      "fir",
      "m</w>"
    ],
    [
      "fo",
      "e</w>"
    ],
    [
      "fortun",
      "e,</w>"
    ],
    [
      "ga",
      "l</w>"
    ],
    [
      "gar",
      "den"
    ],
    [
      "gho",
      "st</w>"
    ],
    [
      "glor",
      "y</w>"
    ],
    [
      "go",
      "d"
    ],
    [
      "goo",
      "d"
    ],
    [
      "groun",
      "d,</w>"
    ],
    [
      "ha",
      "d,</w>"
    ],
    [
      "ha",
      "ply</w>"
    ],
    [
      "ha",
      "ve.</w>"
    ],
    [
      "han",
      "ds.</w>"
    ],
    [
      "har",
      "k!</w>"
    ],
    [
      "har",
      "m</w>"
    ],
    [
      "he",
      "?</w>"
    ],
    [
      "hea",
      "d;</w>"
    ],
    [
      "hear",
      "ted</w>"
    ],
    [
      "hon",
      "esty</w>"
    ],
    [
      "hun",
      "g"
    ],
    [
      "hunt",
      "s"
    ],
    [
      "i",
      "re"
    ],
    [
      "lan",
      "d.</w>"
    ],
    [
      "imp",
      "or"
    ],
    [
      "in",
      "tell"
    ],
    [
      "juli",
      "et</w>"
    ],
    [
      "know",
      ".</w>"
    ],
    [
      "knowle",
      "dge</w>"
    ],
    [
      "l",
      "!</w>"
    ],
    [
      "l",
      ";</w>"
    ],
    [
      "lab",
      "our</w>"
    ],
    [
      "ladi",
      "es</w>"
    ],
    [
      "le",
      "tter</w>"
    ],
    [
      "li",
      "a"
    ],
    [
      "life",
      ";</w>"
    ],
    [
      "lucenti",
      "o</w>"
    ],
    [
      "master",
      "s,</w>"
    ],
    [
      "matter",
      "?</w>"
    ],
    [
      "me",
      "et"
    ],
    [
      "men",
      ";</w>"
    ],
    [
      "mi",
      "r"
    ],
    [
      "mista",
      "ke</w>"
    ],
    [
      "na",
      "me;</w>"
    ],
    [
      "ne",
      "ver"
    ],
    [
      "o'",
      "clo"
    ],
    [
      "of",
      ".</w>"
    ],
    [
      "off",
      "ence</w>"
    ],
    [
      "ong",
      ",</w>"
    ],
    [
      "ou",
      "sly</w>"
    ],
    [
      "own",
      "ed</w>"
    ],
    [
      "pa",
      "inted</w>"
    ],
    [
      "par",
      "is</w>"
    ],
    [
      "par",
      "ty</w>"
    ],
    [
      "parti",
      "cu"
    ],
    [
      "per",
      "cy:</w>"
    ],
    [
      "pla",
      "y"
    ],
    [
      "plantagen",
      "et,</w>"
    ],
    [
      "prison",
      "er</w>"
    ],
    [
      "pro",
      "fan"
    ],
    [
      "proce",
      "ed</w>"
    ],
    [
      "pun",
      "ish"
    ],
    [
      "purpo",
      "se.</w>"
    ],
    [
      "ra",
      "ise</w>"
    ],
    [
      "ra",
      "ven"
    ],
    [
      "re",
      "be"
    ],
    [
      "re",
      "bell"
    ],
    [
      "re",
      "gi"
    ],
    [
      "re",
      "pea"
    ],
    [
      "re",
      "w</w>"
    ],
    [
      "ren",
      "owned</w>"
    ],
    [
      "requ",
      "est</w>"
    ],
    [
      "res",
      "t.</w>"
    ],
    [
      "retur",
      "n"
    ],
    [
      "richar",
      "d's</w>"
    ],
    [
      "ro",
      "b"
    ],
    [
      "rome",
      "o's</w>"
    ],
    [
      "roy",
      "al"
    ],
    [
      "s",
      "cen"
    ],
    [
      "s",
      "mile</w>"
    ],
    [
      "s",
      "moo"
    ],
    [
      "s",
      "our</w>"
    ],
    [
      "sa",
      "lis"
    ],
    [
      "sea",
      "-"
    ],
    [
      "sen",
      "se</w>"
    ],
    [
      "serv",
      "ant</w>"
    ],
    [
      "sh",
      "oo"
    ],
    [
      "so",
      "on"
    ],
    [
      "some",
      "times</w>"
    ],
    [
      "sp",
      "are</w>"
    ],
    [
      "sp",
      "end</w>"
    ],
    [
      "speak",
      ":</w>"
    ],
    [
      "st",
      "in"
    ],
    [
      "sta",
      "in</w>"
    ],
    [
      "stea",
      "l</w>"
    ],
    [
      "sum",
      "mer</w>"
    ],
    [
      "sun",
      ",</w>"
    ],
    [
      "t",
      "res"
    ],
    [
      "t",
      "s;</w>"
    ],
    [
      "t",
      "um"
    ],
    [
      "tailor",
      ":</w>"
    ],
    [
      "that",
      ".</w>"
    ],
    [
      "the",
      "ir"
    ],
    [
      "ther",
      ":</w>"
    ],
    [
      "thou'",
      "rt</w>"
    ],
    [
      "thr",
      "ust</w>"
    ],
    [
      "thre",
      "e-"
    ],
    [
      "ti",
      "de</w>"
    ],
    [
      "ti",
      "ous</w>"
    ],
    [
      "to-morrow",
      ",</w>"
    ],
    [
      "too",
      ";</w>"
    ],
    [
      "tow",
      "er,</w>"
    ],
    [
      "tow",
      "er.</w>"
    ],
    [
      "trea",
      "cher"
    ],
    [
      "tur",
      "ns</w>"
    ],
    [
      "twel",
      "ve</w>"
    ],
    [
      "v",
      "ate</w>"
    ],
    [
      "pri",
      "vate</w>"
    ],
    [
      "v",
      "e:</w>"
    ],
    [
      "v",
      "ex"
    ],
    [
      "va",
      "in</w>"
    ],
    [
      "wal",
      "k</w>"
    ],
    [
      "warwick",
      "'s</w>"
    ],
    [
      "wei",
      "gh"
    ],
    [
      "wh",
      "en,</w>"
    ],
    [
      "whol",
      "esom"
    ],
    [
      "wi",
      "ld</w>"
    ],
    [
      "with",
      "al.</w>"
    ]
  ],
  "vocab": {
    "<unk>": 0,
    "!": 1,
    "$": 2,
    "&": 3,
    "'": 4,
    ",": 5,
    "-": 6,
    ".": 7,
    "0": 8,
    ":": 9,
    ";": 10,
    "</w>": 11,
    "?": 12,
    "a": 13,
    "b": 14,
    "c": 15,
    "d": 16,
    "e": 17,
    "f": 18,
    "g": 19,
    "h": 20,
    "i": 21,
    "j": 22,
    "k": 23,
    "l": 24,
    "m": 25,
    "n": 26,
    "o": 27,
    "p": 28,
    "q": 29,
    "r": 30,
    "s": 31,
    "t": 32,
    "u": 33,
    "v": 34,
    "w": 35,
    "x": 36,
    "y": 37,
    "z": 38,
    "e</w>": 39,
    "th": 40,
    ",</w>": 41,
    "t</w>": 42,
    "s</w>": 43,
    "d</w>": 44,
    "ou": 45,
    "an": 46,
    "er": 47,
    "in": 48,
    "y</w>": 49,
    ":</w>": 50,
    "or": 51,
    "en": 52,
    "o</w>": 53,
    "ar": 54,
    ".</w>": 55,
    "on": 56,
    "ll": 57,
    "the</w>": 58,
    "ha": 59,
    "and</w>": 60,
    "es": 61,
    "is</w>": 62,
    "you": 63,
    "f</w>": 64,
    "to</w>": 65,
    "i</w>": 66,
    "ing": 67,
    "ll</w>": 68,
    "no": 69,
    "wi": 70,
    "om": 71,
    "ea": 72,
    "e,</w>": 73,
    "of</w>": 74,
    "st": 75,
    ";</w>": 76,
    "ch": 77,
    "er</w>": 78,
    "r</w>": 79,
    "for": 80,
    "th</w>": 81,
    "my</w>": 82,
    "a</w>": 83,
    "at</w>": 84,
    "li": 85,
    "in</w>": 86,
    "ve</w>": 87,
    "wh": 88,
    "ing</w>": 89,
    "ow": 90,
    "se": 91,
    "ti": 92,
    "ri": 93,
    "re": 94,
    "you</w>": 95,
    "that</w>": 96,
    "?</w>": 97,
    "us": 98,
    "the": 99,
    "le": 100,
    "en</w>": 101,
    "sh": 102,
    "be": 103,
    "ma": 104,
    "!</w>": 105,
    "oo": 106,
    "bu": 107,
    "gh": 108,
    "d,</w>": 109,
    "not</w>": 110,
    "ra": 111,
    "la": 112,
    "thou": 113,
    "for</w>": 114,
    "ear": 115,
    "m</w>": 116,
    "with</w>": 117,
    "on</w>": 118,
    "si": 119,
    "as</w>": 120,
    "'s</w>": 121,
    "st</w>": 122,
    "s,</w>": 123,
    "ke</w>": 124,
    "ed</w>": 125,
    "t,</w>": 126,
    "di": 127,
    "me</w>": 128,
    "hi": 129,
    "your</w>": 130,
    "ro": 131,
    "y,</w>": 132,
    "ld</w>": 133,
    "be</w>": 134,
    "it</w>": 135,
    "an</w>": 136,
    "com": 137,
    "es</w>": 138,
    "his</w>": 139,
    "o:</w>": 140,
    "ur": 141,
    "k</w>": 142,
    "un": 143,
    "ere</w>": 144,
    "sa": 145,
    "ch</w>": 146,
    "ca": 147,
    "he</w>": 148,
    "but</w>": 149,
    "have</w>": 150,
    "fa": 151,
    "this</w>": 152,
    "we": 153,
    "e.</w>": 154,
    "thou</w>": 155,
    "ce</w>": 156,
    "l</w>": 157,
    "wha": 158,
    "now": 159,
    "ta": 160,
    "mi": 161,
    "ther": 162,
    "sha": 163,
    "thy</w>": 164,
    "'d</w>": 165,
    "ol": 166,
    "or</w>": 167,
    "rom": 168,
    "se</w>": 169,
    "lo": 170,
    "sp": 171,
    "fi": 172,
    "ru": 173,
    "le</w>": 174,
    "our</w>": 175,
    "at": 176,
    "ed": 177,
    "it": 178,
    "rea": 179,
    "de": 180,
    "ould</w>": 181,
    "su": 182,
    "lor": 183,
    "will</w>": 184,
    "ne": 185,
    "ter": 186,
    "el": 187,
    "what</w>": 188,
    "war": 189,
    "ow</w>": 190,
    "us:</w>": 191,
    "con": 192,
    "so</w>": 193,
    "by</w>": 194,
    "me": 195,
    "ent": 196,
    "ck": 197,
    "n</w>": 198,
    "qu": 199,
    "are</w>": 200,
    "ci": 201,
    "ce": 202,
    "vi": 203,
    "wor": 204,
    "mor": 205,
    "shall</w>": 206,
    "whi": 207,
    "da": 208,
    "if</w>": 209,
    "ver": 210,
    "king</w>": 211,
    "wa": 212,
    "ly</w>": 213,
    "ood</w>": 214,
    "du": 215,
    "et": 216,
    "up": 217,
    "o,</w>": 218,
    "ther</w>": 219,
    "ir</w>": 220,
    "et</w>": 221,
    "man": 222,
    "pa": 223,
    "him</w>": 224,
    "po": 225,
    "res": 226,
    "mo": 227,
    "do</w>": 228,
    "now</w>": 229,
    "hear": 230,
    "no</w>": 231,
    "her": 232,
    "oun": 233,
    "her</w>": 234,
    "mar": 235,
    "ga": 236,
    "ght</w>": 237,
    "s.</w>": 238,
    "sel": 239,
    "from": 240,
    "from</w>": 241,
    "te": 242,
    "bo": 243,
    "ba": 244,
    "ess</w>": 245,
    "ds</w>": 246,
    "pro": 247,
    "sir": 248,
    "go": 249,
    "him": 250,
    "good</w>": 251,
    "one</w>": 252,
    "'</w>": 253,
    "bl": 254,
    "to": 255,
    "do": 256,
    "men": 257,
    "'ll</w>": 258,
    "our": 259,
    "'t": 260,
    "d:</w>": 261,
    "d.</w>": 262,
    "est</w>": 263,
    "ran": 264,
    "which</w>": 265,
    "y.</w>": 266,
    "was</w>": 267,
    "gi": 268,
    "ong": 269,
    "p</w>": 270,
    "e:</w>": 271,
    "us</w>": 272,
    "dea": 273,
    "char": 274,
    "par": 275,
    "na": 276,
    "they</w>": 277,
    "would</w>": 278,
    "es,</w>": 279,
    "hea": 280,
    "all</w>": 281,
    "s:</w>": 282,
    "ght": 283,
    "lea": 284,
    "y:</w>": 285,
    "som": 286,
    "bro": 287,
    "how</w>": 288,
    "fe": 289,
    "of": 290,
    "than</w>": 291,
    "a:</w>": 292,
    "min": 293,
    "tt": 294,
    "their</w>": 295,
    "more</w>": 296,
    "per": 297,
    "ang": 298,
    "ry</w>": 299,
    "she</w>": 300,
    "hen": 301,
    "fu": 302,
    "bi": 303,
    "al": 304,
    "let</w>": 305,
    "ust</w>": 306,
    "hath</w>": 307,
    "ous</w>": 308,
    "thin": 309,
    "row": 310,
    "fir": 311,
    "--": 312,
    "we</w>": 313,
    "ce,</w>": 314,
    "ver</w>": 315,
    "thee</w>": 316,
    "were</w>": 317,
    "i'll</w>": 318,
    "ni": 319,
    "son": 320,
    "duke</w>": 321,
    "chi": 322,
    "um": 323,
    "when</w>": 324,
    "pe": 325,
    "cen": 326,
    "de</w>": 327,
    "then</w>": 328,
    "der": 329,
    "t:</w>": 330,
    "like</w>": 331,
    "op": 332,
    "fri": 333,
    "ble</w>": 334,
    "come</w>": 335,
    "gra": 336,
    "ces": 337,
    "ck</w>": 338,
    "richar": 339,
    "que": 340,
    "ir": 341,
    "make</w>": 342,
    "well": 343,
    "ear</w>": 344,
    "lu": 345,
    "ii": 346,
    "ar</w>": 347,
    "cor": 348,
    "ent</w>": 349,
    "may</w>": 350,
    "upon</w>": 351,
    "ius:</w>": 352,
    "lan": 353,
    "dy</w>": 354,
    "ge</w>": 355,
    "you,</w>": 356,
    "must</w>": 357,
    "gh</w>": 358,
    "he": 359,
    "t.</w>": 360,
    "lou": 361,
    "ju": 362,
    "tru": 363,
    "should</w>": 364,
    "king": 365,
    "me,</w>": 366,
    "th,</w>": 367,
    "ts</w>": 368,
    "lov": 369,
    "pu": 370,
    "aga": 371,
    "edwar": 372,
    "pr": 373,
    "tio:</w>": 374,
    "ser": 375,
    "d;</w>": 376,
    "so": 377,
    "w</w>": 378,
    "here</w>": 379,
    "'tis</w>": 380,
    "lif": 381,
    "spea": 382,
    "e;</w>": 383,
    "had</w>": 384,
    "s;</w>": 385,
    "sir,</w>": 386,
    "ten": 387,
    "sta": 388,
    "yet</w>": 389,
    "gent": 390,
    "them</w>": 391,
    "loo": 392,
    "some</w>": 393,
    "yor": 394,
    "des": 395,
    "ex": 396,
    "mu": 397,
    "out</w>": 398,
    "there": 399,
    "where</w>": 400,
    "can": 401,
    "first</w>": 402,
    "cl": 403,
    "take</w>": 404,
    "did</w>": 405,
    "tion": 406,
    "cu": 407,
    "fore</w>": 408,
    "is": 409,
    "pla": 410,
    "thes": 411,
    "ep": 412,
    "give</w>": 413,
    "vo": 414,
    "sen": 415,
    "richard</w>": 416,
    "gu": 417,
    "hon": 418,
    "know</w>": 419,
    "say</w>": 420,
    "again": 421,
    "ter:</w>": 422,
    "pra": 423,
    "these</w>": 424,
    "ven": 425,
    "centio:</w>": 426,
    "go</w>": 427,
    "such</w>": 428,
    "pri": 429,
    "am</w>": 430,
    "very</w>": 431,
    "es:</w>": 432,
    "vin": 433,
    "most</w>": 434,
    "sti": 435,
    "glou": 436,
    "glouces": 437,
    "there</w>": 438,
    "ac": 439,
    "jo": 440,
    "ey": 441,
    "old</w>": 442,
    "gre": 443,
    "ty</w>": 444,
    "mp": 445,
    "ure</w>": 446,
    "mer": 447,
    "come,</w>": 448,
    "man</w>": 449,
    "mon": 450,
    "ther,</w>": 451,
    "well</w>": 452,
    "ful</w>": 453,
    "sin": 454,
    "tion</w>": 455,
    "pp": 456,
    "york": 457,
    "can</w>": 458,
    "who</w>": 459,
    "now,</w>": 460,
    "own</w>": 461,
    "see</w>": 462,
    "self": 463,
    "en,</w>": 464,
    "ke": 465,
    "queen</w>": 466,
    "ster": 467,
    "henry</w>": 468,
    "love</w>": 469,
    "tell</w>": 470,
    "coun": 471,
    "self</w>": 472,
    "ted</w>": 473,
    "al</w>": 474,
    "der</w>": 475,
    "all": 476,
    "ce:</w>": 477,
    "ds,</w>": 478,
    "lord</w>": 479,
    "own": 480,
    "--</w>": 481,
    "rome": 482,
    "frien": 483,
    "nor</w>": 484,
    "m,</w>": 485,
    "warwi": 486,
    "ber": 487,
    "gloucester:</w>": 488,
    "af": 489,
    "et:</w>": 490,
    "lt</w>": 491,
    "prin": 492,
    "thing</w>": 493,
    "y;</w>": 494,
    "ves</w>": 495,
    "han": 496,
    "k,</w>": 497,
    "pet": 498,
    "sed</w>": 499,
    "au": 500,
    "ence</w>": 501,
    "gar": 502,
    "t's</w>": 503,
    "use</w>": 504,
    "hor": 505,
    "lord,</w>": 506,
    "vincentio:</w>": 507,
    "awa": 508,
    "sh</w>": 509,
    "why,</w>": 510,
    "brea": 511,
    "e?</w>": 512,
    "grea": 513,
    "oul": 514,
    "mine</w>": 515,
    "made</w>": 516,
    "st,</w>": 517,
    "too</w>": 518,
    "up</w>": 519,
    "swe": 520,
    "te</w>": 521,
    "thee,</w>": 522,
    "ab": 523,
    "pre": 524,
    "il": 525,
    "om</w>": 526,
    "ban": 527,
    "d's</w>": 528,
    "e!</w>": 529,
    "sw": 530,
    "time</w>": 531,
    "stan": 532,
    "never</w>": 533,
    "ad": 534,
    "any</w>": 535,
    "cori": 536,
    "ev": 537,
    "pres": 538,
    "se,</w>": 539,
    "br": 540,
    "tu": 541,
    "ep</w>": 542,
    "bra": 543,
    "ing,</w>": 544,
    "er:</w>": 545,
    "dis": 546,
    "fo": 547,
    "gentle": 548,
    "ig": 549,
    "petru": 550,
    "tr": 551,
    "coriol": 552,
    "har": 553,
    "petruchi": 554,
    "ce.</w>": 555,
    "hear</w>": 556,
    "york:</w>": 557,
    "doth</w>": 558,
    "plea": 559,
    "s!</w>": 560,
    "think</w>": 561,
    "inius:</w>": 562,
    "my": 563,
    "pi": 564,
    "e's</w>": 565,
    "don": 566,
    "ed,</w>": 567,
    "thi": 568,
    "well,</w>": 569,
    "ter</w>": 570,
    "coriolan": 571,
    "warwick": 572,
    "being</w>": 573,
    "car": 574,
    "edward</w>": 575,
    "much</w>": 576,
    "serv": 577,
    "tw": 578,
    "g</w>": 579,
    "juli": 580,
    "know": 581,
    "ong</w>": 582,
    "see": 583,
    "speak</w>": 584,
    "co": 585,
    "cannot</w>": 586,
    "son</w>": 587,
    "hast": 588,
    "ks</w>": 589,
    "menen": 590,
    "nor": 591,
    "tra": 592,
    "tur": 593,
    "bes": 594,
    "noble</w>": 595,
    "d?</w>": 596,
    "tter</w>": 597,
    "'st</w>": 598,
    "kin": 599,
    "lady</w>": 600,
    "bol": 601,
    "iv": 602,
    "though</w>": 603,
    "as": 604,
    "s?</w>": 605,
    "secon": 606,
    "cur": 607,
    "less</w>": 608,
    "ay,</w>": 609,
    "bell": 610,
    "d!</w>": 611,
    "him,</w>": 612,
    "ty": 613,
    "me.</w>": 614,
    "second</w>": 615,
    "tter": 616,
    "god</w>": 617,
    "romeo:</w>": 618,
    "t;</w>": 619,
    "th:</w>": 620,
    "been</w>": 621,
    "ee": 622,
    "en:</w>": 623,
    "hou": 624,
    "tor": 625,
    "wom": 626,
    "who": 627,
    "cla": 628,
    "fin": 629,
    "menenius:</w>": 630,
    "bea": 631,
    "ge": 632,
    "before</w>": 633,
    "hol": 634,
    "will": 635,
    "against</w>": 636,
    "ct</w>": 637,
    "it.</w>": 638,
    "isa": 639,
    "ness</w>": 640,
    "petruchio:</w>": 641,
    "liv": 642,
    "ound</w>": 643,
    "far": 644,
    "ho": 645,
    "llow": 646,
    "no,</w>": 647,
    "tri": 648,
    "ul": 649,
    "'d,</w>": 650,
    "ers</w>": 651,
    "him.</w>": 652,
    "pea": 653,
    "es.</w>": 654,
    "father": 655,
    "new": 656,
    "sweet</w>": 657,
    "nur": 658,
    "sor": 659,
    "coriolanus:</w>": 660,
    "ed.</w>": 661,
    "er,</w>": 662,
    "fair</w>": 663,
    "on,</w>": 664,
    "ate</w>": 665,
    "clar": 666,
    "great</w>": 667,
    "it,</w>": 668,
    "poor</w>": 669,
    "wif": 670,
    "crow": 671,
    "foo": 672,
    "hast</w>": 673,
    "man:</w>": 674,
    "us,</w>": 675,
    "dr": 676,
    "you.</w>": 677,
    "eng": 678,
    "th.</w>": 679,
    "bloo": 680,
    "look</w>": 681,
    "men</w>": 682,
    "sea": 683,
    "thus</w>": 684,
    "citi": 685,
    "ham": 686,
    "row</w>": 687,
    "red</w>": 688,
    "that": 689,
    "till</w>": 690,
    "wher": 691,
    "buck": 692,
    "call</w>": 693,
    "citiz": 694,
    "gri": 695,
    "ble": 696,
    "id</w>": 697,
    "ina:</w>": 698,
    "shi": 699,
    "too": 700,
    "tran": 701,
    "both</w>": 702,
    "dau": 703,
    "gon": 704,
    "mill": 705,
    "not,</w>": 706,
    "ys</w>": 707,
    "your": 708,
    "boling": 709,
    "bolingbro": 710,
    "nay,</w>": 711,
    "even</w>": 712,
    "iii": 713,
    "iii:</w>": 714,
    "ings</w>": 715,
    "what,</w>": 716,
    "y!</w>": 717,
    "'er</w>": 718,
    "cou": 719,
    "cour": 720,
    "ely</w>": 721,
    "tun": 722,
    "'t</w>": 723,
    "comes</w>": 724,
    "ef": 725,
    "off": 726,
    "se.</w>": 727,
    "why</w>": 728,
    "whose</w>": 729,
    "with": 730,
    "ant</w>": 731,
    "ence:</w>": 732,
    "many</w>": 733,
    "ster</w>": 734,
    "than": 735,
    "y?</w>": 736,
    "ever</w>": 737,
    "isabell": 738,
    "se:</w>": 739,
    "sla": 740,
    "them": 741,
    "ath": 742,
    "ded</w>": 743,
    "ge,</w>": 744,
    "leon": 745,
    "leave</w>": 746,
    "leont": 747,
    "mur": 748,
    "bucking": 749,
    "fl": 750,
    "tho": 751,
    "to-": 752,
    "end</w>": 753,
    "fear": 754,
    "ongu": 755,
    "pit": 756,
    "tongu": 757,
    "dst</w>": 758,
    "im": 759,
    "isabella:</w>": 760,
    "pow": 761,
    "pur": 762,
    "swor": 763,
    "wel": 764,
    "bear</w>": 765,
    "hel": 766,
    "ish": 767,
    "stand</w>": 768,
    "leontes:</w>": 769,
    "lie": 770,
    "ment": 771,
    "so,</w>": 772,
    "sic": 773,
    "tch": 774,
    "dly</w>": 775,
    "juliet:</w>": 776,
    "l,</w>": 777,
    "sle": 778,
    "those</w>": 779,
    "unto</w>": 780,
    "father</w>": 781,
    "goo": 782,
    "mio:</w>": 783,
    "youn": 784,
    "n,</w>": 785,
    "trani": 786,
    "bri": 787,
    "chil": 788,
    "day</w>": 789,
    "marci": 790,
    "angel": 791,
    "bur": 792,
    "cal": 793,
    "ght,</w>": 794,
    "luci": 795,
    "then,</w>": 796,
    "wr": 797,
    "pray</w>": 798,
    "vol": 799,
    "ance</w>": 800,
    "heart</w>": 801,
    "kes</w>": 802,
    "le,</w>": 803,
    "litt": 804,
    "pas": 805,
    "wat": 806,
    "ding</w>": 807,
    "in,</w>": 808,
    "beg": 809,
    "t?</w>": 810,
    "ing.</w>": 811,
    "mean": 812,
    "win": 813,
    "hop": 814,
    "margar": 815,
    "sicinius:</w>": 816,
    "capu": 817,
    "ment</w>": 818,
    "nes": 819,
    "set</w>": 820,
    "vir": 821,
    "capule": 822,
    "str": 823,
    "could</w>": 824,
    "cious</w>": 825,
    "eli": 826,
    "happ": 827,
    "oul</w>": 828,
    "clif": 829,
    "camill": 830,
    "put</w>": 831,
    "ting</w>": 832,
    "thr": 833,
    "abe": 834,
    "me;</w>": 835,
    "ve,</w>": 836,
    "ben": 837,
    "bolingbrok": 838,
    "den": 839,
    "er.</w>": 840,
    "es;</w>": 841,
    "heaven": 842,
    "honour": 843,
    "lucio:</w>": 844,
    "murder": 845,
    "wo": 846,
    "ap": 847,
    "blood</w>": 848,
    "ces</w>": 849,
    "cause</w>": 850,
    "iv:</w>": 851,
    "bus": 852,
    "eliz": 853,
    "elizabe": 854,
    "h,</w>": 855,
    "hom": 856,
    "sub": 857,
    "cont": 858,
    "et,</w>": 859,
    "hus": 860,
    "kne": 861,
    "night": 862,
    "qui": 863,
    "athar": 864,
    "ch,</w>": 865,
    "death</w>": 866,
    "kathar": 867,
    "o'</w>": 868,
    "pti": 869,
    "say,</w>": 870,
    "therefore</w>": 871,
    "bid</w>": 872,
    "brother": 873,
    "llow</w>": 874,
    "soul": 875,
    "true</w>": 876,
    "two</w>": 877,
    "arm": 878,
    "elizabeth:</w>": 879,
    "ough</w>": 880,
    "ry,</w>": 881,
    "ree</w>": 882,
    "sol": 883,
    "since</w>": 884,
    "whom</w>": 885,
    "better</w>": 886,
    "brother</w>": 887,
    "little</w>": 888,
    "mada": 889,
    "name</w>": 890,
    "pom": 891,
    "roy": 892,
    "t!</w>": 893,
    "ved</w>": 894,
    "at,</w>": 895,
    "bru": 896,
    "buckingham": 897,
    "comp": 898,
    "hold</w>": 899,
    "spi": 900,
    "st:</w>": 901,
    "dou": 902,
    "dra": 903,
    "ki": 904,
    "peop": 905,
    "provo": 906,
    "son,</w>": 907,
    "but,</w>": 908,
    "fare": 909,
    "fortun": 910,
    "master": 911,
    "might</w>": 912,
    "tal": 913,
    "bor": 914,
    "ck,</w>": 915,
    "drea": 916,
    "el</w>": 917,
    "life</w>": 918,
    "stres": 919,
    "warwick:</w>": 920,
    "bapti": 921,
    "i,</w>": 922,
    "mis": 923,
    "nothing</w>": 924,
    "tear": 925,
    "ts,</w>": 926,
    "capulet:</w>": 927,
    "ce;</w>": 928,
    "citizen:</w>": 929,
    "fai": 930,
    "gru": 931,
    "ii:</w>": 932,
    "ll,</w>": 933,
    "nat": 934,
    "sun": 935,
    "way</w>": 936,
    "em": 937,
    "fear</w>": 938,
    "horten": 939,
    "hortensi": 940,
    "ke,</w>": 941,
    "keep</w>": 942,
    "ought</w>": 943,
    "where": 944,
    "every</w>": 945,
    "ghter": 946,
    "king,</w>": 947,
    "still</w>": 948,
    ",--</w>": 949,
    "tes": 950,
    "bring</w>": 951,
    "rep": 952,
    "gentle</w>": 953,
    "ly,</w>": 954,
    "lad": 955,
    "y's</w>": 956,
    "sper": 957,
    "tus:</w>": 958,
    "umber": 959,
    "ant:</w>": 960,
    "bolingbroke:</w>": 961,
    "friar</w>": 962,
    "gen": 963,
    "va": 964,
    "led</w>": 965,
    "man,</w>": 966,
    "spo": 967,
    "stri": 968,
    "tim": 969,
    "answ": 970,
    "cra": 971,
    "ff": 972,
    "int</w>": 973,
    "long</w>": 974,
    "sur": 975,
    "tow": 976,
    "brutus:</w>": 977,
    "buckingham:</w>": 978,
    "go,</w>": 979,
    "grace</w>": 980,
    "into</w>": 981,
    "mistres": 982,
    "nurse:</w>": 983,
    "sig": 984,
    "thir": 985,
    "young</w>": 986,
    "ano": 987,
    "bear": 988,
    "cha": 989,
    "sure</w>": 990,
    "that's</w>": 991,
    "tranio:</w>": 992,
    "worl": 993,
    "bar": 994,
    "clo": 995,
    "i'</w>": 996,
    "je": 997,
    "self,</w>": 998,
    "speak": 999,
    "angelo:</w>": 1000,
    "dar": 1001,
    "fal": 1002,
    "find</w>": 1003,
    "margaret:</w>": 1004,
    "once</w>": 1005,
    "stra": 1006,
    "ced</w>": 1007,
    "came</w>": 1008,
    "comfor": 1009,
    "dear</w>": 1010,
    "ds.</w>": 1011,
    "dost</w>": 1012,
    "inde": 1013,
    "le:</w>": 1014,
    "myself</w>": 1015,
    "ses</w>": 1016,
    "ten</w>": 1017,
    "conf": 1018,
    "ence,</w>": 1019,
    "bal": 1020,
    "cre": 1021,
    "cliffor": 1022,
    "down</w>": 1023,
    "escal": 1024,
    "h</w>": 1025,
    "let's</w>": 1026,
    "lla": 1027,
    "marri": 1028,
    "stru": 1029,
    "that,</w>": 1030,
    "udi": 1031,
    "done</w>": 1032,
    "else</w>": 1033,
    "honour</w>": 1034,
    "les</w>": 1035,
    "offi": 1036,
    "poli": 1037,
    "pompe": 1038,
    "prince</w>": 1039,
    "stay</w>": 1040,
    "voi": 1041,
    "don</w>": 1042,
    "down": 1043,
    "full</w>": 1044,
    "live</w>": 1045,
    "makes</w>": 1046,
    "off</w>": 1047,
    "ps</w>": 1048,
    "paul": 1049,
    "prosper": 1050,
    "star": 1051,
    "thous": 1052,
    "and,</w>": 1053,
    "ving</w>": 1054,
    "what's</w>": 1055,
    "chang": 1056,
    "eyes</w>": 1057,
    "ft</w>": 1058,
    "fidi": 1059,
    "ll'd</w>": 1060,
    "me:</w>": 1061,
    "north": 1062,
    "some": 1063,
    "wea": 1064,
    "app": 1065,
    "banish": 1066,
    "death,</w>": 1067,
    "has</w>": 1068,
    "ity</w>": 1069,
    "katharina:</w>": 1070,
    "law": 1071,
    "mem": 1072,
    "mercu": 1073,
    "thought</w>": 1074,
    "year": 1075,
    "best</w>": 1076,
    "baptist": 1077,
    "besee": 1078,
    "dow": 1079,
    "hand</w>": 1080,
    "jes": 1081,
    "long": 1082,
    "me?</w>": 1083,
    "one,</w>": 1084,
    "s'</w>": 1085,
    "hasting": 1086,
    "tre": 1087,
    "turn</w>": 1088,
    "ala": 1089,
    "aufidi": 1090,
    "claudi": 1091,
    "doub": 1092,
    "father,</w>": 1093,
    "gracious</w>": 1094,
    "heard</w>": 1095,
    "love,</w>": 1096,
    "northumber": 1097,
    "ty,</w>": 1098,
    "am": 1099,
    "away</w>": 1100,
    "bla": 1101,
    "din": 1102,
    "escalus:</w>": 1103,
    "he's</w>": 1104,
    "le.</w>": 1105,
    "n'd</w>": 1106,
    "part</w>": 1107,
    "thou,</w>": 1108,
    "tion,</w>": 1109,
    "wilt</w>": 1110,
    "duch": 1111,
    "eig": 1112,
    "here,</w>": 1113,
    "lord.</w>": 1114,
    "pati": 1115,
    "please</w>": 1116,
    "show</w>": 1117,
    "thine</w>": 1118,
    "about</w>": 1119,
    "death": 1120,
    "hour": 1121,
    "il</w>": 1122,
    "night</w>": 1123,
    "te,</w>": 1124,
    "tol": 1125,
    "trea": 1126,
    "us.</w>": 1127,
    "daughter": 1128,
    "el:</w>": 1129,
    "fec": 1130,
    "iz": 1131,
    "men,</w>": 1132,
    "northumberlan": 1133,
    "royal</w>": 1134,
    "sing</w>": 1135,
    "won": 1136,
    "fellow": 1137,
    "hang": 1138,
    "look": 1139,
    "ms</w>": 1140,
    "monta": 1141,
    "montagu": 1142,
    "rest</w>": 1143,
    "spe": 1144,
    "trait": 1145,
    "virtu": 1146,
    "dg": 1147,
    "duchess</w>": 1148,
    "fur": 1149,
    "third</w>": 1150,
    "usi": 1151,
    "ve": 1152,
    "well.</w>": 1153,
    ",--": 1154,
    "camillo:</w>": 1155,
    "d-": 1156,
    "dd": 1157,
    "deli": 1158,
    "deser": 1159,
    "forth</w>": 1160,
    "n.</w>": 1161,
    "remem": 1162,
    "vi:</w>": 1163,
    "villa": 1164,
    "world</w>": 1165,
    "after</w>": 1166,
    "each</w>": 1167,
    "fla": 1168,
    "fair": 1169,
    "gran": 1170,
    "happy</w>": 1171,
    "lar": 1172,
    "ort</w>": 1173,
    "sent</w>": 1174,
    "senat": 1175,
    "shalt</w>": 1176,
    "st.</w>": 1177,
    "temp": 1178,
    "thousand</w>": 1179,
    "voli": 1180,
    "we'll</w>": 1181,
    "benvoli": 1182,
    "c</w>": 1183,
    "cer": 1184,
    "cri": 1185,
    "ce!</w>": 1186,
    "edward:</w>": 1187,
    "exe": 1188,
    "hun": 1189,
    "mes": 1190,
    "master</w>": 1191,
    "ning</w>": 1192,
    "ough": 1193,
    "polix": 1194,
    "polixen": 1195,
    "ros": 1196,
    "autol": 1197,
    "autoly": 1198,
    "autolyc": 1199,
    "baptista:</w>": 1200,
    "beseech</w>": 1201,
    "devi": 1202,
    "hortensio:</w>": 1203,
    "only</w>": 1204,
    "prove</w>": 1205,
    "sover": 1206,
    "sovereig": 1207,
    "ther.</w>": 1208,
    "clarence:</w>": 1209,
    "cominius:</w>": 1210,
    "epher": 1211,
    "fran": 1212,
    "ise</w>": 1213,
    "none</w>": 1214,
    "on.</w>": 1215,
    "prou": 1216,
    "reven": 1217,
    "shepher": 1218,
    "sit</w>": 1219,
    "soldi": 1220,
    "tion.</w>": 1221,
    "autolycus:</w>": 1222,
    "bow": 1223,
    "busin": 1224,
    "che": 1225,
    "comm": 1226,
    "ed:</w>": 1227,
    "holy</w>": 1228,
    "house</w>": 1229,
    "ins</w>": 1230,
    "life,</w>": 1231,
    "vy</w>": 1232,
    "wrong": 1233,
    "xt</w>": 1234,
    ".'</w>": 1235,
    "bian": 1236,
    "fol": 1237,
    "ghter</w>": 1238,
    "justi": 1239,
    "mai": 1240,
    "pardon</w>": 1241,
    "provost:</w>": 1242,
    "show": 1243,
    "sir.</w>": 1244,
    "while</w>": 1245,
    "'d.</w>": 1246,
    "bit": 1247,
    "boo": 1248,
    "clown": 1249,
    "father's</w>": 1250,
    "hum": 1251,
    "hope</w>": 1252,
    "husban": 1253,
    "meet</w>": 1254,
    "over": 1255,
    "prom": 1256,
    "rather</w>": 1257,
    "sion</w>": 1258,
    "son:</w>": 1259,
    "stran": 1260,
    "thee.</w>": 1261,
    "to-mor": 1262,
    "woman": 1263,
    "yi": 1264,
    "benvolio:</w>": 1265,
    "clown:</w>": 1266,
    "cousin": 1267,
    "die</w>": 1268,
    "e-": 1269,
    "head</w>": 1270,
    "high": 1271,
    "lord:</w>": 1272,
    "ns</w>": 1273,
    "or,</w>": 1274,
    "self.</w>": 1275,
    "thank</w>": 1276,
    "tongue</w>": 1277,
    "withou": 1278,
    "ef</w>": 1279,
    "grumio:</w>": 1280,
    "kis": 1281,
    "laur": 1282,
    "madam,</w>": 1283,
    "murderer:</w>": 1284,
    "prospero:</w>": 1285,
    "right</w>": 1286,
    "weep": 1287,
    "word</w>": 1288,
    "beau": 1289,
    "ce?</w>": 1290,
    "then": 1291,
    "ess,</w>": 1292,
    "fore,</w>": 1293,
    "gremio:</w>": 1294,
    "her,</w>": 1295,
    "lucentio:</w>": 1296,
    "mercutio:</w>": 1297,
    "nei": 1298,
    "pos": 1299,
    "power</w>": 1300,
    "spiri": 1301,
    "there's</w>": 1302,
    "under": 1303,
    "wan": 1304,
    "within</w>": 1305,
    "ber</w>": 1306,
    "eld</w>": 1307,
    "eds</w>": 1308,
    "ire</w>": 1309,
    "land</w>": 1310,
    "ly.</w>": 1311,
    "lies</w>": 1312,
    "lieve</w>": 1313,
    "lords,</w>": 1314,
    "sin</w>": 1315,
    "said</w>": 1316,
    "save</w>": 1317,
    "servant:</w>": 1318,
    "this,</w>": 1319,
    "volum": 1320,
    "without</w>": 1321,
    "ag": 1322,
    "ate,</w>": 1323,
    "by:</w>": 1324,
    "de,</w>": 1325,
    "ei": 1326,
    "ed;</w>": 1327,
    "hal": 1328,
    "mea": 1329,
    "o'": 1330,
    "servi": 1331,
    "serving": 1332,
    "subje": 1333,
    "ter,</w>": 1334,
    "three</w>": 1335,
    "worthy</w>": 1336,
    "a,</w>": 1337,
    "bon": 1338,
    "bet": 1339,
    "dang": 1340,
    "help</w>": 1341,
    "mean</w>": 1342,
    "merc": 1343,
    "paulina:</w>": 1344,
    "polixenes:</w>": 1345,
    "pompey:</w>": 1346,
    "soul</w>": 1347,
    "se;</w>": 1348,
    "send</w>": 1349,
    "sir;</w>": 1350,
    "tain": 1351,
    "tain</w>": 1352,
    "under</w>": 1353,
    "age</w>": 1354,
    "aum": 1355,
    "aumer": 1356,
    "believe</w>": 1357,
    "childr": 1358,
    "p,</w>": 1359,
    "run": 1360,
    "senator": 1361,
    "signi": 1362,
    "so.</w>": 1363,
    "tou": 1364,
    "volumni": 1365,
    "ward</w>": 1366,
    "words</w>": 1367,
    "ying</w>": 1368,
    ",'</w>": 1369,
    "answer</w>": 1370,
    "b</w>": 1371,
    "brother,</w>": 1372,
    "fall</w>": 1373,
    "follow": 1374,
    "gr": 1375,
    "gener": 1376,
    "ght.</w>": 1377,
    "hastings:</w>": 1378,
    "himself</w>": 1379,
    "kind": 1380,
    "lear": 1381,
    "musi": 1382,
    "ne'er</w>": 1383,
    "queen": 1384,
    "shor": 1385,
    "toge": 1386,
    "val": 1387,
    "volumnia:</w>": 1388,
    "ah,</w>": 1389,
    "col": 1390,
    "ds:</w>": 1391,
    "daughter</w>": 1392,
    "fre": 1393,
    "gg": 1394,
    "grow": 1395,
    "kind</w>": 1396,
    "left</w>": 1397,
    "ll.</w>": 1398,
    "mother": 1399,
    "pt</w>": 1400,
    "saw</w>": 1401,
    "seng": 1402,
    "servingman:</w>": 1403,
    "them,</w>": 1404,
    "thought": 1405,
    "centi": 1406,
    "countr": 1407,
    "day,</w>": 1408,
    "foul</w>": 1409,
    "gaun": 1410,
    "him;</w>": 1411,
    "ken</w>": 1412,
    "laurence:</w>": 1413,
    "lls</w>": 1414,
    "messeng": 1415,
    "not.</w>": 1416,
    "o.</w>": 1417,
    "plu": 1418,
    "stor": 1419,
    "swear</w>": 1420,
    "t-": 1421,
    "ty.</w>": 1422,
    "tybal": 1423,
    "wre": 1424,
    "wife</w>": 1425,
    "another</w>": 1426,
    "back</w>": 1427,
    "bion": 1428,
    "ck'd</w>": 1429,
    "ent.</w>": 1430,
    "flor": 1431,
    "ks,</w>": 1432,
    "majes": 1433,
    "northumberland:</w>": 1434,
    "sil": 1435,
    "tly</w>": 1436,
    "tal</w>": 1437,
    "thy": 1438,
    "'t.</w>": 1439,
    "anne": 1440,
    "be,</w>": 1441,
    "because</w>": 1442,
    "bionde": 1443,
    "biondell": 1444,
    "bloody</w>": 1445,
    "does</w>": 1446,
    "friends</w>": 1447,
    "hence</w>": 1448,
    "joh": 1449,
    "joy</w>": 1450,
    "ken": 1451,
    "mother</w>": 1452,
    "one:</w>": 1453,
    "sl": 1454,
    "thing": 1455,
    "things</w>": 1456,
    "towar": 1457,
    "van": 1458,
    "warran": 1459,
    "bat": 1460,
    "cates": 1461,
    "comman": 1462,
    "ers,</w>": 1463,
    "fet": 1464,
    "here": 1465,
    "him:</w>": 1466,
    "oa": 1467,
    "purpo": 1468,
    "this": 1469,
    "therefore,</w>": 1470,
    "tit": 1471,
    "unc": 1472,
    "wer": 1473,
    "you?</w>": 1474,
    "all,</w>": 1475,
    "anne:</w>": 1476,
    "bianca": 1477,
    "cian": 1478,
    "disp": 1479,
    "elo": 1480,
    "here's</w>": 1481,
    "marry,</w>": 1482,
    "mistress</w>": 1483,
    "news</w>": 1484,
    "ste": 1485,
    "told</w>": 1486,
    "again</w>": 1487,
    "crea": 1488,
    "ctor": 1489,
    "ceiv": 1490,
    "fea": 1491,
    "faul": 1492,
    "gla": 1493,
    "giv": 1494,
    "he,</w>": 1495,
    "hermi": 1496,
    "norfol": 1497,
    "peace</w>": 1498,
    "pray": 1499,
    "quar": 1500,
    "ses": 1501,
    "sure": 1502,
    "through</w>": 1503,
    "times</w>": 1504,
    "warwick</w>": 1505,
    "'twas</w>": 1506,
    "ari": 1507,
    "cei": 1508,
    "death.</w>": 1509,
    "false</w>": 1510,
    "floriz": 1511,
    "follow</w>": 1512,
    "got</w>": 1513,
    "how": 1514,
    "high</w>": 1515,
    "ine</w>": 1516,
    "l:</w>": 1517,
    "lie</w>": 1518,
    "op</w>": 1519,
    "pen": 1520,
    "pardon": 1521,
    "present</w>": 1522,
    "s'd</w>": 1523,
    "soun": 1524,
    "signior</w>": 1525,
    "woun": 1526,
    "wri": 1527,
    "you;</w>": 1528,
    "atten": 1529,
    "either</w>": 1530,
    "face</w>": 1531,
    "flow": 1532,
    "form": 1533,
    "fortune</w>": 1534,
    "god,</w>": 1535,
    "mind</w>": 1536,
    "more,</w>": 1537,
    "obe": 1538,
    "one.</w>": 1539,
    "ph": 1540,
    "river": 1541,
    "see,</w>": 1542,
    "twent": 1543,
    "up,</w>": 1544,
    "body</w>": 1545,
    "break</w>": 1546,
    "entrea": 1547,
    "gentleman:</w>": 1548,
    "instru": 1549,
    "k.</w>": 1550,
    "kill</w>": 1551,
    "l.</w>": 1552,
    "ling</w>": 1553,
    "ned</w>": 1554,
    "plan": 1555,
    "ren": 1556,
    "ship</w>": 1557,
    "warwick,</w>": 1558,
    "again.</w>": 1559,
    "angelo": 1560,
    "brought</w>": 1561,
    "ch'd</w>": 1562,
    "chmon": 1563,
    "choo": 1564,
    "come.</w>": 1565,
    "dear": 1566,
    "est,</w>": 1567,
    "dam": 1568,
    "englan": 1569,
    "hands</w>": 1570,
    "ini": 1571,
    "ke.</w>": 1572,
    "king.</w>": 1573,
    "lish</w>": 1574,
    "lives</w>": 1575,
    "me!</w>": 1576,
    "pe</w>": 1577,
    "resol": 1578,
    "richmon": 1579,
    "romeo</w>": 1580,
    "selv": 1581,
    "sleep": 1582,
    "sorrow</w>": 1583,
    "state</w>": 1584,
    "strai": 1585,
    "talk</w>": 1586,
    "wife,</w>": 1587,
    "you:</w>": 1588,
    "aufidius:</w>": 1589,
    "consu": 1590,
    "dom</w>": 1591,
    "def": 1592,
    "dead</w>": 1593,
    "dish": 1594,
    "draw</w>": 1595,
    "emi": 1596,
    "edward's</w>": 1597,
    "florizel:</w>": 1598,
    "ged</w>": 1599,
    "lord": 1600,
    "marcius:</w>": 1601,
    "messenger:</w>": 1602,
    "need</w>": 1603,
    "swa": 1604,
    "tears</w>": 1605,
    "ve.</w>": 1606,
    "woo": 1607,
    "will,</w>": 1608,
    "bir": 1609,
    "ble,</w>": 1610,
    "cau": 1611,
    "canst</w>": 1612,
    "den</w>": 1613,
    "didst</w>": 1614,
    "enter": 1615,
    "execu": 1616,
    "hour</w>": 1617,
    "hand,</w>": 1618,
    "heavy</w>": 1619,
    "ian": 1620,
    "lest</w>": 1621,
    "mou": 1622,
    "ment,</w>": 1623,
    "ox": 1624,
    "play</w>": 1625,
    "richard:</w>": 1626,
    "sof": 1627,
    "tribu": 1628,
    "wear": 1629,
    "yea": 1630,
    "!'</w>": 1631,
    "anti": 1632,
    "ct": 1633,
    "ch.</w>": 1634,
    "comfort</w>": 1635,
    "fan": 1636,
    "for,</w>": 1637,
    "grief": 1638,
    "having</w>": 1639,
    "ing:</w>": 1640,
    "issu": 1641,
    "lew": 1642,
    "means</w>": 1643,
    "requ": 1644,
    "ite</w>": 1645,
    "seen</w>": 1646,
    "senator:</w>": 1647,
    "she's</w>": 1648,
    "sir</w>": 1649,
    "wish</w>": 1650,
    "abo": 1651,
    "ard</w>": 1652,
    "blood,</w>": 1653,
    "change</w>": 1654,
    "citizen": 1655,
    "der,</w>": 1656,
    "faith,</w>": 1657,
    "gol": 1658,
    "god's</w>": 1659,
    "john</w>": 1660,
    "know,</w>": 1661,
    "light": 1662,
    "lly</w>": 1663,
    "lord;</w>": 1664,
    "man.</w>": 1665,
    "ob": 1666,
    "ouldst</w>": 1667,
    "read</w>": 1668,
    "she": 1669,
    "shepherd:</w>": 1670,
    "sorrow": 1671,
    "streng": 1672,
    "them.</w>": 1673,
    "thinks</w>": 1674,
    "wit": 1675,
    "you'll</w>": 1676,
    "'twere</w>": 1677,
    "able</w>": 1678,
    "back": 1679,
    "biondello:</w>": 1680,
    "cry</w>": 1681,
    "compan": 1682,
    "done,</w>": 1683,
    "frow": 1684,
    "friends,</w>": 1685,
    "her.</w>": 1686,
    "it:</w>": 1687,
    "o!</w>": 1688,
    "o'er": 1689,
    "oxfor": 1690,
    "poin": 1691,
    "qua": 1692,
    "ready</w>": 1693,
    "sca": 1694,
    "scor": 1695,
    "ss</w>": 1696,
    "seem</w>": 1697,
    "shame</w>": 1698,
    "suc": 1699,
    "suff": 1700,
    "sun</w>": 1701,
    "time,</w>": 1702,
    "years</w>": 1703,
    "all.</w>": 1704,
    "bosom": 1705,
    "crown</w>": 1706,
    "do,</w>": 1707,
    "friar": 1708,
    "gods</w>": 1709,
    "guil": 1710,
    "half</w>": 1711,
    "is:</w>": 1712,
    "knows</w>": 1713,
    "live,</w>": 1714,
    "looks</w>": 1715,
    "matter": 1716,
    "mother,</w>": 1717,
    "natu": 1718,
    "peace,</w>": 1719,
    "people</w>": 1720,
    "pity</w>": 1721,
    "pray,</w>": 1722,
    "proud</w>": 1723,
    "res</w>": 1724,
    "same</w>": 1725,
    "says</w>": 1726,
    "son.</w>": 1727,
    "stre": 1728,
    "stu": 1729,
    "there,</w>": 1730,
    "this?</w>": 1731,
    "ties</w>": 1732,
    "twenty</w>": 1733,
    "unless</w>": 1734,
    "welcome</w>": 1735,
    "yet,</w>": 1736,
    "band</w>": 1737,
    "clou": 1738,
    "common</w>": 1739,
    "des</w>": 1740,
    "dge</w>": 1741,
    "ess.</w>": 1742,
    "fra": 1743,
    "free</w>": 1744,
    "hate</w>": 1745,
    "heaven,</w>": 1746,
    "indeed,</w>": 1747,
    "ity,</w>": 1748,
    "ls</w>": 1749,
    "mark</w>": 1750,
    "mil": 1751,
    "o's</w>": 1752,
    "queen,</w>": 1753,
    "roo": 1754,
    "remember</w>": 1755,
    "sister": 1756,
    "sirra": 1757,
    "tro": 1758,
    "light</w>": 1759,
    "vent": 1760,
    "vols": 1761,
    "wal": 1762,
    "which,</w>": 1763,
    "widow": 1764,
    "york</w>": 1765,
    "'t,</w>": 1766,
    "aumerle:</w>": 1767,
    "batt": 1768,
    "bed</w>": 1769,
    "cold</w>": 1770,
    "ceive</w>": 1771,
    "cut</w>": 1772,
    "dy,</w>": 1773,
    "evi": 1774,
    "ond</w>": 1775,
    "ge.</w>": 1776,
    "gone</w>": 1777,
    "husband</w>": 1778,
    "k'd</w>": 1779,
    "ked</w>": 1780,
    "kno": 1781,
    "cks</w>": 1782,
    "kiss</w>": 1783,
    "known</w>": 1784,
    "lin": 1785,
    "loved</w>": 1786,
    "might": 1787,
    "ness,</w>": 1788,
    "night,</w>": 1789,
    "on:</w>": 1790,
    "sati": 1791,
    "something</w>": 1792,
    "sons</w>": 1793,
    "speak,</w>": 1794,
    "speak.</w>": 1795,
    "sweet": 1796,
    "tender</w>": 1797,
    "thri": 1798,
    "tions</w>": 1799,
    "wixt</w>": 1800,
    "advi": 1801,
    "affec": 1802,
    "again,</w>": 1803,
    "beat</w>": 1804,
    "cho": 1805,
    "claudio:</w>": 1806,
    "dare</w>": 1807,
    "desire</w>": 1808,
    "dream": 1809,
    "enemi": 1810,
    "es?</w>": 1811,
    "first,</w>": 1812,
    "gentleman</w>": 1813,
    "it?</w>": 1814,
    "late</w>": 1815,
    "lanca": 1816,
    "lewis</w>": 1817,
    "lucenti": 1818,
    "mine,</w>": 1819,
    "offic": 1820,
    "pie": 1821,
    "place</w>": 1822,
    "scar": 1823,
    "sed,</w>": 1824,
    "bles": 1825,
    "selves</w>": 1826,
    "ship": 1827,
    "soon</w>": 1828,
    "spee": 1829,
    "st;</w>": 1830,
    "th;</w>": 1831,
    "to-morrow": 1832,
    "warrant</w>": 1833,
    "yield</w>": 1834,
    "acc": 1835,
    "born</w>": 1836,
    "care</w>": 1837,
    "cely</w>": 1838,
    "charge</w>": 1839,
    "clifford:</w>": 1840,
    "dita": 1841,
    "ed?</w>": 1842,
    "elbow": 1843,
    "enough": 1844,
    "es!</w>": 1845,
    "eye</w>": 1846,
    "ge:</w>": 1847,
    "glor": 1848,
    "grief</w>": 1849,
    "heart,</w>": 1850,
    "honour,</w>": 1851,
    "knew</w>": 1852,
    "life": 1853,
    "loving</w>": 1854,
    "ments</w>": 1855,
    "miran": 1856,
    "miranda": 1857,
    "name,</w>": 1858,
    "o?</w>": 1859,
    "out": 1860,
    "ours</w>": 1861,
    "procla": 1862,
    "quarre": 1863,
    "rema": 1864,
    "in.</w>": 1865,
    "sup": 1866,
    "sworn</w>": 1867,
    "tar": 1868,
    "get</w>": 1869,
    "usur": 1870,
    "well;</w>": 1871,
    "y-": 1872,
    "heav": 1873,
    "heaven</w>": 1874,
    "sk": 1875,
    "ze</w>": 1876,
    "brow": 1877,
    "become</w>": 1878,
    "betwe": 1879,
    "brave</w>": 1880,
    "brother's</w>": 1881,
    "chee": 1882,
    "cle,</w>": 1883,
    "cons": 1884,
    "de.</w>": 1885,
    "dro": 1886,
    "deep</w>": 1887,
    "dem": 1888,
    "draw": 1889,
    "e'er</w>": 1890,
    "eri": 1891,
    "ery</w>": 1892,
    "fav": 1893,
    "geor": 1894,
    "hermione:</w>": 1895,
    "in'd</w>": 1896,
    "love.</w>": 1897,
    "nar": 1898,
    "nature</w>": 1899,
    "pat": 1900,
    "por": 1901,
    "rome</w>": 1902,
    "sma": 1903,
    "seek</w>": 1904,
    "stands</w>": 1905,
    "tyran": 1906,
    "whil": 1907,
    "wretch": 1908,
    "yea,</w>": 1909,
    "al,</w>": 1910,
    "besi": 1911,
    "city</w>": 1912,
    "ction</w>": 1913,
    "cousin</w>": 1914,
    "cousin,</w>": 1915,
    "danger": 1916,
    "dire": 1917,
    "emp": 1918,
    "ever": 1919,
    "farewell,</w>": 1920,
    "fearful</w>": 1921,
    "gave</w>": 1922,
    "given</w>": 1923,
    "grave</w>": 1924,
    "hence,</w>": 1925,
    "im</w>": 1926,
    "imp": 1927,
    "in:</w>": 1928,
    "ir,</w>": 1929,
    "its</w>": 1930,
    "law</w>": 1931,
    "letter": 1932,
    "look'd</w>": 1933,
    "med</w>": 1934,
    "mow": 1935,
    "madam": 1936,
    "mann": 1937,
    "miranda:</w>": 1938,
    "night.</w>": 1939,
    "o'er</w>": 1940,
    "proce": 1941,
    "queen:</w>": 1942,
    "romeo,</w>": 1943,
    "say": 1944,
    "satis": 1945,
    "se!</w>": 1946,
    "sir?</w>": 1947,
    "tin": 1948,
    "too,</w>": 1949,
    "wear</w>": 1950,
    "welcome,</w>": 1951,
    "world,</w>": 1952,
    "x</w>": 1953,
    "'d;</w>": 1954,
    "gro": 1955,
    "by,</w>": 1956,
    "blow": 1957,
    "business</w>": 1958,
    "call": 1959,
    "catesby:</w>": 1960,
    "clarence</w>": 1961,
    "day.</w>": 1962,
    "fect</w>": 1963,
    "fight</w>": 1964,
    "friend</w>": 1965,
    "gone,</w>": 1966,
    "good,</w>": 1967,
    "hin": 1968,
    "head,</w>": 1969,
    "here?</w>": 1970,
    "herefor": 1971,
    "hither</w>": 1972,
    "house,</w>": 1973,
    "ious</w>": 1974,
    "ised</w>": 1975,
    "is't</w>": 1976,
    "liber": 1977,
    "mend</w>": 1978,
    "more.</w>": 1979,
    "mowbra": 1980,
    "ous,</w>": 1981,
    "past</w>": 1982,
    "pass</w>": 1983,
    "pluck</w>": 1984,
    "quick": 1985,
    "rat": 1986,
    "report</w>": 1987,
    "respe": 1988,
    "saf": 1989,
    "serve</w>": 1990,
    "stea": 1991,
    "stanle": 1992,
    "strike</w>": 1993,
    "supp": 1994,
    "try</w>": 1995,
    "thor": 1996,
    "took</w>": 1997,
    "trou": 1998,
    "trust</w>": 1999,
    "whe": 2000,
    "women</w>": 2001,
    "y'd</w>": 2002,
    "young": 2003,
    "all:</w>": 2004,
    "ance,</w>": 2005,
    "bound</w>": 2006,
    "bran": 2007,
    "baw": 2008,
    "cros": 2009,
    "cru": 2010,
    "cap": 2011,
    "ches</w>": 2012,
    "fro": 2013,
    "grey:</w>": 2014,
    "hoo": 2015,
    "ds;</w>": 2016,
    "home</w>": 2017,
    "honest</w>": 2018,
    "lon": 2019,
    "lost</w>": 2020,
    "mb": 2021,
    "med": 2022,
    "may": 2023,
    "marian": 2024,
    "offen": 2025,
    "om,</w>": 2026,
    "out,</w>": 2027,
    "ped": 2028,
    "prince,</w>": 2029,
    "sound</w>": 2030,
    "saint</w>": 2031,
    "seem": 2032,
    "so?</w>": 2033,
    "trem": 2034,
    "truth</w>": 2035,
    "well:</w>": 2036,
    "wife": 2037,
    "al.</w>": 2038,
    "away.</w>": 2039,
    "bli": 2040,
    "sh'd</w>": 2041,
    "bianca:</w>": 2042,
    "ces,</w>": 2043,
    "cle": 2044,
    "cted</w>": 2045,
    "cient</w>": 2046,
    "content</w>": 2047,
    "crown": 2048,
    "crown,</w>": 2049,
    "dest</w>": 2050,
    "days</w>": 2051,
    "drin": 2052,
    "edward,</w>": 2053,
    "enough</w>": 2054,
    "eyes,</w>": 2055,
    "fetch</w>": 2056,
    "gaunt:</w>": 2057,
    "henr": 2058,
    "inted</w>": 2059,
    "inten": 2060,
    "kna": 2061,
    "king's</w>": 2062,
    "le;</w>": 2063,
    "lling</w>": 2064,
    "look,</w>": 2065,
    "lord?</w>": 2066,
    "man's</w>": 2067,
    "marcius</w>": 2068,
    "married</w>": 2069,
    "near</w>": 2070,
    "open</w>": 2071,
    "perdita": 2072,
    "return</w>": 2073,
    "side</w>": 2074,
    "sts</w>": 2075,
    "tribun": 2076,
    "true,</w>": 2077,
    "vanta": 2078,
    "victor": 2079,
    "wil": 2080,
    "alas,</w>": 2081,
    "bre": 2082,
    "between</w>": 2083,
    "cham": 2084,
    "chri": 2085,
    "dle</w>": 2086,
    "dru": 2087,
    "dead,</w>": 2088,
    "deliver": 2089,
    "dishon": 2090,
    "exce": 2091,
    "ent,</w>": 2092,
    "f,</w>": 2093,
    "friend,</w>": 2094,
    "gue</w>": 2095,
    "hur": 2096,
    "hadst</w>": 2097,
    "hours</w>": 2098,
    "ima": 2099,
    "int": 2100,
    "judg": 2101,
    "keep": 2102,
    "liege,</w>": 2103,
    "mel": 2104,
    "miser": 2105,
    "move</w>": 2106,
    "neither</w>": 2107,
    "often</w>": 2108,
    "rever": 2109,
    "ried</w>": 2110,
    "right": 2111,
    "roman": 2112,
    "rome,</w>": 2113,
    "run</w>": 2114,
    "san": 2115,
    "sus": 2116,
    "sea</w>": 2117,
    "somer": 2118,
    "swear": 2119,
    "thre": 2120,
    "throw</w>": 2121,
    "tting</w>": 2122,
    "tty</w>": 2123,
    "vali": 2124,
    "war</w>": 2125,
    "wei": 2126,
    "who,</w>": 2127,
    "whilst</w>": 2128,
    "yourself</w>": 2129,
    "away,</w>": 2130,
    "bish": 2131,
    "ble.</w>": 2132,
    "cow": 2133,
    "chur": 2134,
    "cover": 2135,
    "ture</w>": 2136,
    "die.</w>": 2137,
    "doubt</w>": 2138,
    "down,</w>": 2139,
    "eper": 2140,
    "elbow:</w>": 2141,
    "fli": 2142,
    "fellow</w>": 2143,
    "fire</w>": 2144,
    "flatter": 2145,
    "force</w>": 2146,
    "gain": 2147,
    "go.</w>": 2148,
    "gover": 2149,
    "held</w>": 2150,
    "here.</w>": 2151,
    "ing;</w>": 2152,
    "larti": 2153,
    "lia:</w>": 2154,
    "myself,</w>": 2155,
    "pair</w>": 2156,
    "prithee,</w>": 2157,
    "princely</w>": 2158,
    "prof": 2159,
    "rivers:</w>": 2160,
    "se?</w>": 2161,
    "secre": 2162,
    "sel</w>": 2163,
    "shed</w>": 2164,
    "spa": 2165,
    "tch</w>": 2166,
    "ted,</w>": 2167,
    "us;</w>": 2168,
    "'d:</w>": 2169,
    "'s,</w>": 2170,
    "attend</w>": 2171,
    "beauty</w>": 2172,
    "buckingha": 2173,
    "cea": 2174,
    "cti": 2175,
    "chance</w>": 2176,
    "cked</w>": 2177,
    "clarence,</w>": 2178,
    "come;</w>": 2179,
    "condem": 2180,
    "counter": 2181,
    "dness</w>": 2182,
    "drun": 2183,
    "earl</w>": 2184,
    "el,</w>": 2185,
    "er'd</w>": 2186,
    "er?</w>": 2187,
    "prison": 2188,
    "face,</w>": 2189,
    "fles": 2190,
    "foot</w>": 2191,
    "gor": 2192,
    "have,</w>": 2193,
    "him?</w>": 2194,
    "indeed</w>": 2195,
    "keeper": 2196,
    "master,</w>": 2197,
    "men.</w>": 2198,
    "mercy</w>": 2199,
    "mighty</w>": 2200,
    "mortal</w>": 2201,
    "need": 2202,
    "next</w>": 2203,
    "omas</w>": 2204,
    "on;</w>": 2205,
    "ors</w>": 2206,
    "peti": 2207,
    "ratclif": 2208,
    "retur": 2209,
    "read": 2210,
    "rich</w>": 2211,
    "slan": 2212,
    "sli": 2213,
    "sy</w>": 2214,
    "slau": 2215,
    "soul,</w>": 2216,
    "sting</w>": 2217,
    "stoo": 2218,
    "sty</w>": 2219,
    "tell": 2220,
    "thomas</w>": 2221,
    "think,</w>": 2222,
    "to-morrow</w>": 2223,
    "trium": 2224,
    "tted</w>": 2225,
    "win</w>": 2226,
    "wise</w>": 2227,
    "other": 2228,
    "woman</w>": 2229,
    "worth</w>": 2230,
    "yiel": 2231,
    "'ld</w>": 2232,
    "0</w>": 2233,
    "appro": 2234,
    "ask</w>": 2235,
    "better": 2236,
    "call'd</w>": 2237,
    "children</w>": 2238,
    "day": 2239,
    "eth</w>": 2240,
    "entreat</w>": 2241,
    "four": 2242,
    "fres": 2243,
    "fie,</w>": 2244,
    "form</w>": 2245,
    "gs</w>": 2246,
    "general</w>": 2247,
    "gentlemen,</w>": 2248,
    "gir": 2249,
    "goes</w>": 2250,
    "groun": 2251,
    "grav": 2252,
    "grant</w>": 2253,
    "gui": 2254,
    "heart.</w>": 2255,
    "him!</w>": 2256,
    "hold,</w>": 2257,
    "home,</w>": 2258,
    "il,</w>": 2259,
    "justice</w>": 2260,
    "k:</w>": 2261,
    "kins": 2262,
    "lab": 2263,
    "mali": 2264,
    "marry</w>": 2265,
    "methinks</w>": 2266,
[...]
