{
  "num_merges": 8000,
  "end_of_word": "</w>",
  "marker_mode": "suffix",
  "strategy": "clean",
  "merges": [
    [
      "e",
      "</w>"
    ],
    [
      "t",
      "h"
    ],
    [
      ",",
      "</w>"
    ],
    [
      "t",
      "</w>"
    ],
    [
      "s",
      "</w>"
    ],
    [
      "d",
      "</w>"
    ],
    [
      "o",
      "u"
    ],
    [
      "a",
      "n"
    ],
    [
      "e",
      "r"
    ],
    [
      "i",
      "n"
    ],
    [
      "y",
      "</w>"
    ],
    [
      ":",
      "</w>"
    ],
    [
      "o",
      "r"
    ],
    [
      "e",
      "n"
    ],
    [
      "o",
      "</w>"
    ],
    [
      "a",
      "r"
    ],
    [
      ".",
      "</w>"
    ],
    [
      "o",
      "n"
    ],
    [
      "l",
      "l"
    ],
    [
      "th",
      "e</w>"
    ],
    [
      "h",
      "a"
    ],
    [
      "an",
      "d</w>"
    ],
    [
      "e",
      "s"
    ],
    [
      "i",
      "s</w>"
    ],
    [
      "y",
      "ou"
    ],
    [
      "f",
      "</w>"
    ],
    [
      "t",
      "o</w>"
    ],
    [
      "i",
      "</w>"
    ],
    [
      "in",
      "g"
    ],
    [
      "ll",
      "</w>"
    ],
    [
      "n",
      "o"
    ],
    [
      "w",
      "i"
    ],
    [
      "o",
      "m"
    ],
    [
      "e",
      "a"
    ],
    [
      "e",
      ",</w>"
    ],
    [
      "o",
      "f</w>"
    ],
    [
      "s",
      "t"
    ],
    [
      ";",
      "</w>"
    ],
    [
      "c",
      "h"
    ],
    [
      "er",
      "</w>"
    ],
    [
      "r",
      "</w>"
    ],
    [
      "f",
      "or"
    ],
    [
      "th",
      "</w>"
    ],
    [
      "m",
      "y</w>"
    ],
    [
      "a",
      "</w>"
    ],
    [
      "a",
      "t</w>"
    ],
    [
      "l",
      "i"
    ],
    [
      "in",
      "</w>"
    ],
    [
      "v",
      "e</w>"
    ],
    [
      "w",
      "h"
    ],
    [
      "ing",
      "</w>"
    ],
    [
      "o",
      "w"
    ],
    [
      "s",
      "e"
    ],
    [
      "t",
      "i"
    ],
    [
      "r",
      "i"
    ],
    [
      "r",
      "e"
    ],
    [
      "you",
      "</w>"
    ],
    [
      "th",
      "at</w>"
    ],
    [
      "?",
      "</w>"
    ],
    [
      "u",
      "s"
    ],
    [
      "th",
      "e"
    ],
    [
      "l",
      "e"
    ],
    [
      "en",
      "</w>"
    ],
    [
      "s",
      "h"
    ],
    [
      "b",
      "e"
    ],
    [
      "m",
      "a"
    ],
    [
      "!",
      "</w>"
    ],
    [
      "o",
      "o"
    ],
    [
      "b",
      "u"
    ],
    [
      "g",
      "h"
    ],
    [
      "d",
      ",</w>"
    ],
    [
      "no",
      "t</w>"
    ],
    [
      "r",
      "a"
    ],
    [
      "l",
      "a"
    ],
    [
      "th",
      "ou"
    ],
    [
      "for",
      "</w>"
    ],
    [
      "e",
      "ar"
    ],
    [
      "m",
      "</w>"
    ],
    [
      "wi",
      "th</w>"
    ],
    [
      "on",
      "</w>"
    ],
    [
      "s",
      "i"
    ],
    [
      "a",
      "s</w>"
    ],
    [
      "'",
      "s</w>"
    ],
    [
      "s",
      "t</w>"
    ],
    [
      "s",
      ",</w>"
    ],
    [
      "k",
      "e</w>"
    ],
    [
      "e",
      "d</w>"
    ],
    [
      "t",
      ",</w>"
    ],
    [
      "d",
      "i"
    ],
    [
      "m",
      "e</w>"
    ],
    [
      "h",
      "i"
    ],
    [
      "you",
      "r</w>"
    ],
    [
      "r",
      "o"
    ],
    [
      "y",
      ",</w>"
    ],
    [
      "l",
      "d</w>"
    ],
    [
      "b",
      "e</w>"
    ],
    [
      "i",
      "t</w>"
    ],
    [
      "an",
      "</w>"
    ],
    [
      "c",
      "om"
    ],
    [
      "e",
      "s</w>"
    ],
    [
      "h",
      "is</w>"
    ],
    [
      "o",
      ":</w>"
    ],
    [
      "u",
      "r"
    ],
    [
      "k",
      "</w>"
    ],
    [
      "u",
      "n"
    ],
    [
      "er",
      "e</w>"
    ],
    [
      "s",
      "a"
    ],
    [
      "ch",
      "</w>"
    ],
    [
      "c",
      "a"
    ],
    [
      "h",
      "e</w>"
    ],
    [
      "bu",
      "t</w>"
    ],
    [
      "ha",
      "ve</w>"
    ],
    [
      "f",
      "a"
    ],
    [
      "th",
      "is</w>"
    ],
    [
      "w",
      "e"
    ],
    [
      "e",
      ".</w>"
    ],
    [
      "thou",
      "</w>"
    ],
    [
      "c",
      "e</w>"
    ],
    [
      "l",
      "</w>"
    ],
    [
      "w",
      "ha"
    ],
    [
      "no",
      "w"
    ],
    [
      "t",
      "a"
    ],
    [
      "m",
      "i"
    ],
    [
      "th",
      "er"
    ],
    [
      "s",
      "ha"
    ],
    [
      "th",
      "y</w>"
    ],
    [
      "'",
      "d</w>"
    ],
    [
      "o",
      "l"
    ],
    [
      "or",
      "</w>"
    ],
    [
      "r",
      "om"
    ],
    [
      "s",
      "e</w>"
    ],
    [
      "l",
      "o"
    ],
    [
      "s",
      "p"
    ],
    [
      "f",
      "i"
    ],
    [
      "r",
      "u"
    ],
    [
      "l",
      "e</w>"
    ],
    [
      "ou",
      "r</w>"
    ],
    [
      "a",
      "t"
    ],
    [
      "e",
      "d"
    ],
    [
      "i",
      "t"
    ],
    [
      "r",
      "ea"
    ],
    [
      "d",
      "e"
    ],
    [
      "ou",
      "ld</w>"
    ],
    [
      "s",
      "u"
    ],
    [
      "l",
      "or"
    ],
    [
      "wi",
      "ll</w>"
    ],
    [
      "n",
      "e"
    ],
    [
      "t",
      "er"
    ],
    [
      "e",
      "l"
    ],
    [
      "wha",
      "t</w>"
    ],
    [
      "w",
      "ar"
    ],
    [
      "ow",
      "</w>"
    ],
    [
      "us",
      ":</w>"
    ],
    [
      "c",
      "on"
    ],
    [
      "s",
      "o</w>"
    ],
    [
      "b",
      "y</w>"
    ],
    [
      "m",
      "e"
    ],
    [
      "en",
      "t"
    ],
    [
      "c",
      "k"
    ],
    [
      "n",
      "</w>"
    ],
    [
      "q",
      "u"
    ],
    [
      "ar",
      "e</w>"
    ],
    [
      "c",
      "i"
    ],
    [
      "c",
      "e"
    ],
    [
      "v",
      "i"
    ],
    [
      "w",
      "or"
    ],
    [
      "m",
      "or"
    ],
    [
      "sha",
      "ll</w>"
    ],
    [
      "wh",
      "i"
    ],
    [
      "d",
      "a"
    ],
    [
      "i",
      "f</w>"
    ],
    [
      "v",
      "er"
    ],
    [
      "k",
      "ing</w>"
    ],
    [
      "w",
      "a"
    ],
    [
      "l",
      "y</w>"
    ],
    [
      "oo",
      "d</w>"
    ],
    [
      "d",
      "u"
    ],
    [
      "e",
      "t"
    ],
    [
      "u",
      "p"
    ],
    [
      "o",
      ",</w>"
    ],
    [
      "th",
      "er</w>"
    ],
    [
      "i",
      "r</w>"
    ],
    [
      "e",
      "t</w>"
    ],
    [
      "m",
      "an"
    ],
    [
      "p",
      "a"
    ],
    [
      "hi",
      "m</w>"
    ],
    [
      "p",
      "o"
    ],
    [
      "r",
      "es"
    ],
    [
      "m",
      "o"
    ],
    [
      "d",
      "o</w>"
    ],
    [
      "now",
      "</w>"
    ],
    [
      "h",
      "ear"
    ],
    [
      "n",
      "o</w>"
    ],
    [
      "h",
      "er"
    ],
    [
      "ou",
      "n"
    ],
    [
      "h",
      "er</w>"
    ],
    [
      "m",
      "ar"
    ],
    [
      "g",
      "a"
    ],
    [
      "gh",
      "t</w>"
    ],
    [
      "s",
      ".</w>"
    ],
    [
      "se",
      "l"
    ],
    [
      "f",
      "rom"
    ],
    [
      "from",
      "</w>"
    ],
    [
      "t",
      "e"
    ],
    [
      "b",
      "o"
    ],
    [
      "b",
      "a"
    ],
    [
      "es",
      "s</w>"
    ],
    [
      "d",
      "s</w>"
    ],
    [
      "p",
      "ro"
    ],
    [
      "si",
      "r"
    ],
    [
      "g",
      "o"
    ],
    [
      "hi",
      "m"
    ],
    [
      "g",
      "ood</w>"
    ],
    [
      "on",
      "e</w>"
    ],
    [
      "'",
      "</w>"
    ],
    [
      "b",
      "l"
    ],
    [
      "t",
      "o"
    ],
    [
      "d",
      "o"
    ],
    [
      "m",
      "en"
    ],
    [
      "'",
      "ll</w>"
    ],
    [
      "ou",
      "r"
    ],
    [
      "'",
      "t"
    ],
    [
      "d",
      ":</w>"
    ],
    [
      "d",
      ".</w>"
    ],
    [
      "es",
      "t</w>"
    ],
    [
      "r",
      "an"
    ],
    [
      "whi",
      "ch</w>"
    ],
    [
      "y",
      ".</w>"
    ],
    [
      "w",
      "as</w>"
    ],
    [
      "g",
      "i"
    ],
    [
      "on",
      "g"
    ],
    [
      "p",
      "</w>"
    ],
    [
      "e",
      ":</w>"
    ],
    [
      "u",
      "s</w>"
    ],
    [
      "d",
      "ea"
    ],
    [
      "ch",
      "ar"
    ],
    [
      "p",
      "ar"
    ],
    [
      "n",
      "a"
    ],
    [
      "the",
      "y</w>"
    ],
    [
      "w",
      "ould</w>"
    ],
    [
      "es",
      ",</w>"
    ],
    [
      "h",
      "ea"
    ],
    [
      "a",
      "ll</w>"
    ],
    [
      "s",
      ":</w>"
    ],
    [
      "gh",
      "t"
    ],
    [
      "l",
      "ea"
    ],
    [
      "y",
      ":</w>"
    ],
    [
      "s",
      "om"
    ],
    [
      "b",
      "ro"
    ],
    [
      "h",
      "ow</w>"
    ],
    [
      "f",
      "e"
    ],
    [
      "o",
      "f"
    ],
    [
      "th",
      "an</w>"
    ],
    [
      "a",
      ":</w>"
    ],
    [
      "m",
      "in"
    ],
    [
      "t",
      "t"
    ],
    [
      "the",
      "ir</w>"
    ],
    [
      "mor",
      "e</w>"
    ],
    [
      "p",
      "er"
    ],
    [
      "an",
      "g"
    ],
    [
      "r",
      "y</w>"
    ],
    [
      "sh",
      "e</w>"
    ],
    [
      "h",
      "en"
    ],
    [
      "f",
      "u"
    ],
    [
      "b",
      "i"
    ],
    [
      "a",
      "l"
    ],
    [
      "le",
      "t</w>"
    ],
    [
      "us",
      "t</w>"
    ],
    [
      "ha",
      "th</w>"
    ],
    [
      "ou",
      "s</w>"
    ],
    [
      "th",
      "in"
    ],
    [
      "r",
      "ow"
    ],
    [
      "fi",
      "r"
    ],
    [
      "-",
      "-"
    ],
    [
      "w",
      "e</w>"
    ],
    [
      "c",
      "e,</w>"
    ],
    [
      "v",
      "er</w>"
    ],
    [
      "the",
      "e</w>"
    ],
    [
      "w",
      "ere</w>"
    ],
    [
      "i",
      "'ll</w>"
    ],
    [
      "n",
      "i"
    ],
    [
      "s",
      "on"
    ],
    [
      "du",
      "ke</w>"
    ],
    [
      "ch",
      "i"
    ],
    [
      "u",
      "m"
    ],
    [
      "wh",
      "en</w>"
    ],
    [
      "p",
      "e"
    ],
    [
      "c",
      "en"
    ],
    [
      "d",
      "e</w>"
    ],
    [
      "th",
      "en</w>"
    ],
    [
      "d",
      "er"
    ],
    [
      "t",
      ":</w>"
    ],
    [
      "li",
      "ke</w>"
    ],
    [
      "o",
      "p"
    ],
    [
      "f",
      "ri"
    ],
    [
      "b",
      "le</w>"
    ],
    [
      "com",
      "e</w>"
    ],
    [
      "g",
      "ra"
    ],
    [
      "c",
      "es"
    ],
    [
      "c",
      "k</w>"
    ],
    [
      "ri",
      "char"
    ],
    [
      "qu",
      "e"
    ],
    [
      "i",
      "r"
    ],
    [
      "ma",
      "ke</w>"
    ],
    [
      "we",
      "ll"
    ],
    [
      "ear",
      "</w>"
    ],
    [
      "l",
      "u"
    ],
    [
      "i",
      "i"
    ],
    [
      "ar",
      "</w>"
    ],
    [
      "c",
      "or"
    ],
    [
      "en",
      "t</w>"
    ],
    [
      "ma",
      "y</w>"
    ],
    [
      "up",
      "on</w>"
    ],
    [
      "i",
      "us:</w>"
    ],
    [
      "l",
      "an"
    ],
    [
      "d",
      "y</w>"
    ],
    [
      "g",
      "e</w>"
    ],
    [
      "you",
      ",</w>"
    ],
    [
      "m",
      "ust</w>"
    ],
    [
      "gh",
      "</w>"
    ],
    [
      "h",
      "e"
    ],
    [
      "t",
      ".</w>"
    ],
    [
      "l",
      "ou"
    ],
    [
      "j",
      "u"
    ],
    [
      "t",
      "ru"
    ],
    [
      "sh",
      "ould</w>"
    ],
    [
      "k",
      "ing"
    ],
    [
      "m",
      "e,</w>"
    ],
    [
      "th",
      ",</w>"
    ],
    [
      "t",
      "s</w>"
    ],
    [
      "lo",
      "v"
    ],
    [
      "p",
      "u"
    ],
    [
      "a",
      "ga"
    ],
    [
      "ed",
      "war"
    ],
    [
      "p",
      "r"
    ],
    [
      "ti",
      "o:</w>"
    ],
    [
      "s",
      "er"
    ],
    [
      "d",
      ";</w>"
    ],
    [
      "s",
      "o"
    ],
    [
      "w",
      "</w>"
    ],
    [
      "h",
      "ere</w>"
    ],
    [
      "'t",
      "is</w>"
    ],
    [
      "li",
      "f"
    ],
    [
      "sp",
      "ea"
    ],
    [
      "e",
      ";</w>"
    ],
    [
      "ha",
      "d</w>"
    ],
    [
      "s",
      ";</w>"
    ],
    [
      "sir",
      ",</w>"
    ],
    [
      "t",
      "en"
    ],
    [
      "st",
      "a"
    ],
    [
      "y",
      "et</w>"
    ],
    [
      "g",
      "ent"
    ],
    [
      "the",
      "m</w>"
    ],
    [
      "l",
      "oo"
    ],
    [
      "som",
      "e</w>"
    ],
    [
      "y",
      "or"
    ],
    [
      "d",
      "es"
    ],
    [
      "e",
      "x"
    ],
    [
      "m",
      "u"
    ],
    [
      "ou",
      "t</w>"
    ],
    [
      "ther",
      "e"
    ],
    [
      "wh",
      "ere</w>"
    ],
    [
      "c",
      "an"
    ],
    [
      "fir",
      "st</w>"
    ],
    [
      "c",
      "l"
    ],
    [
      "ta",
      "ke</w>"
    ],
    [
      "di",
      "d</w>"
    ],
    [
      "ti",
      "on"
    ],
    [
      "c",
      "u"
    ],
    [
      "for",
      "e</w>"
    ],
    [
      "i",
      "s"
    ],
    [
      "p",
      "la"
    ],
    [
      "th",
      "es"
    ],
    [
      "e",
      "p"
    ],
    [
      "gi",
      "ve</w>"
    ],
    [
      "v",
      "o"
    ],
    [
      "s",
      "en"
    ],
    [
      "richar",
      "d</w>"
    ],
    [
      "g",
      "u"
    ],
    [
      "h",
      "on"
    ],
    [
      "k",
      "now</w>"
    ],
    [
      "sa",
      "y</w>"
    ],
    [
      "aga",
      "in"
    ],
    [
      "ter",
      ":</w>"
    ],
    [
      "p",
      "ra"
    ],
    [
      "thes",
      "e</w>"
    ],
    [
      "v",
      "en"
    ],
    [
      "cen",
      "tio:</w>"
    ],
    [
      "g",
      "o</w>"
    ],
    [
      "su",
      "ch</w>"
    ],
    [
      "p",
      "ri"
    ],
    [
      "a",
      "m</w>"
    ],
    [
      "ver",
      "y</w>"
    ],
    [
      "es",
      ":</w>"
    ],
    [
      "v",
      "in"
    ],
    [
      "mo",
      "st</w>"
    ],
    [
      "st",
      "i"
    ],
    [
      "g",
      "lou"
    ],
    [
      "glou",
      "ces"
    ],
    [
      "th",
      "ere</w>"
    ],
    [
      "a",
      "c"
    ],
    [
      "j",
      "o"
    ],
    [
      "e",
      "y"
    ],
    [
      "o",
      "ld</w>"
    ],
    [
      "g",
      "re"
    ],
    [
      "t",
      "y</w>"
    ],
    [
      "m",
      "p"
    ],
    [
      "ur",
      "e</w>"
    ],
    [
      "m",
      "er"
    ],
    [
      "com",
      "e,</w>"
    ],
    [
      "m",
      "an</w>"
    ],
    [
      "m",
      "on"
    ],
    [
      "ther",
      ",</w>"
    ],
    [
      "we",
      "ll</w>"
    ],
    [
      "fu",
      "l</w>"
    ],
    [
      "s",
      "in"
    ],
    [
      "ti",
      "on</w>"
    ],
    [
      "p",
      "p"
    ],
    [
      "yor",
      "k"
    ],
    [
      "c",
      "an</w>"
    ],
    [
      "wh",
      "o</w>"
    ],
    [
      "now",
      ",</w>"
    ],
    [
      "ow",
      "n</w>"
    ],
    [
      "se",
      "e</w>"
    ],
    [
      "sel",
      "f"
    ],
    [
      "en",
      ",</w>"
    ],
    [
      "k",
      "e"
    ],
    [
      "que",
      "en</w>"
    ],
    [
      "st",
      "er"
    ],
    [
      "hen",
      "ry</w>"
    ],
    [
      "lo",
      "ve</w>"
    ],
    [
      "te",
      "ll</w>"
    ],
    [
      "c",
      "oun"
    ],
    [
      "sel",
      "f</w>"
    ],
    [
      "t",
      "ed</w>"
    ],
    [
      "a",
      "l</w>"
    ],
    [
      "d",
      "er</w>"
    ],
    [
      "a",
      "ll"
    ],
    [
      "ce",
      ":</w>"
    ],
    [
      "d",
      "s,</w>"
    ],
    [
      "lor",
      "d</w>"
    ],
    [
      "ow",
      "n"
    ],
    [
      "--",
      "</w>"
    ],
    [
      "rom",
      "e"
    ],
    [
      "fri",
      "en"
    ],
    [
      "n",
      "or</w>"
    ],
    [
      "m",
      ",</w>"
    ],
    [
      "war",
      "wi"
    ],
    [
      "b",
      "er"
    ],
    [
      "glouces",
      "ter:</w>"
    ],
    [
      "a",
      "f"
    ],
    [
      "et",
      ":</w>"
    ],
    [
      "l",
      "t</w>"
    ],
    [
      "pr",
      "in"
    ],
    [
      "th",
      "ing</w>"
    ],
    [
      "y",
      ";</w>"
    ],
    [
      "v",
      "es</w>"
    ],
    [
      "h",
      "an"
    ],
    [
      "k",
      ",</w>"
    ],
    [
      "p",
      "et"
    ],
    [
      "se",
      "d</w>"
    ],
    [
      "a",
      "u"
    ],
    [
      "en",
      "ce</w>"
    ],
    [
      "g",
      "ar"
    ],
    [
      "t",
      "'s</w>"
    ],
    [
      "us",
      "e</w>"
    ],
    [
      "h",
      "or"
    ],
    [
      "lor",
      "d,</w>"
    ],
    [
      "vin",
      "centio:</w>"
    ],
    [
      "a",
      "wa"
    ],
    [
      "sh",
      "</w>"
    ],
    [
      "wh",
      "y,</w>"
    ],
    [
      "b",
      "rea"
    ],
    [
      "e",
      "?</w>"
    ],
    [
      "g",
      "rea"
    ],
    [
      "ou",
      "l"
    ],
    [
      "min",
      "e</w>"
    ],
    [
      "ma",
      "de</w>"
    ],
    [
      "st",
      ",</w>"
    ],
    [
      "to",
      "o</w>"
    ],
    [
      "up",
      "</w>"
    ],
    [
      "s",
      "we"
    ],
    [
      "t",
      "e</w>"
    ],
    [
      "the",
      "e,</w>"
    ],
    [
      "a",
      "b"
    ],
    [
      "p",
      "re"
    ],
    [
      "i",
      "l"
    ],
    [
      "om",
      "</w>"
    ],
    [
      "b",
      "an"
    ],
    [
      "d",
      "'s</w>"
    ],
    [
      "e",
      "!</w>"
    ],
    [
      "s",
      "w"
    ],
    [
      "ti",
      "me</w>"
    ],
    [
      "st",
      "an"
    ],
    [
      "ne",
      "ver</w>"
    ],
    [
      "a",
      "d"
    ],
    [
      "an",
      "y</w>"
    ],
    [
      "cor",
      "i"
    ],
    [
      "e",
      "v"
    ],
    [
      "p",
      "res"
    ],
    [
      "s",
      "e,</w>"
    ],
    [
      "b",
      "r"
    ],
    [
      "t",
      "u"
    ],
    [
      "e",
      "p</w>"
    ],
    [
      "b",
      "ra"
    ],
    [
      "ing",
      ",</w>"
    ],
    [
      "er",
      ":</w>"
    ],
    [
      "di",
      "s"
    ],
    [
      "f",
      "o"
    ],
    [
      "gent",
      "le"
    ],
    [
      "i",
      "g"
    ],
    [
      "pet",
      "ru"
    ],
    [
      "t",
      "r"
    ],
    [
      "cori",
      "ol"
    ],
    [
      "h",
      "ar"
    ],
    [
      "petru",
      "chi"
    ],
    [
      "c",
      "e.</w>"
    ],
    [
      "hear",
      "</w>"
    ],
    [
      "york",
      ":</w>"
    ],
    [
      "do",
      "th</w>"
    ],
    [
      "p",
      "lea"
    ],
    [
      "s",
      "!</w>"
    ],
    [
      "thin",
      "k</w>"
    ],
    [
      "in",
      "ius:</w>"
    ],
    [
      "m",
      "y"
    ],
    [
      "p",
      "i"
    ],
    [
      "e",
      "'s</w>"
    ],
    [
      "d",
      "on"
    ],
    [
      "e",
      "d,</w>"
    ],
    [
      "th",
      "i"
    ],
    [
      "well",
      ",</w>"
    ],
    [
      "t",
      "er</w>"
    ],
    [
      "coriol",
      "an"
    ],
    [
      "warwi",
      "ck"
    ],
    [
      "be",
      "ing</w>"
    ],
    [
      "c",
      "ar"
    ],
    [
      "edwar",
      "d</w>"
    ],
    [
      "mu",
      "ch</w>"
    ],
    [
      "ser",
      "v"
    ],
    [
      "t",
      "w"
    ],
    [
      "g",
      "</w>"
    ],
    [
      "ju",
      "li"
    ],
    [
      "k",
      "now"
    ],
    [
      "ong",
      "</w>"
    ],
    [
      "se",
      "e"
    ],
    [
      "spea",
      "k</w>"
    ],
    [
      "c",
      "o"
    ],
    [
      "can",
      "not</w>"
    ],
    [
      "s",
      "on</w>"
    ],
    [
      "ha",
      "st"
    ],
    [
      "k",
      "s</w>"
    ],
    [
      "men",
      "en"
    ],
    [
      "n",
      "or"
    ],
    [
      "t",
      "ra"
    ],
    [
      "t",
      "ur"
    ],
    [
      "b",
      "es"
    ],
    [
      "no",
      "ble</w>"
    ],
    [
      "d",
      "?</w>"
    ],
    [
      "tt",
      "er</w>"
    ],
    [
      "'",
      "st</w>"
    ],
    [
      "k",
      "in"
    ],
    [
      "la",
      "dy</w>"
    ],
    [
      "b",
      "ol"
    ],
    [
      "i",
      "v"
    ],
    [
      "thou",
      "gh</w>"
    ],
    [
      "a",
      "s"
    ],
    [
      "s",
      "?</w>"
    ],
    [
      "se",
      "con"
    ],
    [
      "c",
      "ur"
    ],
    [
      "l",
      "ess</w>"
    ],
    [
      "a",
      "y,</w>"
    ],
    [
      "be",
      "ll"
    ],
    [
      "d",
      "!</w>"
    ],
    [
      "him",
      ",</w>"
    ],
    [
      "t",
      "y"
    ],
    [
      "m",
      "e.</w>"
    ],
    [
      "secon",
      "d</w>"
    ],
    [
      "t",
      "ter"
    ],
    [
      "go",
      "d</w>"
    ],
    [
      "rome",
      "o:</w>"
    ],
    [
      "t",
      ";</w>"
    ],
    [
      "th",
      ":</w>"
    ],
    [
      "be",
      "en</w>"
    ],
    [
      "e",
      "e"
    ],
    [
      "en",
      ":</w>"
    ],
    [
      "h",
      "ou"
    ],
    [
      "t",
      "or"
    ],
    [
      "w",
      "om"
    ],
    [
      "wh",
      "o"
    ],
    [
      "c",
      "la"
    ],
    [
      "f",
      "in"
    ],
    [
      "menen",
      "ius:</w>"
    ],
    [
      "b",
      "ea"
    ],
    [
      "g",
      "e"
    ],
    [
      "be",
      "fore</w>"
    ],
    [
      "h",
      "ol"
    ],
    [
      "wi",
      "ll"
    ],
    [
      "again",
      "st</w>"
    ],
    [
      "c",
      "t</w>"
    ],
    [
      "it",
      ".</w>"
    ],
    [
      "i",
      "sa"
    ],
    [
      "n",
      "ess</w>"
    ],
    [
      "petruchi",
      "o:</w>"
    ],
    [
      "li",
      "v"
    ],
    [
      "oun",
      "d</w>"
    ],
    [
      "f",
      "ar"
    ],
    [
      "h",
      "o"
    ],
    [
      "ll",
      "ow"
    ],
    [
      "no",
      ",</w>"
    ],
    [
      "t",
      "ri"
    ],
    [
      "u",
      "l"
    ],
    [
      "'",
      "d,</w>"
    ],
    [
      "er",
      "s</w>"
    ],
    [
      "him",
      ".</w>"
    ],
    [
      "p",
      "ea"
    ],
    [
      "es",
      ".</w>"
    ],
    [
      "fa",
      "ther"
    ],
    [
      "ne",
      "w"
    ],
    [
      "swe",
      "et</w>"
    ],
    [
      "n",
      "ur"
    ],
    [
      "s",
      "or"
    ],
    [
      "coriolan",
      "us:</w>"
    ],
    [
      "ed",
      ".</w>"
    ],
    [
      "er",
      ",</w>"
    ],
    [
      "fa",
      "ir</w>"
    ],
    [
      "on",
      ",</w>"
    ],
    [
      "at",
      "e</w>"
    ],
    [
      "cl",
      "ar"
    ],
    [
      "grea",
      "t</w>"
    ],
    [
      "i",
      "t,</w>"
    ],
    [
      "po",
      "or</w>"
    ],
    [
      "wi",
      "f"
    ],
    [
      "c",
      "row"
    ],
    [
      "f",
      "oo"
    ],
    [
      "ha",
      "st</w>"
    ],
    [
      "man",
      ":</w>"
    ],
    [
      "us",
      ",</w>"
    ],
    [
      "d",
      "r"
    ],
    [
      "you",
      ".</w>"
    ],
    [
      "en",
      "g"
    ],
    [
      "th",
      ".</w>"
    ],
    [
      "bl",
      "oo"
    ],
    [
      "loo",
      "k</w>"
    ],
    [
      "m",
      "en</w>"
    ],
    [
      "s",
      "ea"
    ],
    [
      "th",
      "us</w>"
    ],
    [
      "ci",
      "ti"
    ],
    [
      "ha",
      "m"
    ],
    [
      "r",
      "ow</w>"
    ],
    [
      "re",
      "d</w>"
    ],
    [
      "th",
      "at"
    ],
    [
      "ti",
      "ll</w>"
    ],
    [
      "wh",
      "er"
    ],
    [
      "bu",
      "ck"
    ],
    [
      "ca",
      "ll</w>"
    ],
    [
      "citi",
      "z"
    ],
    [
      "g",
      "ri"
    ],
    [
      "b",
      "le"
    ],
    [
      "i",
      "d</w>"
    ],
    [
      "in",
      "a:</w>"
    ],
    [
      "sh",
      "i"
    ],
    [
      "t",
      "oo"
    ],
    [
      "t",
      "ran"
    ],
    [
      "bo",
      "th</w>"
    ],
    [
      "da",
      "u"
    ],
    [
      "g",
      "on"
    ],
    [
      "mi",
      "ll"
    ],
    [
      "no",
      "t,</w>"
    ],
    [
      "y",
      "s</w>"
    ],
    [
      "you",
      "r"
    ],
    [
      "bol",
      "ing"
    ],
    [
      "boling",
      "bro"
    ],
    [
      "na",
      "y,</w>"
    ],
    [
      "ev",
      "en</w>"
    ],
    [
      "ii",
      "i"
    ],
    [
      "iii",
      ":</w>"
    ],
    [
      "ing",
      "s</w>"
    ],
    [
      "wha",
      "t,</w>"
    ],
    [
      "y",
      "!</w>"
    ],
    [
      "'",
      "er</w>"
    ],
    [
      "c",
      "ou"
    ],
    [
      "c",
      "our"
    ],
    [
      "el",
      "y</w>"
    ],
    [
      "t",
      "un"
    ],
    [
      "'",
      "t</w>"
    ],
    [
      "com",
      "es</w>"
    ],
    [
      "e",
      "f"
    ],
    [
      "of",
      "f"
    ],
    [
      "se",
      ".</w>"
    ],
    [
      "wh",
      "y</w>"
    ],
    [
      "who",
      "se</w>"
    ],
    [
      "wi",
      "th"
    ],
    [
      "an",
      "t</w>"
    ],
    [
      "en",
      "ce:</w>"
    ],
    [
      "man",
      "y</w>"
    ],
    [
      "st",
      "er</w>"
    ],
    [
      "th",
      "an"
    ],
    [
      "y",
      "?</w>"
    ],
    [
      "e",
      "ver</w>"
    ],
    [
      "isa",
      "bell"
    ],
    [
      "se",
      ":</w>"
    ],
    [
      "s",
      "la"
    ],
    [
      "the",
      "m"
    ],
    [
      "a",
      "th"
    ],
    [
      "d",
      "ed</w>"
    ],
    [
      "g",
      "e,</w>"
    ],
    [
      "le",
      "on"
    ],
    [
      "lea",
      "ve</w>"
    ],
    [
      "leon",
      "t"
    ],
    [
      "m",
      "ur"
    ],
    [
      "buck",
      "ing"
    ],
    [
      "f",
      "l"
    ],
    [
      "th",
      "o"
    ],
    [
      "to",
      "-"
    ],
    [
      "en",
      "d</w>"
    ],
    [
      "f",
      "ear"
    ],
    [
      "ong",
      "u"
    ],
    [
      "p",
      "it"
    ],
    [
      "t",
      "ongu"
    ],
    [
      "d",
      "st</w>"
    ],
    [
      "i",
      "m"
    ],
    [
      "isabell",
      "a:</w>"
    ],
    [
      "p",
      "ow"
    ],
    [
      "p",
      "ur"
    ],
    [
      "s",
      "wor"
    ],
    [
      "we",
      "l"
    ],
    [
      "be",
      "ar</w>"
    ],
    [
      "h",
      "el"
    ],
    [
      "i",
      "sh"
    ],
    [
      "st",
      "and</w>"
    ],
    [
      "leont",
      "es:</w>"
    ],
    [
      "li",
      "e"
    ],
    [
      "m",
      "ent"
    ],
    [
      "s",
      "o,</w>"
    ],
    [
      "si",
      "c"
    ],
    [
      "t",
      "ch"
    ],
    [
      "d",
      "ly</w>"
    ],
    [
      "juli",
      "et:</w>"
    ],
    [
      "l",
      ",</w>"
    ],
    [
      "s",
      "le"
    ],
    [
      "tho",
      "se</w>"
    ],
    [
      "un",
      "to</w>"
    ],
    [
      "fa",
      "ther</w>"
    ],
    [
      "g",
      "oo"
    ],
    [
      "mi",
      "o:</w>"
    ],
    [
      "you",
      "n"
    ],
    [
      "n",
      ",</w>"
    ],
    [
      "tran",
      "i"
    ],
    [
      "b",
      "ri"
    ],
    [
      "chi",
      "l"
    ],
    [
      "da",
      "y</w>"
    ],
    [
      "mar",
      "ci"
    ],
    [
      "ang",
      "el"
    ],
    [
      "bu",
      "r"
    ],
    [
      "ca",
      "l"
    ],
    [
      "gh",
      "t,</w>"
    ],
    [
      "lu",
      "ci"
    ],
    [
      "th",
      "en,</w>"
    ],
    [
      "w",
      "r"
    ],
    [
      "pra",
      "y</w>"
    ],
    [
      "v",
      "ol"
    ],
    [
      "an",
      "ce</w>"
    ],
    [
      "hear",
      "t</w>"
    ],
    [
      "k",
      "es</w>"
    ],
    [
      "l",
      "e,</w>"
    ],
    [
      "li",
      "tt"
    ],
    [
      "pa",
      "s"
    ],
    [
      "w",
      "at"
    ],
    [
      "d",
      "ing</w>"
    ],
    [
      "in",
      ",</w>"
    ],
    [
      "be",
      "g"
    ],
    [
      "t",
      "?</w>"
    ],
    [
      "ing",
      ".</w>"
    ],
    [
      "me",
      "an"
    ],
    [
      "w",
      "in"
    ],
    [
      "h",
      "op"
    ],
    [
      "mar",
      "gar"
    ],
    [
      "sic",
      "inius:</w>"
    ],
    [
      "ca",
      "pu"
    ],
    [
      "men",
      "t</w>"
    ],
    [
      "n",
      "es"
    ],
    [
      "se",
      "t</w>"
    ],
    [
      "vi",
      "r"
    ],
    [
      "capu",
      "le"
    ],
    [
      "st",
      "r"
    ],
    [
      "c",
      "ould</w>"
    ],
    [
      "ci",
      "ous</w>"
    ],
    [
      "e",
      "li"
    ],
    [
      "ha",
      "pp"
    ],
    [
      "ou",
      "l</w>"
    ],
    [
      "c",
      "lif"
    ],
    [
      "ca",
      "mill"
    ],
    [
      "pu",
      "t</w>"
    ],
    [
      "t",
      "ing</w>"
    ],
    [
      "th",
      "r"
    ],
    [
      "a",
      "be"
    ],
    [
      "me",
      ";</w>"
    ],
    [
      "v",
      "e,</w>"
    ],
    [
      "b",
      "en"
    ],
    [
      "bolingbro",
      "k"
    ],
    [
      "d",
      "en"
    ],
    [
      "er",
      ".</w>"
    ],
    [
      "es",
      ";</w>"
    ],
    [
      "hea",
      "ven"
    ],
    [
      "hon",
      "our"
    ],
    [
      "luci",
      "o:</w>"
    ],
    [
      "mur",
      "der"
    ],
    [
      "w",
      "o"
    ],
    [
      "a",
      "p"
    ],
    [
      "bl",
      "ood</w>"
    ],
    [
      "c",
      "es</w>"
    ],
    [
      "ca",
      "use</w>"
    ],
    [
      "iv",
      ":</w>"
    ],
    [
      "b",
      "us"
    ],
    [
      "eli",
      "z"
    ],
    [
      "eliz",
      "abe"
    ],
    [
      "h",
      ",</w>"
    ],
    [
      "h",
      "om"
    ],
    [
      "su",
      "b"
    ],
    [
      "con",
      "t"
    ],
    [
      "e",
      "t,</w>"
    ],
    [
      "h",
      "us"
    ],
    [
      "k",
      "ne"
    ],
    [
      "ni",
      "ght"
    ],
    [
      "qu",
      "i"
    ],
    [
      "ath",
      "ar"
    ],
    [
      "ch",
      ",</w>"
    ],
    [
      "dea",
      "th</w>"
    ],
    [
      "k",
      "athar"
    ],
    [
      "o",
      "'</w>"
    ],
    [
      "p",
      "ti"
    ],
    [
      "sa",
      "y,</w>"
    ],
    [
      "there",
      "fore</w>"
    ],
    [
      "bi",
      "d</w>"
    ],
    [
      "bro",
      "ther"
    ],
    [
      "ll",
      "ow</w>"
    ],
    [
      "s",
      "oul"
    ],
    [
      "tru",
      "e</w>"
    ],
    [
      "tw",
      "o</w>"
    ],
    [
      "ar",
      "m"
    ],
    [
      "elizabe",
      "th:</w>"
    ],
    [
      "ou",
      "gh</w>"
    ],
    [
      "r",
      "y,</w>"
    ],
    [
      "re",
      "e</w>"
    ],
    [
      "s",
      "ol"
    ],
    [
      "sin",
      "ce</w>"
    ],
    [
      "wh",
      "om</w>"
    ],
    [
      "be",
      "tter</w>"
    ],
    [
      "bro",
      "ther</w>"
    ],
    [
      "litt",
      "le</w>"
    ],
    [
      "ma",
      "da"
    ],
    [
      "na",
      "me</w>"
    ],
    [
      "p",
      "om"
    ],
    [
      "ro",
      "y"
    ],
    [
      "t",
      "!</w>"
    ],
    [
      "v",
      "ed</w>"
    ],
    [
      "a",
      "t,</w>"
    ],
    [
      "b",
      "ru"
    ],
    [
      "bucking",
      "ham"
    ],
    [
      "com",
      "p"
    ],
    [
      "h",
      "old</w>"
    ],
    [
      "sp",
      "i"
    ],
    [
      "st",
      ":</w>"
    ],
    [
      "d",
      "ou"
    ],
    [
      "d",
      "ra"
    ],
    [
      "k",
      "i"
    ],
    [
      "pe",
      "op"
    ],
    [
      "pro",
      "vo"
    ],
    [
      "son",
      ",</w>"
    ],
    [
      "bu",
      "t,</w>"
    ],
    [
      "far",
      "e"
    ],
    [
      "for",
      "tun"
    ],
    [
      "ma",
      "ster"
    ],
    [
      "mi",
      "ght</w>"
    ],
    [
      "ta",
      "l"
    ],
    [
      "b",
      "or"
    ],
    [
      "ck",
      ",</w>"
    ],
    [
      "d",
      "rea"
    ],
    [
      "e",
      "l</w>"
    ],
    [
      "lif",
      "e</w>"
    ],
    [
      "st",
      "res"
    ],
    [
      "warwick",
      ":</w>"
    ],
    [
      "ba",
      "pti"
    ],
    [
      "i",
      ",</w>"
    ],
    [
      "mi",
      "s"
    ],
    [
      "no",
      "thing</w>"
    ],
    [
      "t",
      "ear"
    ],
    [
      "t",
      "s,</w>"
    ],
    [
      "capule",
      "t:</w>"
    ],
    [
      "ce",
      ";</w>"
    ],
    [
      "citiz",
      "en:</w>"
    ],
    [
      "fa",
      "i"
    ],
    [
      "g",
      "ru"
    ],
    [
      "ii",
      ":</w>"
    ],
    [
      "ll",
      ",</w>"
    ],
    [
      "n",
      "at"
    ],
    [
      "s",
      "un"
    ],
    [
      "wa",
      "y</w>"
    ],
    [
      "e",
      "m"
    ],
    [
      "f",
      "ear</w>"
    ],
    [
      "hor",
      "ten"
    ],
    [
      "horten",
      "si"
    ],
    [
      "k",
      "e,</w>"
    ],
    [
      "ke",
      "ep</w>"
    ],
    [
      "ou",
      "ght</w>"
    ],
    [
      "wher",
      "e"
    ],
    [
      "e",
      "very</w>"
    ],
    [
      "gh",
      "ter"
    ],
    [
      "king",
      ",</w>"
    ],
    [
      "sti",
      "ll</w>"
    ],
    [
      ",",
      "--</w>"
    ],
    [
      "t",
      "es"
    ],
    [
      "br",
      "ing</w>"
    ],
    [
      "re",
      "p"
    ],
    [
      "gent",
      "le</w>"
    ],
    [
      "l",
      "y,</w>"
    ],
    [
      "la",
      "d"
    ],
    [
      "y",
      "'s</w>"
    ],
    [
      "sp",
      "er"
    ],
    [
      "t",
      "us:</w>"
    ],
    [
      "um",
      "ber"
    ],
    [
      "an",
      "t:</w>"
    ],
    [
      "bolingbrok",
      "e:</w>"
    ],
    [
      "fri",
      "ar</w>"
    ],
    [
      "g",
      "en"
    ],
    [
      "v",
      "a"
    ],
    [
      "le",
      "d</w>"
    ],
    [
      "man",
      ",</w>"
    ],
    [
      "sp",
      "o"
    ],
    [
      "st",
      "ri"
    ],
    [
      "ti",
      "m"
    ],
    [
      "an",
      "sw"
    ],
    [
      "c",
      "ra"
    ],
    [
      "f",
      "f"
    ],
    [
      "in",
      "t</w>"
    ],
    [
      "l",
      "ong</w>"
    ],
    [
      "s",
      "ur"
    ],
    [
      "t",
      "ow"
    ],
    [
      "bru",
      "tus:</w>"
    ],
    [
      "buckingham",
      ":</w>"
    ],
    [
      "g",
      "o,</w>"
    ],
    [
      "gra",
      "ce</w>"
    ],
    [
      "in",
      "to</w>"
    ],
    [
      "mi",
      "stres"
    ],
    [
      "nur",
      "se:</w>"
    ],
    [
      "si",
      "g"
    ],
    [
      "th",
      "ir"
    ],
    [
      "youn",
      "g</w>"
    ],
    [
      "an",
      "o"
    ],
    [
      "be",
      "ar"
    ],
    [
      "c",
      "ha"
    ],
    [
      "s",
      "ure</w>"
    ],
    [
      "that",
      "'s</w>"
    ],
    [
      "trani",
      "o:</w>"
    ],
    [
      "wor",
      "l"
    ],
    [
      "b",
      "ar"
    ],
    [
      "c",
      "lo"
    ],
    [
      "i",
      "'</w>"
    ],
    [
      "j",
      "e"
    ],
    [
      "self",
      ",</w>"
    ],
    [
      "spea",
      "k"
    ],
    [
      "angel",
      "o:</w>"
    ],
    [
      "d",
      "ar"
    ],
    [
      "fa",
      "l"
    ],
    [
      "fin",
      "d</w>"
    ],
    [
      "margar",
      "et:</w>"
    ],
    [
      "on",
      "ce</w>"
    ],
    [
      "st",
      "ra"
    ],
    [
      "c",
      "ed</w>"
    ],
    [
      "ca",
      "me</w>"
    ],
    [
      "com",
      "for"
    ],
    [
      "d",
      "ear</w>"
    ],
    [
      "d",
      "s.</w>"
    ],
    [
      "do",
      "st</w>"
    ],
    [
      "in",
      "de"
    ],
    [
      "le",
      ":</w>"
    ],
    [
      "my",
      "self</w>"
    ],
    [
      "se",
      "s</w>"
    ],
    [
      "t",
      "en</w>"
    ],
    [
      "con",
      "f"
    ],
    [
      "en",
      "ce,</w>"
    ],
    [
      "ba",
      "l"
    ],
    [
      "c",
      "re"
    ],
    [
      "clif",
      "for"
    ],
    [
      "d",
      "own</w>"
    ],
    [
      "es",
      "cal"
    ],
    [
      "h",
      "</w>"
    ],
    [
      "le",
      "t's</w>"
    ],
    [
      "ll",
      "a"
    ],
    [
      "mar",
      "ri"
    ],
    [
      "st",
      "ru"
    ],
    [
      "th",
      "at,</w>"
    ],
    [
      "u",
      "di"
    ],
    [
      "d",
      "one</w>"
    ],
    [
      "el",
      "se</w>"
    ],
    [
      "hon",
      "our</w>"
    ],
    [
      "le",
      "s</w>"
    ],
    [
      "of",
      "fi"
    ],
    [
      "po",
      "li"
    ],
    [
      "pom",
      "pe"
    ],
    [
      "prin",
      "ce</w>"
    ],
    [
      "sta",
      "y</w>"
    ],
    [
      "vo",
      "i"
    ],
    [
      "d",
      "on</w>"
    ],
    [
      "d",
      "own"
    ],
    [
      "fu",
      "ll</w>"
    ],
    [
      "li",
      "ve</w>"
    ],
    [
      "ma",
      "kes</w>"
    ],
    [
      "of",
      "f</w>"
    ],
    [
      "p",
      "s</w>"
    ],
    [
      "pa",
      "ul"
    ],
    [
      "pro",
      "sper"
    ],
    [
      "st",
      "ar"
    ],
    [
      "thou",
      "s"
    ],
    [
      "an",
      "d,</w>"
    ],
    [
      "v",
      "ing</w>"
    ],
    [
      "wha",
      "t's</w>"
    ],
    [
      "ch",
      "ang"
    ],
    [
      "ey",
      "es</w>"
    ],
    [
      "f",
      "t</w>"
    ],
    [
      "fi",
      "di"
    ],
    [
      "ll",
      "'d</w>"
    ],
    [
      "me",
      ":</w>"
    ],
    [
      "nor",
      "th"
    ],
    [
      "som",
      "e"
    ],
    [
      "w",
      "ea"
    ],
    [
      "a",
      "pp"
    ],
    [
      "ban",
      "ish"
    ],
    [
      "dea",
      "th,</w>"
    ],
    [
      "ha",
      "s</w>"
    ],
    [
      "it",
      "y</w>"
    ],
    [
      "kathar",
      "ina:</w>"
    ],
    [
      "la",
      "w"
    ],
    [
      "me",
      "m"
    ],
    [
      "mer",
      "cu"
    ],
    [
      "thou",
      "ght</w>"
    ],
    [
      "y",
      "ear"
    ],
    [
      "b",
      "est</w>"
    ],
    [
      "bapti",
      "st"
    ],
    [
      "bes",
      "ee"
    ],
    [
      "d",
      "ow"
    ],
    [
      "h",
      "and</w>"
    ],
    [
      "j",
      "es"
    ],
    [
      "l",
      "ong"
    ],
    [
      "me",
      "?</w>"
    ],
    [
      "on",
      "e,</w>"
    ],
    [
      "s",
      "'</w>"
    ],
    [
      "hast",
      "ing"
    ],
    [
      "t",
      "re"
    ],
    [
      "tur",
      "n</w>"
    ],
    [
      "a",
      "la"
    ],
    [
      "au",
      "fidi"
    ],
    [
      "cla",
      "udi"
    ],
    [
      "dou",
      "b"
    ],
    [
      "fa",
      "ther,</w>"
    ],
    [
      "gra",
      "cious</w>"
    ],
    [
      "hear",
      "d</w>"
    ],
    [
      "lov",
      "e,</w>"
    ],
    [
      "north",
      "umber"
    ],
    [
      "t",
      "y,</w>"
    ],
    [
      "a",
      "m"
    ],
    [
      "awa",
      "y</w>"
    ],
    [
      "b",
      "la"
    ],
    [
      "d",
      "in"
    ],
    [
      "escal",
      "us:</w>"
    ],
    [
      "he",
      "'s</w>"
    ],
    [
      "le",
      ".</w>"
    ],
    [
      "n",
      "'d</w>"
    ],
    [
      "par",
      "t</w>"
    ],
    [
      "thou",
      ",</w>"
    ],
    [
      "tion",
      ",</w>"
    ],
    [
      "wi",
      "lt</w>"
    ],
    [
      "du",
      "ch"
    ],
    [
      "e",
      "ig"
    ],
    [
      "her",
      "e,</w>"
    ],
    [
      "lor",
      "d.</w>"
    ],
    [
      "pa",
      "ti"
    ],
    [
      "plea",
      "se</w>"
    ],
    [
      "sh",
      "ow</w>"
    ],
    [
      "thin",
      "e</w>"
    ],
    [
      "ab",
      "out</w>"
    ],
    [
      "dea",
      "th"
    ],
    [
      "h",
      "our"
    ],
    [
      "i",
      "l</w>"
    ],
    [
      "ni",
      "ght</w>"
    ],
    [
      "t",
      "e,</w>"
    ],
    [
      "t",
      "ol"
    ],
    [
      "t",
      "rea"
    ],
    [
      "us",
      ".</w>"
    ],
    [
      "dau",
      "ghter"
    ],
    [
      "el",
      ":</w>"
    ],
    [
      "fe",
      "c"
    ],
    [
      "i",
      "z"
    ],
    [
      "men",
      ",</w>"
    ],
    [
      "northumber",
      "lan"
    ],
    [
      "roy",
      "al</w>"
    ],
    [
      "s",
      "ing</w>"
    ],
    [
      "w",
      "on"
    ],
    [
      "fe",
      "llow"
    ],
    [
      "h",
      "ang"
    ],
    [
      "loo",
      "k"
    ],
    [
      "m",
      "s</w>"
    ],
    [
      "mon",
      "ta"
    ],
    [
      "monta",
      "gu"
    ],
    [
      "res",
      "t</w>"
    ],
    [
      "sp",
      "e"
    ],
    [
      "tra",
      "it"
    ],
    [
      "vir",
      "tu"
    ],
    [
      "d",
      "g"
    ],
    [
      "duch",
      "ess</w>"
    ],
    [
      "f",
      "ur"
    ],
    [
      "thir",
      "d</w>"
    ],
    [
      "us",
      "i"
    ],
    [
      "v",
      "e"
    ],
    [
      "well",
      ".</w>"
    ],
    [
      ",",
      "--"
    ],
    [
      "camill",
      "o:</w>"
    ],
    [
      "d",
      "-"
    ],
    [
      "d",
      "d"
    ],
    [
      "de",
      "li"
    ],
    [
      "des",
      "er"
    ],
    [
      "for",
      "th</w>"
    ],
    [
      "n",
      ".</w>"
    ],
    [
      "re",
      "mem"
    ],
    [
      "vi",
      ":</w>"
    ],
    [
      "vi",
      "lla"
    ],
    [
      "wor",
      "ld</w>"
    ],
    [
      "af",
      "ter</w>"
    ],
    [
      "ea",
      "ch</w>"
    ],
    [
      "f",
      "la"
    ],
    [
      "fa",
      "ir"
    ],
    [
      "g",
      "ran"
    ],
    [
      "happ",
      "y</w>"
    ],
    [
      "l",
      "ar"
    ],
    [
      "or",
      "t</w>"
    ],
    [
      "s",
      "ent</w>"
    ],
    [
      "sen",
      "at"
    ],
    [
      "sha",
      "lt</w>"
    ],
    [
      "st",
      ".</w>"
    ],
    [
      "te",
      "mp"
    ],
    [
      "thous",
      "and</w>"
    ],
    [
      "vo",
      "li"
    ],
    [
      "we",
      "'ll</w>"
    ],
    [
      "ben",
      "voli"
    ],
    [
      "c",
      "</w>"
    ],
    [
      "c",
      "er"
    ],
    [
      "c",
      "ri"
    ],
    [
      "ce",
      "!</w>"
    ],
    [
      "edwar",
      "d:</w>"
    ],
    [
      "ex",
      "e"
    ],
    [
      "h",
      "un"
    ],
    [
      "m",
      "es"
    ],
    [
      "ma",
      "ster</w>"
    ],
    [
      "n",
      "ing</w>"
    ],
    [
      "ou",
      "gh"
    ],
    [
      "poli",
      "x"
    ],
    [
      "polix",
      "en"
    ],
    [
      "ro",
      "s"
    ],
    [
      "au",
      "tol"
    ],
    [
      "autol",
      "y"
    ],
    [
      "autoly",
      "c"
    ],
    [
      "baptist",
      "a:</w>"
    ],
    [
      "besee",
      "ch</w>"
    ],
    [
      "de",
      "vi"
    ],
    [
      "hortensi",
      "o:</w>"
    ],
    [
      "on",
      "ly</w>"
    ],
    [
      "pro",
      "ve</w>"
    ],
    [
      "so",
      "ver"
    ],
    [
      "sover",
      "eig"
    ],
    [
      "ther",
      ".</w>"
    ],
    [
      "clar",
      "ence:</w>"
    ],
    [
      "com",
      "inius:</w>"
    ],
    [
      "ep",
      "her"
    ],
    [
      "f",
      "ran"
    ],
    [
      "i",
      "se</w>"
    ],
    [
      "n",
      "one</w>"
    ],
    [
      "on",
      ".</w>"
    ],
    [
      "pr",
      "ou"
    ],
    [
      "re",
      "ven"
    ],
    [
      "sh",
      "epher"
    ],
    [
      "si",
      "t</w>"
    ],
    [
      "sol",
      "di"
    ],
    [
      "tion",
      ".</w>"
    ],
    [
      "autolyc",
      "us:</w>"
    ],
    [
      "b",
      "ow"
    ],
    [
      "bus",
      "in"
    ],
    [
      "ch",
      "e"
    ],
    [
      "com",
      "m"
    ],
    [
      "ed",
      ":</w>"
    ],
    [
      "hol",
      "y</w>"
    ],
    [
      "hou",
      "se</w>"
    ],
    [
      "in",
      "s</w>"
    ],
    [
      "lif",
      "e,</w>"
    ],
    [
      "v",
      "y</w>"
    ],
    [
      "wr",
      "ong"
    ],
    [
      "x",
      "t</w>"
    ],
    [
      ".",
      "'</w>"
    ],
    [
      "bi",
      "an"
    ],
    [
      "f",
      "ol"
    ],
    [
      "ght",
      "er</w>"
    ],
    [
      "ju",
      "sti"
    ],
    [
      "ma",
      "i"
    ],
    [
      "par",
      "don</w>"
    ],
    [
      "provo",
      "st:</w>"
    ],
    [
      "sh",
      "ow"
    ],
    [
      "sir",
      ".</w>"
    ],
    [
      "whi",
      "le</w>"
    ],
    [
      "'",
      "d.</w>"
    ],
    [
      "b",
      "it"
    ],
    [
      "b",
      "oo"
    ],
    [
      "cl",
      "own"
    ],
    [
      "father",
      "'s</w>"
    ],
    [
      "h",
      "um"
    ],
    [
      "hop",
      "e</w>"
    ],
    [
      "hus",
      "ban"
    ],
    [
      "me",
      "et</w>"
    ],
    [
      "o",
      "ver"
    ],
    [
      "p",
      "rom"
    ],
    [
      "ra",
      "ther</w>"
    ],
    [
      "si",
      "on</w>"
    ],
    [
      "son",
      ":</w>"
    ],
    [
      "st",
      "ran"
    ],
    [
      "the",
      "e.</w>"
    ],
    [
      "to-",
      "mor"
    ],
    [
      "wom",
      "an"
    ],
    [
      "y",
      "i"
    ],
    [
      "benvoli",
      "o:</w>"
    ],
    [
      "clown",
      ":</w>"
    ],
    [
      "cou",
      "sin"
    ],
    [
      "di",
      "e</w>"
    ],
    [
      "e",
      "-"
    ],
    [
      "hea",
      "d</w>"
    ],
    [
      "hi",
      "gh"
    ],
    [
      "lor",
      "d:</w>"
    ],
    [
      "n",
      "s</w>"
    ],
    [
      "or",
      ",</w>"
    ],
    [
      "self",
      ".</w>"
    ],
    [
      "than",
      "k</w>"
    ],
    [
      "tongu",
      "e</w>"
    ],
    [
      "wi",
      "thou"
    ],
    [
      "e",
      "f</w>"
    ],
    [
      "gru",
      "mio:</w>"
    ],
    [
      "k",
      "is"
    ],
    [
      "la",
      "ur"
    ],
    [
      "mada",
      "m,</w>"
    ],
    [
      "murder",
      "er:</w>"
    ],
    [
      "prosper",
      "o:</w>"
    ],
    [
      "ri",
      "ght</w>"
    ],
    [
      "we",
      "ep"
    ],
    [
      "wor",
      "d</w>"
    ],
    [
      "bea",
      "u"
    ],
    [
      "ce",
      "?</w>"
    ],
    [
      "th",
      "en"
    ],
    [
      "es",
      "s,</w>"
    ],
    [
      "for",
      "e,</w>"
    ],
    [
      "gre",
      "mio:</w>"
    ],
    [
      "her",
      ",</w>"
    ],
    [
      "lu",
      "centio:</w>"
    ],
    [
      "mercu",
      "tio:</w>"
    ],
    [
      "ne",
      "i"
    ],
    [
      "po",
      "s"
    ],
    [
      "pow",
      "er</w>"
    ],
    [
      "spi",
      "ri"
    ],
    [
      "there",
      "'s</w>"
    ],
    [
      "un",
      "der"
    ],
    [
      "w",
      "an"
    ],
    [
      "with",
      "in</w>"
    ],
    [
      "b",
      "er</w>"
    ],
    [
      "e",
      "ld</w>"
    ],
    [
      "ed",
      "s</w>"
    ],
    [
      "ir",
      "e</w>"
    ],
    [
      "l",
      "and</w>"
    ],
    [
      "l",
      "y.</w>"
    ],
    [
      "li",
      "es</w>"
    ],
    [
      "lie",
      "ve</w>"
    ],
    [
      "lor",
      "ds,</w>"
    ],
    [
      "s",
      "in</w>"
    ],
    [
      "sa",
      "id</w>"
    ],
    [
      "sa",
      "ve</w>"
    ],
    [
      "serv",
      "ant:</w>"
    ],
    [
      "thi",
      "s,</w>"
    ],
    [
      "vol",
      "um"
    ],
    [
      "withou",
      "t</w>"
    ],
    [
      "a",
      "g"
    ],
    [
      "at",
      "e,</w>"
    ],
    [
      "b",
      "y:</w>"
    ],
    [
      "d",
      "e,</w>"
    ],
    [
      "e",
      "i"
    ],
    [
      "ed",
      ";</w>"
    ],
    [
      "ha",
      "l"
    ],
    [
      "m",
      "ea"
    ],
    [
      "o",
      "'"
    ],
    [
      "ser",
      "vi"
    ],
    [
      "serv",
      "ing"
    ],
    [
      "sub",
      "je"
    ],
    [
      "ter",
      ",</w>"
    ],
    [
      "th",
      "ree</w>"
    ],
    [
      "wor",
      "thy</w>"
    ],
    [
      "a",
      ",</w>"
    ],
    [
      "b",
      "on"
    ],
    [
      "be",
      "t"
    ],
    [
      "d",
      "ang"
    ],
    [
      "hel",
      "p</w>"
    ],
    [
      "me",
      "an</w>"
    ],
    [
      "mer",
      "c"
    ],
    [
      "paul",
      "ina:</w>"
    ],
    [
      "polixen",
      "es:</w>"
    ],
    [
      "pompe",
      "y:</w>"
    ],
    [
      "s",
      "oul</w>"
    ],
    [
      "se",
      ";</w>"
    ],
    [
      "sen",
      "d</w>"
    ],
    [
      "sir",
      ";</w>"
    ],
    [
      "ta",
      "in"
    ],
    [
      "ta",
      "in</w>"
    ],
    [
      "un",
      "der</w>"
    ],
    [
      "a",
      "ge</w>"
    ],
    [
      "a",
      "um"
    ],
    [
      "aum",
      "er"
    ],
    [
      "be",
      "lieve</w>"
    ],
    [
      "chil",
      "dr"
    ],
    [
      "p",
      ",</w>"
    ],
    [
      "r",
      "un"
    ],
    [
      "senat",
      "or"
    ],
    [
      "sig",
      "ni"
    ],
    [
      "so",
      ".</w>"
    ],
    [
      "t",
      "ou"
    ],
    [
      "volum",
      "ni"
    ],
    [
      "war",
      "d</w>"
    ],
    [
      "wor",
      "ds</w>"
    ],
    [
      "y",
      "ing</w>"
    ],
    [
      ",",
      "'</w>"
    ],
    [
      "answ",
      "er</w>"
    ],
    [
      "b",
      "</w>"
    ],
    [
      "bro",
      "ther,</w>"
    ],
    [
      "fa",
      "ll</w>"
    ],
    [
      "fo",
      "llow"
    ],
    [
      "g",
      "r"
    ],
    [
      "gen",
      "er"
    ],
    [
      "ght",
      ".</w>"
    ],
    [
      "hasting",
      "s:</w>"
    ],
    [
      "him",
      "self</w>"
    ],
    [
      "kin",
      "d"
    ],
    [
      "le",
      "ar"
    ],
    [
      "m",
      "usi"
    ],
    [
      "ne",
      "'er</w>"
    ],
    [
      "que",
      "en"
    ],
    [
      "sh",
      "or"
    ],
    [
      "to",
      "ge"
    ],
    [
      "v",
      "al"
    ],
    [
      "volumni",
      "a:</w>"
    ],
    [
      "a",
      "h,</w>"
    ],
    [
      "c",
      "ol"
    ],
    [
      "d",
      "s:</w>"
    ],
    [
      "dau",
      "ghter</w>"
    ],
    [
      "f",
      "re"
    ],
    [
      "g",
      "g"
    ],
    [
      "g",
      "row"
    ],
    [
      "kin",
      "d</w>"
    ],
    [
      "le",
      "ft</w>"
    ],
    [
      "ll",
      ".</w>"
    ],
    [
      "mo",
      "ther"
    ],
    [
      "p",
      "t</w>"
    ],
    [
      "sa",
      "w</w>"
    ],
    [
      "sen",
      "g"
    ],
    [
      "serving",
      "man:</w>"
    ],
    [
      "the",
      "m,</w>"
    ],
    [
      "thou",
      "ght"
    ],
    [
      "cen",
      "ti"
    ],
    [
      "coun",
      "tr"
    ],
    [
      "da",
      "y,</w>"
    ],
    [
      "f",
      "oul</w>"
    ],
    [
      "ga",
      "un"
    ],
    [
      "him",
      ";</w>"
    ],
    [
      "k",
      "en</w>"
    ],
    [
      "laur",
      "ence:</w>"
    ],
    [
      "ll",
      "s</w>"
    ],
    [
      "mes",
      "seng"
    ],
    [
      "no",
      "t.</w>"
    ],
    [
      "o",
      ".</w>"
    ],
    [
      "p",
      "lu"
    ],
    [
      "st",
      "or"
    ],
    [
      "sw",
      "ear</w>"
    ],
    [
      "t",
      "-"
    ],
    [
      "t",
      "y.</w>"
    ],
    [
      "ty",
      "bal"
    ],
    [
      "w",
      "re"
    ],
    [
      "wif",
      "e</w>"
    ],
    [
      "ano",
      "ther</w>"
    ],
    [
      "ba",
      "ck</w>"
    ],
    [
      "bi",
      "on"
    ],
    [
      "ck",
      "'d</w>"
    ],
    [
      "ent",
      ".</w>"
    ],
    [
      "f",
      "lor"
    ],
    [
      "k",
      "s,</w>"
    ],
    [
      "ma",
      "jes"
    ],
    [
      "northumberlan",
      "d:</w>"
    ],
    [
      "si",
      "l"
    ],
    [
      "t",
      "ly</w>"
    ],
    [
      "ta",
      "l</w>"
    ],
    [
      "th",
      "y"
    ],
    [
      "'t",
      ".</w>"
    ],
    [
      "an",
      "ne"
    ],
    [
      "b",
      "e,</w>"
    ],
    [
      "be",
      "cause</w>"
    ],
    [
      "bion",
      "de"
    ],
    [
      "bionde",
      "ll"
    ],
    [
      "bloo",
      "dy</w>"
    ],
    [
      "do",
      "es</w>"
    ],
    [
      "frien",
      "ds</w>"
    ],
    [
      "hen",
      "ce</w>"
    ],
    [
      "jo",
      "h"
    ],
    [
      "jo",
      "y</w>"
    ],
    [
      "k",
      "en"
    ],
    [
      "mo",
      "ther</w>"
    ],
    [
      "on",
      "e:</w>"
    ],
    [
      "s",
      "l"
    ],
    [
      "th",
      "ing"
    ],
    [
      "th",
      "ings</w>"
    ],
    [
      "tow",
      "ar"
    ],
    [
      "v",
      "an"
    ],
    [
      "war",
      "ran"
    ],
    [
      "b",
      "at"
    ],
    [
      "ca",
      "tes"
    ],
    [
      "com",
      "man"
    ],
    [
      "er",
      "s,</w>"
    ],
    [
      "f",
      "et"
    ],
    [
      "her",
      "e"
    ],
    [
      "him",
      ":</w>"
    ],
    [
      "o",
      "a"
    ],
    [
      "pur",
      "po"
    ],
    [
      "th",
      "is"
    ],
    [
      "there",
      "fore,</w>"
    ],
    [
      "ti",
      "t"
    ],
    [
      "un",
      "c"
    ],
    [
      "w",
      "er"
    ],
    [
      "you",
      "?</w>"
    ],
    [
      "all",
      ",</w>"
    ],
    [
      "anne",
      ":</w>"
    ],
    [
      "bian",
      "ca"
    ],
    [
      "ci",
      "an"
    ],
    [
      "di",
      "sp"
    ],
    [
      "e",
      "lo"
    ],
    [
      "her",
      "e's</w>"
    ],
    [
      "mar",
      "ry,</w>"
    ],
    [
      "mistres",
      "s</w>"
    ],
    [
      "new",
      "s</w>"
    ],
    [
      "st",
      "e"
    ],
    [
      "to",
      "ld</w>"
    ],
    [
      "aga",
      "in</w>"
    ],
    [
      "c",
      "rea"
    ],
    [
      "c",
      "tor"
    ],
    [
      "ce",
      "iv"
    ],
    [
      "f",
      "ea"
    ],
    [
      "fa",
      "ul"
    ],
    [
      "g",
      "la"
    ],
    [
      "gi",
      "v"
    ],
    [
      "h",
      "e,</w>"
    ],
    [
      "her",
      "mi"
    ],
    [
      "nor",
      "fol"
    ],
    [
      "pea",
      "ce</w>"
    ],
    [
      "pra",
      "y"
    ],
    [
      "qu",
      "ar"
    ],
    [
      "s",
      "es"
    ],
    [
      "su",
      "re"
    ],
    [
      "thr",
      "ough</w>"
    ],
    [
      "tim",
      "es</w>"
    ],
    [
      "warwi",
      "ck</w>"
    ],
    [
      "'t",
      "was</w>"
    ],
    [
      "ar",
      "i"
    ],
    [
      "ce",
      "i"
    ],
    [
      "dea",
      "th.</w>"
    ],
    [
      "fal",
      "se</w>"
    ],
    [
      "flor",
      "iz"
    ],
    [
      "fo",
      "llow</w>"
    ],
    [
      "go",
      "t</w>"
    ],
    [
      "h",
      "ow"
    ],
    [
      "hi",
      "gh</w>"
    ],
    [
      "in",
      "e</w>"
    ],
    [
      "l",
      ":</w>"
    ],
    [
      "li",
      "e</w>"
    ],
    [
      "o",
      "p</w>"
    ],
    [
      "p",
      "en"
    ],
    [
      "par",
      "don"
    ],
    [
      "pres",
      "ent</w>"
    ],
    [
      "s",
      "'d</w>"
    ],
    [
      "s",
      "oun"
    ],
    [
      "signi",
      "or</w>"
    ],
    [
      "w",
      "oun"
    ],
    [
      "w",
      "ri"
    ],
    [
      "you",
      ";</w>"
    ],
    [
      "at",
      "ten"
    ],
    [
      "ei",
      "ther</w>"
    ],
    [
      "fa",
      "ce</w>"
    ],
    [
      "fl",
      "ow"
    ],
    [
      "for",
      "m"
    ],
    [
      "fortun",
      "e</w>"
    ],
    [
      "go",
      "d,</w>"
    ],
    [
      "min",
      "d</w>"
    ],
    [
      "mor",
      "e,</w>"
    ],
    [
      "o",
      "be"
    ],
    [
      "on",
      "e.</w>"
    ],
    [
      "p",
      "h"
    ],
    [
      "ri",
      "ver"
    ],
    [
      "se",
      "e,</w>"
    ],
    [
      "tw",
      "ent"
    ],
    [
      "up",
      ",</w>"
    ],
    [
      "bo",
      "dy</w>"
    ],
    [
      "brea",
      "k</w>"
    ],
    [
      "ent",
      "rea"
    ],
    [
      "gentle",
      "man:</w>"
    ],
    [
      "in",
      "stru"
    ],
    [
      "k",
      ".</w>"
    ],
    [
      "ki",
      "ll</w>"
    ],
    [
      "l",
      ".</w>"
    ],
    [
      "l",
      "ing</w>"
    ],
    [
      "n",
      "ed</w>"
    ],
    [
      "p",
      "lan"
    ],
    [
      "r",
      "en"
    ],
    [
      "shi",
      "p</w>"
    ],
    [
      "warwick",
      ",</w>"
    ],
    [
      "again",
      ".</w>"
    ],
    [
      "ang",
      "elo"
    ],
    [
      "br",
      "ought</w>"
    ],
    [
      "ch",
      "'d</w>"
    ],
    [
      "ch",
      "mon"
    ],
    [
      "ch",
      "oo"
    ],
    [
      "com",
      "e.</w>"
    ],
    [
      "d",
      "ear"
    ],
    [
      "es",
      "t,</w>"
    ],
    [
      "da",
      "m"
    ],
    [
      "eng",
      "lan"
    ],
    [
      "han",
      "ds</w>"
    ],
    [
      "in",
      "i"
    ],
    [
      "k",
      "e.</w>"
    ],
    [
      "king",
      ".</w>"
    ],
    [
      "li",
      "sh</w>"
    ],
    [
      "li",
      "ves</w>"
    ],
    [
      "me",
      "!</w>"
    ],
    [
      "p",
      "e</w>"
    ],
    [
      "res",
      "ol"
    ],
    [
      "ri",
      "chmon"
    ],
    [
      "rome",
      "o</w>"
    ],
    [
      "sel",
      "v"
    ],
    [
      "sle",
      "ep"
    ],
    [
      "sor",
      "row</w>"
    ],
    [
      "st",
      "ate</w>"
    ],
    [
      "stra",
      "i"
    ],
    [
      "tal",
      "k</w>"
    ],
    [
      "wif",
      "e,</w>"
    ],
    [
      "you",
      ":</w>"
    ],
    [
      "aufidi",
      "us:</w>"
    ],
    [
      "con",
      "su"
    ],
    [
      "d",
      "om</w>"
    ],
    [
      "de",
      "f"
    ],
    [
      "dea",
      "d</w>"
    ],
    [
      "di",
      "sh"
    ],
    [
      "dra",
      "w</w>"
    ],
    [
      "e",
      "mi"
    ],
    [
      "edwar",
      "d's</w>"
    ],
    [
      "floriz",
      "el:</w>"
    ],
    [
      "g",
      "ed</w>"
    ],
    [
      "lor",
      "d"
    ],
    [
      "marci",
      "us:</w>"
    ],
    [
      "messeng",
      "er:</w>"
    ],
    [
      "ne",
      "ed</w>"
    ],
    [
      "s",
      "wa"
    ],
    [
      "tear",
      "s</w>"
    ],
    [
      "v",
      "e.</w>"
    ],
    [
      "w",
      "oo"
    ],
    [
      "will",
      ",</w>"
    ],
    [
      "bi",
      "r"
    ],
    [
      "bl",
      "e,</w>"
    ],
    [
      "ca",
      "u"
    ],
    [
      "can",
      "st</w>"
    ],
    [
      "d",
      "en</w>"
    ],
    [
      "di",
      "dst</w>"
    ],
    [
      "en",
      "ter"
    ],
    [
      "exe",
      "cu"
    ],
    [
      "h",
      "our</w>"
    ],
    [
      "han",
      "d,</w>"
    ],
    [
      "hea",
      "vy</w>"
    ],
    [
      "i",
      "an"
    ],
    [
      "l",
      "est</w>"
    ],
    [
      "m",
      "ou"
    ],
    [
      "men",
      "t,</w>"
    ],
    [
      "o",
      "x"
    ],
    [
      "pla",
      "y</w>"
    ],
    [
      "richar",
      "d:</w>"
    ],
    [
      "s",
      "of"
    ],
    [
      "tri",
      "bu"
    ],
    [
      "w",
      "ear"
    ],
    [
      "y",
      "ea"
    ],
    [
      "!",
      "'</w>"
    ],
    [
      "an",
      "ti"
    ],
    [
      "c",
      "t"
    ],
    [
      "ch",
      ".</w>"
    ],
    [
      "comfor",
      "t</w>"
    ],
    [
      "f",
      "an"
    ],
    [
      "for",
      ",</w>"
    ],
    [
      "gri",
      "ef"
    ],
    [
      "ha",
      "ving</w>"
    ],
    [
      "ing",
      ":</w>"
    ],
    [
      "is",
      "su"
    ],
    [
      "le",
      "w"
    ],
    [
      "mean",
      "s</w>"
    ],
    [
      "re",
      "qu"
    ],
    [
      "it",
      "e</w>"
    ],
    [
      "se",
      "en</w>"
    ],
    [
      "senator",
      ":</w>"
    ],
    [
      "sh",
      "e's</w>"
    ],
    [
      "si",
      "r</w>"
    ],
    [
      "wi",
      "sh</w>"
    ],
    [
      "a",
      "bo"
    ],
    [
      "ar",
      "d</w>"
    ],
    [
      "bloo",
      "d,</w>"
    ],
    [
      "chang",
      "e</w>"
    ],
    [
      "citiz",
      "en"
    ],
    [
      "der",
      ",</w>"
    ],
    [
      "fai",
      "th,</w>"
    ],
    [
      "g",
      "ol"
    ],
    [
      "go",
      "d's</w>"
    ],
    [
      "joh",
      "n</w>"
    ],
    [
      "k",
      "now,</w>"
    ],
    [
      "li",
      "ght"
    ],
    [
      "ll",
      "y</w>"
    ],
    [
      "lor",
      "d;</w>"
    ],
    [
      "man",
      ".</w>"
    ],
    [
      "o",
      "b"
    ],
    [
      "oul",
      "dst</w>"
    ],
    [
      "rea",
      "d</w>"
    ],
    [
      "sh",
      "e"
    ],
    [
      "shepher",
      "d:</w>"
    ],
    [
      "sor",
      "row"
    ],
    [
      "str",
      "eng"
    ],
    [
      "them",
      ".</w>"
    ],
    [
      "thin",
      "ks</w>"
    ],
    [
      "wi",
      "t"
    ],
    [
      "you",
      "'ll</w>"
    ],
    [
      "'t",
      "were</w>"
    ],
    [
      "a",
      "ble</w>"
    ],
    [
      "ba",
      "ck"
    ],
    [
      "biondell",
      "o:</w>"
    ],
    [
      "c",
      "ry</w>"
    ],
    [
      "comp",
      "an"
    ],
    [
      "don",
      "e,</w>"
    ],
    [
      "f",
      "row"
    ],
    [
      "frien",
      "ds,</w>"
    ],
    [
      "her",
      ".</w>"
    ],
    [
      "it",
      ":</w>"
    ],
    [
      "o",
      "!</w>"
    ],
    [
      "o'",
      "er"
    ],
    [
      "ox",
      "for"
    ],
    [
      "po",
      "in"
    ],
    [
      "qu",
      "a"
    ],
    [
      "rea",
      "dy</w>"
    ],
    [
      "s",
      "ca"
    ],
    [
      "s",
      "cor"
    ],
    [
      "s",
      "s</w>"
    ],
    [
      "see",
      "m</w>"
    ],
    [
      "sha",
      "me</w>"
    ],
    [
      "su",
      "c"
    ],
    [
      "su",
      "ff"
    ],
    [
      "sun",
      "</w>"
    ],
    [
      "ti",
      "me,</w>"
    ],
    [
      "year",
      "s</w>"
    ],
    [
      "all",
      ".</w>"
    ],
    [
      "bo",
      "som"
    ],
    [
      "crow",
      "n</w>"
    ],
    [
      "d",
      "o,</w>"
    ],
    [
      "fri",
      "ar"
    ],
    [
      "go",
      "ds</w>"
    ],
    [
      "gu",
      "il"
    ],
    [
      "hal",
      "f</w>"
    ],
    [
      "i",
      "s:</w>"
    ],
    [
      "know",
      "s</w>"
    ],
    [
      "liv",
      "e,</w>"
    ],
    [
      "loo",
      "ks</w>"
    ],
    [
      "ma",
      "tter"
    ],
    [
      "mo",
      "ther,</w>"
    ],
    [
      "nat",
      "u"
    ],
    [
      "pea",
      "ce,</w>"
    ],
    [
      "peop",
      "le</w>"
    ],
    [
      "pit",
      "y</w>"
    ],
    [
      "pra",
      "y,</w>"
    ],
    [
      "prou",
      "d</w>"
    ],
    [
      "re",
      "s</w>"
    ],
    [
      "sa",
      "me</w>"
    ],
    [
      "sa",
      "ys</w>"
    ],
    [
      "son",
      ".</w>"
    ],
    [
      "st",
      "re"
    ],
    [
      "st",
      "u"
    ],
    [
      "ther",
      "e,</w>"
    ],
    [
      "this",
      "?</w>"
    ],
    [
      "ti",
      "es</w>"
    ],
    [
      "twent",
      "y</w>"
    ],
    [
      "un",
      "less</w>"
    ],
    [
      "wel",
      "come</w>"
    ],
    [
      "y",
      "et,</w>"
    ],
    [
      "b",
      "and</w>"
    ],
    [
      "c",
      "lou"
    ],
    [
      "comm",
      "on</w>"
    ],
    [
      "d",
      "es</w>"
    ],
    [
      "d",
      "ge</w>"
    ],
    [
      "es",
      "s.</w>"
    ],
    [
      "f",
      "ra"
    ],
    [
      "f",
      "ree</w>"
    ],
    [
      "ha",
      "te</w>"
    ],
    [
      "heaven",
      ",</w>"
    ],
    [
      "inde",
      "ed,</w>"
    ],
    [
      "it",
      "y,</w>"
    ],
    [
      "l",
      "s</w>"
    ],
    [
      "mar",
      "k</w>"
    ],
    [
      "mi",
      "l"
    ],
    [
      "o",
      "'s</w>"
    ],
    [
      "que",
      "en,</w>"
    ],
    [
      "r",
      "oo"
    ],
    [
      "remem",
      "ber</w>"
    ],
    [
      "si",
      "ster"
    ],
    [
      "sir",
      "ra"
    ],
    [
      "t",
      "ro"
    ],
    [
      "li",
      "ght</w>"
    ],
    [
      "v",
      "ent"
    ],
    [
      "vol",
      "s"
    ],
    [
      "wa",
      "l"
    ],
    [
      "whi",
      "ch,</w>"
    ],
    [
      "wi",
      "dow"
    ],
    [
      "yor",
      "k</w>"
    ],
    [
      "'",
      "t,</w>"
    ],
    [
      "aumer",
      "le:</w>"
    ],
    [
      "bat",
      "t"
    ],
    [
      "be",
      "d</w>"
    ],
    [
      "c",
      "old</w>"
    ],
    [
      "cei",
      "ve</w>"
    ],
    [
      "cu",
      "t</w>"
    ],
    [
      "d",
      "y,</w>"
    ],
    [
      "e",
      "vi"
    ],
    [
      "on",
      "d</w>"
    ],
    [
      "g",
      "e.</w>"
    ],
    [
      "g",
      "one</w>"
    ],
    [
      "hus",
      "band</w>"
    ],
    [
      "k",
      "'d</w>"
    ],
    [
      "k",
      "ed</w>"
    ],
    [
      "k",
      "no"
    ],
    [
      "ck",
      "s</w>"
    ],
    [
      "kis",
      "s</w>"
    ],
    [
      "know",
      "n</w>"
    ],
    [
      "l",
      "in"
    ],
    [
      "lov",
      "ed</w>"
    ],
    [
      "mi",
      "ght"
    ],
    [
      "nes",
      "s,</w>"
    ],
    [
      "ni",
      "ght,</w>"
    ],
    [
      "on",
      ":</w>"
    ],
    [
      "sa",
      "ti"
    ],
    [
      "some",
      "thing</w>"
    ],
    [
      "son",
      "s</w>"
    ],
    [
      "spea",
      "k,</w>"
    ],
    [
      "speak",
      ".</w>"
    ],
    [
      "swe",
      "et"
    ],
    [
      "ten",
      "der</w>"
    ],
    [
      "th",
      "ri"
    ],
    [
      "tion",
      "s</w>"
    ],
    [
      "wi",
      "xt</w>"
    ],
    [
      "ad",
      "vi"
    ],
    [
      "af",
      "fec"
    ],
    [
      "again",
      ",</w>"
    ],
    [
      "bea",
      "t</w>"
    ],
    [
      "ch",
      "o"
    ],
    [
      "claudi",
      "o:</w>"
    ],
    [
      "d",
      "are</w>"
    ],
    [
      "des",
      "ire</w>"
    ],
    [
      "drea",
      "m"
    ],
    [
      "en",
      "emi"
    ],
    [
      "es",
      "?</w>"
    ],
    [
      "fir",
      "st,</w>"
    ],
    [
      "gentle",
      "man</w>"
    ],
    [
      "it",
      "?</w>"
    ],
    [
      "la",
      "te</w>"
    ],
    [
      "lan",
      "ca"
    ],
    [
      "lew",
      "is</w>"
    ],
    [
      "lu",
      "centi"
    ],
    [
      "min",
      "e,</w>"
    ],
    [
      "offi",
      "c"
    ],
    [
      "pi",
      "e"
    ],
    [
      "pla",
      "ce</w>"
    ],
    [
      "s",
      "car"
    ],
    [
      "se",
      "d,</w>"
    ],
    [
      "bl",
      "es"
    ],
    [
      "sel",
      "ves</w>"
    ],
    [
      "shi",
      "p"
    ],
    [
      "so",
      "on</w>"
    ],
    [
      "sp",
      "ee"
    ],
    [
      "st",
      ";</w>"
    ],
    [
      "th",
      ";</w>"
    ],
    [
      "to-mor",
      "row"
    ],
    [
      "warran",
      "t</w>"
    ],
    [
      "yi",
      "eld</w>"
    ],
    [
      "ac",
      "c"
    ],
    [
      "bor",
      "n</w>"
    ],
    [
      "c",
      "are</w>"
    ],
    [
      "c",
      "ely</w>"
    ],
    [
      "char",
      "ge</w>"
    ],
    [
      "cliffor",
      "d:</w>"
    ],
    [
      "di",
      "ta"
    ],
    [
      "ed",
      "?</w>"
    ],
    [
      "el",
      "bow"
    ],
    [
      "en",
      "ough"
    ],
    [
      "es",
      "!</w>"
    ],
    [
      "ey",
      "e</w>"
    ],
    [
      "g",
      "e:</w>"
    ],
    [
      "g",
      "lor"
    ],
    [
      "gri",
      "ef</w>"
    ],
    [
      "hear",
      "t,</w>"
    ],
    [
      "honour",
      ",</w>"
    ],
    [
      "kne",
      "w</w>"
    ],
    [
      "li",
      "fe"
    ],
    [
      "lov",
      "ing</w>"
    ],
    [
      "ment",
      "s</w>"
    ],
    [
      "mi",
      "ran"
    ],
    [
      "miran",
      "da"
    ],
    [
      "na",
      "me,</w>"
    ],
    [
      "o",
      "?</w>"
    ],
    [
      "ou",
      "t"
    ],
    [
      "our",
      "s</w>"
    ],
    [
      "pro",
      "cla"
    ],
    [
      "quar",
      "re"
    ],
    [
      "re",
      "ma"
    ],
    [
      "in",
      ".</w>"
    ],
    [
      "su",
      "p"
    ],
    [
      "swor",
      "n</w>"
    ],
    [
      "t",
      "ar"
    ],
    [
      "g",
      "et</w>"
    ],
    [
      "us",
      "ur"
    ],
    [
      "well",
      ";</w>"
    ],
    [
      "y",
      "-"
    ],
    [
      "hea",
      "v"
    ],
    [
      "heav",
      "en</w>"
    ],
    [
      "s",
      "k"
    ],
    [
      "z",
      "e</w>"
    ],
    [
      "b",
      "row"
    ],
    [
      "be",
      "come</w>"
    ],
    [
      "bet",
      "we"
    ],
    [
      "bra",
      "ve</w>"
    ],
    [
      "brother",
      "'s</w>"
    ],
    [
      "ch",
      "ee"
    ],
    [
      "cl",
      "e,</w>"
    ],
    [
      "con",
      "s"
    ],
    [
      "d",
      "e.</w>"
    ],
    [
      "d",
      "ro"
    ],
    [
      "de",
      "ep</w>"
    ],
    [
      "de",
      "m"
    ],
    [
      "dra",
      "w"
    ],
    [
      "e",
      "'er</w>"
    ],
    [
      "er",
      "i"
    ],
    [
      "er",
      "y</w>"
    ],
    [
      "fa",
      "v"
    ],
    [
      "ge",
      "or"
    ],
    [
      "hermi",
      "one:</w>"
    ],
    [
      "in",
      "'d</w>"
    ],
    [
      "lov",
      "e.</w>"
    ],
    [
      "n",
      "ar"
    ],
    [
      "nat",
      "ure</w>"
    ],
    [
      "p",
      "at"
    ],
    [
      "p",
      "or"
    ],
    [
      "rom",
      "e</w>"
    ],
    [
      "s",
      "ma"
    ],
    [
      "see",
      "k</w>"
    ],
    [
      "stan",
      "ds</w>"
    ],
    [
      "ty",
      "ran"
    ],
    [
      "whi",
      "l"
    ],
    [
      "wre",
      "tch"
    ],
    [
      "yea",
      ",</w>"
    ],
    [
      "al",
      ",</w>"
    ],
    [
      "bes",
      "i"
    ],
    [
      "c",
      "ity</w>"
    ],
    [
      "c",
      "tion</w>"
    ],
    [
      "cou",
      "sin</w>"
    ],
    [
      "cousin",
      ",</w>"
    ],
    [
      "dang",
      "er"
    ],
    [
      "di",
      "re"
    ],
    [
      "e",
      "mp"
    ],
    [
      "e",
      "ver"
    ],
    [
      "fare",
      "well,</w>"
    ],
    [
      "fear",
      "ful</w>"
    ],
    [
      "ga",
      "ve</w>"
    ],
    [
      "giv",
      "en</w>"
    ],
    [
      "gra",
      "ve</w>"
    ],
    [
      "hen",
      "ce,</w>"
    ],
    [
      "i",
      "m</w>"
    ],
    [
      "i",
      "mp"
    ],
    [
      "in",
      ":</w>"
    ],
    [
      "ir",
      ",</w>"
    ],
    [
      "it",
      "s</w>"
    ],
    [
      "la",
      "w</w>"
    ],
    [
      "le",
      "tter"
    ],
    [
      "look",
      "'d</w>"
    ],
    [
      "m",
      "ed</w>"
    ],
    [
      "m",
      "ow"
    ],
    [
      "mada",
      "m"
    ],
    [
      "man",
      "n"
    ],
    [
      "miranda",
      ":</w>"
    ],
    [
      "night",
      ".</w>"
    ],
    [
      "o",
      "'er</w>"
    ],
    [
      "pro",
      "ce"
    ],
    [
      "que",
      "en:</w>"
    ],
    [
      "rome",
      "o,</w>"
    ],
    [
      "sa",
      "y"
    ],
    [
      "sati",
      "s"
    ],
    [
      "se",
      "!</w>"
    ],
    [
      "sir",
      "?</w>"
    ],
    [
      "t",
      "in"
    ],
    [
      "too",
      ",</w>"
    ],
    [
      "w",
      "ear</w>"
    ],
    [
      "wel",
      "come,</w>"
    ],
    [
      "worl",
      "d,</w>"
    ],
    [
      "x",
      "</w>"
    ],
    [
      "'",
      "d;</w>"
    ],
    [
      "g",
      "ro"
    ],
    [
      "b",
      "y,</w>"
    ],
    [
      "bl",
      "ow"
    ],
    [
      "busin",
      "ess</w>"
    ],
    [
      "ca",
      "ll"
    ],
    [
      "cates",
      "by:</w>"
    ],
    [
      "clar",
      "ence</w>"
    ],
    [
      "da",
      "y.</w>"
    ],
    [
      "fe",
      "ct</w>"
    ],
    [
      "fi",
      "ght</w>"
    ],
    [
      "frien",
      "d</w>"
    ],
    [
      "gon",
      "e,</w>"
    ],
    [
      "goo",
      "d,</w>"
    ],
    [
      "h",
      "in"
    ],
    [
      "hea",
      "d,</w>"
    ],
    [
      "her",
      "e?</w>"
    ],
    [
      "here",
      "for"
    ],
    [
      "hi",
      "ther</w>"
    ],
    [
      "hou",
      "se,</w>"
    ],
    [
      "i",
      "ous</w>"
    ],
    [
      "i",
      "sed</w>"
    ],
    [
      "is",
      "'t</w>"
    ],
    [
      "li",
      "ber"
    ],
    [
      "men",
      "d</w>"
    ],
    [
      "mor",
      "e.</w>"
    ],
    [
      "mow",
      "bra"
    ],
    [
      "ou",
      "s,</w>"
    ],
    [
      "pa",
      "st</w>"
    ],
    [
      "pas",
      "s</w>"
    ],
    [
      "plu",
      "ck</w>"
    ],
    [
      "qui",
      "ck"
    ],
    [
      "ra",
      "t"
    ],
    [
      "rep",
      "ort</w>"
    ],
    [
      "res",
      "pe"
    ],
    [
      "sa",
      "f"
    ],
    [
      "ser",
      "ve</w>"
    ],
    [
      "st",
      "ea"
    ],
    [
      "stan",
      "le"
    ],
    [
      "stri",
      "ke</w>"
    ],
    [
      "su",
      "pp"
    ],
    [
      "t",
      "ry</w>"
    ],
    [
      "th",
      "or"
    ],
    [
      "too",
      "k</w>"
    ],
    [
      "tr",
      "ou"
    ],
    [
      "tr",
      "ust</w>"
    ],
    [
      "wh",
      "e"
    ],
    [
      "wom",
      "en</w>"
    ],
    [
      "y",
      "'d</w>"
    ],
    [
      "youn",
      "g"
    ],
    [
      "all",
      ":</w>"
    ],
    [
      "an",
      "ce,</w>"
    ],
    [
      "b",
      "ound</w>"
    ],
    [
      "b",
      "ran"
    ],
    [
      "ba",
      "w"
    ],
    [
      "c",
      "ros"
    ],
    [
      "c",
      "ru"
    ],
    [
      "ca",
      "p"
    ],
    [
      "ch",
      "es</w>"
    ],
    [
      "f",
      "ro"
    ],
    [
      "gre",
      "y:</w>"
    ],
    [
      "h",
      "oo"
    ],
    [
      "d",
      "s;</w>"
    ],
    [
      "hom",
      "e</w>"
    ],
    [
      "hon",
      "est</w>"
    ],
    [
      "l",
      "on"
    ],
    [
      "lo",
      "st</w>"
    ],
    [
      "m",
      "b"
    ],
    [
      "m",
      "ed"
    ],
    [
      "ma",
      "y"
    ],
    [
      "mar",
      "ian"
    ],
    [
      "off",
      "en"
    ],
    [
      "om",
      ",</w>"
    ],
    [
      "ou",
      "t,</w>"
    ],
    [
      "p",
      "ed"
    ],
    [
      "prin",
      "ce,</w>"
    ],
    [
      "s",
      "ound</w>"
    ],
    [
      "sa",
      "int</w>"
    ],
    [
      "see",
      "m"
    ],
    [
      "so",
      "?</w>"
    ],
    [
      "tre",
      "m"
    ],
    [
      "tru",
      "th</w>"
    ],
    [
      "well",
      ":</w>"
    ],
    [
      "wi",
      "fe"
    ],
    [
      "al",
      ".</w>"
    ],
    [
      "awa",
      "y.</w>"
    ],
    [
      "b",
      "li"
    ],
    [
      "sh",
      "'d</w>"
    ],
    [
      "bianca",
      ":</w>"
    ],
    [
      "c",
      "es,</w>"
    ],
    [
      "c",
      "le"
    ],
    [
      "c",
      "ted</w>"
    ],
    [
      "ci",
      "ent</w>"
    ],
    [
      "cont",
      "ent</w>"
    ],
    [
      "crow",
      "n"
    ],
    [
      "crow",
      "n,</w>"
    ],
    [
      "d",
      "est</w>"
    ],
    [
      "da",
      "ys</w>"
    ],
    [
      "dr",
      "in"
    ],
    [
      "edwar",
      "d,</w>"
    ],
    [
      "en",
      "ough</w>"
    ],
    [
      "ey",
      "es,</w>"
    ],
    [
      "fet",
      "ch</w>"
    ],
    [
      "gaun",
      "t:</w>"
    ],
    [
      "hen",
      "r"
    ],
    [
      "in",
      "ted</w>"
    ],
    [
      "in",
      "ten"
    ],
    [
      "k",
      "na"
    ],
    [
      "king",
      "'s</w>"
    ],
    [
      "le",
      ";</w>"
    ],
    [
      "ll",
      "ing</w>"
    ],
    [
      "loo",
      "k,</w>"
    ],
    [
      "lor",
      "d?</w>"
    ],
    [
      "man",
      "'s</w>"
    ],
    [
      "marci",
      "us</w>"
    ],
    [
      "marri",
      "ed</w>"
    ],
    [
      "n",
      "ear</w>"
    ],
    [
      "op",
      "en</w>"
    ],
    [
      "per",
      "dita"
    ],
    [
      "re",
      "turn</w>"
    ],
    [
      "si",
      "de</w>"
    ],
    [
      "st",
      "s</w>"
    ],
    [
      "tribu",
      "n"
    ],
    [
      "tru",
      "e,</w>"
    ],
    [
      "van",
      "ta"
    ],
    [
      "vi",
      "ctor"
    ],
    [
      "wi",
      "l"
    ],
    [
      "ala",
      "s,</w>"
    ],
    [
      "b",
      "re"
    ],
    [
      "betwe",
      "en</w>"
    ],
    [
      "c",
      "ham"
    ],
    [
      "ch",
      "ri"
    ],
    [
      "d",
      "le</w>"
    ],
    [
      "d",
      "ru"
    ],
    [
      "dea",
      "d,</w>"
    ],
    [
      "deli",
      "ver"
    ],
    [
      "dish",
      "on"
    ],
    [
      "ex",
      "ce"
    ],
    [
      "en",
      "t,</w>"
    ],
    [
      "f",
      ",</w>"
    ],
    [
      "frien",
      "d,</w>"
    ],
    [
      "gu",
      "e</w>"
    ],
    [
      "h",
      "ur"
    ],
    [
      "ha",
      "dst</w>"
    ],
    [
      "hour",
      "s</w>"
    ],
    [
      "i",
      "ma"
    ],
    [
      "in",
      "t"
    ],
    [
      "ju",
      "dg"
    ],
    [
      "ke",
      "ep"
    ],
    [
      "lie",
      "ge,</w>"
    ],
    [
      "m",
      "el"
    ],
    [
      "mi",
      "ser"
    ],
    [
      "mo",
      "ve</w>"
    ],
    [
      "nei",
      "ther</w>"
    ],
    [
      "of",
      "ten</w>"
    ],
    [
      "re",
      "ver"
    ],
    [
      "ri",
      "ed</w>"
    ],
    [
      "ri",
      "ght"
    ],
    [
      "rom",
      "an"
    ],
    [
      "rom",
      "e,</w>"
    ],
    [
      "run",
      "</w>"
    ],
    [
      "s",
      "an"
    ],
    [
      "s",
      "us"
    ],
    [
      "sea",
      "</w>"
    ],
    [
      "som",
      "er"
    ],
    [
      "sw",
      "ear"
    ],
    [
      "th",
      "re"
    ],
    [
      "th",
      "row</w>"
    ],
    [
      "tt",
      "ing</w>"
    ],
    [
      "tt",
      "y</w>"
    ],
    [
      "va",
      "li"
    ],
    [
      "war",
      "</w>"
    ],
    [
      "we",
      "i"
    ],
    [
      "wh",
      "o,</w>"
    ],
    [
      "whil",
      "st</w>"
    ],
    [
      "your",
      "self</w>"
    ],
    [
      "awa",
      "y,</w>"
    ],
    [
      "bi",
      "sh"
    ],
    [
      "ble",
      ".</w>"
    ],
    [
      "c",
      "ow"
    ],
    [
      "ch",
      "ur"
    ],
    [
      "co",
      "ver"
    ],
    [
      "t",
      "ure</w>"
    ],
    [
      "di",
      "e.</w>"
    ],
    [
      "doub",
      "t</w>"
    ],
    [
      "down",
      ",</w>"
    ],
    [
      "e",
      "per"
    ],
    [
      "elbow",
      ":</w>"
    ],
    [
      "f",
      "li"
    ],
    [
      "fe",
      "llow</w>"
    ],
    [
      "fir",
      "e</w>"
    ],
    [
      "fla",
      "tter"
    ],
    [
      "for",
      "ce</w>"
    ],
    [
      "ga",
      "in"
    ],
    [
      "go",
      ".</w>"
    ],
    [
      "go",
      "ver"
    ],
    [
      "he",
      "ld</w>"
    ],
    [
      "her",
      "e.</w>"
    ],
    [
      "ing",
      ";</w>"
    ],
    [
      "lar",
      "ti"
    ],
    [
      "li",
      "a:</w>"
    ],
    [
      "my",
      "self,</w>"
    ],
    [
      "pa",
      "ir</w>"
    ],
    [
      "pri",
      "thee,</w>"
    ],
    [
      "prin",
      "cely</w>"
    ],
    [
      "pro",
      "f"
    ],
    [
      "river",
      "s:</w>"
    ],
    [
      "se",
      "?</w>"
    ],
    [
      "se",
      "cre"
    ],
    [
      "se",
      "l</w>"
    ],
    [
      "sh",
      "ed</w>"
    ],
    [
      "sp",
      "a"
    ],
    [
      "t",
      "ch</w>"
    ],
    [
      "te",
      "d,</w>"
    ],
    [
      "us",
      ";</w>"
    ],
    [
      "'",
      "d:</w>"
    ],
    [
      "'",
      "s,</w>"
    ],
    [
      "atten",
      "d</w>"
    ],
    [
      "beau",
      "ty</w>"
    ],
    [
      "bucking",
      "ha"
    ],
    [
      "c",
      "ea"
    ],
    [
      "c",
      "ti"
    ],
    [
      "ch",
      "ance</w>"
    ],
    [
      "ck",
      "ed</w>"
    ],
    [
      "clar",
      "ence,</w>"
    ],
    [
      "com",
      "e;</w>"
    ],
    [
      "con",
      "dem"
    ],
    [
      "coun",
      "ter"
    ],
    [
      "d",
      "ness</w>"
    ],
    [
      "dr",
      "un"
    ],
    [
      "ear",
      "l</w>"
    ],
    [
      "el",
      ",</w>"
    ],
    [
      "er",
      "'d</w>"
    ],
    [
      "er",
      "?</w>"
    ],
    [
      "pri",
      "son"
    ],
    [
      "fa",
      "ce,</w>"
    ],
    [
      "fl",
      "es"
    ],
    [
      "foo",
      "t</w>"
    ],
    [
      "g",
      "or"
    ],
    [
      "ha",
      "ve,</w>"
    ],
    [
      "him",
      "?</w>"
    ],
    [
      "inde",
      "ed</w>"
    ],
    [
      "ke",
      "eper"
    ],
    [
      "master",
      ",</w>"
    ],
    [
      "men",
      ".</w>"
    ],
    [
      "merc",
      "y</w>"
    ],
    [
      "might",
      "y</w>"
    ],
    [
      "mor",
      "tal</w>"
    ],
    [
      "ne",
      "ed"
    ],
    [
      "ne",
      "xt</w>"
    ],
    [
      "om",
      "as</w>"
    ],
    [
      "on",
      ";</w>"
    ],
    [
      "or",
      "s</w>"
    ],
    [
      "pe",
      "ti"
    ],
    [
      "rat",
      "clif"
    ],
    [
      "re",
      "tur"
    ],
    [
      "rea",
      "d"
    ],
    [
      "ri",
      "ch</w>"
    ],
    [
      "s",
      "lan"
    ],
    [
      "s",
      "li"
    ],
    [
      "s",
      "y</w>"
    ],
    [
      "sla",
      "u"
    ],
    [
      "soul",
      ",</w>"
    ],
    [
      "st",
      "ing</w>"
    ],
    [
      "st",
      "oo"
    ],
    [
      "st",
      "y</w>"
    ],
    [
      "te",
      "ll"
    ],
    [
      "th",
      "omas</w>"
    ],
    [
      "thin",
      "k,</w>"
    ],
    [
      "to-mor",
      "row</w>"
    ],
    [
      "tri",
      "um"
    ],
    [
      "tt",
      "ed</w>"
    ],
    [
      "w",
      "in</w>"
    ],
    [
      "wi",
      "se</w>"
    ],
    [
      "o",
      "ther"
    ],
    [
      "wom",
      "an</w>"
    ],
    [
      "wor",
      "th</w>"
    ],
    [
      "yi",
      "el"
    ],
    [
      "'",
      "ld</w>"
    ],
    [
      "0",
      "</w>"
    ],
    [
      "ap",
      "pro"
    ],
    [
      "as",
      "k</w>"
    ],
    [
      "be",
      "tter"
    ],
    [
      "ca",
      "ll'd</w>"
    ],
    [
      "childr",
      "en</w>"
    ],
    [
      "da",
      "y"
    ],
    [
      "e",
      "th</w>"
    ],
    [
      "entrea",
      "t</w>"
    ],
    [
      "f",
      "our"
    ],
    [
      "f",
      "res"
    ],
    [
      "fi",
      "e,</w>"
    ],
    [
      "for",
      "m</w>"
    ],
    [
      "g",
      "s</w>"
    ],
    [
      "gener",
      "al</w>"
    ],
    [
      "gentle",
      "men,</w>"
    ],
    [
      "gi",
      "r"
    ],
    [
      "go",
      "es</w>"
    ],
    [
      "gr",
      "oun"
    ],
    [
      "gra",
      "v"
    ],
    [
      "gran",
      "t</w>"
    ],
    [
      "gu",
      "i"
    ],
    [
      "hear",
      "t.</w>"
    ],
    [
      "him",
      "!</w>"
    ],
    [
      "hol",
      "d,</w>"
    ],
    [
      "hom",
      "e,</w>"
    ],
    [
      "il",
      ",</w>"
    ],
    [
      "justi",
      "ce</w>"
    ],
    [
      "k",
      ":</w>"
    ],
    [
      "kin",
      "s"
    ],
    [
      "la",
      "b"
    ],
    [
      "ma",
      "li"
    ],
    [
      "mar",
      "ry</w>"
    ],
    [
      "me",
      "thinks</w>"
    ],
    [
      "min",
      "e.</w>"
    ],
    [
      "montagu",
      "e:</w>"
    ],
    [
      "nur",
      "se,</w>"
    ],
    [
      "oa",
      "th</w>"
    ],
    [
      "on",
      "s</w>"
    ],
    [
      "x",
      "i"
    ],
    [
      "ou",
      "ra"
    ],
    [
      "s",
      "ing"
    ],
    [
      "se",
      "ver"
    ],
    [
      "sir",
      ":</w>"
    ],
    [
      "sirra",
      "h,</w>"
    ],
    [
      "sle",
      "ep</w>"
    ],
    [
      "spo",
      "ke</w>"
    ],
    [
      "str",
      "ong</w>"
    ],
    [
      "strai",
      "ght</w>"
    ],
    [
      "stran",
      "ge</w>"
    ],
    [
      "sur",
      "e,</w>"
    ],
    [
      "t",
      "wi"
    ],
    [
      "ta",
      "'"
    ],
    [
      "ta",
      "ble</w>"
    ],
    [
      "th",
      "rea"
    ],
    [
      "tit",
      "le</w>"
    ],
    [
      "u",
      "lt</w>"
    ],
    [
      "v",
      "i</w>"
    ],
    [
      "wer",
      "t</w>"
    ],
    [
      "whe",
      "ther</w>"
    ],
    [
      "a",
      ".</w>"
    ],
    [
      "a",
      "ge,</w>"
    ],
    [
      "ab",
      "hor"
    ],
    [
      "al",
      "most</w>"
    ],
    [
      "an",
      "cient</w>"
    ],
    [
      "ap",
      "par"
    ],
    [
      "ba",
      "se</w>"
    ],
    [
      "be",
      "hold</w>"
    ],
    [
      "bla",
      "ck</w>"
    ],
    [
      "bo",
      "he"
    ],
    [
      "bohe",
      "mi"
    ],
    [
      "bu",
      "y</w>"
    ],
    [
      "c",
      "y</w>"
    ],
    [
      "cur",
      "ti"
    ],
    [
      "de",
      "po"
    ],
    [
      "di",
      "e,</w>"
    ],
    [
      "di",
      "g"
    ],
    [
      "disp",
      "at"
    ],
    [
      "don",
      "e:</w>"
    ],
    [
      "ed",
      "!</w>"
    ],
    [
      "fare",
      "well.</w>"
    ],
    [
      "fi",
      "el"
    ],
    [
      "gh",
      "o"
    ],
    [
      "gon",
      "e.</w>"
    ],
    [
      "hor",
      "se</w>"
    ],
    [
      "i",
      "es</w>"
    ],
    [
      "in",
      "f"
    ],
    [
      "ing",
      "-"
    ],
    [
      "et",
      ".</w>"
    ],
    [
      "k",
      "ate,</w>"
    ],
    [
      "kathar",
      "in"
    ],
    [
      "l",
      "ow"
    ],
    [
      "lanca",
      "ster"
    ],
    [
      "law",
      "ful</w>"
    ],
    [
      "lif",
      "e.</w>"
    ],
    [
      "majes",
      "ty</w>"
    ],
    [
      "natu",
      "ra"
    ],
    [
      "new",
      "s?</w>"
    ],
    [
      "no",
      "t;</w>"
    ],
    [
      "no",
      "t?</w>"
    ],
    [
      "o",
      ";</w>"
    ],
    [
      "pa",
      "le</w>"
    ],
    [
      "par",
      "is:</w>"
    ],
    [
      "perdita",
      ":</w>"
    ],
    [
      "pos",
      "ses"
    ],
    [
      "pre",
      "tty</w>"
    ],
    [
      "pur",
      "su"
    ],
    [
      "res",
      "t,</w>"
    ],
    [
      "richar",
      "d,</w>"
    ],
    [
      "se",
      "t:</w>"
    ],
    [
      "d",
      "or"
    ],
    [
      "self",
      ":</w>"
    ],
    [
      "si",
      "gh"
    ],
    [
      "sir",
      "!</w>"
    ],
    [
      "so",
      ";</w>"
    ],
    [
      "sp",
      "r"
    ],
    [
      "sta",
      "y,</w>"
    ],
    [
      "su",
      "it"
    ],
    [
      "than",
      "k"
    ],
    [
      "thy",
      "self</w>"
    ],
    [
      "towar",
      "ds</w>"
    ],
    [
      "un",
      "cle,</w>"
    ],
    [
      "us",
      "?</w>"
    ],
    [
      "v",
      "ow"
    ],
    [
      "vir",
      "gi"
    ],
    [
      "wh",
      "ol"
    ],
    [
      "where",
      "in</w>"
    ],
    [
      "a",
      "di"
    ],
    [
      "a",
      "ma"
    ],
    [
      "abo",
      "ve</w>"
    ],
    [
      "anti",
      "gon"
    ],
    [
      "app",
      "ear"
    ],
    [
      "ar",
      "y</w>"
    ],
    [
      "be",
      "hin"
    ],
    [
      "bo",
      "d"
    ],
    [
      "bo",
      "y,</w>"
    ],
    [
      "brea",
      "th</w>"
    ],
    [
      "ch",
      "ol"
    ],
    [
      "conf",
      "ess</w>"
    ],
    [
      "cur",
      "se</w>"
    ],
    [
      "cur",
      "sed</w>"
    ],
    [
      "d",
      "row"
    ],
    [
      "danger",
      "ous</w>"
    ],
    [
      "de",
      "d,</w>"
    ],
    [
      "deser",
      "ved</w>"
    ],
    [
      "di",
      "vin"
    ],
    [
      "em",
      "bra"
    ],
    [
      "er",
      "s.</w>"
    ],
    [
      "f",
      "le"
    ],
    [
      "father",
      ".</w>"
    ],
    [
      "fi",
      "ve</w>"
    ],
    [
      "for",
      "get</w>"
    ],
    [
      "he",
      "ir</w>"
    ],
    [
      "hear",
      "ts</w>"
    ],
    [
      "heaven",
      "s</w>"
    ],
    [
      "ho",
      "!</w>"
    ],
    [
      "j",
      "ust</w>"
    ],
    [
      "la",
      "di"
    ],
    [
      "lear",
      "n</w>"
    ],
    [
      "lo",
      "ss</w>"
    ],
    [
      "ma",
      "id</w>"
    ],
    [
      "mi",
      "sta"
    ],
    [
      "n",
      "ear"
    ],
    [
      "no",
      ";</w>"
    ],
    [
      "no",
      "t:</w>"
    ],
    [
      "now",
      "!</w>"
    ],
    [
      "o",
      "c"
    ],
    [
      "on",
      "i"
    ],
    [
      "pa",
      "y</w>"
    ],
    [
      "pos",
      "si"
    ],
    [
      "ra",
      "ge</w>"
    ],
    [
      "s",
      "o:</w>"
    ],
    [
      "s",
      "wif"
    ],
    [
      "sa",
      "d</w>"
    ],
    [
      "st",
      "?</w>"
    ],
    [
      "st",
      "on"
    ],
    [
      "that",
      "?</w>"
    ],
    [
      "the",
      "e:</w>"
    ],
    [
      "the",
      "e;</w>"
    ],
    [
      "thought",
      "s</w>"
    ],
    [
      "trait",
      "or</w>"
    ],
    [
      "u",
      "e</w>"
    ],
    [
      "st",
      "at"
    ],
    [
      "t",
      "es</w>"
    ],
    [
      "virgi",
      "lia:</w>"
    ],
    [
      "w",
      "ouldst</w>"
    ],
    [
      "wa",
      "st</w>"
    ],
    [
      "wh",
      "ence</w>"
    ],
    [
      "wi",
      "s"
    ],
    [
      "york",
      ",</w>"
    ],
    [
      "'",
      "st,</w>"
    ],
    [
      "a",
      "po"
    ],
    [
      "af",
      "ter"
    ],
    [
      "arm",
      "s</w>"
    ],
    [
      "awa",
      "y!</w>"
    ],
    [
      "be",
      "d,</w>"
    ],
    [
      "bo",
      "ld</w>"
    ],
    [
      "c",
      "ure</w>"
    ],
    [
      "ca",
      "i"
    ],
    [
      "ch",
      ":</w>"
    ],
    [
      "ch",
      "er"
    ],
    [
      "chi",
      "ld</w>"
    ],
    [
      "ck",
      ".</w>"
    ],
    [
      "com",
      "mon"
    ],
    [
      "con",
      "si"
    ],
    [
      "cu",
      "st"
    ],
    [
      "daughter",
      ",</w>"
    ],
    [
      "den",
      "y</w>"
    ],
    [
      "di",
      "spo"
    ],
    [
      "don",
      "e.</w>"
    ],
    [
      "du",
      "ty</w>"
    ],
    [
      "englan",
      "d's</w>"
    ],
    [
      "ent",
      "s</w>"
    ],
    [
      "es",
      "t.</w>"
    ],
    [
      "goo",
      "dly</w>"
    ],
    [
      "ha",
      "v"
    ],
    [
      "henr",
      "y's</w>"
    ],
    [
      "i",
      ".</w>"
    ],
    [
      "isa",
      "be"
    ],
    [
      "it",
      "self</w>"
    ],
    [
      "lad",
      "y,</w>"
    ],
    [
      "le",
      "!</w>"
    ],
    [
      "lo",
      "y"
    ],
    [
      "lor",
      "ds</w>"
    ],
    [
      "m",
      "oun"
    ],
    [
      "m",
      "our"
    ],
    [
      "man",
      "!</w>"
    ],
    [
      "man",
      ";</w>"
    ],
    [
      "marian",
      "a:</w>"
    ],
    [
      "mea",
      "sure</w>"
    ],
    [
      "ment",
      ".</w>"
    ],
    [
      "musi",
      "cian"
    ],
    [
      "nei",
      "gh"
    ],
    [
      "ou",
      "t.</w>"
    ],
    [
      "own",
      ",</w>"
    ],
    [
      "p",
      "ing</w>"
    ],
    [
      "peop",
      "le,</w>"
    ],
    [
      "po",
      "int</w>"
    ],
    [
      "purpo",
      "se</w>"
    ],
    [
      "re",
      ".</w>"
    ],
    [
      "re",
      "ig"
    ],
    [
      "sa",
      "y.</w>"
    ],
    [
      "see",
      "ms</w>"
    ],
    [
      "sh",
      ",</w>"
    ],
    [
      "sl",
      "y:</w>"
    ],
    [
      "st",
      "ate,</w>"
    ],
    [
      "st",
      "op"
    ],
    [
      "streng",
      "th</w>"
    ],
    [
      "suc",
      "ces"
    ],
    [
      "sup",
      "po"
    ],
    [
      "ta",
      "tion</w>"
    ],
    [
      "in",
      "ter"
    ],
    [
      "b",
      "ly</w>"
    ],
    [
      "ce",
      "p"
    ],
    [
      "then",
      "?</w>"
    ],
    [
      "virtu",
      "e</w>"
    ],
    [
      "w",
      "en"
    ],
    [
      "we",
      "ep</w>"
    ],
    [
      "wit",
      "ness</w>"
    ],
    [
      "'t",
      ":</w>"
    ],
    [
      "ad",
      "ver"
    ],
    [
      "an",
      "t,</w>"
    ],
    [
      "ar",
      "d,</w>"
    ],
    [
      "at",
      "es</w>"
    ],
    [
      "b",
      "lo"
    ],
    [
      "b",
      "oun"
    ],
    [
      "ba",
      "d</w>"
    ],
    [
      "banish",
      "'d</w>"
    ],
    [
      "beg",
      "gar"
    ],
    [
      "bish",
      "op</w>"
    ],
    [
      "bl",
      "in"
    ],
    [
      "bor",
      "n"
    ],
    [
      "bus",
      "h"
    ],
    [
      "c",
      "lu"
    ],
    [
      "cham",
      "ber"
    ],
    [
      "com",
      "mend</w>"
    ],
    [
      "cons",
      "ci"
    ],
    [
      "coun",
      "sel"
    ],
    [
      "d",
      "ow</w>"
    ],
    [
      "des",
      "per"
    ],
    [
      "down",
      ".</w>"
    ],
    [
      "e",
      "u"
    ],
    [
      "ed",
      "s,</w>"
    ],
    [
      "en",
      "ce.</w>"
    ],
    [
      "s",
      "ent"
    ],
    [
      "er",
      ";</w>"
    ],
    [
      "f",
      "ing"
    ],
    [
      "fa",
      "ult</w>"
    ],
    [
      "friar",
      ",</w>"
    ],
    [
      "fur",
      "ther</w>"
    ],
    [
      "gol",
      "den</w>"
    ],
    [
      "gru",
      "mi"
    ],
    [
      "hang",
      "</w>"
    ],
    [
      "hast",
      "e</w>"
    ],
    [
      "he",
      "'ll</w>"
    ],
    [
      "ig",
      "nor"
    ],
    [
      "il",
      "s</w>"
    ],
    [
      "in",
      "no"
    ],
    [
      "j",
      "a"
    ],
    [
      "k",
      "!</w>"
    ],
    [
      "king",
      ":</w>"
    ],
    [
      "king",
      ";</w>"
    ],
    [
      "ll",
      "-"
    ],
    [
      "lov",
      "es</w>"
    ],
    [
      "m",
      ".</w>"
    ],
    [
      "musi",
      "c</w>"
    ],
    [
      "ne",
      "eds</w>"
    ],
    [
      "neigh",
      "b"
    ],
    [
      "pa",
      "du"
    ],
    [
      "par",
      "t,</w>"
    ],
    [
      "par",
      "ti"
    ],
    [
      "pi",
      "er"
    ],
    [
      "pie",
      "ce</w>"
    ],
    [
      "plan",
      "ta"
    ],
    [
      "planta",
      "gen"
    ],
    [
      "po",
      "i"
    ],
    [
      "prin",
      "ce:</w>"
    ],
    [
      "qu",
      "o"
    ],
    [
      "reven",
      "ge</w>"
    ],
    [
      "s",
      "ly</w>"
    ],
    [
      "s",
      "oo"
    ],
    [
      "se",
      "iz"
    ],
    [
      "self",
      ";</w>"
    ],
    [
      "servi",
      "ce</w>"
    ],
    [
      "si",
      "ster</w>"
    ],
    [
      "sle",
      "w</w>"
    ],
    [
      "st",
      "!</w>"
    ],
    [
      "stran",
      "g"
    ],
    [
      "t",
      "est</w>"
    ],
    [
      "them",
      ";</w>"
    ],
    [
      "thin",
      "k"
    ],
    [
      "ti",
      "l</w>"
    ],
    [
      "tou",
      "ch</w>"
    ],
    [
      "un",
      "til</w>"
    ],
    [
      "us",
      "!</w>"
    ],
    [
      "vali",
      "ant</w>"
    ],
    [
      "w",
      "ant</w>"
    ],
    [
      "won",
      "der"
    ],
    [
      "wor",
      "d,</w>"
    ],
    [
      "wor",
      "se</w>"
    ],
    [
      ":",
      "'</w>"
    ],
    [
      "es",
      "t"
    ],
    [
      "a",
      "tion</w>"
    ],
    [
      "an",
      "t"
    ],
    [
      "angel",
      "o</w>"
    ],
    [
      "bar",
      "nar"
    ],
    [
      "barnar",
      "din"
    ],
    [
      "beg",
      "in</w>"
    ],
    [
      "ble",
      "s</w>"
    ],
    [
      "c",
      "t,</w>"
    ],
    [
      "chil",
      "d,</w>"
    ],
    [
      "con",
      "qu"
    ],
    [
      "cont",
      "in"
    ],
    [
      "cour",
      "se</w>"
    ],
    [
      "dd",
      "en</w>"
    ],
    [
      "do",
      ".</w>"
    ],
    [
      "e",
      "di"
    ],
    [
      "c",
      "it"
    ],
    [
      "ey",
      "e,</w>"
    ],
    [
      "f",
      "ru"
    ],
    [
      "fa",
      "ll"
    ],
    [
      "fe",
      "el</w>"
    ],
    [
      "grea",
      "ter</w>"
    ],
    [
      "gri",
      "ev"
    ],
    [
      "her",
      ":</w>"
    ],
    [
      "her",
      ";</w>"
    ],
    [
      "him",
      "self,</w>"
    ],
    [
      "hon",
      "oura"
    ],
    [
      "hun",
      "d"
    ],
    [
      "i",
      "ly</w>"
    ],
    [
      "in",
      "!</w>"
    ],
    [
      "jo",
      "y"
    ],
    [
      "li",
      "p"
    ],
    [
      "marci",
      "us,</w>"
    ],
    [
      "mer",
      "ry</w>"
    ],
    [
      "min",
      "i"
    ],
    [
      "n",
      ";</w>"
    ],
    [
      "our",
      ",</w>"
    ],
    [
      "pe",
      "ter:</w>"
    ],
    [
      "pro",
      "vi"
    ],
    [
      "sha",
      "p"
    ],
    [
      "sma",
      "ll</w>"
    ],
    [
      "soul",
      "s</w>"
    ],
    [
      "str",
      "ong"
    ],
    [
      "swor",
      "d</w>"
    ],
    [
      "th",
      "ing,</w>"
    ],
    [
      "too",
      ".</w>"
    ],
    [
      "towar",
      "d</w>"
    ],
    [
      "tru",
      "mp"
    ],
    [
      "et",
      "s</w>"
    ],
    [
      "ur",
      "e,</w>"
    ],
    [
      "us",
      "h</w>"
    ],
    [
      "vi",
      "ol"
    ],
    [
      "w",
      "ra"
    ],
    [
      "wan",
      "t"
    ],
    [
      "well",
      "-"
    ],
    [
      "f",
      "ound</w>"
    ],
    [
      "wo",
      "e</w>"
    ],
    [
      "woun",
      "ds</w>"
    ],
    [
      "wr",
      "ong</w>"
    ],
    [
      "'t",
      "wixt</w>"
    ],
    [
      "ac",
      "coun"
    ],
    [
      "adi",
      "eu"
    ],
    [
      "app",
      "ear</w>"
    ],
    [
      "ari",
      "el:</w>"
    ],
    [
      "b",
      ",</w>"
    ],
    [
      "ba",
      "star"
    ],
    [
      "bl",
      "ing</w>"
    ],
    [
      "bri",
      "ef"
    ],
    [
      "c",
      "ing</w>"
    ],
    [
      "d",
      "an"
    ],
    [
      "c",
      "r"
    ],
    [
      "us",
      "h"
    ],
    [
      "c",
      "ts</w>"
    ],
    [
      "ca",
      "m"
    ],
    [
      "cer",
      "tain</w>"
    ],
    [
      "ch",
      "ing</w>"
    ],
    [
      "ch",
      "man:</w>"
    ],
    [
      "cl",
      "in"
    ],
    [
      "cliffor",
      "d,</w>"
    ],
    [
      "com",
      "ing</w>"
    ],
    [
      "com",
      "pla"
    ],
    [
      "con",
      "di"
    ],
    [
      "countr",
      "y's</w>"
    ],
    [
      "d",
      "s!</w>"
    ],
    [
      "des",
      "i"
    ],
    [
      "du",
      "k"
    ],
    [
      "ent",
      "ly</w>"
    ],
    [
      "es",
      "ti"
    ],
    [
      "t",
      "e.</w>"
    ],
    [
      "f",
      ":</w>"
    ],
    [
      "f",
      "f</w>"
    ],
    [
      "fear",
      ",</w>"
    ],
    [
      "foo",
      "l"
    ],
    [
      "ga",
      "ll"
    ],
    [
      "gla",
      "d</w>"
    ],
    [
      "grow",
      "n</w>"
    ],
    [
      "hasting",
      "s,</w>"
    ],
    [
      "hea",
      "l"
    ],
    [
      "hen",
      "ry,</w>"
    ],
    [
      "i",
      "ed</w>"
    ],
    [
      "i",
      "lor"
    ],
    [
      "ima",
      "g"
    ],
    [
      "in",
      ";</w>"
    ],
    [
      "in",
      "s,</w>"
    ],
    [
      "issu",
      "e</w>"
    ],
    [
      "ki",
      "ll'd</w>"
    ],
    [
      "kno",
      "ck</w>"
    ],
    [
      "know",
      "le"
    ],
    [
      "la",
      "u"
    ],
    [
      "larti",
      "us:</w>"
    ],
    [
      "le",
      "'s</w>"
    ],
    [
      "ma",
      "d</w>"
    ],
    [
      "ma",
      "y,</w>"
    ],
    [
      "mar",
      "ch</w>"
    ],
    [
      "mo",
      "v"
    ],
    [
      "mp",
      "le</w>"
    ],
    [
      "my",
      "self.</w>"
    ],
    [
      "no",
      "thing"
    ],
    [
      "norfol",
      "k,</w>"
    ],
    [
      "now",
      "?</w>"
    ],
    [
      "o",
      "d"
    ],
    [
      "obe",
      "di"
    ],
    [
      "of",
      "t</w>"
    ],
    [
      "oul",
      "d,</w>"
    ],
    [
      "own",
      ".</w>"
    ],
    [
      "ped",
      "ant:</w>"
    ],
    [
      "per",
      "son</w>"
    ],
    [
      "pla",
      "ce,</w>"
    ],
    [
      "pla",
      "in"
    ],
    [
      "re",
      "ceiv"
    ],
    [
      "rep",
      "or"
    ],
    [
      "s",
      "choo"
    ],
    [
      "sh",
      "oul"
    ],
    [
      "slau",
      "ghter"
    ],
    [
      "sovereig",
      "n,</w>"
    ],
    [
      "sp",
      "ur"
    ],
    [
      "spiri",
      "t</w>"
    ],
    [
      "st",
      "ood</w>"
    ],
    [
      "t",
      "s.</w>"
    ],
    [
      "t",
      "y;</w>"
    ],
    [
      "h",
      "u"
    ],
    [
      "ta'",
      "en</w>"
    ],
    [
      "the",
      "e?</w>"
    ],
    [
      "thi",
      "s.</w>"
    ],
    [
      "tion",
      ";</w>"
    ],
    [
      "u",
      "ght</w>"
    ],
    [
      "u",
      "te</w>"
    ],
    [
      "unc",
      "le</w>"
    ],
    [
      "v",
      "ou"
    ],
    [
      "vi",
      "sit</w>"
    ],
    [
      "villa",
      "in,</w>"
    ],
    [
      "wat",
      "chman:</w>"
    ],
    [
      "wher",
      "e's</w>"
    ],
    [
      "will",
      ".</w>"
    ],
    [
      "xi",
      ":</w>"
    ],
    [
      "you",
      "!</w>"
    ],
    [
      "you",
      "th</w>"
    ],
    [
      "'",
      "gain"
    ],
    [
      "'gain",
      "st</w>"
    ],
    [
      "a",
      "-"
    ],
    [
      "a",
      "bro"
    ],
    [
      "a",
      "whi"
    ],
    [
      "ala",
      "ck,</w>"
    ],
    [
      "be",
      ".</w>"
    ],
    [
      "be",
      "li"
    ],
    [
      "bi",
      "ds</w>"
    ],
    [
      "bl",
      "ess</w>"
    ],
    [
      "bles",
      "sed</w>"
    ],
    [
      "bo",
      "th,</w>"
    ],
    [
      "bra",
      "ken"
    ],
    [
      "braken",
      "bur"
    ],
    [
      "bu",
      "tch"
    ],
    [
      "ca",
      "se</w>"
    ],
    [
      "ch",
      ";</w>"
    ],
    [
      "citizen",
      "s:</w>"
    ],
    [
      "con",
      "sent</w>"
    ],
    [
      "coun",
      "sel</w>"
    ],
    [
      "curti",
      "s:</w>"
    ],
    [
      "d",
      "om"
    ],
    [
      "d",
      "res"
    ],
    [
      "de",
      "ceiv"
    ],
    [
      "de",
      "ep"
    ],
    [
      "de",
      "ter"
    ],
    [
      "def",
      "end</w>"
    ],
    [
      "du",
      "ke"
    ],
    [
      "e",
      "le"
    ],
    [
      "v",
      "en</w>"
    ],
    [
      "en",
      "em"
    ],
    [
      "ex",
      "pe"
    ],
    [
      "fin",
      "e</w>"
    ],
    [
      "fu",
      "l,</w>"
    ],
    [
      "fu",
      "lly</w>"
    ],
    [
      "g",
      "ates</w>"
    ],
    [
      "gi",
      "ves</w>"
    ],
    [
      "gr",
      "ound</w>"
    ],
    [
      "gra",
      "ce,</w>"
    ],
    [
      "gro",
      "an"
    ],
    [
      "guil",
      "ty</w>"
    ],
    [
      "h",
      "ood</w>"
    ],
    [
      "har",
      "d</w>"
    ],
    [
      "hi",
      "ther,</w>"
    ],
    [
      "hund",
      "red</w>"
    ],
    [
      "ing",
      "?</w>"
    ],
    [
      "k",
      ";</w>"
    ],
    [
      "k",
      "ep"
    ],
    [
      "keeper",
      ":</w>"
    ],
    [
      "l",
      "'d</w>"
    ],
    [
      "l",
      "en"
    ],
    [
      "la",
      "id</w>"
    ],
    [
      "liv",
      "ing</w>"
    ],
    [
      "lor",
      "d!</w>"
    ],
    [
      "mi",
      "le</w>"
    ],
    [
      "mp",
      "son:</w>"
    ],
    [
      "new",
      "s,</w>"
    ],
    [
      "of",
      ",</w>"
    ],
    [
      "off",
      ",</w>"
    ],
    [
      "offi",
      "ce</w>"
    ],
    [
      "op",
      "po"
    ],
    [
      "p",
      "un"
    ],
    [
      "i",
      "sh</w>"
    ],
    [
      "per",
      "su"
    ],
    [
      "pray",
      "ers</w>"
    ],
    [
      "pre",
      "p"
    ],
    [
      "pre",
      "par"
    ],
    [
      "prep",
      "are</w>"
    ],
    [
      "pres",
      "ence</w>"
    ],
    [
      "pro",
      "p"
    ],
    [
      "prom",
      "ise</w>"
    ],
    [
      "qu",
      "es"
    ],
    [
      "quarre",
      "l</w>"
    ],
    [
      "quo",
      "th</w>"
    ],
    [
      "remem",
      "ber"
    ],
    [
      "s",
      "-"
    ],
    [
      "s",
      "s,</w>"
    ],
    [
      "sa",
      "mpson:</w>"
    ],
    [
      "sh",
      "o"
    ],
    [
      "show",
      "s</w>"
    ],
    [
      "si",
      "de,</w>"
    ],
    [
      "sovereig",
      "n</w>"
    ],
    [
      "spe",
      "ed</w>"
    ],
    [
      "st",
      "o"
    ],
    [
      "subje",
      "ct</w>"
    ],
    [
      "t",
      "lan"
    ],
    [
      "t",
      "less</w>"
    ],
    [
      "ta",
      "le</w>"
    ],
    [
      "there",
      "?</w>"
    ],
    [
      "tion",
      ":</w>"
    ],
    [
      "toge",
      "ther</w>"
    ],
    [
      "tt",
      "en</w>"
    ],
    [
      "ty",
      "r"
    ],
    [
      "tybal",
      "t,</w>"
    ],
    [
      "us",
      "e,</w>"
    ],
    [
      "v",
      "au"
    ],
    [
      "an",
      ",</w>"
    ],
    [
      "wa",
      "ys</w>"
    ],
    [
      "wat",
      "er</w>"
    ],
    [
      "win",
      "d</w>"
    ],
    [
      "y",
      "ond</w>"
    ],
    [
      "your",
      "s,</w>"
    ],
    [
      "ama",
      "z"
    ],
    [
      "antigon",
      "us:</w>"
    ],
    [
      "ar",
      "ri"
    ],
    [
      "b",
      "s</w>"
    ],
    [
      "be",
      "comes</w>"
    ],
    [
      "brea",
      "the</w>"
    ],
    [
      "c",
      "op"
    ],
    [
      "c",
      "up"
    ],
    [
      "i",
      "d,</w>"
    ],
    [
      "sa",
      "id,</w>"
    ],
    [
      "ca",
      "st"
    ],
    [
      "ca",
      "st</w>"
    ],
    [
      "camill",
      "o,</w>"
    ],
    [
      "ci",
      "r"
    ],
    [
      "d",
      "ent</w>"
    ],
    [
      "de",
      "ed</w>"
    ],
    [
      "de",
      "pu"
    ],
    [
      "dea",
      "d.</w>"
    ],
    [
      "dea",
      "dly</w>"
    ],
    [
      "der",
      "s</w>"
    ],
    [
      "drea",
      "m</w>"
    ],
    [
      "e",
      "my</w>"
    ],
    [
      "el",
      "ess</w>"
    ],
    [
      "en",
      "emy</w>"
    ],
    [
      "f",
      "fi"
    ],
    [
      "f",
      "our</w>"
    ],
    [
      "f",
      "y</w>"
    ],
    [
      "fe",
      "it</w>"
    ],
    [
      "for",
      "ced</w>"
    ],
    [
      "for",
      "e"
    ],
    [
      "gre",
      "gor"
    ],
    [
      "gre",
      "mi"
    ],
    [
      "ha",
      "!</w>"
    ],
    [
      "han",
      "d.</w>"
    ],
    [
      "hear",
      ",</w>"
    ],
    [
      "hear",
      "ing</w>"
    ],
    [
      "hel",
      "p"
    ],
    [
      "hop",
      "e,</w>"
    ],
    [
      "king",
      "?</w>"
    ],
    [
      "law",
      ",</w>"
    ],
    [
      "lea",
      "d</w>"
    ],
    [
      "letter",
      "s</w>"
    ],
    [
      "m",
      "oo"
    ],
    [
      "ma",
      "tch"
    ],
    [
      "man",
      "?</w>"
    ],
    [
      "me",
      "t</w>"
    ],
    [
      "mercu",
      "ti"
    ],
    [
      "our",
      ".</w>"
    ],
    [
      "p",
      "lo"
    ],
    [
      "plea",
      "sure</w>"
    ],
    [
      "pre",
      "cious</w>"
    ],
    [
      "quick",
      "ly</w>"
    ],
    [
      "r",
      "'d</w>"
    ],
    [
      "st",
      "ir"
    ],
    [
      "ri",
      "ght,</w>"
    ],
    [
      "ru",
      "tlan"
    ],
    [
      "sa",
      "in"
    ],
    [
      "satis",
      "fi"
    ],
    [
      "se",
      "t,</w>"
    ],
    [
      "sh",
      "e,</w>"
    ],
    [
      "sh",
      "re"
    ],
    [
      "w",
      ",</w>"
    ],
    [
      "sha",
      "ke</w>"
    ],
    [
      "si",
      "ght</w>"
    ],
    [
      "sof",
      "t</w>"
    ],
    [
      "sovereig",
      "n"
    ],
    [
      "swor",
      "d,</w>"
    ],
    [
      "t",
      "each</w>"
    ],
    [
      "t",
      "om"
    ],
    [
      "tear",
      "s,</w>"
    ],
    [
      "ter",
      "'s</w>"
    ],
    [
      "than",
      "ks,</w>"
    ],
    [
      "ther",
      "e.</w>"
    ],
    [
      "trium",
      "p"
    ],
    [
      "tru",
      "e.</w>"
    ],
    [
      "twi",
      "ce</w>"
    ],
    [
      "tyr",
      "re"
    ],
    [
      "vanta",
      "ge</w>"
    ],
    [
      "wa",
      "s,</w>"
    ],
    [
      "wat",
      "ch</w>"
    ],
    [
      "wea",
      "l"
    ],
    [
      "wha",
      "t!</w>"
    ],
    [
      "wi",
      "thin"
    ],
    [
      ";",
      "'</w>"
    ],
    [
      "frien",
      "d"
    ],
    [
      "a",
      "gre"
    ],
    [
      "again",
      ";</w>"
    ],
    [
      "all",
      "y</w>"
    ],
    [
      "angelo",
      ",</w>"
    ],
    [
      "as",
      "si"
    ],
    [
      "au",
      "thor"
    ],
    [
      "ba",
      "lt</w>"
    ],
    [
      "bapti",
      "sta"
    ],
    [
      "bl",
      "un"
    ],
    [
      "bolingbro",
      "ke</w>"
    ],
    [
      "boo",
      "k</w>"
    ],
    [
      "br",
      "oo"
    ],
    [
      "c",
      "un"
    ],
    [
      "ces",
      ".</w>"
    ],
    [
      "che",
      "er"
    ],
    [
      "choo",
      "se</w>"
    ],
    [
      "clo",
      "se</w>"
    ],
    [
      "comm",
      "and</w>"
    ],
    [
      "con",
      "tra"
    ],
    [
      "conf",
      "es"
    ],
    [
      "da",
      "y!</w>"
    ],
    [
      "deli",
      "ver</w>"
    ],
    [
      "du",
      "e</w>"
    ],
    [
      "e",
      "ve</w>"
    ],
    [
      "el",
      "s</w>"
    ],
    [
      "en",
      ".</w>"
    ],
    [
      "eng",
      "lish</w>"
    ],
    [
      "er",
      "'s</w>"
    ],
    [
      "ex",
      "c"
    ],
    [
      "f",
      "are</w>"
    ],
    [
      "fa",
      "st</w>"
    ],
    [
      "fellow",
      ",</w>"
    ],
    [
      "fi",
      "ght"
    ],
    [
      "foo",
      "lish</w>"
    ],
    [
      "for",
      "ward</w>"
    ],
    [
      "gentle",
      "man,</w>"
    ],
    [
      "han",
      "ds,</w>"
    ],
    [
      "hea",
      "ds</w>"
    ],
    [
      "high",
      "ness</w>"
    ],
    [
      "ho",
      "t</w>"
    ],
    [
      "honour",
      ".</w>"
    ],
    [
      "husban",
      "d,</w>"
    ],
    [
      "juli",
      "et,</w>"
    ],
    [
      "kep",
      "t</w>"
    ],
    [
      "king",
      "dom</w>"
    ],
    [
      "l",
      "ous</w>"
    ],
    [
      "lad",
      "y:</w>"
    ],
    [
      "liv",
      "e.</w>"
    ],
    [
      "ma",
      "king</w>"
    ],
    [
      "ma",
      "yor"
    ],
    [
      "men",
      "'s</w>"
    ],
    [
      "montagu",
      "e,</w>"
    ],
    [
      "mur",
      "der</w>"
    ],
    [
      "na",
      "me?</w>"
    ],
    [
      "nat",
      "ure,</w>"
    ],
    [
      "no",
      ".</w>"
    ],
    [
      "or",
      "der</w>"
    ],
    [
      "p",
      "'d</w>"
    ],
    [
      "per",
      "form"
    ],
    [
      "po",
      "st</w>"
    ],
    [
      "pres",
      "ent"
    ],
    [
      "queen",
      "'s</w>"
    ],
    [
      "ratclif",
      "f:</w>"
    ],
    [
      "se",
      "m"
    ],
    [
      "self",
      "?</w>"
    ],
    [
      "sh",
      "ar"
    ],
    [
      "p",
      "er</w>"
    ],
    [
      "sha",
      "ll,</w>"
    ],
    [
      "sha",
      "me,</w>"
    ],
    [
      "si",
      "x</w>"
    ],
    [
      "sister",
      ",</w>"
    ],
    [
      "so",
      "le"
    ],
    [
      "son",
      "?</w>"
    ],
    [
      "sta",
      "y.</w>"
    ],
    [
      "stanle",
      "y:</w>"
    ],
    [
      "stru",
      "ck</w>"
    ],
    [
      "t",
      "ear</w>"
    ],
    [
      "te",
      "ous</w>"
    ],
    [
      "th",
      "ro"
    ],
    [
      "th",
      "s</w>"
    ],
    [
      "the",
      "d</w>"
    ],
    [
      "lo",
      "a"
    ],
    [
      "the",
      "e!</w>"
    ],
    [
      "them",
      "selves</w>"
    ],
    [
      "ti",
      "me.</w>"
    ],
    [
      "toge",
      "ther,</w>"
    ],
    [
      "trani",
      "o,</w>"
    ],
    [
      "ven",
      "ge"
    ],
    [
      "vi",
      "e"
    ],
    [
      "vi",
      "si"
    ],
    [
      "villa",
      "in</w>"
    ],
    [
      "virtu",
      "ous</w>"
    ],
    [
      "wa",
      "sh</w>"
    ],
    [
      "war",
      ",</w>"
    ],
    [
      "war",
      "s</w>"
    ],
    [
      "we",
      "d"
    ],
    [
      "wea",
      "k</w>"
    ],
    [
      "wh",
      "ite</w>"
    ],
    [
      "where",
      "fore</w>"
    ],
    [
      "woman",
      ",</w>"
    ],
    [
      "worl",
      "d.</w>"
    ],
    [
      "york",
      ".</w>"
    ],
    [
      "z",
      "en</w>"
    ],
    [
      "'",
      "?</w>"
    ],
    [
      "g",
      "at"
    ],
    [
      "a",
      "bi"
    ],
    [
      "a",
      "bu"
    ],
    [
      "ab",
      "sen"
    ],
    [
      "ac",
      "qua"
    ],
    [
      "ad",
      "mi"
    ],
    [
      "r",
      "e</w>"
    ],
    [
      "'",
      "re</w>"
    ],
    [
      "af",
      "for"
    ],
    [
      "am",
      "ong</w>"
    ],
    [
      "an",
      "d:</w>"
    ],
    [
      "f",
      "er"
    ],
    [
      "ang",
      "u"
    ],
    [
      "b",
      "'d</w>"
    ],
    [
      "be",
      "g</w>"
    ],
    [
      "bet",
      "wixt</w>"
    ],
    [
      "bit",
      "e</w>"
    ],
    [
      "bit",
      "ter</w>"
    ],
    [
      "buckingha",
      "m,</w>"
    ],
    [
      "c",
      "red</w>"
    ],
    [
      "c",
      "tu"
    ],
    [
      "c",
      "y:</w>"
    ],
    [
      "cir",
      "c"
    ],
    [
      "ck",
      "ing</w>"
    ],
    [
      "com",
      "ini"
    ],
    [
      "con",
      "du"
    ],
    [
      "con",
      "stan"
    ],
    [
      "coun",
      "ten"
    ],
    [
      "cra",
      "ve</w>"
    ],
    [
      "cre",
      "di"
    ],
    [
      "cru",
      "el</w>"
    ],
    [
      "d",
      "ri"
    ],
    [
      "d",
      "ry</w>"
    ],
    [
      "d",
      "ur"
    ],
    [
      "dea",
      "d;</w>"
    ],
    [
      "des",
      "pit"
    ],
    [
      "di",
      "st"
    ],
    [
      "ear",
      "ly</w>"
    ],
    [
      "ent",
      "er</w>"
    ],
    [
      "er",
      "s;</w>"
    ],
    [
      "et",
      "?</w>"
    ],
    [
      "fres",
      "h</w>"
    ],
    [
      "g",
      "o:</w>"
    ],
    [
      "g",
      "ros"
    ],
    [
      "g",
      "row</w>"
    ],
    [
      "go",
      "ing</w>"
    ],
    [
      "gra",
      "ce.</w>"
    ],
    [
      "gu",
      "ard</w>"
    ],
    [
      "han",
      "d:</w>"
    ],
    [
      "hast",
      "e,</w>"
    ],
    [
      "hear",
      "t's</w>"
    ],
    [
      "hi",
      "de</w>"
    ],
    [
      "hum",
      "ble</w>"
    ],
    [
      "in",
      "fec"
    ],
    [
      "is",
      "on</w>"
    ],
    [
      "j",
      "est</w>"
    ],
    [
      "k",
      "ate</w>"
    ],
    [
      "k",
      "est</w>"
    ],
    [
      "l",
      "end</w>"
    ],
    [
      "le",
      "?</w>"
    ],
    [
      "le",
      "is"
    ],
    [
      "lon",
      "don</w>"
    ],
    [
      "long",
      "er</w>"
    ],
    [
      "lov",
      "e;</w>"
    ],
    [
      "man",
      "tu"
    ],
    [
      "mar",
      "sha"
    ],
    [
      "marri",
      "age</w>"
    ],
    [
      "mo",
      "ck</w>"
    ],
    [
      "mor",
      "ning</w>"
    ],
    [
      "mor",
      "row"
    ],
    [
      "ne",
      "ces"
    ],
    [
      "no",
      "bl"
    ],
    [
      "no",
      "te</w>"
    ],
    [
      "o",
      "ath"
    ],
    [
      "on",
      "s,</w>"
    ],
    [
      "our",
      "'d</w>"
    ],
    [
      "p",
      "sa"
    ],
    [
      "pa",
      "ir"
    ],
    [
      "pat",
      "ri"
    ],
    [
      "pati",
      "ence</w>"
    ],
    [
      "paul",
      "in"
    ],
    [
      "pla",
      "ce.</w>"
    ],
    [
      "plea",
      "sure"
    ],
    [
      "pow",
      "er,</w>"
    ],
    [
      "pre",
      "va"
    ],
    [
      "pres",
      "s</w>"
    ],
    [
      "pro",
      "te"
    ],
    [
      "qu",
      "it</w>"
    ],
    [
      "r",
      "ough</w>"
    ],
    [
      "re",
      "de"
    ],
    [
      "e",
      "m</w>"
    ],
    [
      "re",
      "ti"
    ],
    [
      "rea",
      "son"
    ],
    [
      "sa",
      "cred</w>"
    ],
    [
      "sa",
      "ge</w>"
    ],
    [
      "secre",
      "t</w>"
    ],
    [
      "sh",
      "ri"
    ],
    [
      "sla",
      "in</w>"
    ],
    [
      "some",
      "time</w>"
    ],
    [
      "st",
      "ed</w>"
    ],
    [
      "st",
      "ly</w>"
    ],
    [
      "st",
      "op</w>"
    ],
    [
      "st",
      "ro"
    ],
    [
      "stan",
      "ding</w>"
    ],
    [
      "t",
      "'st</w>"
    ],
    [
      "ta",
      "ilor"
    ],
    [
      "ta",
      "st"
    ],
    [
      "te",
      "m"
    ],
    [
      "temp",
      "t</w>"
    ],
    [
      "th",
      "ful</w>"
    ],
    [
      "th",
      "ing.</w>"
    ],
    [
      "tim",
      "es,</w>"
    ],
    [
      "tru",
      "th,</w>"
    ],
    [
      "ty",
      "balt</w>"
    ],
    [
      "tybal",
      "t:</w>"
    ],
    [
      "v",
      "es"
    ],
    [
      "val",
      "eri"
    ],
    [
      "vin",
      "centi"
    ],
    [
      "weep",
      "ing</w>"
    ],
    [
      "wha",
      "t?</w>"
    ],
    [
      "whi",
      "ther</w>"
    ],
    [
      "wif",
      "e.</w>"
    ],
    [
      "won",
      "der</w>"
    ],
    [
      "wor",
      "st</w>"
    ],
    [
      "a",
      "men"
    ],
    [
      "ac",
      "t</w>"
    ],
    [
      "af",
      "fair"
    ],
    [
      "al",
      "though</w>"
    ],
    [
      "al",
      "ways</w>"
    ],
    [
      "ang",
      "ry</w>"
    ],
    [
      "appro",
      "a"
    ],
    [
      "batt",
      "le</w>"
    ],
    [
      "bear",
      "s</w>"
    ],
    [
      "beg",
      "g"
    ],
    [
      "besi",
      "d"
    ],
    [
      "besid",
      "es,</w>"
    ],
    [
      "bo",
      "y</w>"
    ],
    [
      "brakenbur",
      "y:</w>"
    ],
    [
      "ca",
      "lls</w>"
    ],
    [
      "ca",
      "pit"
    ],
    [
      "car",
      "ry</w>"
    ],
    [
      "char",
      "g"
    ],
    [
      "cho",
      "i"
    ],
    [
      "cliffor",
      "d</w>"
    ],
    [
      "consci",
      "ence</w>"
    ],
    [
      "cow",
      "ar"
    ],
    [
      "cri",
      "ed</w>"
    ],
    [
      "d",
      "s?</w>"
    ],
    [
      "de",
      "eds</w>"
    ],
    [
      "dea",
      "th:</w>"
    ],
    [
      "death",
      ";</w>"
    ],
    [
      "drea",
      "d"
    ],
    [
      "e",
      "ous</w>"
    ],
    [
      "p",
      "l"
    ],
    [
      "es",
      "s"
    ],
    [
      "f",
      "ond</w>"
    ],
    [
      "fa",
      "ced</w>"
    ],
    [
      "fa",
      "tal</w>"
    ],
    [
      "fal",
      "se"
    ],
    [
      "fe",
      "ll</w>"
    ],
    [
      "fe",
      "w</w>"
    ],
    [
      "fi",
      "eld</w>"
    ],
    [
      "fles",
      "h</w>"
    ],
    [
      "foo",
      "l,</w>"
    ],
    [
      "for",
      "got</w>"
    ],
    [
      "fran",
      "ce</w>"
    ],
    [
      "fu",
      "l"
    ],
    [
      "ha",
      "te,</w>"
    ],
    [
      "hel",
      "p,</w>"
    ],
    [
      "honoura",
      "ble</w>"
    ],
    [
      "hou",
      "se.</w>"
    ],
    [
      "how",
      "!</w>"
    ],
    [
      "i",
      "'ld</w>"
    ],
    [
      "il",
      "'d</w>"
    ],
    [
      "in",
      "k"
    ],
    [
      "ing",
      "ly</w>"
    ],
    [
      "fe",
      "el"
    ],
    [
      "inno",
      "cen"
    ],
    [
      "jo",
      "in"
    ],
    [
      "justi",
      "ce,</w>"
    ],
    [
      "king",
      "s</w>"
    ],
    [
      "kne",
      "el</w>"
    ],
    [
      "l",
      "eng"
    ],
    [
      "l",
      "s,</w>"
    ],
    [
      "lan",
      "d,</w>"
    ],
    [
      "lea",
      "ve,</w>"
    ],
    [
      "lov",
      "e's</w>"
    ],
    [
      "mar",
      "k"
    ],
    [
      "may",
      "st</w>"
    ],
    [
      "me",
      "di"
    ],
    [
      "mean",
      ",</w>"
    ],
    [
      "ment",
      "s,</w>"
    ],
    [
      "mo",
      "ved</w>"
    ],
    [
      "mor",
      "n"
    ],
    [
      "mother",
      "'s</w>"
    ],
    [
      "n",
      "ea"
    ],
    [
      "n",
      "one,</w>"
    ],
    [
      "n",
      "y</w>"
    ],
    [
      "natura",
      "l</w>"
    ],
    [
      "oc",
      "ca"
    ],
    [
      "offic",
      "er:</w>"
    ],
    [
      "on",
      "!</w>"
    ],
    [
      "pardon",
      ",</w>"
    ],
    [
      "petruchi",
      "o,</w>"
    ],
    [
      "pi",
      "ti"
    ],
    [
      "po",
      "ison</w>"
    ],
    [
      "pp",
      "'d</w>"
    ],
    [
      "pr",
      "on"
    ],
    [
      "pu",
      "bli"
    ],
    [
      "pu",
      "l"
    ],
    [
      "re",
      "med"
    ],
    [
      "res",
      "i"
    ],
    [
      "res",
      "ig"
    ],
    [
      "ri",
      "ght.</w>"
    ],
    [
      "ro",
      "ar"
    ],
    [
      "s",
      "es,</w>"
    ],
    [
      "lo",
      "s"
    ],
    [
      "s",
      "ou"
    ],
    [
      "sa",
      "ke,</w>"
    ],
    [
      "schoo",
      "l"
    ],
    [
      "se",
      "d.</w>"
    ],
    [
      "selv",
      "es,</w>"
    ],
    [
      "serv",
      "an"
    ],
    [
      "sh",
      "in"
    ],
    [
      "si",
      "ck</w>"
    ],
    [
      "sig",
      "n</w>"
    ],
    [
      "soun",
      "d"
    ],
    [
      "spea",
      "ks</w>"
    ],
    [
      "st",
      "ep"
    ],
    [
      "stan",
      "d,</w>"
    ],
    [
      "te",
      "en</w>"
    ],
    [
      "th",
      "?</w>"
    ],
    [
      "th",
      "row"
    ],
    [
      "thi",
      "s:</w>"
    ],
    [
      "thou",
      "'"
    ],
    [
      "ti",
      "c"
    ],
    [
      "tu",
      "t,</w>"
    ],
    [
      "venge",
      "ance</w>"
    ],
    [
      "vent",
      "ure</w>"
    ],
    [
      "ver",
      "on"
    ],
    [
      "war",
      "m</w>"
    ],
    [
      "wear",
      "y</w>"
    ],
    [
      "wer",
      "e,</w>"
    ],
    [
      "whi",
      "les</w>"
    ],
    [
      "who",
      "'s</w>"
    ],
    [
      "with",
      "al</w>"
    ],
    [
      "wor",
      "k</w>"
    ],
    [
      "wrong",
      ",</w>"
    ],
    [
      "'",
      "em"
    ],
    [
      "?",
      "'</w>"
    ],
    [
      "clar",
      "en"
    ],
    [
      "ag",
      "e.</w>"
    ],
    [
      "ala",
      "s!</w>"
    ],
    [
      "an",
      ":</w>"
    ],
    [
      "apo",
      "ll"
    ],
    [
      "arm",
      "s,</w>"
    ],
    [
      "aufidi",
      "us,</w>"
    ],
    [
      "be",
      "hol"
    ],
    [
      "bl",
      "ow</w>"
    ],
    [
      "ble",
      "d</w>"
    ],
    [
      "blow",
      "s</w>"
    ],
    [
      "bo",
      "di"
    ],
    [
      "busin",
      "ess,</w>"
    ],
    [
      "c",
      "ent"
    ],
    [
      "c",
      "li"
    ],
    [
      "c",
      "y,</w>"
    ],
    [
      "ca",
      "li"
    ],
    [
      "cai",
      "us</w>"
    ],
    [
      "chri",
      "sti"
    ],
    [
      "ck",
      "-"
    ],
    [
      "com",
      "mi"
    ],
    [
      "con",
      "spi"
    ],
    [
      "con",
      "tr"
    ],
    [
      "coun",
      "ter</w>"
    ],
    [
      "cour",
      "t</w>"
    ],
    [
      "dar",
      "k</w>"
    ],
    [
      "daughter",
      ".</w>"
    ],
    [
      "de",
      "gre"
    ],
    [
      "de",
      "la"
    ],
    [
      "death",
      "!</w>"
    ],
    [
      "death",
      "?</w>"
    ],
    [
      "der",
      "by:</w>"
    ],
    [
      "des",
      "ig"
    ],
    [
      "doub",
      "t,</w>"
    ],
    [
      "drin",
      "k</w>"
    ],
    [
      "du",
      "ke,</w>"
    ],
    [
      "e",
      "qu"
    ],
    [
      "e",
      "y</w>"
    ],
    [
      "ea",
      "g"
    ],
    [
      "en",
      ";</w>"
    ],
    [
      "en",
      "counter</w>"
    ],
    [
      "ent",
      "ed</w>"
    ],
    [
      "f",
      "led</w>"
    ],
    [
      "fa",
      "ce.</w>"
    ],
    [
      "fai",
      "th</w>"
    ],
    [
      "faul",
      "ts</w>"
    ],
    [
      "fir",
      "e,</w>"
    ],
    [
      "for",
      "th"
    ],
    [
      "g",
      "e!</w>"
    ],
    [
      "geor",
      "ge</w>"
    ],
    [
      "gregor",
      "y:</w>"
    ],
    [
      "hea",
      "d.</w>"
    ],
    [
      "honour",
      "s</w>"
    ],
    [
      "i",
      "dle</w>"
    ],
    [
      "i",
      "f"
    ],
    [
      "in",
      "clin"
    ],
    [
      "j",
      "ea"
    ],
    [
      "j",
      "our"
    ],
    [
      "king",
      "!</w>"
    ],
    [
      "know",
      "'st</w>"
    ],
    [
      "l",
      "ess,</w>"
    ],
    [
      "la",
      "ce</w>"
    ],
    [
      "la",
      "mb"
    ],
    [
      "la",
      "men"
    ],
    [
      "la",
      "st,</w>"
    ],
    [
      "lad",
      "y's</w>"
    ],
    [
      "le",
      "d,</w>"
    ],
    [
      "lea",
      "st</w>"
    ],
    [
      "lea",
      "ves</w>"
    ],
    [
      "li",
      "s"
    ],
    [
      "li",
      "ty</w>"
    ],
    [
      "lo",
      "dg"
    ],
    [
      "m",
      "er</w>"
    ],
    [
      "su",
      "m"
    ],
    [
      "ma",
      "mill"
    ],
    [
      "mai",
      "d,</w>"
    ],
    [
      "menen",
      "i"
    ],
    [
      "merc",
      "y,</w>"
    ],
    [
      "mi",
      "ty</w>"
    ],
    [
      "ex",
      "tre"
    ],
    [
      "mis",
      "s</w>"
    ],
    [
      "mu",
      "ch.</w>"
    ],
    [
      "ne",
      "g"
    ],
    [
      "nes",
      "s.</w>"
    ],
    [
      "no",
      "ise</w>"
    ],
    [
      "o",
      "la"
    ],
    [
      "off",
      "er</w>"
    ],
    [
      "over",
      "-"
    ],
    [
      "over",
      "done:</w>"
    ],
    [
      "p",
      "ly</w>"
    ],
    [
      "pa",
      "ge:</w>"
    ],
    [
      "pas",
      "sing</w>"
    ],
    [
      "patri",
      "cian"
    ],
    [
      "per",
      "ceive</w>"
    ],
    [
      "ph",
      "y"
    ],
    [
      "pla",
      "gue</w>"
    ],
    [
      "pr",
      "oo"
    ],
    [
      "pra",
      "cti"
    ],
    [
      "pres",
      "er"
    ],
    [
      "procla",
      "im</w>"
    ],
    [
      "prom",
      "ised</w>"
    ],
    [
      "pron",
      "oun"
    ],
    [
      "qu",
      "en"
    ],
    [
      "queen",
      ".</w>"
    ],
    [
      "qui",
      "et</w>"
    ],
    [
      "r",
      "ing</w>"
    ],
    [
      "re",
      ";</w>"
    ],
    [
      "re",
      "d,</w>"
    ],
    [
      "re",
      "qui"
    ],
    [
      "rea",
      "dy,</w>"
    ],
    [
      "rema",
      "in</w>"
    ],
    [
      "richmon",
      "d:</w>"
    ],
    [
      "sa",
      "fet"
    ],
    [
      "se",
      "ven</w>"
    ],
    [
      "sea",
      "l</w>"
    ],
    [
      "seiz",
      "e</w>"
    ],
    [
      "sh",
      "u"
    ],
    [
      "show",
      "'d</w>"
    ],
    [
      "si",
      "ci"
    ],
    [
      "sla",
      "ve,</w>"
    ],
    [
      "somer",
      "set:</w>"
    ],
    [
      "sp",
      "ar"
    ],
    [
      "su",
      "dden</w>"
    ],
    [
      "swif",
      "t</w>"
    ],
    [
      "t",
      "wel"
    ],
    [
      "te",
      "di"
    ],
    [
      "th",
      "ence</w>"
    ],
    [
      "the",
      "y"
    ],
    [
      "there",
      "in</w>"
    ],
    [
      "thi",
      "ther</w>"
    ],
    [
      "thought",
      "s,</w>"
    ],
    [
      "tongu",
      "e,</w>"
    ],
    [
      "trou",
      "ble</w>"
    ],
    [
      "tun",
      "e</w>"
    ],
    [
      "vi",
      "le</w>"
    ],
    [
      "vi",
      "ous</w>"
    ],
    [
      "voi",
      "ces</w>"
    ],
    [
      "w",
      "e,</w>"
    ],
    [
      "w",
      "ing"
    ],
    [
      "w",
      "n</w>"
    ],
    [
      "wi",
      "t</w>"
    ],
    [
      "woman",
      "'s</w>"
    ],
    [
      "wor",
      "ship</w>"
    ],
    [
      "your",
      "s</w>"
    ],
    [
      "'",
      "d?</w>"
    ],
    [
      "'",
      "s.</w>"
    ],
    [
      "suff",
      "er"
    ],
    [
      "'t",
      ";</w>"
    ],
    [
      "a",
      "edi"
    ],
    [
      "abro",
      "a"
    ],
    [
      "again",
      ":</w>"
    ],
    [
      "al",
      "one,</w>"
    ],
    [
      "al",
      "one.</w>"
    ],
    [
      "al",
      "ong</w>"
    ],
    [
      "al",
      "read"
    ],
    [
      "an",
      "ce.</w>"
    ],
    [
      "ant",
      "oni"
    ],
    [
      "arm",
      "s.</w>"
    ],
    [
      "aufidi",
      "us</w>"
    ],
    [
      "b",
      "end</w>"
    ],
    [
      "ban",
      "ish</w>"
    ],
    [
      "be",
      ";</w>"
    ],
    [
      "behin",
      "d</w>"
    ],
    [
      "bian",
      "c"
    ],
    [
      "bianc",
      "a</w>"
    ],
    [
      "bloo",
      "d.</w>"
    ],
    [
      "bo",
      "at"
    ],
    [
      "born",
      "e</w>"
    ],
    [
      "bosom",
      "</w>"
    ],
    [
      "bri",
      "de"
    ],
    [
      "bro",
      "ken</w>"
    ],
    [
      "bur",
      "n</w>"
    ],
    [
      "c",
      "roo"
    ],
    [
      "capit",
      "ol"
    ],
    [
      "ce",
      "'s</w>"
    ],
    [
      "cer",
      "tain"
    ],
    [
      "ch",
      "an"
    ],
    [
      "ci",
      "al</w>"
    ],
    [
      "clou",
      "ds</w>"
    ],
    [
      "co",
      "ver</w>"
    ],
    [
      "comfor",
      "t,</w>"
    ],
    [
      "comp",
      "any</w>"
    ],
    [
      "compan",
      "y.</w>"
    ],
    [
      "conspi",
      "ra"
    ],
    [
      "cor",
      "ru"
    ],
    [
      "cou",
      "ra"
    ],
    [
      "coun",
      "try</w>"
    ],
    [
      "cour",
      "tes"
    ],
    [
      "crow",
      "n.</w>"
    ],
    [
      "dang",
      "er</w>"
    ],
    [
      "desper",
      "ate</w>"
    ],
    [
      "devi",
      "l</w>"
    ],
    [
      "di",
      "ff"
    ],
    [
      "din",
      "n"
    ],
    [
      "dispo",
      "si"
    ],
    [
      "do",
      "ing</w>"
    ],
    [
      "don",
      "e!</w>"
    ],
    [
      "draw",
      "n</w>"
    ],
    [
      "dro",
      "p</w>"
    ],
    [
      "ea",
      "sy</w>"
    ],
    [
      "en",
      "d.</w>"
    ],
    [
      "er",
      "-"
    ],
    [
      "es",
      "ta"
    ],
    [
      "ex",
      "a"
    ],
    [
      "ex",
      "i"
    ],
    [
      "exce",
      "ll"
    ],
    [
      "exe",
      "ter:</w>"
    ],
    [
      "f",
      "ought</w>"
    ],
    [
      "fa",
      "in</w>"
    ],
    [
      "fa",
      "shi"
    ],
    [
      "fair",
      ",</w>"
    ],
    [
      "fi",
      "ery</w>"
    ],
    [
      "fi",
      "f"
    ],
    [
      "fo",
      "ll"
    ],
    [
      "foo",
      "l</w>"
    ],
    [
      "for",
      "e.</w>"
    ],
    [
      "be",
      "fore.</w>"
    ],
    [
      "for",
      "war"
    ],
    [
      "form",
      "er</w>"
    ],
    [
      "frien",
      "ds.</w>"
    ],
    [
      "ga",
      "ol"
    ],
    [
      "glouces",
      "ter,</w>"
    ],
    [
      "go",
      ";</w>"
    ],
    [
      "gon",
      "z"
    ],
    [
      "lo",
      ",</w>"
    ],
    [
      "gran",
      "d"
    ],
    [
      "grief",
      ",</w>"
    ],
    [
      "han",
      "d;</w>"
    ],
    [
      "happ",
      "in"
    ],
    [
      "har",
      "m"
    ],
    [
      "her",
      "!</w>"
    ],
    [
      "her",
      "ea"
    ],
    [
      "herefor",
      "d,</w>"
    ],
    [
      "hi",
      "e</w>"
    ],
    [
      "hom",
      "e.</w>"
    ],
    [
      "hortensi",
      "o,</w>"
    ],
    [
      "hour",
      ",</w>"
    ],
    [
      "hum",
      "bly</w>"
    ],
    [
      "i",
      "ll-"
    ],
    [
      "im",
      "prison"
    ],
    [
      "in",
      "?</w>"
    ],
    [
      "in",
      "ed</w>"
    ],
    [
      "in",
      "stan"
    ],
    [
      "k",
      "es,</w>"
    ],
    [
      "keep",
      "s</w>"
    ],
    [
      "ki",
      "ll"
    ],
    [
      "kind",
      "ness</w>"
    ],
    [
      "l",
      "angu"
    ],
    [
      "l",
      "y;</w>"
    ],
    [
      "lan",
      "ds</w>"
    ],
    [
      "le",
      "-"
    ],
    [
      "leis",
      "ure</w>"
    ],
    [
      "li",
      "ght,</w>"
    ],
    [
      "li",
      "k"
    ],
    [
      "ma",
      "d"
    ],
    [
      "mamill",
      "ius:</w>"
    ],
    [
      "mann",
      "er</w>"
    ],
    [
      "master",
      "'s</w>"
    ],
    [
      "mistres",
      "s,</w>"
    ],
    [
      "mo",
      "psa"
    ],
    [
      "mu",
      "ch,</w>"
    ],
    [
      "musician",
      ":</w>"
    ],
    [
      "na",
      "l</w>"
    ],
    [
      "new",
      "-"
    ],
    [
      "no",
      "t"
    ],
    [
      "northumberlan",
      "d,</w>"
    ],
    [
      "on",
      "'s</w>"
    ],
    [
      "ong",
      "st</w>"
    ],
    [
      "op",
      "ini"
    ],
    [
      "or",
      "s,</w>"
    ],
    [
      "oxfor",
      "d,</w>"
    ],
    [
      "oxfor",
      "d:</w>"
    ],
    [
      "pa",
      "l"
    ],
    [
      "par",
      "t"
    ],
    [
      "pea",
      "ce.</w>"
    ],
    [
      "per",
      "ha"
    ],
    [
      "pi",
      "ci"
    ],
    [
      "po",
      "ster"
    ],
    [
      "pres",
      "ently</w>"
    ],
    [
      "pro",
      "ph"
    ],
    [
      "prom",
      "i"
    ],
    [
      "qu",
      "ite</w>"
    ],
    [
      "r",
      "or</w>"
    ],
    [
      "re",
      "ceive</w>"
    ],
    [
      "re",
      "f"
    ],
    [
      "re",
      "vol"
    ],
    [
      "rep",
      "ent</w>"
    ],
    [
      "ri",
      "d</w>"
    ],
    [
      "s",
      "ant</w>"
    ],
    [
      "s",
      "cep"
    ],
    [
      "s",
      "y"
    ],
    [
      "scar",
      "ce</w>"
    ],
    [
      "scor",
      "n</w>"
    ],
    [
      "sea",
      ",</w>"
    ],
    [
      "sh",
      "ort</w>"
    ],
    [
      "she",
      "ep"
    ],
    [
      "si",
      "mple</w>"
    ],
    [
      "soldi",
      "ers</w>"
    ],
    [
      "sole",
      "m"
    ],
    [
      "spa",
      "ke</w>"
    ],
    [
      "st",
      "ir</w>"
    ],
    [
      "st",
      "ol"
    ],
    [
      "sta",
      "b"
    ],
    [
      "su",
      "ffi"
    ],
    [
      "suff",
      "er</w>"
    ],
    [
      "tast",
      "e</w>"
    ],
    [
      "ter",
      ".</w>"
    ],
    [
      "th",
      "ur"
    ],
    [
      "then",
      ".</w>"
    ],
    [
      "thin",
      "e.</w>"
    ],
    [
      "think",
      "'st</w>"
    ],
    [
      "thur",
      "s"
    ],
    [
      "ti",
      "tu"
    ],
    [
      "tion",
      "s,</w>"
    ],
    [
      "too",
      ":</w>"
    ],
    [
      "tou",
      "ch'd</w>"
    ],
    [
      "tr",
      "oo"
    ],
    [
      "trait",
      "or,</w>"
    ],
    [
      "tro",
      "th,</w>"
    ],
    [
      "u",
      "tter"
    ],
    [
      "up",
      ".</w>"
    ],
    [
      "v",
      "ey"
    ],
    [
      "v",
      "ow</w>"
    ],
    [
      "valeri",
      "a:</w>"
    ],
    [
      "vi",
      "le"
    ],
    [
      "voi",
      "ce</w>"
    ],
    [
      "vols",
      "ces</w>"
    ],
    [
      "w",
      "ent</w>"
    ],
    [
      "w",
      "of"
    ],
    [
      "w",
      "ol"
    ],
    [
      "w",
      "on</w>"
    ],
    [
      "want",
      "on</w>"
    ],
    [
      "wea",
      "p"
    ],
    [
      "wi",
      "cked</w>"
    ],
    [
      "wis",
      "dom</w>"
    ],
    [
      "wo",
      "o</w>"
    ],
    [
      "wor",
      "k,</w>"
    ],
    [
      "wretch",
      "ed</w>"
    ],
    [
      "wri",
      "te</w>"
    ],
    [
      "'",
      "d!</w>"
    ],
    [
      "a",
      "m,</w>"
    ],
    [
      "abhor",
      "son:</w>"
    ],
    [
      "ac",
      "cor"
    ],
    [
      "ac",
      "cu"
    ],
    [
      "ac",
      "tion</w>"
    ],
    [
      "ad",
      "d</w>"
    ],
    [
      "al",
      "o:</w>"
    ],
    [
      "al",
      "ready</w>"
    ],
    [
      "ar",
      "ch"
    ],
    [
      "as",
      "ar"
    ],
    [
      "au",
      "ght</w>"
    ],
    [
      "ba",
      "ck,</w>"
    ],
    [
      "back",
      ".</w>"
    ],
    [
      "bal",
      "th"
    ],
    [
      "balth",
      "asar"
    ],
    [
      "bear",
      "ing</w>"
    ],
    [
      "bl",
      "est</w>"
    ],
    [
      "blin",
      "d</w>"
    ],
    [
      "bo",
      "th.</w>"
    ],
    [
      "bo",
      "y:</w>"
    ],
    [
      "boat",
      "swa"
    ],
    [
      "brea",
      "th,</w>"
    ],
    [
      "bri",
      "ght</w>"
    ],
    [
      "bu",
      "ry</w>"
    ],
    [
      "bush",
      "y:</w>"
    ],
    [
      "ce",
      "d,</w>"
    ],
    [
      "char",
      "ged</w>"
    ],
    [
      "chi",
      "de</w>"
    ],
    [
      "chi",
      "ef"
    ],
    [
      "circ",
      "um"
    ],
    [
      "ck",
      "?</w>"
    ],
    [
      "cla",
      "im</w>"
    ],
    [
      "claudi",
      "o</w>"
    ],
    [
      "con",
      "clu"
    ],
    [
      "con",
      "vey"
    ],
    [
      "coun",
      "ty</w>"
    ],
    [
      "cour",
      "se,</w>"
    ],
    [
      "cros",
      "s</w>"
    ],
    [
      "d",
      "'st</w>"
    ],
    [
      "f",
      "oun"
    ],
    [
      "d",
      "ing"
    ],
    [
      "d",
      "ure</w>"
    ],
    [
      "da",
      "y;</w>"
    ],
    [
      "dam",
      "ned</w>"
    ],
    [
      "de",
      "man"
    ],
    [
      "des",
      "cen"
    ],
    [
      "des",
      "pair"
    ],
    [
      "deter",
      "min"
    ],
    [
      "di",
      "d,</w>"
    ],
    [
      "diff",
      "er"
    ],
    [
      "dis",
      "da"
    ],
    [
      "dou",
      "ble</w>"
    ],
    [
      "dread",
      "ful</w>"
    ],
    [
      "du",
      "ke.</w>"
    ],
    [
      "du",
      "ll</w>"
    ],
    [
      "ed",
      "ing</w>"
    ],
    [
      "enough",
      ".</w>"
    ],
    [
      "enter",
      "tain"
    ],
    [
      "er",
      "s:</w>"
    ],
    [
      "es",
      "t;</w>"
    ],
    [
      "es",
      "ty</w>"
    ],
    [
      "f",
      "ren"
    ],
    [
      "far",
      "es</w>"
    ],
    [
      "fare",
      "well:</w>"
    ],
    [
      "father",
      ":</w>"
    ],
    [
      "fi",
      "ll</w>"
    ],
    [
      "fla",
      "tter</w>"
    ],
    [
      "flow",
      "ers</w>"
    ],
    [
      "fortun",
      "es</w>"
    ],
    [
      "fran",
      "ce,</w>"
    ],
    [
      "fu",
      "ll"
    ],
    [
      "go",
      "ld</w>"
    ],
    [
      "gonz",
      "alo:</w>"
    ],
    [
      "goo",
      "d.</w>"
    ],
    [
      "gover",
      "n"
    ],
    [
      "har",
      "k,</w>"
    ],
    [
      "har",
      "k</w>"
    ],
    [
      "hast",
      "ings</w>"
    ],
    [
      "he",
      "ll</w>"
    ],
    [
      "hen",
      "ce;</w>"
    ],
    [
      "her",
      "?</w>"
    ],
    [
      "her",
      "e;</w>"
    ],
    [
      "herea",
      "f"
    ],
    [
      "hi",
      "t</w>"
    ],
    [
      "him",
      "self.</w>"
    ],
    [
      "hol",
      "ds</w>"
    ],
    [
      "hou",
      "se"
    ],
    [
      "v",
      "es,</w>"
    ],
    [
      "hun",
      "t"
    ],
    [
      "husban",
      "d.</w>"
    ],
    [
      "il",
      ".</w>"
    ],
    [
      "in",
      "ju"
    ],
    [
      "inten",
      "d</w>"
    ],
    [
      "it",
      "ed</w>"
    ],
    [
      "it",
      "y.</w>"
    ],
    [
      "j",
      "ur"
    ],
    [
      "jo",
      "in</w>"
    ],
    [
      "jo",
      "y,</w>"
    ],
    [
      "king",
      "ly</w>"
    ],
    [
      "kne",
      "es</w>"
    ],
    [
      "l",
      "?</w>"
    ],
    [
      "l",
      "y"
    ],
    [
      "la",
      "m"
    ],
    [
      "li",
      "ke"
    ],
    [
      "liv",
      "ed</w>"
    ],
    [
      "ll",
      "s,</w>"
    ],
    [
      "lo",
      "ver"
    ],
    [
      "lon",
      "don"
    ],
    [
      "lov",
      "e!</w>"
    ],
    [
      "ma",
      "in"
    ],
    [
      "ma",
      "s"
    ],
    [
      "matter",
      ",</w>"
    ],
    [
      "mayor",
      ":</w>"
    ],
    [
      "men",
      ":</w>"
    ],
    [
      "mi",
      "d"
    ],
    [
      "mopsa",
      ":</w>"
    ],
    [
      "mor",
      "e:</w>"
    ],
    [
      "mor",
      "e;</w>"
    ],
    [
      "mowbra",
      "y:</w>"
    ],
    [
      "n",
      "umber"
    ],
    [
      "night",
      ":</w>"
    ],
    [
      "norfol",
      "k:</w>"
    ],
    [
      "om",
      "a"
    ],
    [
      "on",
      "ce,</w>"
    ],
    [
      "or",
      ".</w>"
    ],
    [
      "or",
      ";</w>"
    ],
    [
      "ou",
      "s.</w>"
    ],
    [
      "oun",
      "ds</w>"
    ],
    [
      "ow",
      "e</w>"
    ],
    [
      "p",
      ".</w>"
    ],
    [
      "pa",
      "in</w>"
    ],
    [
      "pas",
      "s'd</w>"
    ],
    [
      "pea",
      "ce!</w>"
    ],
    [
      "pen",
      "it"
    ],
    [
      "per",
      "i"
    ],
    [
      "per",
      "pet"
    ],
    [
      "u",
      "al</w>"
    ],
    [
      "persu",
      "a"
    ],
    [
      "pit",
      "eous</w>"
    ],
    [
      "pla",
      "ce;</w>"
    ],
    [
      "pri",
      "son,</w>"
    ],
    [
      "procla",
      "im"
    ],
    [
      "proo",
      "f"
    ],
    [
      "pur",
      "cha"
    ],
    [
      "r",
      "t</w>"
    ],
    [
      "remem",
      "bran"
    ],
    [
      "resol",
      "ve</w>"
    ],
    [
      "ri",
      "es</w>"
    ],
    [
      "richmon",
      "d</w>"
    ],
    [
      "ro",
      "tten</w>"
    ],
    [
      "roman",
      ":</w>"
    ],
    [
      "rome",
      "o!</w>"
    ],
    [
      "ru",
      "de</w>"
    ],
    [
      "sa",
      "fe"
    ],
    [
      "saf",
      "e</w>"
    ],
    [
      "sea",
      "t</w>"
    ],
    [
      "see",
      "ing</w>"
    ],
    [
      "sent",
      "ence</w>"
    ],
    [
      "sever",
      "al</w>"
    ],
    [
      "sh",
      "ouldst</w>"
    ],
    [
      "sh",
      "r"
    ],
    [
      "sha",
      "ll"
    ],
    [
      "si",
      "on.</w>"
    ],
    [
      "sil",
      "ver</w>"
    ],
    [
      "sla",
      "in,</w>"
    ],
    [
      "sleep",
      ",</w>"
    ],
    [
      "son",
      "!</w>"
    ],
    [
      "sp",
      "or"
    ],
    [
      "ti",
      "ve</w>"
    ],
    [
      "spiri",
      "t,</w>"
    ],
    [
      "st",
      "it"
    ],
    [
      "u",
      "t"
    ],
    [
      "st",
      "one</w>"
    ],
    [
      "sti",
      "ll,</w>"
    ],
    [
      "stor",
      "y</w>"
    ],
    [
      "sur",
      "re"
    ],
    [
      "sus",
      "pe"
    ],
    [
      "sus",
      "pici"
    ],
    [
      "t",
      "ent"
    ],
    [
      "t",
      "y:</w>"
    ],
    [
      "te",
      ";</w>"
    ],
    [
      "resol",
      "u"
    ],
    [
      "te",
      "ful</w>"
    ],
    [
      "tem",
      "per"
    ],
    [
      "ten",
      "der"
    ],
    [
      "ter",
      "s</w>"
    ],
    [
      "th",
      "us,</w>"
    ],
    [
      "than",
      "ks</w>"
    ],
    [
      "them",
      "?</w>"
    ],
    [
      "thou",
      "?</w>"
    ],
    [
      "tim",
      "ely</w>"
    ],
    [
      "tion",
      "!</w>"
    ],
    [
      "to",
      "a"
    ],
    [
      "toge",
      "ther"
    ],
    [
      "tongu",
      "e.</w>"
    ],
    [
      "tribun",
      "es</w>"
    ],
    [
      "tur",
      "e,</w>"
    ],
    [
      "de",
      "par"
    ],
    [
      "ty",
      "'s</w>"
    ],
    [
      "u",
      "l</w>"
    ],
    [
      "un",
      "timely</w>"
    ],
    [
      "vou",
      "ch"
    ],
    [
      "w",
      "est"
    ],
    [
      "wa",
      "il</w>"
    ],
    [
      "wea",
      "k"
    ],
    [
      "whol",
      "e</w>"
    ],
    [
      "wi",
      "ther"
    ],
    [
      "wo",
      "es</w>"
    ],
    [
      "wor",
      "ds.</w>"
    ],
    [
      "year",
      "s,</w>"
    ],
    [
      "your",
      "s.</w>"
    ],
    [
      "!",
      "--</w>"
    ],
    [
      "wi",
      "sh"
    ],
    [
      "for",
      "bi"
    ],
    [
      "a",
      "ir,</w>"
    ],
    [
      "a",
      "voi"
    ],
    [
      "acc",
      "us"
    ],
    [
      "acc",
      "use</w>"
    ],
    [
      "advi",
      "se</w>"
    ],
    [
      "af",
      "fli"
    ],
    [
      "all",
      "-"
    ],
    [
      "all",
      ";</w>"
    ],
    [
      "all",
      "ow"
    ],
    [
      "am",
      "bi"
    ],
    [
      "an",
      "on</w>"
    ],
    [
      "ap",
      "poin"
    ],
    [
      "app",
      "ea"
    ],
    [
      "app",
      "re"
    ],
    [
      "appre",
      "hen"
    ],
    [
      "ar",
      "e.</w>"
    ],
    [
      "ar",
      "y.</w>"
    ],
    [
      "as",
      "sa"
    ],
    [
      "as",
      "sur"
    ],
    [
      "balthasar",
      ":</w>"
    ],
    [
      "be",
      "?</w>"
    ],
    [
      "be",
      "yond</w>"
    ],
    [
      "beg",
      "ins</w>"
    ],
    [
      "beli",
      "ev"
    ],
    [
      "ben",
      "ef"
    ],
    [
      "benef",
      "it</w>"
    ],
    [
      "bla",
      "me</w>"
    ],
    [
      "bo",
      "y!</w>"
    ],
    [
      "bohemi",
      "a</w>"
    ],
    [
      "bolingbrok",
      "e,</w>"
    ],
    [
      "bor",
      "n.</w>"
    ],
    [
      "bri",
      "ef</w>"
    ],
    [
      "c",
      "oo"
    ],
    [
      "ca",
      "use,</w>"
    ],
    [
      "can",
      ",</w>"
    ],
    [
      "cau",
      "se.</w>"
    ],
    [
      "ce",
      "it</w>"
    ],
    [
      "ce",
      "pt</w>"
    ],
    [
      "ch",
      "ea"
    ],
    [
      "chang",
      "ed</w>"
    ],
    [
      "che",
      "er</w>"
    ],
    [
      "christi",
      "an</w>"
    ],
    [
      "cle",
      "om"
    ],
    [
      "cleom",
      "en"
    ],
    [
      "comp",
      "le"
    ],
    [
      "compan",
      "i"
    ],
    [
      "con",
      "ten"
    ],
    [
      "consi",
      "der"
    ],
    [
      "coriolan",
      "us</w>"
    ],
    [
      "crea",
      "ture</w>"
    ],
    [
      "cust",
      "om"
    ],
    [
      "d",
      "ed.</w>"
    ],
    [
      "d",
      "ings</w>"
    ],
    [
      "d",
      "ying</w>"
    ],
    [
      "da",
      "gg"
    ],
    [
      "de",
      ";</w>"
    ],
    [
      "de",
      "vo"
    ],
    [
      "dea",
      "d?</w>"
    ],
    [
      "dea",
      "l</w>"
    ],
    [
      "deser",
      "ve</w>"
    ],
    [
      "deser",
      "ves</w>"
    ],
    [
      "despit",
      "e</w>"
    ],
    [
      "di",
      "ed</w>"
    ],
    [
      "do",
      "om"
    ],
    [
      "duk",
      "ed"
    ],
    [
      "dur",
      "st</w>"
    ],
    [
      "e",
      "ful</w>"
    ],
    [
      "e",
      "ves</w>"
    ],
    [
      "el",
      "se,</w>"
    ],
    [
      "en",
      "ce;</w>"
    ],
    [
      "en",
      "dure</w>"
    ],
    [
      "en",
      "vious</w>"
    ],
    [
      "englan",
      "d,</w>"
    ],
    [
      "es",
      "om"
    ],
    [
      "es",
      "s;</w>"
    ],
    [
      "es",
      "ter"
    ],
    [
      "et",
      ";</w>"
    ],
    [
      "exc",
      "use</w>"
    ],
    [
      "f",
      "lou"
    ],
    [
      "f",
      "on"
    ],
    [
      "fair",
      "ly</w>"
    ],
    [
      "fare",
      "well</w>"
    ],
    [
      "fer",
      "din"
    ],
    [
      "fi",
      "e!</w>"
    ],
    [
      "fi",
      "x"
    ],
    [
      "fir",
      "m</w>"
    ],
    [
      "fo",
      "e</w>"
    ],
    [
      "fortun",
      "e,</w>"
    ],
    [
      "ga",
      "l</w>"
    ],
    [
      "gar",
      "den"
    ],
    [
      "gho",
      "st</w>"
    ],
    [
      "glor",
      "y</w>"
    ],
    [
      "go",
      "d"
    ],
    [
      "goo",
      "d"
    ],
    [
      "groun",
      "d,</w>"
    ],
    [
      "ha",
      "d,</w>"
    ],
    [
      "ha",
      "ply</w>"
    ],
    [
      "ha",
      "ve.</w>"
    ],
    [
      "han",
      "ds.</w>"
    ],
    [
      "har",
      "k!</w>"
    ],
    [
      "har",
      "m</w>"
    ],
    [
      "he",
      "?</w>"
    ],
    [
      "hea",
      "d;</w>"
    ],
    [
      "hear",
      "ted</w>"
    ],
    [
      "hon",
      "esty</w>"
    ],
    [
      "hun",
      "g"
    ],
    [
      "hunt",
      "s"
    ],
    [
      "i",
      "re"
    ],
    [
      "lan",
      "d.</w>"
    ],
    [
      "imp",
      "or"
    ],
    [
      "in",
      "tell"
    ],
    [
      "juli",
      "et</w>"
    ],
    [
      "know",
      ".</w>"
    ],
    [
      "knowle",
      "dge</w>"
    ],
    [
      "l",
      "!</w>"
    ],
    [
      "l",
      ";</w>"
    ],
    [
      "lab",
      "our</w>"
    ],
    [
      "ladi",
      "es</w>"
    ],
    [
      "le",
      "tter</w>"
    ],
    [
      "li",
      "a"
    ],
    [
      "life",
      ";</w>"
    ],
    [
      "lucenti",
      "o</w>"
    ],
    [
      "master",
      "s,</w>"
    ],
    [
      "matter",
      "?</w>"
    ],
    [
      "me",
      "et"
    ],
    [
      "men",
      ";</w>"
    ],
    [
      "mi",
      "r"
    ],
    [
      "mista",
      "ke</w>"
    ],
    [
      "na",
      "me;</w>"
    ],
    [
      "ne",
      "ver"
    ],
    [
      "o'",
      "clo"
    ],
    [
      "of",
      ".</w>"
    ],
    [
      "off",
      "ence</w>"
    ],
    [
      "ong",
      ",</w>"
    ],
    [
      "ou",
      "sly</w>"
    ],
    [
      "own",
      "ed</w>"
    ],
    [
      "pa",
      "inted</w>"
    ],
    [
      "par",
      "is</w>"
    ],
    [
      "par",
      "ty</w>"
    ],
    [
      "parti",
      "cu"
    ],
    [
      "per",
      "cy:</w>"
    ],
    [
      "pla",
      "y"
    ],
    [
      "plantagen",
      "et,</w>"
    ],
    [
      "prison",
      "er</w>"
    ],
    [
      "pro",
      "fan"
    ],
    [
      "proce",
      "ed</w>"
    ],
    [
      "pun",
      "ish"
    ],
    [
      "purpo",
      "se.</w>"
    ],
    [
      "ra",
      "ise</w>"
    ],
    [
      "ra",
      "ven"
    ],
    [
      "re",
      "be"
    ],
    [
      "re",
      "bell"
    ],
    [
      "re",
      "gi"
    ],
    [
      "re",
      "pea"
    ],
    [
      "re",
      "w</w>"
    ],
    [
      "ren",
      "owned</w>"
    ],
    [
      "requ",
      "est</w>"
    ],
    [
      "res",
      "t.</w>"
    ],
    [
      "retur",
      "n"
    ],
    [
      "richar",
      "d's</w>"
    ],
    [
      "ro",
      "b"
    ],
    [
      "rome",
      "o's</w>"
    ],
    [
      "roy",
      "al"
    ],
    [
      "s",
      "cen"
    ],
    [
      "s",
      "mile</w>"
    ],
    [
      "s",
      "moo"
    ],
    [
      "s",
      "our</w>"
    ],
    [
      "sa",
      "lis"
    ],
    [
      "sea",
      "-"
    ],
    [
      "sen",
      "se</w>"
    ],
    [
      "serv",
      "ant</w>"
    ],
    [
      "sh",
      "oo"
    ],
    [
      "so",
      "on"
    ],
    [
      "some",
      "times</w>"
    ],
    [
      "sp",
      "are</w>"
    ],
    [
      "sp",
      "end</w>"
    ],
    [
      "speak",
      ":</w>"
    ],
    [
      "st",
      "in"
    ],
    [
      "sta",
      "in</w>"
    ],
    [
      "stea",
      "l</w>"
    ],
    [
      "sum",
      "mer</w>"
    ],
    [
      "sun",
      ",</w>"
    ],
    [
      "t",
      "res"
    ],
    [
      "t",
      "s;</w>"
    ],
    [
      "t",
      "um"
    ],
    [
      "tailor",
      ":</w>"
    ],
    [
      "that",
      ".</w>"
    ],
    [
      "the",
      "ir"
    ],
    [
      "ther",
      ":</w>"
    ],
    [
      "thou'",
      "rt</w>"
    ],
    [
      "thr",
      "ust</w>"
    ],
    [
      "thre",
      "e-"
    ],
    [
      "ti",
      "de</w>"
    ],
    [
      "ti",
      "ous</w>"
    ],
    [
      "to-morrow",
      ",</w>"
    ],
    [
      "too",
      ";</w>"
    ],
    [
      "tow",
      "er,</w>"
    ],
    [
      "tow",
      "er.</w>"
    ],
    [
      "trea",
      "cher"
    ],
    [
      "tur",
      "ns</w>"
    ],
    [
      "twel",
      "ve</w>"
    ],
    [
      "v",
      "ate</w>"
    ],
    [
      "pri",
      "vate</w>"
    ],
    [
      "v",
      "e:</w>"
    ],
    [
      "v",
      "ex"
    ],
    [
      "va",
      "in</w>"
    ],
    [
      "wal",
      "k</w>"
    ],
    [
      "warwick",
      "'s</w>"
    ],
    [
      "wei",
      "gh"
    ],
    [
      "wh",
      "en,</w>"
    ],
    [
      "whol",
      "esom"
    ],
    [
      "wi",
      "ld</w>"
    ],
    [
      "with",
      "al.</w>"
    ],
    [
      "wof",
      "ul</w>"
    ],
    [
      "won",
      "t</w>"
    ],
    [
      "wor",
      "d:</w>"
    ],
    [
      "wor",
      "ship"
    ],
    [
      "y",
      "ear</w>"
    ],
    [
      "'t",
      "will</w>"
    ],
    [
      ":",
      "--"
    ],
    [
      "a",
      "x"
    ],
    [
      "ab",
      "sol"
    ],
    [
      "ac",
      "cept</w>"
    ],
    [
      "accoun",
      "t</w>"
    ],
    [
      "al",
      "on"
    ],
    [
      "answ",
      "er"
    ],
    [
      "ar",
      "my</w>"
    ],
    [
      "awa",
      "y;</w>"
    ],
    [
      "ba",
      "sti"
    ],
    [
      "basti",
      "an:</w>"
    ],
    [
      "be",
      "d;</w>"
    ],
    [
      "beg",
      "un"
    ],
    [
      "bi",
      "g</w>"
    ],
    [
      "bianca",
      ",</w>"
    ],
    [
      "bit",
      "ter"
    ],
    [
      "ble",
      ";</w>"
    ],
    [
      "bo",
      "tt"
    ],
    [
      "bra",
      "w"
    ],
    [
      "brea",
      "st,</w>"
    ],
    [
      "buckingha",
      "m</w>"
    ],
    [
      "c",
      ",</w>"
    ],
    [
      "c",
      "t.</w>"
    ],
    [
      "ca",
      "s:</w>"
    ],
    [
      "call",
      "ed</w>"
    ],
    [
      "can",
      "not,</w>"
    ],
    [
      "car",
      "es</w>"
    ],
    [
      "childr",
      "en,</w>"
    ],
    [
      "chur",
      "ch"
    ],
    [
      "com",
      "e!</w>"
    ],
    [
      "com",
      "es.</w>"
    ],
    [
      "com",
      "est</w>"
    ],
    [
      "com",
      "mis"
    ],
    [
      "comman",
      "d,</w>"
    ],
    [
      "conqu",
      "er"
    ],
    [
      "conspira",
      "tor"
    ],
    [
      "constan",
      "t</w>"
    ],
    [
      "cont",
      "ented</w>"
    ],
    [
      "countr",
      "y"
    ],
    [
      "cun",
      "ning</w>"
    ],
    [
      "d",
      "den"
    ],
    [
      "d",
      "ence</w>"
    ],
    [
      "d",
      "ust</w>"
    ],
    [
      "da",
      "l</w>"
    ],
    [
      "da",
      "y?</w>"
    ],
    [
      "dd",
      "le</w>"
    ],
    [
      "den",
      "i"
    ],
    [
      "des",
      "t"
    ],
    [
      "di",
      "sper"
    ],
    [
      "dire",
      "c"
    ],
    [
      "dire",
      "ct</w>"
    ],
    [
      "dis",
      "ea"
    ],
    [
      "dishon",
      "our</w>"
    ],
    [
      "do",
      "?</w>"
    ],
    [
      "do",
      "g</w>"
    ],
    [
      "dor",
      "cas:</w>"
    ],
    [
      "dow",
      "s</w>"
    ],
    [
      "drea",
      "d</w>"
    ],
    [
      "ee",
      "l</w>"
    ],
    [
      "ef",
      "fect</w>"
    ],
    [
      "el",
      "y,</w>"
    ],
    [
      "en",
      "'s</w>"
    ],
    [
      "eng",
      "land</w>"
    ],
    [
      "enough",
      ",</w>"
    ],
    [
      "ent",
      ":</w>"
    ],
    [
      "es",
      "'</w>"
    ],
    [
      "et",
      "'s</w>"
    ],
    [
      "et",
      "s,</w>"
    ],
    [
      "fa",
      "in"
    ],
    [
      "fa",
      "m"
    ],
    [
      "fa",
      "mi"
    ],
    [
      "father",
      ";</w>"
    ],
    [
      "faul",
      "t,</w>"
    ],
    [
      "fear",
      ".</w>"
    ],
    [
      "fi",
      "ts</w>"
    ],
    [
      "follow",
      "s</w>"
    ],
    [
      "for",
      "bid</w>"
    ],
    [
      "for",
      "g"
    ],
    [
      "for",
      "th,</w>"
    ],
    [
      "fortun",
      "e's</w>"
    ],
    [
      "fra",
      "me</w>"
    ],
    [
      "fri",
      "ght"
    ],
    [
      "fri",
      "ght</w>"
    ],
    [
      "fur",
      "ni"
    ],
    [
      "g",
      "s,</w>"
    ],
    [
      "gaun",
      "t</w>"
    ],
    [
      "ght",
      ";</w>"
    ],
    [
      "gi",
      "f"
    ],
    [
      "gi",
      "ving</w>"
    ],
    [
      "gla",
      "s"
    ],
    [
      "glor",
      "ious</w>"
    ],
    [
      "go",
      "d!</w>"
    ],
    [
      "gre",
      "en:</w>"
    ],
    [
      "gre",
      "et</w>"
    ],
    [
      "ha",
      "ir</w>"
    ],
    [
      "ha",
      "z"
    ],
    [
      "han",
      "d"
    ],
    [
      "har",
      "dly</w>"
    ],
    [
      "he",
      "i"
    ],
    [
      "he",
      "ll"
    ],
    [
      "heaven",
      "s!</w>"
    ],
    [
      "hen",
      "ce"
    ],
    [
      "her",
      "self</w>"
    ],
    [
      "hi",
      "s.</w>"
    ],
    [
      "hou",
      "se:</w>"
    ],
    [
      "i",
      "s;</w>"
    ],
    [
      "in",
      "crea"
    ],
    [
      "intell",
      "ig"
    ],
    [
      "is",
      "e,</w>"
    ],
    [
      "isabe",
      "l,</w>"
    ],
    [
      "jo",
      "in'd</w>"
    ],
    [
      "joy",
      "ful</w>"
    ],
    [
      "judg",
      "ment</w>"
    ],
    [
      "k",
      "?</w>"
    ],
    [
      "katharin",
      "a,</w>"
    ],
    [
      "katharin",
      "a</w>"
    ],
    [
      "kind",
      "red</w>"
    ],
    [
      "kne",
      "e</w>"
    ],
    [
      "l",
      "'s</w>"
    ],
    [
      "l",
      "es,</w>"
    ],
    [
      "l",
      "t,</w>"
    ],
    [
      "la",
      "te,</w>"
    ],
    [
      "lanca",
      "ster</w>"
    ],
    [
      "le",
      "an"
    ],
    [
      "lea",
      "ve.</w>"
    ],
    [
      "life",
      "?</w>"
    ],
    [
      "long",
      ".</w>"
    ],
    [
      "loo",
      "king</w>"
    ],
    [
      "lor",
      "ds:</w>"
    ],
    [
      "m",
      "ing</w>"
    ],
    [
      "m",
      "s,</w>"
    ],
    [
      "me",
      "t,</w>"
    ],
    [
      "mer",
      "ri"
    ],
    [
      "min",
      "d,</w>"
    ],
    [
      "mini",
      "ster"
    ],
    [
      "mo",
      "ck'd</w>"
    ],
    [
      "mo",
      "on</w>"
    ],
    [
      "mon",
      "str"
    ],
    [
      "morrow",
      ",</w>"
    ],
    [
      "mu",
      "tin"
    ],
    [
      "n",
      "ine</w>"
    ],
    [
      "n",
      "one.</w>"
    ],
    [
      "neces",
      "si"
    ],
    [
      "nes",
      "s'</w>"
    ],
    [
      "night",
      ";</w>"
    ],
    [
      "nothing",
      ";</w>"
    ],
    [
      "o",
      "ther,</w>"
    ],
    [
      "o'er",
      "-"
    ],
    [
      "off",
      ".</w>"
    ],
    [
      "on",
      "'t.</w>"
    ],
    [
      "out",
      "ward</w>"
    ],
    [
      "p",
      ":</w>"
    ],
    [
      "p",
      "le"
    ],
    [
      "padu",
      "a</w>"
    ],
    [
      "pati",
      "ent</w>"
    ],
    [
      "peop",
      "le.</w>"
    ],
    [
      "per",
      "fect</w>"
    ],
    [
      "pla",
      "y'd</w>"
    ],
    [
      "possi",
      "ble</w>"
    ],
    [
      "pow",
      "er.</w>"
    ],
    [
      "practi",
      "se</w>"
    ],
    [
      "pray",
      "er</w>"
    ],
    [
      "pri",
      "vile"
    ],
    [
      "proce",
      "ed"
    ],
    [
      "prop",
      "er</w>"
    ],
    [
      "pu",
      "ts</w>"
    ],
    [
      "re",
      ":</w>"
    ],
    [
      "re",
      "pair</w>"
    ],
    [
      "rea",
      "l"
    ],
    [
      "receiv",
      "ed</w>"
    ],
    [
      "requ",
      "est,</w>"
    ],
    [
      "res",
      "cu"
    ],
    [
      "res",
      "tra"
    ],
    [
      "resol",
      "ved</w>"
    ],
    [
      "rever",
      "end</w>"
    ],
    [
      "ri",
      "ous</w>"
    ],
    [
      "ri",
      "se</w>"
    ],
    [
      "s",
      "can"
    ],
    [
      "s",
      "cop"
    ],
    [
      "s",
      "cra"
    ],
    [
      "s",
      "ings</w>"
    ],
    [
      "safet",
      "y</w>"
    ],
    [
      "se",
      "bastian:</w>"
    ],
    [
      "se",
      "ly</w>"
    ],
    [
      "se",
      "th</w>"
    ],
    [
      "self",
      "-"
    ],
    [
      "sen",
      "ds</w>"
    ],
    [
      "ser",
      "ves</w>"
    ],
    [
      "sha",
      "dow</w>"
    ],
    [
      "shi",
      "p,</w>"
    ],
    [
      "si",
      "on,</w>"
    ],
    [
      "sici",
      "li"
    ],
    [
      "sin",
      "ce,</w>"
    ],
    [
      "slan",
      "der</w>"
    ],
    [
      "soldi",
      "er:</w>"
    ],
    [
      "spee",
      "ch</w>"
    ],
    [
      "st",
      "um"
    ],
    [
      "stu",
      "ff"
    ],
    [
      "su",
      "red</w>"
    ],
    [
      "subje",
      "cts</w>"
    ],
    [
      "ta",
      "ken</w>"
    ],
    [
      "ta",
      "kes</w>"
    ],
    [
      "ta",
      "ught</w>"
    ],
    [
      "th",
      "less</w>"
    ],
    [
      "then",
      ";</w>"
    ],
    [
      "there",
      "of</w>"
    ],
    [
      "thin",
      "ks,</w>"
    ],
    [
      "thou",
      "ght,</w>"
    ],
    [
      "trait",
      "ors</w>"
    ],
    [
      "trea",
      "d</w>"
    ],
    [
      "tru",
      "ly,</w>"
    ],
    [
      "ty",
      "!</w>"
    ],
    [
      "under",
      "stand</w>"
    ],
    [
      "under",
      "take</w>"
    ],
    [
      "ur",
      "ge</w>"
    ],
    [
      "v",
      "el"
    ],
    [
      "val",
      "our</w>"
    ],
    [
      "ven",
      "i"
    ],
    [
      "villa",
      "in!</w>"
    ],
    [
      "vir",
      "g"
    ],
    [
      "wh",
      "or"
    ],
    [
      "wha",
      "te"
    ],
    [
      "where",
      "of</w>"
    ],
    [
      "will",
      "ough"
    ],
    [
      "wo",
      "e,</w>"
    ],
    [
      "y",
      "ar"
    ],
    [
      "y",
      "ed</w>"
    ],
    [
      "your",
      "self,</w>"
    ],
    [
      "z",
      "ed</w>"
    ],
    [
      "'",
      "fore</w>"
    ],
    [
      "'",
      "n</w>"
    ],
    [
      "a",
      "'s</w>"
    ],
    [
      "a",
      ";</w>"
    ],
    [
      "a",
      "chi"
    ],
    [
      "a",
      "id</w>"
    ],
    [
      "a",
      "im"
    ],
    [
      "a",
      "side</w>"
    ],
    [
      "absen",
      "ce</w>"
    ],
    [
      "ac",
      "ci"
    ],
    [
      "acc",
      "ess</w>"
    ],
    [
      "ad",
      "venture</w>"
    ],
    [
      "adver",
      "s"
    ],
    [
      "aedi",
      "le:</w>"
    ],
    [
      "after",
      "no"
    ],
    [
      "al",
      ":</w>"
    ],
    [
      "al",
      ";</w>"
    ],
    [
      "al",
      "ter"
    ],
    [
      "am",
      "ongst</w>"
    ],
    [
      "an",
      "n"
    ],
    [
      "angelo",
      ".</w>"
    ],
    [
      "ano",
      "ther,</w>"
    ],
    [
      "answ",
      "er.</w>"
    ],
    [
      "ar",
      ",</w>"
    ],
    [
      "as",
      "le"
    ],
    [
      "b",
      "red</w>"
    ],
    [
      "ba",
      "de</w>"
    ],
    [
      "ba",
      "s"
    ],
    [
      "baptist",
      "a</w>"
    ],
    [
      "be",
      ":</w>"
    ],
    [
      "be",
      "en,</w>"
    ],
    [
      "be",
      "l"
    ],
    [
      "be",
      "think</w>"
    ],
    [
      "better",
      ",</w>"
    ],
    [
      "bir",
      "th,</w>"
    ],
    [
      "bl",
      "ush"
    ],
    [
      "bo",
      "dy,</w>"
    ],
    [
      "bo",
      "th:</w>"
    ],
    [
      "bo",
      "y.</w>"
    ],
    [
      "boatswa",
      "in:</w>"
    ],
    [
      "bod",
      "y's</w>"
    ],
    [
      "bolingbro",
      "ke"
    ],
    [
      "bon",
      "es</w>"
    ],
    [
      "br",
      "ings</w>"
    ],
    [
      "brief",
      ",</w>"
    ],
    [
      "brother",
      ".</w>"
    ],
    [
      "bu",
      "i"
    ],
    [
      "bu",
      "ri"
    ],
    [
      "bu",
      "ried</w>"
    ],
    [
      "busin",
      "ess.</w>"
    ],
    [
      "c",
      "ta"
    ],
    [
      "c",
      "ting</w>"
    ],
    [
      "cam",
      "est</w>"
    ],
    [
      "camill",
      "o</w>"
    ],
    [
      "cap",
      "tain</w>"
    ],
    [
      "car",
      "ried</w>"
    ],
    [
      "ce",
      "'</w>"
    ],
    [
      "char",
      "ac"
    ],
    [
      "che",
      "qu"
    ],
    [
      "chee",
      "ks</w>"
    ],
    [
      "chil",
      "d.</w>"
    ],
    [
      "ci",
      "an</w>"
    ],
    [
      "circum",
      "stan"
    ],
    [
      "citizen",
      "s</w>"
    ],
    [
      "ck",
      ";</w>"
    ],
    [
      "claudi",
      "o,</w>"
    ],
    [
      "cle",
      "ar</w>"
    ],
    [
      "col",
      "ours</w>"
    ],
    [
      "comman",
      "ded</w>"
    ],
    [
      "comp",
      "li"
    ],
    [
      "conf",
      "er"
    ],
    [
      "cont",
      "ent.</w>"
    ],
    [
      "cont",
      "ro"
    ],
    [
      "contin",
      "ue</w>"
    ],
    [
      "cor",
      "re"
    ],
    [
      "coriol",
      "i</w>"
    ],
    [
      "countr",
      "y,</w>"
    ],
    [
      "crow",
      "n'd</w>"
    ],
    [
      "cur",
      "r"
    ],
    [
      "d",
      "en,</w>"
    ],
    [
      "d",
      "ge,</w>"
    ],
    [
      "da",
      "in"
    ],
    [
      "dar",
      "es</w>"
    ],
    [
      "daughter",
      "'s</w>"
    ],
    [
      "de",
      "?</w>"
    ],
    [
      "de",
      "v"
    ],
    [
      "dea",
      "d!</w>"
    ],
    [
      "death",
      "'s</w>"
    ],
    [
      "def",
      "en"
    ],
    [
      "dis",
      "sem"
    ],
    [
      "divin",
      "e</w>"
    ],
    [
      "do",
      ";</w>"
    ],
    [
      "dor",
      "set:</w>"
    ],
    [
      "doub",
      "t"
    ],
    [
      "dres",
      "s</w>"
    ],
    [
      "dro",
      "ps</w>"
    ],
    [
      "ef",
      "fec"
    ],
    [
      "embra",
      "ce</w>"
    ],
    [
      "emp",
      "ty</w>"
    ],
    [
      "en",
      "d,</w>"
    ],
    [
      "en",
      "force</w>"
    ],
    [
      "en",
      "vy</w>"
    ],
    [
      "enem",
      "y,</w>"
    ],
    [
      "enemi",
      "es</w>"
    ],
    [
      "equ",
      "al</w>"
    ],
    [
      "er",
      "!</w>"
    ],
    [
      "ma",
      "k"
    ],
    [
      "es",
      "t:</w>"
    ],
    [
      "es",
      "ts</w>"
    ],
    [
      "evi",
      "l</w>"
    ],
    [
      "ex",
      "press</w>"
    ],
    [
      "fa",
      "ll,</w>"
    ],
    [
      "fa",
      "st,</w>"
    ],
    [
      "fair",
      "er</w>"
    ],
    [
      "father",
      "?</w>"
    ],
    [
      "fav",
      "our</w>"
    ],
    [
      "fear",
      "'d</w>"
    ],
    [
      "feel",
      "ing</w>"
    ],
    [
      "fellow",
      ".</w>"
    ],
    [
      "ferdin",
      "and:</w>"
    ],
    [
      "fi",
      "ght.</w>"
    ],
    [
      "fin",
      "ds</w>"
    ],
    [
      "fl",
      "y.</w>"
    ],
    [
      "fo",
      "es</w>"
    ],
    [
      "fre",
      "ely</w>"
    ],
    [
      "frow",
      "n</w>"
    ],
    [
      "fu",
      "l.</w>"
    ],
    [
      "fur",
      "y</w>"
    ],
    [
      "ga",
      "in</w>"
    ],
    [
      "glouces",
      "ter"
    ],
    [
      "gran",
      "ted</w>"
    ],
    [
      "gre",
      "en</w>"
    ],
    [
      "gre",
      "et"
    ],
    [
      "griev",
      "ous</w>"
    ],
    [
      "gros",
      "s</w>"
    ],
    [
      "grow",
      "s</w>"
    ],
    [
      "ha",
      "bi"
    ],
    [
      "ha",
      "teful</w>"
    ],
    [
      "hal",
      "f"
    ],
    [
      "happ",
      "ily</w>"
    ],
    [
      "har",
      "ry</w>"
    ],
    [
      "hea",
      "vi"
    ],
    [
      "hear",
      "t"
    ],
    [
      "hear",
      "t!</w>"
    ],
    [
      "hear",
      "t;</w>"
    ],
    [
      "hen",
      "ce!</w>"
    ],
    [
      "her",
      "e:</w>"
    ],
    [
      "hi",
      "ther.</w>"
    ],
    [
      "high",
      "ness'</w>"
    ],
    [
      "ho",
      "llow</w>"
    ],
    [
      "ho",
      "pe"
    ],
    [
      "honour",
      "'d</w>"
    ],
    [
      "hop",
      "es</w>"
    ],
    [
      "hor",
      "se!</w>"
    ],
    [
      "hum",
      "our</w>"
    ],
    [
      "hur",
      "t</w>"
    ],
    [
      "i",
      "f,</w>"
    ],
    [
      "ignor",
      "ant</w>"
    ],
    [
      "in",
      "'s</w>"
    ],
    [
      "in",
      "e,</w>"
    ],
    [
      "instru",
      "ct</w>"
    ],
    [
      "je",
      "ct</w>"
    ],
    [
      "jo",
      "ys</w>"
    ],
    [
      "jour",
      "ne"
    ],
    [
      "l",
      "ent</w>"
    ],
    [
      "l",
      "y:</w>"
    ],
    [
      "op",
      "en"
    ],
    [
      "la",
      "t"
    ],
    [
      "lad",
      "y!</w>"
    ],
    [
      "le",
      "i"
    ],
    [
      "lea",
      "ds</w>"
    ],
    [
      "li",
      "e,</w>"
    ],
    [
      "lie",
      "u"
    ],
    [
      "ll",
      "ed</w>"
    ],
    [
      "lord",
      "ship"
    ],
    [
      "lord",
      "ship</w>"
    ],
    [
      "lucenti",
      "o.</w>"
    ],
    [
      "m",
      ";</w>"
    ],
    [
      "ma",
      "de,</w>"
    ],
    [
      "ma",
      "l</w>"
    ],
    [
      "majes",
      "ty,</w>"
    ],
    [
      "mali",
      "ce</w>"
    ],
    [
      "man",
      "if"
    ],
    [
      "margar",
      "et,</w>"
    ],
    [
      "mark",
      "et"
    ],
    [
      "marsha",
      "l:</w>"
    ],
    [
      "ment",
      ":</w>"
    ],
    [
      "ment",
      ";</w>"
    ],
    [
      "min",
      "d.</w>"
    ],
    [
      "miser",
      "able</w>"
    ],
    [
      "mo",
      "des"
    ],
    [
      "mo",
      "tion</w>"
    ],
    [
      "mor",
      "ous</w>"
    ],
    [
      "mou",
      "th</w>"
    ],
    [
      "mu",
      "l"
    ],
    [
      "n",
      "s,</w>"
    ],
    [
      "ne",
      "ck</w>"
    ],
    [
      "neg",
      "le"
    ],
    [
      "neighb",
      "our"
    ],
    [
      "new",
      "s.</w>"
    ],
    [
      "now",
      ";</w>"
    ],
    [
      "occa",
      "sion</w>"
    ],
    [
      "ol",
      "d,</w>"
    ],
    [
      "or",
      "ac"
    ],
    [
      "other",
      "'s</w>"
    ],
    [
      "ou",
      "s;</w>"
    ],
    [
      "our",
      "selves</w>"
    ],
    [
      "p",
      "hi"
    ],
    [
      "p",
      "le</w>"
    ],
    [
      "p",
      "t,</w>"
    ],
    [
      "pa",
      "in"
    ],
    [
      "pa",
      "per</w>"
    ],
    [
      "par",
      "lia"
    ],
    [
      "par",
      "tly</w>"
    ],
    [
      "pas",
      "sion</w>"
    ],
    [
      "pati",
      "ence,</w>"
    ],
    [
      "peop",
      "le's</w>"
    ],
    [
      "per",
      ",</w>"
    ],
    [
      "per",
      "il</w>"
    ],
    [
      "per",
      "ish"
    ],
    [
      "plea",
      "d</w>"
    ],
    [
      "po",
      "st:</w>"
    ],
    [
      "poi",
      "son"
    ],
    [
      "pom",
      "fre"
    ],
    [
      "pra",
      "ise</w>"
    ],
    [
      "prepar",
      "ed</w>"
    ],
    [
      "pres",
      "s'd</w>"
    ],
    [
      "pri",
      "ze</w>"
    ],
    [
      "pro",
      "por"
    ],
    [
      "prof",
      "es"
    ],
    [
      "provo",
      "st,</w>"
    ],
    [
      "qui",
      "ck</w>"
    ],
    [
      "r",
      "on"
    ],
    [
      "re",
      "cor"
    ],
    [
      "re",
      "gar"
    ],
    [
      "re",
      "war"
    ],
    [
      "remembran",
      "ce</w>"
    ],
    [
      "resig",
      "n</w>"
    ],
    [
      "respe",
      "cted</w>"
    ],
    [
      "reven",
      "ged</w>"
    ],
    [
      "ro",
      "sa"
    ],
    [
      "rom",
      "e.</w>"
    ],
    [
      "roo",
      "t</w>"
    ],
    [
      "sa",
      "ke</w>"
    ],
    [
      "sa",
      "y;</w>"
    ],
    [
      "salis",
      "bur"
    ],
    [
      "san",
      "ctu"
    ],
    [
      "say",
      "'st</w>"
    ],
    [
      "se",
      "-"
    ],
    [
      "se",
      "d;</w>"
    ],
    [
      "se",
      "est</w>"
    ],
    [
      "selv",
      "es;</w>"
    ],
    [
      "serv",
      "ed</w>"
    ],
    [
      "si",
      "x"
    ],
    [
      "slaughter",
      "'d</w>"
    ],
    [
      "son",
      "'s</w>"
    ],
    [
      "sor",
      "t</w>"
    ],
    [
      "soul",
      "!</w>"
    ],
    [
      "sp",
      "ent</w>"
    ],
    [
      "sp",
      "er</w>"
    ],
    [
      "spe",
      "cial</w>"
    ],
    [
      "speak",
      ";</w>"
    ],
    [
      "st",
      "rea"
    ],
    [
      "st",
      "s,</w>"
    ],
    [
      "sta",
      "in'd</w>"
    ],
    [
      "sta",
      "mp"
    ],
    [
      "stab",
      "b'd</w>"
    ],
    [
      "su",
      "dden"
    ],
    [
      "sub",
      "stan"
    ],
    [
      "sum",
      "mer"
    ],
    [
      "t",
      "ea"
    ],
    [
      "t",
      "own</w>"
    ],
    [
      "t",
      "ti"
    ],
    [
      "tal",
      "k'd</w>"
    ],
    [
      "tch",
      "'d</w>"
    ],
    [
      "te",
      "lls</w>"
    ],
    [
      "them",
      ":</w>"
    ],
    [
      "they",
      "'ll</w>"
    ],
    [
      "thr",
      "one</w>"
    ],
    [
      "threa",
      "ten"
    ],
    [
      "thri",
      "ce</w>"
    ],
    [
      "thy",
      "self,</w>"
    ],
    [
      "ti",
      "al</w>"
    ],
    [
      "to-morrow",
      ".</w>"
    ],
    [
      "tongu",
      "es</w>"
    ],
    [
      "tr",
      "un"
    ],
    [
      "si",
      "ght"
    ],
    [
      "tri",
      "al</w>"
    ],
    [
      "tru",
      "e;</w>"
    ],
    [
      "tyrre",
      "l:</w>"
    ],
    [
      "up",
      ":</w>"
    ],
    [
      "up",
      "on,</w>"
    ],
    [
      "usur",
      "p"
    ],
    [
      "v",
      "at"
    ],
    [
      "v",
      "e's</w>"
    ],
    [
      "vi",
      "ce</w>"
    ],
    [
      "vi",
      "l</w>"
    ],
    [
      "vi",
      "ll"
    ],
    [
      "vie",
      "w</w>"
    ],
    [
      "viol",
      "ent</w>"
    ],
    [
      "w",
      "ed</w>"
    ],
    [
      "w",
      "ould,</w>"
    ],
    [
      "w",
      "ound</w>"
    ],
    [
      "wa",
      "g"
    ],
    [
      "war",
      "like</w>"
    ],
    [
      "we",
      "eds</w>"
    ],
    [
      "weep",
      ",</w>"
    ],
    [
      "well",
      "!</w>"
    ],
    [
      "wh",
      "en"
    ],
    [
      "wher",
      "e,</w>"
    ],
    [
      "wi",
      "tch"
    ],
    [
      "f",
      "t,</w>"
    ],
    [
      "widow",
      ",</w>"
    ],
    [
      "wife",
      "'s</w>"
    ],
    [
      "will",
      "ingly</w>"
    ],
    [
      "with",
      "draw</w>"
    ],
    [
      "wom",
      "b</w>"
    ],
    [
      "worl",
      "d's</w>"
    ],
    [
      "wr",
      "ought</w>"
    ],
    [
      "y",
      "o"
    ],
    [
      "you",
      "'re</w>"
    ],
    [
      "you",
      "th,</w>"
    ],
    [
      "your",
      "self.</w>"
    ],
    [
      "!",
      "--"
    ],
    [
      "y",
      "e"
    ],
    [
      "'",
      "a"
    ],
    [
      "'",
      "i</w>"
    ],
    [
      "'",
      "s;</w>"
    ],
    [
      "'em",
      ".</w>"
    ],
    [
      "-",
      "in"
    ],
    [
      "a",
      "!</w>"
    ],
    [
      "a",
      "'</w>"
    ],
    [
      "a",
      "men.</w>"
    ],
    [
      "a",
      "si"
    ],
    [
      "ac",
      "cursed</w>"
    ],
    [
      "accor",
      "ding</w>"
    ],
    [
      "ad",
      "van"
    ],
    [
      "ad",
      "vantage</w>"
    ],
    [
      "affec",
      "tion</w>"
    ],
    [
      "al",
      "one</w>"
    ],
    [
      "an",
      "'t</w>"
    ],
    [
      "an",
      "chol"
    ],
    [
      "antoni",
      "o:</w>"
    ],
    [
      "ap",
      "peti"
    ],
    [
      "ar",
      "ch</w>"
    ],
    [
      "arm",
      "our</w>"
    ],
    [
      "assur",
      "ance</w>"
    ],
    [
      "aumer",
      "le,</w>"
    ],
    [
      "b",
      "are</w>"
    ],
    [
      "b",
      "in"
    ],
    [
      "b",
      "ow</w>"
    ],
    [
      "banish",
      "ed"
    ],
    [
      "be",
      "gui"
    ],
    [
      "be",
      "held</w>"
    ],
    [
      "be",
      "like</w>"
    ],
    [
      "be",
      "s</w>"
    ],
    [
      "be",
      "tra"
    ],
    [
      "bear",
      ",</w>"
    ],
    [
      "ber",
      "ke"
    ],
    [
      "berke",
      "le"
    ],
    [
      "besi",
      "des</w>"
    ],
    [
      "ble",
      ":</w>"
    ],
    [
      "ble",
      "mi"
    ],
    [
      "bo",
      "y;</w>"
    ],
    [
      "bodi",
      "es</w>"
    ],
    [
      "bri",
      "de</w>"
    ],
    [
      "bride",
      "gro"
    ],
    [
      "broo",
      "k</w>"
    ],
    [
      "brother",
      ";</w>"
    ],
    [
      "c",
      "ity,</w>"
    ],
    [
      "c",
      "ts,</w>"
    ],
    [
      "ca",
      "es"
    ],
    [
      "ca",
      "la"
    ],
    [
      "i",
      "s,</w>"
    ],
    [
      "i",
      "s.</w>"
    ],
    [
      "ca",
      "te</w>"
    ],
    [
      "cali",
      "ban"
    ],
    [
      "cates",
      "by,</w>"
    ],
    [
      "cau",
      "ght</w>"
    ],
    [
      "cer",
      "e"
    ],
    [
      "cere",
      "mon"
    ],
    [
      "ci",
      "vil</w>"
    ],
    [
      "ck",
      "ness</w>"
    ],
    [
      "clou",
      "ds,</w>"
    ],
    [
      "com",
      "e?</w>"
    ],
    [
      "commi",
      "tted</w>"
    ],
    [
      "comple",
      "xi"
    ],
    [
      "con",
      "cea"
    ],
    [
      "con",
      "cer"
    ],
    [
      "con",
      "ci"
    ],
    [
      "con",
      "fi"
    ],
    [
      "condem",
      "n'd</w>"
    ],
    [
      "condi",
      "tion</w>"
    ],
    [
      "condu",
      "ct</w>"
    ],
    [
      "cor",
      "n"
    ],
    [
      "cou",
      "rage</w>"
    ],
    [
      "coun",
      "ci"
    ],
    [
      "credi",
      "t</w>"
    ],
    [
      "cri",
      "es</w>"
    ],
    [
      "crown",
      "?</w>"
    ],
    [
      "d",
      "--"
    ],
    [
      "y",
      "on"
    ],
    [
      "yon",
      "der</w>"
    ],
    [
      "z",
      "z"
    ],
    [
      "d",
      "--</w>"
    ],
    [
      "d",
      "well"
    ],
    [
      "d",
      "well</w>"
    ],
    [
      "da",
      "ily</w>"
    ],
    [
      "da",
      "y's</w>"
    ],
    [
      "dar",
      "k"
    ],
    [
      "day",
      "s,</w>"
    ],
    [
      "de",
      "l</w>"
    ],
    [
      "de",
      "part</w>"
    ],
    [
      "deliver",
      "'d</w>"
    ],
    [
      "den",
      "ied</w>"
    ],
    [
      "der",
      "s,</w>"
    ],
    [
      "dest",
      "roy"
    ],
    [
      "di",
      "e?</w>"
    ],
    [
      "di",
      "sh</w>"
    ],
    [
      "di",
      "stres"
    ],
    [
      "dig",
      "n"
    ],
    [
      "dis",
      "cover"
    ],
    [
      "disp",
      "lea"
    ],
    [
      "dispat",
      "ch</w>"
    ],
    [
      "do",
      "'t</w>"
    ],
    [
      "do",
      "om</w>"
    ],
    [
      "drow",
      "n</w>"
    ],
    [
      "du",
      "ty,</w>"
    ],
    [
      "duke",
      "'s</w>"
    ],
    [
      "e",
      "--</w>"
    ],
    [
      "en",
      "mi"
    ],
    [
      "enemi",
      "es,</w>"
    ],
    [
      "enemi",
      "es.</w>"
    ],
    [
      "er",
      "ci"
    ],
    [
      "ess",
      "er</w>"
    ],
    [
      "esti",
      "ma"
    ],
    [
      "et",
      "!</w>"
    ],
    [
      "ever",
      ".</w>"
    ],
    [
      "ex",
      "erci"
    ],
    [
      "ey",
      "es.</w>"
    ],
    [
      "f",
      "el"
    ],
    [
      "f",
      "lies</w>"
    ],
    [
      "f",
      "lo"
    ],
    [
      "fai",
      "thful</w>"
    ],
    [
      "fam",
      "ous</w>"
    ],
    [
      "fellow",
      "s</w>"
    ],
    [
      "fi",
      "ght,</w>"
    ],
    [
      "fiel",
      "d,</w>"
    ],
    [
      "flou",
      "ri"
    ],
    [
      "follow",
      "ers</w>"
    ],
    [
      "for",
      "give</w>"
    ],
    [
      "for",
      "swor"
    ],
    [
      "for",
      "th.</w>"
    ],
    [
      "fren",
      "ch</w>"
    ],
    [
      "fro",
      "th:</w>"
    ],
    [
      "g",
      "n"
    ],
    [
      "gent",
      "ly</w>"
    ],
    [
      "glouces",
      "ter's</w>"
    ],
    [
      "go",
      "ds,</w>"
    ],
    [
      "gon",
      "e?</w>"
    ],
    [
      "goo",
      "dness</w>"
    ],
    [
      "gra",
      "ce!</w>"
    ],
    [
      "gra",
      "ced</w>"
    ],
    [
      "gra",
      "ve,</w>"
    ],
    [
      "gra",
      "ve.</w>"
    ],
    [
      "grea",
      "test</w>"
    ],
    [
      "gu",
      "ess</w>"
    ],
    [
      "h",
      "y"
    ],
    [
      "ha",
      "p</w>"
    ],
    [
      "ha",
      "vi"
    ],
    [
      "hav",
      "e:</w>"
    ],
    [
      "he",
      "ll.</w>"
    ],
    [
      "her",
      "e!</w>"
    ],
    [
      "hi",
      "c</w>"
    ],
    [
      "hi",
      "s,</w>"
    ],
    [
      "hom",
      "e:</w>"
    ],
    [
      "hoo",
      "d,</w>"
    ],
    [
      "hor",
      "se.</w>"
    ],
    [
      "husban",
      "d's</w>"
    ],
    [
      "il",
      "gri"
    ],
    [
      "g",
      "e;</w>"
    ],
    [
      "il",
      "y,</w>"
    ],
    [
      "in",
      "her"
    ],
    [
      "inde",
      "ed.</w>"
    ],
    [
      "instru",
      "ments</w>"
    ],
    [
      "ir",
      "s</w>"
    ],
    [
      "it",
      "y:</w>"
    ],
    [
      "jea",
      "lou"
    ],
    [
      "jo",
      "i"
    ],
    [
      "k",
      "-"
    ],
    [
      "ke",
      "d,</w>"
    ],
    [
      "king",
      "s,</w>"
    ],
    [
      "kna",
      "ve</w>"
    ],
    [
      "l",
      "esser</w>"
    ],
    [
      "l",
      "un"
    ],
    [
      "la",
      "ment</w>"
    ],
    [
      "lamen",
      "ta"
    ],
    [
      "lar",
      "ge</w>"
    ],
    [
      "lau",
      "gh</w>"
    ],
    [
      "li",
      "ght.</w>"
    ],
    [
      "li",
      "mb"
    ],
    [
      "li",
      "mi"
    ],
    [
      "lieu",
      "ten"
    ],
    [
      "lip",
      "s,</w>"
    ],
    [
      "lo",
      "ss,</w>"
    ],
    [
      "london",
      ",</w>"
    ],
    [
      "lor",
      "d's</w>"
    ],
    [
      "lov",
      "e?</w>"
    ],
    [
      "lov",
      "ely</w>"
    ],
    [
      "loy",
      "al</w>"
    ],
    [
      "lu",
      "ck"
    ],
    [
      "ma",
      "ke,</w>"
    ],
    [
      "madam",
      ".</w>"
    ],
    [
      "mai",
      "ds</w>"
    ],
    [
      "majes",
      "ty.</w>"
    ],
    [
      "market",
      "-"
    ],
    [
      "may",
      "or</w>"
    ],
    [
      "me",
      "ant</w>"
    ],
    [
      "me",
      "d,</w>"
    ],
    [
      "me",
      "thinks,</w>"
    ],
    [
      "mel",
      "anchol"
    ],
    [
      "men",
      "!</w>"
    ],
    [
      "mer",
      "ci"
    ],
    [
      "mi",
      "les</w>"
    ],
    [
      "min",
      "d;</w>"
    ],
    [
      "mon",
      "ey</w>"
    ],
    [
      "mother",
      ";</w>"
    ],
    [
      "mu",
      "ster</w>"
    ],
    [
      "my",
      "self:</w>"
    ],
    [
      "my",
      "self?</w>"
    ],
    [
      "my",
      "ster"
    ],
    [
      "n",
      "ought</w>"
    ],
    [
      "n",
      "um"
    ],
    [
      "na",
      "tive</w>"
    ],
    [
      "need",
      "ful</w>"
    ],
    [
      "new",
      "ly</w>"
    ],
    [
      "night",
      "!</w>"
    ],
    [
      "night",
      "ly</w>"
    ],
    [
      "norfol",
      "k</w>"
    ],
    [
      "now",
      ":</w>"
    ],
    [
      "nur",
      "se</w>"
    ],
    [
      "o",
      "ther.</w>"
    ],
    [
      "oa",
      "th,</w>"
    ],
    [
      "of",
      ";</w>"
    ],
    [
      "oppo",
      "si"
    ],
    [
      "or",
      "at"
    ],
    [
      "or",
      "der,</w>"
    ],
    [
      "p",
      "-"
    ],
    [
      "p",
      "ilgri"
    ],
    [
      "p",
      "up"
    ],
    [
      "li",
      "ke,</w>"
    ],
    [
      "p",
      "ure</w>"
    ],
    [
      "par",
      "ts</w>"
    ],
    [
      "pas",
      "sage</w>"
    ],
    [
      "pati",
      "ent,</w>"
    ],
    [
      "per",
      "form</w>"
    ],
    [
      "perha",
      "ps</w>"
    ],
    [
      "pi",
      "sa"
    ],
    [
      "pit",
      "y,</w>"
    ],
    [
      "plain",
      "ly</w>"
    ],
    [
      "plan",
      "t</w>"
    ],
    [
      "plea",
      "sed</w>"
    ],
    [
      "plea",
      "sing</w>"
    ],
    [
      "plu",
      "ck'd</w>"
    ],
    [
      "po",
      "si"
    ],
    [
      "pre",
      "tti"
    ],
    [
      "pre",
      "v"
    ],
    [
      "pri",
      "de</w>"
    ],
    [
      "pri",
      "est</w>"
    ],
    [
      "pri",
      "son</w>"
    ],
    [
      "pri",
      "thee</w>"
    ],
    [
      "prin",
      "ces"
    ],
    [
      "pro",
      "tes"
    ],
    [
      "prop",
      "he"
    ],
    [
      "purcha",
      "se</w>"
    ],
    [
      "r",
      "oun"
    ],
    [
      "r",
      "ush"
    ],
    [
      "ra",
      "ised</w>"
    ],
    [
      "ra",
      "te</w>"
    ],
    [
      "re",
      "'s</w>"
    ],
    [
      "re",
      "ck"
    ],
    [
      "re",
      "conci"
    ],
    [
      "re",
      "gal</w>"
    ],
    [
      "re",
      "joi"
    ],
    [
      "re",
      "mor"
    ],
    [
      "re",
      "pu"
    ],
    [
      "rebell",
      "i"
    ],
    [
      "resolu",
      "tion</w>"
    ],
    [
      "respe",
      "ct</w>"
    ],
    [
      "rome",
      "o?</w>"
    ],
    [
      "rosa",
      "lin"
    ],
    [
      "s",
      "'d,</w>"
    ],
    [
      "s",
      "cal"
    ],
    [
      "s",
      "ing.</w>"
    ],
    [
      "s",
      "me"
    ],
    [
      "sa",
      "d"
    ],
    [
      "sa",
      "v"
    ],
    [
      "sain",
      "t,</w>"
    ],
    [
      "say",
      "s,</w>"
    ],
    [
      "scor",
      "e</w>"
    ],
    [
      "se",
      "tt"
    ],
    [
      "seem",
      "ing</w>"
    ],
    [
      "self",
      "!</w>"
    ],
    [
      "servi",
      "ce,</w>"
    ],
    [
      "servi",
      "ces</w>"
    ],
    [
      "ses",
      "!</w>"
    ],
    [
      "sheep",
      "-"
    ],
    [
      "shu",
      "t</w>"
    ],
    [
      "si",
      "ckness</w>"
    ],
    [
      "sir",
      "e</w>"
    ],
    [
      "sir",
      "s,</w>"
    ],
    [
      "sla",
      "y</w>"
    ],
    [
      "soldi",
      "er,</w>"
    ],
    [
      "soldi",
      "ers,</w>"
    ],
    [
      "sor",
      "ry</w>"
    ],
    [
      "sorrow",
      ",</w>"
    ],
    [
      "soul",
      "'s</w>"
    ],
    [
      "soul",
      ".</w>"
    ],
    [
      "sp",
      "it</w>"
    ],
    [
      "st",
      "eel</w>"
    ],
    [
      "st",
      "en"
    ],
    [
      "star",
      "s</w>"
    ],
    [
      "stat",
      "u"
    ],
    [
      "su",
      "e</w>"
    ],
    [
      "sub",
      "stit"
    ],
    [
      "subje",
      "ct"
    ],
    [
      "suc",
      "c"
    ],
    [
      "swear",
      ",</w>"
    ],
    [
      "swor",
      "ds</w>"
    ],
    [
      "t",
      "ed.</w>"
    ],
    [
      "t",
      "land</w>"
    ],
    [
      "t",
      "ly,</w>"
    ],
    [
      "t",
      "o:</w>"
    ],
    [
      "t",
      "wa"
    ],
    [
      "t",
      "z"
    ],
    [
      "fi",
      "tz"
    ],
    [
      "fitz",
      "wat"
    ],
    [
      "ta",
      "in,</w>"
    ],
    [
      "ta",
      "s"
    ],
    [
      "te",
      "e"
    ],
    [
      "te",
      "th</w>"
    ],
    [
      "tedi",
      "ous</w>"
    ],
    [
      "th",
      "under"
    ],
    [
      "th",
      "us.</w>"
    ],
    [
      "thank",
      "s.</w>"
    ],
    [
      "that",
      ";</w>"
    ],
    [
      "ther",
      "e;</w>"
    ],
    [
      "thi",
      "s;</w>"
    ],
    [
      "thi",
      "ther.</w>"
    ],
    [
      "thin",
      "king</w>"
    ],
    [
      "thr",
      "one,</w>"
    ],
    [
      "thr",
      "ough"
    ],
    [
      "thurs",
      "day</w>"
    ],
    [
      "ti",
      "c</w>"
    ],
    [
      "ti",
      "g"
    ],
    [
      "ti",
      "me:</w>"
    ],
    [
      "ti",
      "me;</w>"
    ],
    [
      "to-",
      "day,</w>"
    ],
    [
      "to-",
      "day</w>"
    ],
    [
      "to-",
      "night</w>"
    ],
    [
      "too",
      "?</w>"
    ],
    [
      "tri",
      "ck</w>"
    ],
    [
      "trium",
      "ph"
    ],
    [
      "triump",
      "h</w>"
    ],
    [
      "tru",
      "e:</w>"
    ],
    [
      "tru",
      "ly</w>"
    ],
    [
      "tybal",
      "t's</w>"
    ],
    [
      "us",
      "'</w>"
    ],
    [
      "usur",
      "p</w>"
    ],
    [
      "vau",
      "gh"
    ],
    [
      "ve",
      "ll"
    ],
    [
      "ven",
      ",</w>"
    ],
    [
      "vi",
      "en"
    ],
    [
      "vo",
      "id</w>"
    ],
    [
      "vols",
      "ce:</w>"
    ],
    [
      "wa",
      "ll"
    ],
    [
      "war",
      ".</w>"
    ],
    [
      "we",
      "dd"
    ],
    [
      "weep",
      ".</w>"
    ],
    [
      "wh",
      "it"
    ],
    [
      "whi",
      "p</w>"
    ],
    [
      "wholesom",
      "e</w>"
    ],
    [
      "wi",
      "dow</w>"
    ],
    [
      "wi",
      "sh'd</w>"
    ],
    [
      "widow",
      ":</w>"
    ],
    [
      "will",
      "'t</w>"
    ],
    [
      "will",
      ";</w>"
    ],
    [
      "will",
      "?</w>"
    ],
    [
      "wither",
      "'d</w>"
    ],
    [
      "wo",
      "t</w>"
    ],
    [
      "won",
      "dr"
    ],
    [
      "wor",
      "ds:</w>"
    ],
    [
      "wor",
      "n</w>"
    ],
    [
      "wor",
      "thi"
    ],
    [
      "wr",
      "ink"
    ],
    [
      "wri",
      "t</w>"
    ],
    [
      "wrong",
      "s</w>"
    ],
    [
      "y",
      "s,</w>"
    ],
    [
      "'",
      "pardon"
    ],
    [
      "'",
      "sca"
    ],
    [
      "'a",
      "y"
    ],
    [
      "-in",
      "-"
    ],
    [
      "a",
      "tion.</w>"
    ],
    [
      "ab",
      "out,</w>"
    ],
    [
      "acqua",
      "int</w>"
    ],
    [
      "advers",
      "ari"
    ],
    [
      "affair",
      "s</w>"
    ],
    [
      "affor",
      "d</w>"
    ],
    [
      "al",
      "s</w>"
    ],
    [
      "all",
      "i"
    ],
    [
      "an",
      "ch"
    ],
    [
      "ano",
      "inted</w>"
    ],
    [
      "ap",
      "t</w>"
    ],
    [
      "appar",
      "el</w>"
    ],
    [
      "appar",
      "ent</w>"
    ],
    [
      "ar",
      "chi"
    ],
    [
      "ar",
      "t.</w>"
    ],
    [
      "arm",
      "'d</w>"
    ],
    [
      "arri",
      "ved</w>"
    ],
    [
      "as",
      "sure</w>"
    ],
    [
      "as",
      "sured</w>"
    ],
    [
      "asle",
      "ep"
    ],
    [
      "assi",
      "st</w>"
    ],
    [
      "awhi",
      "le,</w>"
    ],
    [
      "b",
      "y"
    ],
    [
      "b",
      "y.</w>"
    ],
    [
      "ba",
      "lla"
    ],
    [
      "baptista",
      ",</w>"
    ],
    [
      "be",
      "fore,</w>"
    ],
    [
      "be",
      "hold,</w>"
    ],
    [
      "be",
      "loved</w>"
    ],
    [
      "bes",
      "t.</w>"
    ],
    [
      "better",
      ".</w>"
    ],
    [
      "bi",
      "gg"
    ],
    [
      "bl",
      "ush</w>"
    ],
    [
      "bo",
      "ar</w>"
    ],
    [
      "bor",
      "e</w>"
    ],
    [
      "bosom",
      ",</w>"
    ],
    [
      "brea",
      "st</w>"
    ],
    [
      "brea",
      "thed</w>"
    ],
    [
      "bri",
      "tt"
    ],
    [
      "brother",
      ":</w>"
    ],
    [
      "brother",
      "s</w>"
    ],
    [
      "brow",
      "s</w>"
    ],
    [
      "bur",
      "then</w>"
    ],
    [
      "c",
      "ro"
    ],
    [
      "c",
      "us"
    ],
    [
      "c",
      "y"
    ],
    [
      "ca",
      "pa"
    ],
    [
      "ca",
      "pti"
    ],
    [
      "ca",
      "tch"
    ],
    [
      "ce",
      "ful</w>"
    ],
    [
      "ce",
      "ment</w>"
    ],
    [
      "cea",
      "se</w>"
    ],
    [
      "cei",
      "ves</w>"
    ],
    [
      "cha",
      "ll"
    ],
    [
      "chi",
      "ef</w>"
    ],
    [
      "chur",
      "ch</w>"
    ],
    [
      "ck",
      ":</w>"
    ],
    [
      "ck",
      "s,</w>"
    ],
    [
      "cleomen",
      "es:</w>"
    ],
    [
      "co",
      "z"
    ],
    [
      "com",
      "men"
    ],
    [
      "comman",
      "d"
    ],
    [
      "comman",
      "d.</w>"
    ],
    [
      "compan",
      "y,</w>"
    ],
    [
      "con",
      "j"
    ],
    [
      "consi",
      "der</w>"
    ],
    [
      "conspirator",
      ":</w>"
    ],
    [
      "consu",
      "l,</w>"
    ],
    [
      "contin",
      "u"
    ],
    [
      "contra",
      "ct</w>"
    ],
    [
      "cor",
      "on"
    ],
    [
      "counten",
      "ance</w>"
    ],
    [
      "counter",
      "feit</w>"
    ],
    [
      "cra",
      "ves</w>"
    ],
    [
      "crea",
      "tu"
    ],
    [
      "cur",
      "st</w>"
    ],
    [
      "d",
      "ance</w>"
    ],
    [
      "da",
      "m,</w>"
    ],
    [
      "da",
      "y:</w>"
    ],
    [
      "dar",
      "est</w>"
    ],
    [
      "de",
      ":</w>"
    ],
    [
      "de",
      "ed"
    ],
    [
      "de",
      "eds,</w>"
    ],
    [
      "de",
      "pen"
    ],
    [
      "depu",
      "ty</w>"
    ],
    [
      "des",
      "pi"
    ],
    [
      "devi",
      "se</w>"
    ],
    [
      "di",
      "e:</w>"
    ],
    [
      "dis",
      "mal</w>"
    ],
    [
      "dis",
      "sol"
    ],
    [
      "down",
      ":</w>"
    ],
    [
      "drea",
      "ms</w>"
    ],
    [
      "du",
      "l"
    ],
    [
      "ea",
      "si"
    ],
    [
      "ear",
      "nes"
    ],
    [
      "t",
      "ness</w>"
    ],
    [
      "eig",
      "n</w>"
    ],
    [
      "el",
      ".</w>"
    ],
    [
      "el",
      "se?</w>"
    ],
    [
      "el",
      "y:</w>"
    ],
    [
      "en",
      "ess</w>"
    ],
    [
      "en",
      "joy</w>"
    ],
    [
      "en",
      "v"
    ],
    [
      "ent",
      ";</w>"
    ],
    [
      "enter",
      "'d</w>"
    ],
    [
      "ex",
      "trem"
    ],
    [
      "excell",
      "ent</w>"
    ],
    [
      "exe",
      "ter,</w>"
    ],
    [
      "fa",
      "ce;</w>"
    ],
    [
      "fa",
      "ce?</w>"
    ],
    [
      "fai",
      "rest</w>"
    ],
    [
      "fare",
      "well;</w>"
    ],
    [
      "fe",
      "ed</w>"
    ],
    [
      "fe",
      "ig"
    ],
    [
      "fea",
      "st,</w>"
    ],
    [
      "fel",
      "t</w>"
    ],
    [
      "fi",
      "g"
    ],
    [
      "fing",
      "er</w>"
    ],
    [
      "fir",
      "m"
    ],
    [
      "fl",
      "y,</w>"
    ],
    [
      "fles",
      "h"
    ],
    [
      "flow",
      "er</w>"
    ],
    [
      "fo",
      "e,</w>"
    ],
    [
      "follow",
      "'d</w>"
    ],
    [
      "foo",
      "t,</w>"
    ],
    [
      "for",
      "ce.</w>"
    ],
    [
      "for",
      "e:</w>"
    ],
    [
      "for",
      "eign</w>"
    ],
    [
      "for",
      "soo"
    ],
    [
      "for",
      "swear</w>"
    ],
    [
      "frien",
      "d.</w>"
    ],
    [
      "frien",
      "dly</w>"
    ],
    [
      "frien",
      "ds:</w>"
    ],
    [
      "fru",
      "it"
    ],
    [
      "g",
      "ing</w>"
    ],
    [
      "gg",
      "ing</w>"
    ],
    [
      "gh",
      "ter:</w>"
    ],
    [
      "ght",
      "y</w>"
    ],
    [
      "giv",
      "e;</w>"
    ],
    [
      "gla",
      "ss,</w>"
    ],
    [
      "glouces",
      "ter</w>"
    ],
    [
      "go",
      "d-"
    ],
    [
      "gon",
      "e:</w>"
    ],
    [
      "gon",
      "e;</w>"
    ],
    [
      "gover",
      "n'd</w>"
    ],
    [
      "gri",
      "eve</w>"
    ],
    [
      "grumi",
      "o,</w>"
    ],
    [
      "h",
      "en</w>"
    ],
    [
      "ha",
      "te"
    ],
    [
      "hang",
      "s</w>"
    ],
    [
      "happin",
      "ess</w>"
    ],
    [
      "hast",
      "e.</w>"
    ],
    [
      "hast",
      "y</w>"
    ],
    [
      "hav",
      "e;</w>"
    ],
    [
      "he",
      ";</w>"
    ],
    [
      "he",
      "el"
    ],
    [
      "hear",
      "t:</w>"
    ],
    [
      "hear",
      "ti"
    ],
    [
      "heaven",
      "ly</w>"
    ],
    [
      "herefor",
      "d</w>"
    ],
    [
      "hol",
      "p</w>"
    ],
    [
      "honour",
      "!</w>"
    ],
    [
      "honour",
      "'s</w>"
    ],
    [
      "house",
      "hold</w>"
    ],
    [
      "how",
      ",</w>"
    ],
    [
      "hum",
[...]
